{
  "version": "1.0",
  "truncation": null,
  "padding": null,
  "added_tokens": [
    {
      "id": 0,
      "content": "[UNK]",
      "single_word": false,
      "lstrip": false,
      "rstrip": false,
      "normalized": false,
      "special": true
    },
    {
      "id": 1,
      "content": "[CLS]",
      "single_word": false,
      "lstrip": false,
      "rstrip": false,
      "normalized": false,
      "special": true
    },
    {
      "id": 2,
      "content": "[SEP]",
      "single_word": false,
      "lstrip": false,
      "rstrip": false,
      "normalized": false,
      "special": true
    },
    {
      "id": 3,
      "content": "[PAD]",
      "single_word": false,
      "lstrip": false,
      "rstrip": false,
      "normalized": false,
      "special": true
    },
    {
      "id": 4,
      "content": "[MASK]",
      "single_word": false,
      "lstrip": false,
      "rstrip": false,
      "normalized": false,
      "special": true
    }
  ],
  "normalizer": {
    "type": "Sequence",
    "normalizers": [
      {
        "type": "NFD"
      },
      {
        "type": "Lowercase"
      },
      {
        "type": "StripAccents"
      }
    ]
  },
  "pre_tokenizer": {
    "type": "Whitespace"
  },
  "post_processor": null,
  "decoder": null,
  "model": {
    "type": "WordPiece",
    "unk_token": "[UNK]",
    "continuing_subword_prefix": "##",
    "max_input_chars_per_word": 100,
    "vocab": {
      "[UNK]": 0,
      "[CLS]": 1,
      "[SEP]": 2,
      "[PAD]": 3,
      "[MASK]": 4,
      "!": 5,
      "\"": 6,
      "#": 7,
      "$": 8,
      "%": 9,
      "&": 10,
      "'": 11,
      "(": 12,
      ")": 13,
      "*": 14,
      "+": 15,
      ",": 16,
      "-": 17,
      ".": 18,
      "/": 19,
      "0": 20,
      "1": 21,
      "2": 22,
      "3": 23,
      "4": 24,
      "5": 25,
      "6": 26,
      "7": 27,
      "8": 28,
      "9": 29,
      ":": 30,
      ";": 31,
      "<": 32,
      "=": 33,
      ">": 34,
      "?": 35,
      "@": 36,
      "[": 37,
      "\\": 38,
      "]": 39,
      "^": 40,
      "_": 41,
      "`": 42,
      "a": 43,
      "b": 44,
      "c": 45,
      "d": 46,
      "e": 47,
      "f": 48,
      "g": 49,
      "h": 50,
      "i": 51,
      "j": 52,
      "k": 53,
      "l": 54,
      "m": 55,
      "n": 56,
      "o": 57,
      "p": 58,
      "q": 59,
      "r": 60,
      "s": 61,
      "t": 62,
      "u": 63,
      "v": 64,
      "w": 65,
      "x": 66,
      "y": 67,
      "z": 68,
      "{": 69,
      "|": 70,
      "}": 71,
      "~": 72,
      "": 73,
      "": 74,
      "": 75,
      "": 76,
      "": 77,
      "": 78,
      "¡": 79,
      "¢": 80,
      "£": 81,
      "¤": 82,
      "¥": 83,
      "§": 84,
      "©": 85,
      "«": 86,
      "­": 87,
      "®": 88,
      "¯": 89,
      "°": 90,
      "±": 91,
      "²": 92,
      "³": 93,
      "´": 94,
      "µ": 95,
      "¶": 96,
      "·": 97,
      "¹": 98,
      "º": 99,
      "»": 100,
      "¼": 101,
      "½": 102,
      "¾": 103,
      "¿": 104,
      "×": 105,
      "ß": 106,
      "æ": 107,
      "ð": 108,
      "÷": 109,
      "ø": 110,
      "þ": 111,
      "đ": 112,
      "ħ": 113,
      "ı": 114,
      "ĸ": 115,
      "ł": 116,
      "ŋ": 117,
      "œ": 118,
      "ŧ": 119,
      "ſ": 120,
      "ƀ": 121,
      "ƈ": 122,
      "ƍ": 123,
      "ƒ": 124,
      "ƙ": 125,
      "ƛ": 126,
      "ƣ": 127,
      "ƥ": 128,
      "ƭ": 129,
      "ƿ": 130,
      "ǀ": 131,
      "ǁ": 132,
      "ǂ": 133,
      "ǃ": 134,
      "ǝ": 135,
      "ȝ": 136,
      "ȷ": 137,
      "ȼ": 138,
      "ɉ": 139,
      "ɐ": 140,
      "ɑ": 141,
      "ɒ": 142,
      "ɓ": 143,
      "ɔ": 144,
      "ɕ": 145,
      "ɖ": 146,
      "ɗ": 147,
      "ɘ": 148,
      "ə": 149,
      "ɚ": 150,
      "ɛ": 151,
      "ɜ": 152,
      "ɞ": 153,
      "ɟ": 154,
      "ɠ": 155,
      "ɡ": 156,
      "ɢ": 157,
      "ɣ": 158,
      "ɤ": 159,
      "ɥ": 160,
      "ɦ": 161,
      "ɧ": 162,
      "ɨ": 163,
      "ɪ": 164,
      "ɫ": 165,
      "ɬ": 166,
      "ɭ": 167,
      "ɮ": 168,
      "ɯ": 169,
      "ɰ": 170,
      "ɱ": 171,
      "ɲ": 172,
      "ɳ": 173,
      "ɴ": 174,
      "ɵ": 175,
      "ɶ": 176,
      "ɷ": 177,
      "ɸ": 178,
      "ɹ": 179,
      "ɺ": 180,
      "ɻ": 181,
      "ɽ": 182,
      "ɾ": 183,
      "ʀ": 184,
      "ʁ": 185,
      "ʂ": 186,
      "ʃ": 187,
      "ʄ": 188,
      "ʇ": 189,
      "ʈ": 190,
      "ʉ": 191,
      "ʊ": 192,
      "ʋ": 193,
      "ʌ": 194,
      "ʍ": 195,
      "ʎ": 196,
      "ʏ": 197,
      "ʐ": 198,
      "ʑ": 199,
      "ʒ": 200,
      "ʔ": 201,
      "ʕ": 202,
      "ʖ": 203,
      "ʗ": 204,
      "ʘ": 205,
      "ʙ": 206,
      "ʛ": 207,
      "ʝ": 208,
      "ʞ": 209,
      "ʟ": 210,
      "ʠ": 211,
      "ʡ": 212,
      "ʢ": 213,
      "ʰ": 214,
      "ʱ": 215,
      "ʲ": 216,
      "ʳ": 217,
      "ʷ": 218,
      "ʹ": 219,
      "ʻ": 220,
      "ʼ": 221,
      "ʽ": 222,
      "ʾ": 223,
      "ʿ": 224,
      "ˀ": 225,
      "ˁ": 226,
      "ˆ": 227,
      "ˇ": 228,
      "ˈ": 229,
      "ˌ": 230,
      "ː": 231,
      "ˑ": 232,
      "˔": 233,
      "˕": 234,
      "˖": 235,
      "˘": 236,
      "˚": 237,
      "˜": 238,
      "˞": 239,
      "ˠ": 240,
      "ˢ": 241,
      "ˣ": 242,
      "ˤ": 243,
      "˥": 244,
      "˦": 245,
      "˧": 246,
      "˨": 247,
      "˩": 248,
      "΄": 249,
      "α": 250,
      "β": 251,
      "γ": 252,
      "δ": 253,
      "ε": 254,
      "ζ": 255,
      "η": 256,
      "θ": 257,
      "ι": 258,
      "κ": 259,
      "λ": 260,
      "μ": 261,
      "ν": 262,
      "ξ": 263,
      "ο": 264,
      "π": 265,
      "ρ": 266,
      "ς": 267,
      "σ": 268,
      "τ": 269,
      "υ": 270,
      "φ": 271,
      "χ": 272,
      "ψ": 273,
      "ω": 274,
      "ϑ": 275,
      "ϕ": 276,
      "ϝ": 277,
      "ϟ": 278,
      "ϵ": 279,
      "а": 280,
      "б": 281,
      "в": 282,
      "г": 283,
      "д": 284,
      "е": 285,
      "ж": 286,
      "з": 287,
      "и": 288,
      "к": 289,
      "л": 290,
      "м": 291,
      "н": 292,
      "о": 293,
      "п": 294,
      "р": 295,
      "с": 296,
      "т": 297,
      "у": 298,
      "ф": 299,
      "х": 300,
      "ц": 301,
      "ч": 302,
      "ш": 303,
      "щ": 304,
      "ъ": 305,
      "ы": 306,
      "ь": 307,
      "э": 308,
      "ю": 309,
      "я": 310,
      "ђ": 311,
      "є": 312,
      "і": 313,
      "ј": 314,
      "љ": 315,
      "њ": 316,
      "ћ": 317,
      "ѡ": 318,
      "ѣ": 319,
      "ѥ": 320,
      "ѧ": 321,
      "ѯ": 322,
      "ѹ": 323,
      "ғ": 324,
      "қ": 325,
      "ү": 326,
      "ҳ": 327,
      "ҷ": 328,
      "ө": 329,
      "ӷ": 330,
      "ա": 331,
      "բ": 332,
      "գ": 333,
      "դ": 334,
      "ե": 335,
      "զ": 336,
      "է": 337,
      "ը": 338,
      "թ": 339,
      "ժ": 340,
      "ի": 341,
      "լ": 342,
      "խ": 343,
      "ծ": 344,
      "կ": 345,
      "հ": 346,
      "ձ": 347,
      "ղ": 348,
      "ճ": 349,
      "մ": 350,
      "յ": 351,
      "ն": 352,
      "շ": 353,
      "ո": 354,
      "չ": 355,
      "պ": 356,
      "ջ": 357,
      "ռ": 358,
      "ս": 359,
      "վ": 360,
      "տ": 361,
      "ր": 362,
      "ց": 363,
      "ւ": 364,
      "փ": 365,
      "ք": 366,
      "օ": 367,
      "և": 368,
      "א": 369,
      "ב": 370,
      "ג": 371,
      "ד": 372,
      "ה": 373,
      "ו": 374,
      "ז": 375,
      "ח": 376,
      "ט": 377,
      "י": 378,
      "ך": 379,
      "כ": 380,
      "ל": 381,
      "ם": 382,
      "מ": 383,
      "ן": 384,
      "נ": 385,
      "ס": 386,
      "ע": 387,
      "ף": 388,
      "פ": 389,
      "ץ": 390,
      "צ": 391,
      "ק": 392,
      "ר": 393,
      "ש": 394,
      "ת": 395,
      "ױ": 396,
      "׳": 397,
      "،": 398,
      "ء": 399,
      "ا": 400,
      "ب": 401,
      "ة": 402,
      "ت": 403,
      "ث": 404,
      "ج": 405,
      "ح": 406,
      "خ": 407,
      "د": 408,
      "ذ": 409,
      "ر": 410,
      "ز": 411,
      "س": 412,
      "ش": 413,
      "ص": 414,
      "ض": 415,
      "ط": 416,
      "ظ": 417,
      "ع": 418,
      "غ": 419,
      "ـ": 420,
      "ف": 421,
      "ق": 422,
      "ك": 423,
      "ل": 424,
      "م": 425,
      "ن": 426,
      "ه": 427,
      "و": 428,
      "ى": 429,
      "ي": 430,
      "١": 431,
      "٧": 432,
      "پ": 433,
      "چ": 434,
      "ڈ": 435,
      "ڠ": 436,
      "ک": 437,
      "ڬ": 438,
      "گ": 439,
      "ں": 440,
      "ھ": 441,
      "ہ": 442,
      "ی": 443,
      "ۍ": 444,
      "ے": 445,
      "ە": 446,
      "ܐ": 447,
      "ܒ": 448,
      "ܔ": 449,
      "ܕ": 450,
      "ܗ": 451,
      "ܘ": 452,
      "ܙ": 453,
      "ܚ": 454,
      "ܛ": 455,
      "ܝ": 456,
      "ܠ": 457,
      "ܡ": 458,
      "ܢ": 459,
      "ܣ": 460,
      "ܥ": 461,
      "ܦ": 462,
      "ܪ": 463,
      "ܬ": 464,
      "अ": 465,
      "आ": 466,
      "इ": 467,
      "ई": 468,
      "उ": 469,
      "ऋ": 470,
      "ए": 471,
      "ऐ": 472,
      "औ": 473,
      "क": 474,
      "ख": 475,
      "ग": 476,
      "घ": 477,
      "ङ": 478,
      "च": 479,
      "छ": 480,
      "ज": 481,
      "ञ": 482,
      "ट": 483,
      "ठ": 484,
      "ड": 485,
      "ण": 486,
      "त": 487,
      "थ": 488,
      "द": 489,
      "ध": 490,
      "न": 491,
      "प": 492,
      "फ": 493,
      "ब": 494,
      "भ": 495,
      "म": 496,
      "य": 497,
      "र": 498,
      "ल": 499,
      "व": 500,
      "श": 501,
      "ष": 502,
      "स": 503,
      "ह": 504,
      "ऽ": 505,
      "ॐ": 506,
      "।": 507,
      "॥": 508,
      "१": 509,
      "२": 510,
      "३": 511,
      "অ": 512,
      "আ": 513,
      "ই": 514,
      "এ": 515,
      "ক": 516,
      "খ": 517,
      "গ": 518,
      "ঙ": 519,
      "চ": 520,
      "জ": 521,
      "ট": 522,
      "ড": 523,
      "ঢ": 524,
      "ণ": 525,
      "ত": 526,
      "থ": 527,
      "দ": 528,
      "ন": 529,
      "প": 530,
      "ব": 531,
      "ভ": 532,
      "ম": 533,
      "য": 534,
      "র": 535,
      "ল": 536,
      "শ": 537,
      "ষ": 538,
      "স": 539,
      "হ": 540,
      "ৰ": 541,
      "ਅ": 542,
      "ਉ": 543,
      "ਖ": 544,
      "ਘ": 545,
      "ਜ": 546,
      "ਝ": 547,
      "ਦ": 548,
      "ਲ": 549,
      "ਵ": 550,
      "ਸ": 551,
      "ਹ": 552,
      "ખ": 553,
      "ફ": 554,
      "બ": 555,
      "ર": 556,
      "લ": 557,
      "સ": 558,
      "ପ": 559,
      "ର": 560,
      "ஃ": 561,
      "அ": 562,
      "ஆ": 563,
      "இ": 564,
      "ஈ": 565,
      "எ": 566,
      "ஒ": 567,
      "க": 568,
      "ங": 569,
      "ச": 570,
      "ட": 571,
      "ண": 572,
      "த": 573,
      "ந": 574,
      "ன": 575,
      "ப": 576,
      "ம": 577,
      "ய": 578,
      "ர": 579,
      "ற": 580,
      "ல": 581,
      "ள": 582,
      "ழ": 583,
      "வ": 584,
      "ஸ": 585,
      "క": 586,
      "ఖ": 587,
      "గ": 588,
      "జ": 589,
      "ట": 590,
      "ఠ": 591,
      "డ": 592,
      "త": 593,
      "థ": 594,
      "ద": 595,
      "న": 596,
      "ప": 597,
      "బ": 598,
      "భ": 599,
      "మ": 600,
      "య": 601,
      "ర": 602,
      "ల": 603,
      "వ": 604,
      "ష": 605,
      "స": 606,
      "ಕ": 607,
      "ಖ": 608,
      "ಗ": 609,
      "ಚ": 610,
      "ಟ": 611,
      "ಠ": 612,
      "ಡ": 613,
      "ತ": 614,
      "ದ": 615,
      "ನ": 616,
      "ಪ": 617,
      "ಬ": 618,
      "ಭ": 619,
      "ಮ": 620,
      "ಯ": 621,
      "ರ": 622,
      "ಱ": 623,
      "ಲ": 624,
      "ಳ": 625,
      "ವ": 626,
      "ಶ": 627,
      "ಸ": 628,
      "ಹ": 629,
      "ೞ": 630,
      "അ": 631,
      "ങ": 632,
      "ദ": 633,
      "ന": 634,
      "പ": 635,
      "മ": 636,
      "യ": 637,
      "ര": 638,
      "ള": 639,
      "വ": 640,
      "ശ": 641,
      "സ": 642,
      "ഹ": 643,
      "අ": 644,
      "එ": 645,
      "ක": 646,
      "ග": 647,
      "ජ": 648,
      "ත": 649,
      "ධ": 650,
      "න": 651,
      "ප": 652,
      "ම": 653,
      "ය": 654,
      "ර": 655,
      "ල": 656,
      "ව": 657,
      "ශ": 658,
      "හ": 659,
      "ළ": 660,
      "ก": 661,
      "ข": 662,
      "ค": 663,
      "ฆ": 664,
      "ง": 665,
      "จ": 666,
      "ฉ": 667,
      "ช": 668,
      "ซ": 669,
      "ญ": 670,
      "ฎ": 671,
      "ฏ": 672,
      "ฐ": 673,
      "ฑ": 674,
      "ณ": 675,
      "ด": 676,
      "ต": 677,
      "ถ": 678,
      "ท": 679,
      "ธ": 680,
      "น": 681,
      "บ": 682,
      "ป": 683,
      "ผ": 684,
      "ฝ": 685,
      "พ": 686,
      "ฟ": 687,
      "ภ": 688,
      "ม": 689,
      "ย": 690,
      "ร": 691,
      "ฤ": 692,
      "ล": 693,
      "ว": 694,
      "ศ": 695,
      "ษ": 696,
      "ส": 697,
      "ห": 698,
      "ฬ": 699,
      "อ": 700,
      "ฮ": 701,
      "ะ": 702,
      "า": 703,
      "ำ": 704,
      "฿": 705,
      "เ": 706,
      "แ": 707,
      "โ": 708,
      "ใ": 709,
      "ไ": 710,
      "་": 711,
      "༌": 712,
      "།": 713,
      "ཀ": 714,
      "ཁ": 715,
      "ག": 716,
      "ང": 717,
      "ཆ": 718,
      "ཇ": 719,
      "ཐ": 720,
      "ད": 721,
      "ན": 722,
      "པ": 723,
      "བ": 724,
      "མ": 725,
      "ཙ": 726,
      "ཚ": 727,
      "ཛ": 728,
      "འ": 729,
      "ཡ": 730,
      "ར": 731,
      "ལ": 732,
      "ས": 733,
      "ཧ": 734,
      "က": 735,
      "ဂ": 736,
      "င": 737,
      "စ": 738,
      "ဆ": 739,
      "န": 740,
      "ပ": 741,
      "ဗ": 742,
      "ဘ": 743,
      "မ": 744,
      "ယ": 745,
      "ရ": 746,
      "လ": 747,
      "ဝ": 748,
      "ဟ": 749,
      "ა": 750,
      "ბ": 751,
      "გ": 752,
      "დ": 753,
      "ე": 754,
      "ვ": 755,
      "ზ": 756,
      "თ": 757,
      "ი": 758,
      "კ": 759,
      "ლ": 760,
      "მ": 761,
      "ნ": 762,
      "ო": 763,
      "პ": 764,
      "ჟ": 765,
      "რ": 766,
      "ს": 767,
      "ტ": 768,
      "უ": 769,
      "ფ": 770,
      "ქ": 771,
      "ღ": 772,
      "ყ": 773,
      "შ": 774,
      "ჩ": 775,
      "ც": 776,
      "ძ": 777,
      "წ": 778,
      "ჭ": 779,
      "ხ": 780,
      "ჯ": 781,
      "ჰ": 782,
      "ჱ": 783,
      "ჲ": 784,
      "ჳ": 785,
      "ჴ": 786,
      "ჵ": 787,
      "ჶ": 788,
      "ჷ": 789,
      "ჸ": 790,
      "ჹ": 791,
      "ჺ": 792,
      "჻": 793,
      "ᄀ": 794,
      "ᄁ": 795,
      "ᄂ": 796,
      "ᄃ": 797,
      "ᄄ": 798,
      "ᄅ": 799,
      "ᄆ": 800,
      "ᄇ": 801,
      "ᄈ": 802,
      "ᄉ": 803,
      "ᄊ": 804,
      "ᄋ": 805,
      "ᄌ": 806,
      "ᄎ": 807,
      "ᄏ": 808,
      "ᄐ": 809,
      "ᄑ": 810,
      "ᄒ": 811,
      "ᅡ": 812,
      "ᅢ": 813,
      "ᅣ": 814,
      "ᅥ": 815,
      "ᅦ": 816,
      "ᅧ": 817,
      "ᅨ": 818,
      "ᅩ": 819,
      "ᅪ": 820,
      "ᅫ": 821,
      "ᅬ": 822,
      "ᅭ": 823,
      "ᅮ": 824,
      "ᅯ": 825,
      "ᅱ": 826,
      "ᅲ": 827,
      "ᅳ": 828,
      "ᅴ": 829,
      "ᅵ": 830,
      "ᆨ": 831,
      "ᆫ": 832,
      "ᆮ": 833,
      "ᆯ": 834,
      "ᆰ": 835,
      "ᆷ": 836,
      "ᆸ": 837,
      "ᆺ": 838,
      "ᆻ": 839,
      "ᆼ": 840,
      "ᇂ": 841,
      "ሀ": 842,
      "ለ": 843,
      "ሐ": 844,
      "ሓ": 845,
      "ሕ": 846,
      "መ": 847,
      "ማ": 848,
      "ሥ": 849,
      "ረ": 850,
      "ር": 851,
      "ሰ": 852,
      "ስ": 853,
      "ቆ": 854,
      "ቈ": 855,
      "በ": 856,
      "ብ": 857,
      "ቲ": 858,
      "ታ": 859,
      "ት": 860,
      "ነ": 861,
      "ና": 862,
      "ን": 863,
      "ኖ": 864,
      "አ": 865,
      "ኢ": 866,
      "እ": 867,
      "ከ": 868,
      "ኲ": 869,
      "ዕ": 870,
      "ዘ": 871,
      "ዛ": 872,
      "የ": 873,
      "ያ": 874,
      "ይ": 875,
      "ዮ": 876,
      "ደ": 877,
      "ድ": 878,
      "ጅ": 879,
      "ገ": 880,
      "ጉ": 881,
      "ጵ": 882,
      "ፈ": 883,
      "ፍ": 884,
      "፡": 885,
      "ᏹ": 886,
      "ᐊ": 887,
      "ᑲ": 888,
      "ᒡ": 889,
      "ᓘ": 890,
      "ᚢ": 891,
      "ᚣ": 892,
      "ᚦ": 893,
      "ᚨ": 894,
      "ᚩ": 895,
      "ᚬ": 896,
      "ᚱ": 897,
      "ᚷ": 898,
      "ᚹ": 899,
      "ᚺ": 900,
      "ᚻ": 901,
      "ᚼ": 902,
      "ᚾ": 903,
      "ᛁ": 904,
      "ᛃ": 905,
      "ᛄ": 906,
      "ᛇ": 907,
      "ᛋ": 908,
      "ᛏ": 909,
      "ᛒ": 910,
      "ᛗ": 911,
      "ᛚ": 912,
      "ᛝ": 913,
      "ᛞ": 914,
      "ᛟ": 915,
      "ᛠ": 916,
      "ក": 917,
      "ខ": 918,
      "គ": 919,
      "ង": 920,
      "ច": 921,
      "ឆ": 922,
      "ជ": 923,
      "ញ": 924,
      "ដ": 925,
      "ឋ": 926,
      "ណ": 927,
      "ត": 928,
      "ថ": 929,
      "ទ": 930,
      "ធ": 931,
      "ន": 932,
      "ប": 933,
      "ព": 934,
      "ភ": 935,
      "ម": 936,
      "យ": 937,
      "រ": 938,
      "ល": 939,
      "វ": 940,
      "ស": 941,
      "ហ": 942,
      "អ": 943,
      "ឥ": 944,
      "ឪ": 945,
      "ឫ": 946,
      "ឯ": 947,
      "ᠠ": 948,
      "ᠣ": 949,
      "ᠨ": 950,
      "ᠪ": 951,
      "ᠮ": 952,
      "ᠯ": 953,
      "ᠰ": 954,
      "ᠴ": 955,
      "ᠵ": 956,
      "ᠸ": 957,
      "ᡝ": 958,
      "ᡠ": 959,
      "ᡥ": 960,
      "ᡨ": 961,
      "ᡳ": 962,
      "ᡴ": 963,
      "ᡵ": 964,
      "ᴰ": 965,
      "ᴷ": 966,
      "ᴺ": 967,
      "ᵀ": 968,
      "ᵊ": 969,
      "ᵑ": 970,
      "ᵗ": 971,
      "ᵘ": 972,
      "ᵝ": 973,
      "ᵻ": 974,
      "ᵿ": 975,
      "ᶑ": 976,
      "ᶢ": 977,
      "ᶦ": 978,
      "ᶴ": 979,
      "ᶷ": 980,
      "᾿": 981,
      "​": 982,
      "‌": 983,
      "‍": 984,
      "‐": 985,
      "‑": 986,
      "‒": 987,
      "–": 988,
      "—": 989,
      "―": 990,
      "‖": 991,
      "‘": 992,
      "’": 993,
      "‚": 994,
      "‛": 995,
      "“": 996,
      "”": 997,
      "„": 998,
      "‟": 999,
      "†": 1000,
      "‡": 1001,
      "•": 1002,
      "…": 1003,
      "‰": 1004,
      "′": 1005,
      "″": 1006,
      "※": 1007,
      "‼": 1008,
      "‿": 1009,
      "⁄": 1010,
      "⁊": 1011,
      "⁠": 1012,
      "⁡": 1013,
      "⁰": 1014,
      "⁺": 1015,
      "ⁿ": 1016,
      "₁": 1017,
      "₂": 1018,
      "₃": 1019,
      "₄": 1020,
      "₡": 1021,
      "₣": 1022,
      "₤": 1023,
      "₦": 1024,
      "₧": 1025,
      "₨": 1026,
      "₩": 1027,
      "₫": 1028,
      "€": 1029,
      "₱": 1030,
      "₴": 1031,
      "₹": 1032,
      "ℂ": 1033,
      "℃": 1034,
      "ℓ": 1035,
      "ℕ": 1036,
      "№": 1037,
      "ℛ": 1038,
      "ℝ": 1039,
      "℞": 1040,
      "™": 1041,
      "ℤ": 1042,
      "℥": 1043,
      "ℵ": 1044,
      "⅓": 1045,
      "⅔": 1046,
      "⅙": 1047,
      "⅛": 1048,
      "⅜": 1049,
      "⅝": 1050,
      "⅞": 1051,
      "ⅱ": 1052,
      "←": 1053,
      "↑": 1054,
      "→": 1055,
      "↓": 1056,
      "↔": 1057,
      "↗": 1058,
      "↘": 1059,
      "↦": 1060,
      "↪": 1061,
      "↵": 1062,
      "⇄": 1063,
      "⇌": 1064,
      "⇒": 1065,
      "⇪": 1066,
      "∀": 1067,
      "∂": 1068,
      "∅": 1069,
      "∆": 1070,
      "∇": 1071,
      "∈": 1072,
      "∊": 1073,
      "∑": 1074,
      "−": 1075,
      "∕": 1076,
      "∖": 1077,
      "∗": 1078,
      "∘": 1079,
      "√": 1080,
      "∝": 1081,
      "∞": 1082,
      "∣": 1083,
      "∩": 1084,
      "∪": 1085,
      "∫": 1086,
      "∴": 1087,
      "∼": 1088,
      "≈": 1089,
      "≡": 1090,
      "≤": 1091,
      "≥": 1092,
      "≪": 1093,
      "≫": 1094,
      "≲": 1095,
      "⊂": 1096,
      "⊕": 1097,
      "⊗": 1098,
      "⊙": 1099,
      "⊞": 1100,
      "⊢": 1101,
      "⊣": 1102,
      "⊥": 1103,
      "⋅": 1104,
      "⋆": 1105,
      "⋯": 1106,
      "⌊": 1107,
      "⌋": 1108,
      "⌘": 1109,
      "①": 1110,
      "②": 1111,
      "③": 1112,
      "④": 1113,
      "⑤": 1114,
      "⑥": 1115,
      "⑦": 1116,
      "⑧": 1117,
      "─": 1118,
      "█": 1119,
      "▢": 1120,
      "▲": 1121,
      "▼": 1122,
      "○": 1123,
      "●": 1124,
      "◦": 1125,
      "☄": 1126,
      "★": 1127,
      "☆": 1128,
      "☉": 1129,
      "☧": 1130,
      "☫": 1131,
      "☭": 1132,
      "☽": 1133,
      "☾": 1134,
      "♀": 1135,
      "♂": 1136,
      "♄": 1137,
      "♅": 1138,
      "♆": 1139,
      "♇": 1140,
      "♈": 1141,
      "♉": 1142,
      "♠": 1143,
      "♣": 1144,
      "♥": 1145,
      "♦": 1146,
      "♩": 1147,
      "♪": 1148,
      "♭": 1149,
      "♮": 1150,
      "♯": 1151,
      "⚳": 1152,
      "⚴": 1153,
      "⚵": 1154,
      "⛢": 1155,
      "✡": 1156,
      "✱": 1157,
      "❄": 1158,
      "❅": 1159,
      "❆": 1160,
      "❤": 1161,
      "⟦": 1162,
      "⟧": 1163,
      "⟨": 1164,
      "⟩": 1165,
      "⥇": 1166,
      "⩽": 1167,
      "⫶": 1168,
      "ⱱ": 1169,
      "ⲁ": 1170,
      "ⲛ": 1171,
      "ⲥ": 1172,
      "ⲧ": 1173,
      "ⲩ": 1174,
      "ⲫ": 1175,
      "ⲱ": 1176,
      "ⴀ": 1177,
      "ⴂ": 1178,
      "ⴃ": 1179,
      "ⴈ": 1180,
      "ⴌ": 1181,
      "ⴕ": 1182,
      "ⴟ": 1183,
      "ⴰ": 1184,
      "ⴳ": 1185,
      "ⴷ": 1186,
      "ⴻ": 1187,
      "ⴼ": 1188,
      "ⴽ": 1189,
      "ⵃ": 1190,
      "ⵇ": 1191,
      "ⵉ": 1192,
      "ⵍ": 1193,
      "ⵎ": 1194,
      "ⵏ": 1195,
      "ⵓ": 1196,
      "ⵔ": 1197,
      "ⵕ": 1198,
      "ⵖ": 1199,
      "ⵙ": 1200,
      "ⵛ": 1201,
      "ⵜ": 1202,
      "ⵡ": 1203,
      "ⵢ": 1204,
      "ⵣ": 1205,
      "⸨": 1206,
      "⸩": 1207,
      "、": 1208,
      "。": 1209,
      "々": 1210,
      "〈": 1211,
      "〉": 1212,
      "《": 1213,
      "》": 1214,
      "「": 1215,
      "」": 1216,
      "『": 1217,
      "』": 1218,
      "【": 1219,
      "】": 1220,
      "〒": 1221,
      "〜": 1222,
      "あ": 1223,
      "ぃ": 1224,
      "い": 1225,
      "ぅ": 1226,
      "う": 1227,
      "ぇ": 1228,
      "え": 1229,
      "ぉ": 1230,
      "お": 1231,
      "か": 1232,
      "き": 1233,
      "く": 1234,
      "け": 1235,
      "こ": 1236,
      "さ": 1237,
      "し": 1238,
      "す": 1239,
      "せ": 1240,
      "そ": 1241,
      "た": 1242,
      "ち": 1243,
      "っ": 1244,
      "つ": 1245,
      "て": 1246,
      "と": 1247,
      "な": 1248,
      "に": 1249,
      "ぬ": 1250,
      "ね": 1251,
      "の": 1252,
      "は": 1253,
      "ひ": 1254,
      "ふ": 1255,
      "へ": 1256,
      "ほ": 1257,
      "ま": 1258,
      "み": 1259,
      "む": 1260,
      "め": 1261,
      "も": 1262,
      "ゃ": 1263,
      "や": 1264,
      "ゅ": 1265,
      "ゆ": 1266,
      "ょ": 1267,
      "よ": 1268,
      "ら": 1269,
      "り": 1270,
      "る": 1271,
      "れ": 1272,
      "ろ": 1273,
      "わ": 1274,
      "ゑ": 1275,
      "を": 1276,
      "ん": 1277,
      "ァ": 1278,
      "ア": 1279,
      "ィ": 1280,
      "イ": 1281,
      "ゥ": 1282,
      "ウ": 1283,
      "ェ": 1284,
      "エ": 1285,
      "ォ": 1286,
      "オ": 1287,
      "カ": 1288,
      "キ": 1289,
      "ク": 1290,
      "ケ": 1291,
      "コ": 1292,
      "サ": 1293,
      "シ": 1294,
      "ス": 1295,
      "セ": 1296,
      "ソ": 1297,
      "タ": 1298,
      "チ": 1299,
      "ッ": 1300,
      "ツ": 1301,
      "テ": 1302,
      "ト": 1303,
      "ナ": 1304,
      "ニ": 1305,
      "ヌ": 1306,
      "ネ": 1307,
      "ノ": 1308,
      "ハ": 1309,
      "ヒ": 1310,
      "フ": 1311,
      "ヘ": 1312,
      "ホ": 1313,
      "マ": 1314,
      "ミ": 1315,
      "ム": 1316,
      "メ": 1317,
      "モ": 1318,
      "ャ": 1319,
      "ヤ": 1320,
      "ュ": 1321,
      "ユ": 1322,
      "ョ": 1323,
      "ヨ": 1324,
      "ラ": 1325,
      "リ": 1326,
      "ル": 1327,
      "レ": 1328,
      "ロ": 1329,
      "ワ": 1330,
      "ヲ": 1331,
      "ン": 1332,
      "ヶ": 1333,
      "・": 1334,
      "ー": 1335,
      "一": 1336,
      "丁": 1337,
      "七": 1338,
      "万": 1339,
      "丈": 1340,
      "三": 1341,
      "上": 1342,
      "下": 1343,
      "不": 1344,
      "与": 1345,
      "丑": 1346,
      "且": 1347,
      "世": 1348,
      "丘": 1349,
      "丙": 1350,
      "东": 1351,
      "丝": 1352,
      "丞": 1353,
      "両": 1354,
      "丨": 1355,
      "个": 1356,
      "中": 1357,
      "丶": 1358,
      "丸": 1359,
      "丹": 1360,
      "为": 1361,
      "主": 1362,
      "丽": 1363,
      "丿": 1364,
      "乃": 1365,
      "久": 1366,
      "么": 1367,
      "义": 1368,
      "之": 1369,
      "乌": 1370,
      "乎": 1371,
      "乐": 1372,
      "乘": 1373,
      "乙": 1374,
      "乚": 1375,
      "乛": 1376,
      "九": 1377,
      "也": 1378,
      "习": 1379,
      "书": 1380,
      "乩": 1381,
      "买": 1382,
      "乱": 1383,
      "乳": 1384,
      "乾": 1385,
      "亀": 1386,
      "亅": 1387,
      "了": 1388,
      "予": 1389,
      "争": 1390,
      "事": 1391,
      "二": 1392,
      "云": 1393,
      "五": 1394,
      "井": 1395,
      "亚": 1396,
      "些": 1397,
      "亜": 1398,
      "亞": 1399,
      "亡": 1400,
      "交": 1401,
      "亦": 1402,
      "亨": 1403,
      "京": 1404,
      "亮": 1405,
      "亰": 1406,
      "人": 1407,
      "什": 1408,
      "仁": 1409,
      "仇": 1410,
      "今": 1411,
      "介": 1412,
      "仔": 1413,
      "仕": 1414,
      "他": 1415,
      "付": 1416,
      "仙": 1417,
      "代": 1418,
      "令": 1419,
      "以": 1420,
      "仪": 1421,
      "们": 1422,
      "仮": 1423,
      "仰": 1424,
      "仲": 1425,
      "件": 1426,
      "任": 1427,
      "份": 1428,
      "伊": 1429,
      "伏": 1430,
      "伐": 1431,
      "休": 1432,
      "会": 1433,
      "伝": 1434,
      "伟": 1435,
      "传": 1436,
      "伪": 1437,
      "伯": 1438,
      "伴": 1439,
      "伸": 1440,
      "似": 1441,
      "佃": 1442,
      "但": 1443,
      "位": 1444,
      "住": 1445,
      "佐": 1446,
      "佑": 1447,
      "体": 1448,
      "何": 1449,
      "余": 1450,
      "佛": 1451,
      "作": 1452,
      "你": 1453,
      "佳": 1454,
      "併": 1455,
      "使": 1456,
      "來": 1457,
      "例": 1458,
      "侍": 1459,
      "侗": 1460,
      "供": 1461,
      "依": 1462,
      "侠": 1463,
      "侨": 1464,
      "侬": 1465,
      "侯": 1466,
      "係": 1467,
      "促": 1468,
      "俄": 1469,
      "俊": 1470,
      "保": 1471,
      "信": 1472,
      "俭": 1473,
      "修": 1474,
      "俱": 1475,
      "俳": 1476,
      "倉": 1477,
      "個": 1478,
      "們": 1479,
      "候": 1480,
      "借": 1481,
      "倪": 1482,
      "倫": 1483,
      "倭": 1484,
      "偃": 1485,
      "假": 1486,
      "偏": 1487,
      "健": 1488,
      "側": 1489,
      "偵": 1490,
      "偽": 1491,
      "傀": 1492,
      "傅": 1493,
      "傑": 1494,
      "傘": 1495,
      "備": 1496,
      "催": 1497,
      "傭": 1498,
      "傳": 1499,
      "傷": 1500,
      "像": 1501,
      "僑": 1502,
      "僕": 1503,
      "僧": 1504,
      "儀": 1505,
      "億": 1506,
      "儒": 1507,
      "儚": 1508,
      "儡": 1509,
      "優": 1510,
      "儿": 1511,
      "允": 1512,
      "元": 1513,
      "充": 1514,
      "兆": 1515,
      "先": 1516,
      "光": 1517,
      "克": 1518,
      "免": 1519,
      "兒": 1520,
      "兔": 1521,
      "兜": 1522,
      "入": 1523,
      "內": 1524,
      "全": 1525,
      "兩": 1526,
      "八": 1527,
      "公": 1528,
      "六": 1529,
      "兰": 1530,
      "共": 1531,
      "关": 1532,
      "兵": 1533,
      "其": 1534,
      "具": 1535,
      "典": 1536,
      "养": 1537,
      "冀": 1538,
      "内": 1539,
      "円": 1540,
      "冉": 1541,
      "册": 1542,
      "再": 1543,
      "冒": 1544,
      "写": 1545,
      "军": 1546,
      "冠": 1547,
      "冥": 1548,
      "冫": 1549,
      "冬": 1550,
      "冯": 1551,
      "决": 1552,
      "冴": 1553,
      "冶": 1554,
      "冷": 1555,
      "净": 1556,
      "准": 1557,
      "凌": 1558,
      "凤": 1559,
      "処": 1560,
      "凪": 1561,
      "凯": 1562,
      "凰": 1563,
      "凱": 1564,
      "凶": 1565,
      "凹": 1566,
      "出": 1567,
      "刀": 1568,
      "刃": 1569,
      "分": 1570,
      "切": 1571,
      "刊": 1572,
      "划": 1573,
      "列": 1574,
      "刘": 1575,
      "初": 1576,
      "判": 1577,
      "別": 1578,
      "利": 1579,
      "别": 1580,
      "到": 1581,
      "制": 1582,
      "刷": 1583,
      "券": 1584,
      "刹": 1585,
      "刺": 1586,
      "刻": 1587,
      "則": 1588,
      "前": 1589,
      "剑": 1590,
      "剛": 1591,
      "剣": 1592,
      "剧": 1593,
      "剩": 1594,
      "副": 1595,
      "割": 1596,
      "創": 1597,
      "劃": 1598,
      "劇": 1599,
      "劉": 1600,
      "劍": 1601,
      "力": 1602,
      "办": 1603,
      "功": 1604,
      "加": 1605,
      "劣": 1606,
      "动": 1607,
      "助": 1608,
      "劳": 1609,
      "勃": 1610,
      "勅": 1611,
      "勇": 1612,
      "勒": 1613,
      "動": 1614,
      "勘": 1615,
      "務": 1616,
      "勝": 1617,
      "勞": 1618,
      "勢": 1619,
      "勳": 1620,
      "勾": 1621,
      "包": 1622,
      "化": 1623,
      "北": 1624,
      "匠": 1625,
      "匹": 1626,
      "区": 1627,
      "医": 1628,
      "區": 1629,
      "十": 1630,
      "千": 1631,
      "升": 1632,
      "午": 1633,
      "半": 1634,
      "华": 1635,
      "协": 1636,
      "卐": 1637,
      "卒": 1638,
      "卓": 1639,
      "協": 1640,
      "单": 1641,
      "卖": 1642,
      "南": 1643,
      "博": 1644,
      "卜": 1645,
      "占": 1646,
      "卡": 1647,
      "卢": 1648,
      "卦": 1649,
      "卫": 1650,
      "印": 1651,
      "危": 1652,
      "即": 1653,
      "却": 1654,
      "卸": 1655,
      "卿": 1656,
      "厂": 1657,
      "厄": 1658,
      "历": 1659,
      "厘": 1660,
      "厚": 1661,
      "原": 1662,
      "厥": 1663,
      "厦": 1664,
      "厩": 1665,
      "去": 1666,
      "县": 1667,
      "参": 1668,
      "參": 1669,
      "叉": 1670,
      "及": 1671,
      "友": 1672,
      "双": 1673,
      "反": 1674,
      "収": 1675,
      "发": 1676,
      "叔": 1677,
      "取": 1678,
      "受": 1679,
      "变": 1680,
      "叛": 1681,
      "叠": 1682,
      "叡": 1683,
      "叢": 1684,
      "口": 1685,
      "古": 1686,
      "句": 1687,
      "只": 1688,
      "叫": 1689,
      "召": 1690,
      "可": 1691,
      "台": 1692,
      "史": 1693,
      "右": 1694,
      "叶": 1695,
      "号": 1696,
      "司": 1697,
      "合": 1698,
      "吉": 1699,
      "同": 1700,
      "名": 1701,
      "后": 1702,
      "向": 1703,
      "吕": 1704,
      "君": 1705,
      "吞": 1706,
      "吟": 1707,
      "吧": 1708,
      "启": 1709,
      "吳": 1710,
      "吴": 1711,
      "吸": 1712,
      "吹": 1713,
      "吾": 1714,
      "呂": 1715,
      "呉": 1716,
      "告": 1717,
      "周": 1718,
      "呪": 1719,
      "味": 1720,
      "呼": 1721,
      "命": 1722,
      "咆": 1723,
      "和": 1724,
      "咖": 1725,
      "咙": 1726,
      "咫": 1727,
      "咲": 1728,
      "咸": 1729,
      "哀": 1730,
      "品": 1731,
      "哈": 1732,
      "哉": 1733,
      "响": 1734,
      "員": 1735,
      "哥": 1736,
      "哮": 1737,
      "哲": 1738,
      "唄": 1739,
      "唐": 1740,
      "唯": 1741,
      "唱": 1742,
      "商": 1743,
      "問": 1744,
      "啓": 1745,
      "啟": 1746,
      "啡": 1747,
      "善": 1748,
      "喇": 1749,
      "喋": 1750,
      "喚": 1751,
      "喜": 1752,
      "喝": 1753,
      "喬": 1754,
      "嘉": 1755,
      "嘘": 1756,
      "噛": 1757,
      "器": 1758,
      "嚣": 1759,
      "嚴": 1760,
      "囁": 1761,
      "囂": 1762,
      "囃": 1763,
      "囚": 1764,
      "四": 1765,
      "回": 1766,
      "因": 1767,
      "团": 1768,
      "団": 1769,
      "図": 1770,
      "国": 1771,
      "图": 1772,
      "圈": 1773,
      "國": 1774,
      "圍": 1775,
      "圏": 1776,
      "園": 1777,
      "圓": 1778,
      "圖": 1779,
      "土": 1780,
      "圣": 1781,
      "圧": 1782,
      "在": 1783,
      "地": 1784,
      "圻": 1785,
      "坂": 1786,
      "均": 1787,
      "坊": 1788,
      "坑": 1789,
      "块": 1790,
      "坚": 1791,
      "坝": 1792,
      "坡": 1793,
      "坤": 1794,
      "坪": 1795,
      "型": 1796,
      "垣": 1797,
      "城": 1798,
      "埔": 1799,
      "域": 1800,
      "執": 1801,
      "培": 1802,
      "基": 1803,
      "堀": 1804,
      "堂": 1805,
      "堅": 1806,
      "堆": 1807,
      "堡": 1808,
      "堤": 1809,
      "堯": 1810,
      "報": 1811,
      "場": 1812,
      "塊": 1813,
      "塔": 1814,
      "塘": 1815,
      "塚": 1816,
      "塞": 1817,
      "塩": 1818,
      "填": 1819,
      "塵": 1820,
      "境": 1821,
      "墓": 1822,
      "墙": 1823,
      "增": 1824,
      "壁": 1825,
      "壌": 1826,
      "壓": 1827,
      "壟": 1828,
      "壤": 1829,
      "士": 1830,
      "壬": 1831,
      "壮": 1832,
      "壯": 1833,
      "声": 1834,
      "壱": 1835,
      "売": 1836,
      "壳": 1837,
      "壷": 1838,
      "壽": 1839,
      "处": 1840,
      "备": 1841,
      "変": 1842,
      "复": 1843,
      "夏": 1844,
      "夕": 1845,
      "外": 1846,
      "多": 1847,
      "夜": 1848,
      "够": 1849,
      "夢": 1850,
      "夤": 1851,
      "大": 1852,
      "天": 1853,
      "太": 1854,
      "夫": 1855,
      "央": 1856,
      "失": 1857,
      "头": 1858,
      "夷": 1859,
      "奇": 1860,
      "奈": 1861,
      "奉": 1862,
      "奎": 1863,
      "奏": 1864,
      "奐": 1865,
      "契": 1866,
      "奔": 1867,
      "奥": 1868,
      "奧": 1869,
      "奪": 1870,
      "女": 1871,
      "奴": 1872,
      "好": 1873,
      "如": 1874,
      "妃": 1875,
      "妇": 1876,
      "妍": 1877,
      "妖": 1878,
      "妙": 1879,
      "妮": 1880,
      "妹": 1881,
      "妻": 1882,
      "姉": 1883,
      "姊": 1884,
      "始": 1885,
      "姑": 1886,
      "委": 1887,
      "姚": 1888,
      "姥": 1889,
      "姦": 1890,
      "姫": 1891,
      "姬": 1892,
      "姿": 1893,
      "威": 1894,
      "娘": 1895,
      "娜": 1896,
      "婁": 1897,
      "婆": 1898,
      "婚": 1899,
      "婷": 1900,
      "嫁": 1901,
      "嬢": 1902,
      "嬴": 1903,
      "子": 1904,
      "孔": 1905,
      "字": 1906,
      "存": 1907,
      "孙": 1908,
      "孛": 1909,
      "孝": 1910,
      "孟": 1911,
      "季": 1912,
      "孤": 1913,
      "学": 1914,
      "孩": 1915,
      "孫": 1916,
      "孵": 1917,
      "學": 1918,
      "宁": 1919,
      "宅": 1920,
      "宇": 1921,
      "守": 1922,
      "安": 1923,
      "宋": 1924,
      "完": 1925,
      "宏": 1926,
      "宗": 1927,
      "官": 1928,
      "宙": 1929,
      "定": 1930,
      "宜": 1931,
      "宝": 1932,
      "实": 1933,
      "実": 1934,
      "客": 1935,
      "宣": 1936,
      "室": 1937,
      "宫": 1938,
      "宮": 1939,
      "宴": 1940,
      "宵": 1941,
      "家": 1942,
      "宸": 1943,
      "容": 1944,
      "宿": 1945,
      "寂": 1946,
      "寄": 1947,
      "密": 1948,
      "寇": 1949,
      "富": 1950,
      "寔": 1951,
      "寗": 1952,
      "寛": 1953,
      "寝": 1954,
      "寞": 1955,
      "察": 1956,
      "寧": 1957,
      "寨": 1958,
      "審": 1959,
      "寬": 1960,
      "寵": 1961,
      "寶": 1962,
      "寸": 1963,
      "对": 1964,
      "寺": 1965,
      "寻": 1966,
      "対": 1967,
      "寿": 1968,
      "封": 1969,
      "射": 1970,
      "将": 1971,
      "將": 1972,
      "尉": 1973,
      "尊": 1974,
      "尋": 1975,
      "對": 1976,
      "導": 1977,
      "小": 1978,
      "少": 1979,
      "尔": 1980,
      "尚": 1981,
      "尧": 1982,
      "就": 1983,
      "尸": 1984,
      "尹": 1985,
      "尺": 1986,
      "尼": 1987,
      "尽": 1988,
      "尾": 1989,
      "局": 1990,
      "居": 1991,
      "届": 1992,
      "屋": 1993,
      "屍": 1994,
      "屑": 1995,
      "展": 1996,
      "屠": 1997,
      "層": 1998,
      "屬": 1999,
      "屯": 2000,
      "山": 2001,
      "屿": 2002,
      "岐": 2003,
      "岑": 2004,
      "岚": 2005,
      "岛": 2006,
      "岡": 2007,
      "岩": 2008,
      "岬": 2009,
      "岭": 2010,
      "岳": 2011,
      "岸": 2012,
      "峰": 2013,
      "島": 2014,
      "崇": 2015,
      "崎": 2016,
      "崔": 2017,
      "崖": 2018,
      "嵐": 2019,
      "嶋": 2020,
      "嶺": 2021,
      "嶼": 2022,
      "巂": 2023,
      "巖": 2024,
      "川": 2025,
      "州": 2026,
      "巡": 2027,
      "工": 2028,
      "左": 2029,
      "巨": 2030,
      "巫": 2031,
      "差": 2032,
      "己": 2033,
      "巳": 2034,
      "巴": 2035,
      "巻": 2036,
      "币": 2037,
      "市": 2038,
      "布": 2039,
      "帆": 2040,
      "师": 2041,
      "希": 2042,
      "帕": 2043,
      "帖": 2044,
      "帝": 2045,
      "帥": 2046,
      "带": 2047,
      "師": 2048,
      "帮": 2049,
      "帰": 2050,
      "帶": 2051,
      "常": 2052,
      "幕": 2053,
      "幡": 2054,
      "幣": 2055,
      "干": 2056,
      "平": 2057,
      "年": 2058,
      "幸": 2059,
      "幻": 2060,
      "幽": 2061,
      "广": 2062,
      "庁": 2063,
      "広": 2064,
      "庄": 2065,
      "庆": 2066,
      "庇": 2067,
      "序": 2068,
      "库": 2069,
      "底": 2070,
      "庖": 2071,
      "店": 2072,
      "庙": 2073,
      "庚": 2074,
      "府": 2075,
      "度": 2076,
      "座": 2077,
      "庫": 2078,
      "庭": 2079,
      "庵": 2080,
      "康": 2081,
      "廉": 2082,
      "廊": 2083,
      "廖": 2084,
      "廟": 2085,
      "廣": 2086,
      "廬": 2087,
      "延": 2088,
      "廷": 2089,
      "建": 2090,
      "廻": 2091,
      "廿": 2092,
      "开": 2093,
      "弁": 2094,
      "式": 2095,
      "弐": 2096,
      "弓": 2097,
      "弔": 2098,
      "引": 2099,
      "弘": 2100,
      "弟": 2101,
      "张": 2102,
      "弥": 2103,
      "弦": 2104,
      "弧": 2105,
      "弱": 2106,
      "張": 2107,
      "強": 2108,
      "弹": 2109,
      "强": 2110,
      "弾": 2111,
      "彌": 2112,
      "当": 2113,
      "录": 2114,
      "彖": 2115,
      "彙": 2116,
      "形": 2117,
      "彦": 2118,
      "彩": 2119,
      "彪": 2120,
      "彬": 2121,
      "彭": 2122,
      "影": 2123,
      "役": 2124,
      "彼": 2125,
      "征": 2126,
      "径": 2127,
      "待": 2128,
      "律": 2129,
      "後": 2130,
      "徐": 2131,
      "徒": 2132,
      "得": 2133,
      "從": 2134,
      "御": 2135,
      "復": 2136,
      "微": 2137,
      "徳": 2138,
      "德": 2139,
      "徹": 2140,
      "徽": 2141,
      "心": 2142,
      "必": 2143,
      "忍": 2144,
      "志": 2145,
      "忘": 2146,
      "応": 2147,
      "忠": 2148,
      "快": 2149,
      "念": 2150,
      "怀": 2151,
      "怎": 2152,
      "怒": 2153,
      "怖": 2154,
      "思": 2155,
      "怡": 2156,
      "急": 2157,
      "性": 2158,
      "怨": 2159,
      "怪": 2160,
      "总": 2161,
      "恆": 2162,
      "恋": 2163,
      "恐": 2164,
      "恒": 2165,
      "恢": 2166,
      "恥": 2167,
      "恩": 2168,
      "恭": 2169,
      "息": 2170,
      "恵": 2171,
      "恼": 2172,
      "悔": 2173,
      "悟": 2174,
      "悠": 2175,
      "悦": 2176,
      "悪": 2177,
      "悫": 2178,
      "悲": 2179,
      "悼": 2180,
      "情": 2181,
      "惑": 2182,
      "惟": 2183,
      "惠": 2184,
      "惡": 2185,
      "想": 2186,
      "愁": 2187,
      "愍": 2188,
      "意": 2189,
      "愚": 2190,
      "愛": 2191,
      "感": 2192,
      "愽": 2193,
      "慈": 2194,
      "態": 2195,
      "慎": 2196,
      "慧": 2197,
      "慰": 2198,
      "慶": 2199,
      "憂": 2200,
      "憎": 2201,
      "憑": 2202,
      "憲": 2203,
      "憶": 2204,
      "應": 2205,
      "懍": 2206,
      "懷": 2207,
      "戈": 2208,
      "戊": 2209,
      "戎": 2210,
      "成": 2211,
      "我": 2212,
      "战": 2213,
      "戦": 2214,
      "戯": 2215,
      "戰": 2216,
      "戴": 2217,
      "户": 2218,
      "戸": 2219,
      "房": 2220,
      "所": 2221,
      "扁": 2222,
      "扇": 2223,
      "扈": 2224,
      "扉": 2225,
      "手": 2226,
      "才": 2227,
      "打": 2228,
      "托": 2229,
      "扶": 2230,
      "找": 2231,
      "承": 2232,
      "技": 2233,
      "抄": 2234,
      "抓": 2235,
      "投": 2236,
      "抜": 2237,
      "択": 2238,
      "护": 2239,
      "报": 2240,
      "披": 2241,
      "抱": 2242,
      "抵": 2243,
      "担": 2244,
      "拉": 2245,
      "拍": 2246,
      "拏": 2247,
      "拐": 2248,
      "拖": 2249,
      "拘": 2250,
      "招": 2251,
      "拜": 2252,
      "拟": 2253,
      "拥": 2254,
      "括": 2255,
      "拳": 2256,
      "拾": 2257,
      "持": 2258,
      "挂": 2259,
      "指": 2260,
      "挑": 2261,
      "挥": 2262,
      "振": 2263,
      "据": 2264,
      "捷": 2265,
      "授": 2266,
      "掛": 2267,
      "採": 2268,
      "探": 2269,
      "控": 2270,
      "掲": 2271,
      "描": 2272,
      "提": 2273,
      "揚": 2274,
      "換": 2275,
      "援": 2276,
      "揺": 2277,
      "摂": 2278,
      "摩": 2279,
      "摸": 2280,
      "撃": 2281,
      "撒": 2282,
      "撞": 2283,
      "播": 2284,
      "撲": 2285,
      "操": 2286,
      "攝": 2287,
      "支": 2288,
      "收": 2289,
      "改": 2290,
      "攻": 2291,
      "放": 2292,
      "政": 2293,
      "故": 2294,
      "敏": 2295,
      "救": 2296,
      "教": 2297,
      "敢": 2298,
      "散": 2299,
      "敦": 2300,
      "敬": 2301,
      "数": 2302,
      "敵": 2303,
      "敷": 2304,
      "數": 2305,
      "文": 2306,
      "斉": 2307,
      "斎": 2308,
      "斗": 2309,
      "料": 2310,
      "斜": 2311,
      "斤": 2312,
      "斩": 2313,
      "斬": 2314,
      "断": 2315,
      "斯": 2316,
      "新": 2317,
      "方": 2318,
      "於": 2319,
      "施": 2320,
      "旅": 2321,
      "旋": 2322,
      "族": 2323,
      "旗": 2324,
      "无": 2325,
      "日": 2326,
      "旦": 2327,
      "旧": 2328,
      "早": 2329,
      "旭": 2330,
      "时": 2331,
      "旺": 2332,
      "昂": 2333,
      "昇": 2334,
      "昌": 2335,
      "明": 2336,
      "昏": 2337,
      "易": 2338,
      "昔": 2339,
      "星": 2340,
      "映": 2341,
      "春": 2342,
      "昭": 2343,
      "是": 2344,
      "昼": 2345,
      "時": 2346,
      "晉": 2347,
      "晋": 2348,
      "晒": 2349,
      "普": 2350,
      "景": 2351,
      "晴": 2352,
      "晶": 2353,
      "智": 2354,
      "暁": 2355,
      "暂": 2356,
      "暖": 2357,
      "暗": 2358,
      "暦": 2359,
      "暮": 2360,
      "暴": 2361,
      "曆": 2362,
      "曜": 2363,
      "曦": 2364,
      "曲": 2365,
      "更": 2366,
      "書": 2367,
      "曹": 2368,
      "曼": 2369,
      "曾": 2370,
      "最": 2371,
      "會": 2372,
      "月": 2373,
      "有": 2374,
      "朋": 2375,
      "服": 2376,
      "朏": 2377,
      "朔": 2378,
      "朗": 2379,
      "望": 2380,
      "朝": 2381,
      "期": 2382,
      "朧": 2383,
      "木": 2384,
      "未": 2385,
      "末": 2386,
      "本": 2387,
      "札": 2388,
      "朱": 2389,
      "朴": 2390,
      "朵": 2391,
      "机": 2392,
      "朽": 2393,
      "杀": 2394,
      "杂": 2395,
      "权": 2396,
      "李": 2397,
      "杏": 2398,
      "材": 2399,
      "村": 2400,
      "杖": 2401,
      "杜": 2402,
      "束": 2403,
      "条": 2404,
      "来": 2405,
      "杨": 2406,
      "杯": 2407,
      "東": 2408,
      "杲": 2409,
      "松": 2410,
      "板": 2411,
      "极": 2412,
      "析": 2413,
      "林": 2414,
      "枚": 2415,
      "果": 2416,
      "枝": 2417,
      "枭": 2418,
      "枯": 2419,
      "架": 2420,
      "柆": 2421,
      "柏": 2422,
      "柔": 2423,
      "柚": 2424,
      "柩": 2425,
      "柱": 2426,
      "柳": 2427,
      "柴": 2428,
      "査": 2429,
      "栄": 2430,
      "标": 2431,
      "栈": 2432,
      "树": 2433,
      "栖": 2434,
      "栗": 2435,
      "栞": 2436,
      "校": 2437,
      "株": 2438,
      "样": 2439,
      "核": 2440,
      "根": 2441,
      "格": 2442,
      "栽": 2443,
      "栾": 2444,
      "桀": 2445,
      "桂": 2446,
      "桃": 2447,
      "案": 2448,
      "桎": 2449,
      "桐": 2450,
      "桑": 2451,
      "桓": 2452,
      "桜": 2453,
      "桥": 2454,
      "桧": 2455,
      "梁": 2456,
      "梅": 2457,
      "梏": 2458,
      "梓": 2459,
      "條": 2460,
      "梦": 2461,
      "梨": 2462,
      "梭": 2463,
      "梯": 2464,
      "械": 2465,
      "梵": 2466,
      "梶": 2467,
      "棋": 2468,
      "棍": 2469,
      "棗": 2470,
      "棘": 2471,
      "棚": 2472,
      "棟": 2473,
      "森": 2474,
      "棲": 2475,
      "棵": 2476,
      "棺": 2477,
      "椅": 2478,
      "植": 2479,
      "椎": 2480,
      "椒": 2481,
      "椛": 2482,
      "検": 2483,
      "椰": 2484,
      "椿": 2485,
      "楊": 2486,
      "楚": 2487,
      "楠": 2488,
      "業": 2489,
      "楯": 2490,
      "極": 2491,
      "楼": 2492,
      "楽": 2493,
      "概": 2494,
      "榆": 2495,
      "榊": 2496,
      "榔": 2497,
      "榛": 2498,
      "榮": 2499,
      "榴": 2500,
      "槐": 2501,
      "様": 2502,
      "槤": 2503,
      "槻": 2504,
      "樂": 2505,
      "樉": 2506,
      "樊": 2507,
      "樓": 2508,
      "樗": 2509,
      "標": 2510,
      "樛": 2511,
      "模": 2512,
      "権": 2513,
      "横": 2514,
      "樱": 2515,
      "樸": 2516,
      "樹": 2517,
      "橋": 2518,
      "橘": 2519,
      "橚": 2520,
      "機": 2521,
      "橫": 2522,
      "橿": 2523,
      "檀": 2524,
      "檜": 2525,
      "檳": 2526,
      "檻": 2527,
      "櫓": 2528,
      "櫻": 2529,
      "權": 2530,
      "欒": 2531,
      "欠": 2532,
      "次": 2533,
      "欣": 2534,
      "欲": 2535,
      "欽": 2536,
      "歌": 2537,
      "歓": 2538,
      "歡": 2539,
      "止": 2540,
      "正": 2541,
      "步": 2542,
      "武": 2543,
      "歩": 2544,
      "歪": 2545,
      "歲": 2546,
      "歳": 2547,
      "歴": 2548,
      "歷": 2549,
      "歸": 2550,
      "死": 2551,
      "殊": 2552,
      "残": 2553,
      "段": 2554,
      "殺": 2555,
      "殻": 2556,
      "殿": 2557,
      "毅": 2558,
      "母": 2559,
      "毎": 2560,
      "每": 2561,
      "比": 2562,
      "毕": 2563,
      "毘": 2564,
      "毛": 2565,
      "毫": 2566,
      "毬": 2567,
      "氏": 2568,
      "民": 2569,
      "气": 2570,
      "気": 2571,
      "氣": 2572,
      "水": 2573,
      "氷": 2574,
      "永": 2575,
      "氾": 2576,
      "汇": 2577,
      "汉": 2578,
      "汐": 2579,
      "汗": 2580,
      "汝": 2581,
      "江": 2582,
      "池": 2583,
      "汤": 2584,
      "汪": 2585,
      "汰": 2586,
      "汶": 2587,
      "決": 2588,
      "汽": 2589,
      "沂": 2590,
      "沃": 2591,
      "沈": 2592,
      "沉": 2593,
      "沌": 2594,
      "沐": 2595,
      "沒": 2596,
      "沖": 2597,
      "沙": 2598,
      "沛": 2599,
      "没": 2600,
      "沢": 2601,
      "沫": 2602,
      "河": 2603,
      "沸": 2604,
      "油": 2605,
      "治": 2606,
      "沼": 2607,
      "沽": 2608,
      "泉": 2609,
      "泊": 2610,
      "法": 2611,
      "泗": 2612,
      "泡": 2613,
      "波": 2614,
      "泣": 2615,
      "泥": 2616,
      "注": 2617,
      "泰": 2618,
      "泾": 2619,
      "洁": 2620,
      "洋": 2621,
      "洛": 2622,
      "洞": 2623,
      "津": 2624,
      "洪": 2625,
      "洲": 2626,
      "活": 2627,
      "派": 2628,
      "流": 2629,
      "浅": 2630,
      "浙": 2631,
      "浚": 2632,
      "浜": 2633,
      "浦": 2634,
      "浩": 2635,
      "浪": 2636,
      "浮": 2637,
      "海": 2638,
      "消": 2639,
      "涙": 2640,
      "润": 2641,
      "涵": 2642,
      "涼": 2643,
      "淇": 2644,
      "淑": 2645,
      "淘": 2646,
      "淡": 2647,
      "淨": 2648,
      "深": 2649,
      "淳": 2650,
      "淵": 2651,
      "淹": 2652,
      "添": 2653,
      "清": 2654,
      "渊": 2655,
      "渚": 2656,
      "減": 2657,
      "渠": 2658,
      "渡": 2659,
      "渣": 2660,
      "渥": 2661,
      "渦": 2662,
      "温": 2663,
      "測": 2664,
      "港": 2665,
      "游": 2666,
      "渾": 2667,
      "湊": 2668,
      "湖": 2669,
      "湯": 2670,
      "湾": 2671,
      "満": 2672,
      "源": 2673,
      "準": 2674,
      "溜": 2675,
      "溢": 2676,
      "溪": 2677,
      "溫": 2678,
      "溶": 2679,
      "滅": 2680,
      "滋": 2681,
      "滑": 2682,
      "滨": 2683,
      "滿": 2684,
      "漁": 2685,
      "漂": 2686,
      "漆": 2687,
      "漏": 2688,
      "漠": 2689,
      "漢": 2690,
      "漫": 2691,
      "漳": 2692,
      "漸": 2693,
      "潘": 2694,
      "潜": 2695,
      "潤": 2696,
      "澄": 2697,
      "澤": 2698,
      "澪": 2699,
      "激": 2700,
      "濃": 2701,
      "濞": 2702,
      "濟": 2703,
      "瀛": 2704,
      "瀬": 2705,
      "灣": 2706,
      "火": 2707,
      "灯": 2708,
      "灰": 2709,
      "灵": 2710,
      "灶": 2711,
      "灼": 2712,
      "災": 2713,
      "灾": 2714,
      "炎": 2715,
      "炬": 2716,
      "炮": 2717,
      "炯": 2718,
      "炷": 2719,
      "炸": 2720,
      "点": 2721,
      "為": 2722,
      "炼": 2723,
      "烈": 2724,
      "烏": 2725,
      "烙": 2726,
      "烟": 2727,
      "烦": 2728,
      "烧": 2729,
      "焉": 2730,
      "焔": 2731,
      "無": 2732,
      "焦": 2733,
      "然": 2734,
      "焼": 2735,
      "煌": 2736,
      "煙": 2737,
      "煜": 2738,
      "照": 2739,
      "煩": 2740,
      "煮": 2741,
      "熊": 2742,
      "熔": 2743,
      "熙": 2744,
      "熟": 2745,
      "熱": 2746,
      "燃": 2747,
      "燈": 2748,
      "燕": 2749,
      "營": 2750,
      "爆": 2751,
      "爪": 2752,
      "爭": 2753,
      "爱": 2754,
      "爲": 2755,
      "爵": 2756,
      "父": 2757,
      "爺": 2758,
      "爻": 2759,
      "爽": 2760,
      "爾": 2761,
      "片": 2762,
      "版": 2763,
      "牌": 2764,
      "牙": 2765,
      "牛": 2766,
      "牡": 2767,
      "牢": 2768,
      "牧": 2769,
      "物": 2770,
      "牵": 2771,
      "特": 2772,
      "犖": 2773,
      "犬": 2774,
      "犯": 2775,
      "狀": 2776,
      "狂": 2777,
      "狐": 2778,
      "狗": 2779,
      "狛": 2780,
      "狡": 2781,
      "狩": 2782,
      "独": 2783,
      "狭": 2784,
      "狱": 2785,
      "狸": 2786,
      "狼": 2787,
      "猛": 2788,
      "猩": 2789,
      "猪": 2790,
      "猫": 2791,
      "献": 2792,
      "猿": 2793,
      "獄": 2794,
      "獅": 2795,
      "獣": 2796,
      "獵": 2797,
      "獻": 2798,
      "玄": 2799,
      "玉": 2800,
      "王": 2801,
      "玖": 2802,
      "玩": 2803,
      "玲": 2804,
      "珂": 2805,
      "珍": 2806,
      "珙": 2807,
      "珠": 2808,
      "現": 2809,
      "球": 2810,
      "理": 2811,
      "琦": 2812,
      "琪": 2813,
      "琬": 2814,
      "琮": 2815,
      "琴": 2816,
      "瑋": 2817,
      "瑙": 2818,
      "瑜": 2819,
      "瑞": 2820,
      "瑠": 2821,
      "瑣": 2822,
      "瑪": 2823,
      "瑾": 2824,
      "璉": 2825,
      "環": 2826,
      "璽": 2827,
      "瓊": 2828,
      "瓜": 2829,
      "瓢": 2830,
      "瓦": 2831,
      "瓩": 2832,
      "瓷": 2833,
      "甘": 2834,
      "甜": 2835,
      "生": 2836,
      "產": 2837,
      "産": 2838,
      "用": 2839,
      "甫": 2840,
      "田": 2841,
      "由": 2842,
      "甲": 2843,
      "申": 2844,
      "男": 2845,
      "町": 2846,
      "画": 2847,
      "甽": 2848,
      "界": 2849,
      "畑": 2850,
      "留": 2851,
      "畜": 2852,
      "畢": 2853,
      "略": 2854,
      "番": 2855,
      "畫": 2856,
      "異": 2857,
      "疾": 2858,
      "病": 2859,
      "症": 2860,
      "痘": 2861,
      "痛": 2862,
      "痴": 2863,
      "瘡": 2864,
      "瘤": 2865,
      "発": 2866,
      "登": 2867,
      "發": 2868,
      "白": 2869,
      "百": 2870,
      "的": 2871,
      "皇": 2872,
      "皙": 2873,
      "皮": 2874,
      "皿": 2875,
      "盆": 2876,
      "盈": 2877,
      "益": 2878,
      "盏": 2879,
      "盐": 2880,
      "监": 2881,
      "盒": 2882,
      "盗": 2883,
      "盘": 2884,
      "盛": 2885,
      "盟": 2886,
      "監": 2887,
      "盤": 2888,
      "盧": 2889,
      "目": 2890,
      "直": 2891,
      "相": 2892,
      "盼": 2893,
      "省": 2894,
      "看": 2895,
      "県": 2896,
      "眞": 2897,
      "真": 2898,
      "眼": 2899,
      "着": 2900,
      "督": 2901,
      "瞬": 2902,
      "瞳": 2903,
      "矢": 2904,
      "知": 2905,
      "矩": 2906,
      "短": 2907,
      "矮": 2908,
      "矯": 2909,
      "石": 2910,
      "砂": 2911,
      "砍": 2912,
      "研": 2913,
      "砖": 2914,
      "砲": 2915,
      "破": 2916,
      "硕": 2917,
      "硝": 2918,
      "硨": 2919,
      "碍": 2920,
      "碗": 2921,
      "碩": 2922,
      "確": 2923,
      "碼": 2924,
      "磁": 2925,
      "磅": 2926,
      "磐": 2927,
      "磨": 2928,
      "磯": 2929,
      "磲": 2930,
      "礁": 2931,
      "礎": 2932,
      "礮": 2933,
      "示": 2934,
      "礼": 2935,
      "社": 2936,
      "祀": 2937,
      "祈": 2938,
      "祐": 2939,
      "祖": 2940,
      "祚": 2941,
      "神": 2942,
      "祠": 2943,
      "祥": 2944,
      "票": 2945,
      "祭": 2946,
      "祺": 2947,
      "祿": 2948,
      "禁": 2949,
      "禄": 2950,
      "禎": 2951,
      "福": 2952,
      "禦": 2953,
      "禮": 2954,
      "禰": 2955,
      "禺": 2956,
      "禾": 2957,
      "秀": 2958,
      "私": 2959,
      "秋": 2960,
      "科": 2961,
      "秒": 2962,
      "秘": 2963,
      "租": 2964,
      "秤": 2965,
      "秦": 2966,
      "移": 2967,
      "程": 2968,
      "稔": 2969,
      "稚": 2970,
      "種": 2971,
      "稲": 2972,
      "稷": 2973,
      "穂": 2974,
      "穌": 2975,
      "積": 2976,
      "穎": 2977,
      "穗": 2978,
      "穢": 2979,
      "究": 2980,
      "空": 2981,
      "突": 2982,
      "窓": 2983,
      "窗": 2984,
      "窟": 2985,
      "竇": 2986,
      "立": 2987,
      "站": 2988,
      "竜": 2989,
      "章": 2990,
      "童": 2991,
      "端": 2992,
      "竹": 2993,
      "竺": 2994,
      "笑": 2995,
      "笔": 2996,
      "笛": 2997,
      "笠": 2998,
      "符": 2999,
      "笨": 3000,
      "第": 3001,
      "笹": 3002,
      "筆": 3003,
      "等": 3004,
      "筋": 3005,
      "筍": 3006,
      "筐": 3007,
      "筑": 3008,
      "答": 3009,
      "策": 3010,
      "筹": 3011,
      "箇": 3012,
      "算": 3013,
      "管": 3014,
      "箪": 3015,
      "箭": 3016,
      "箱": 3017,
      "節": 3018,
      "範": 3019,
      "篇": 3020,
      "篋": 3021,
      "篚": 3022,
      "篤": 3023,
      "簡": 3024,
      "簿": 3025,
      "籃": 3026,
      "籌": 3027,
      "籍": 3028,
      "籠": 3029,
      "米": 3030,
      "籵": 3031,
      "粁": 3032,
      "粉": 3033,
      "粍": 3034,
      "粟": 3035,
      "粥": 3036,
      "粨": 3037,
      "精": 3038,
      "糊": 3039,
      "糎": 3040,
      "糖": 3041,
      "糸": 3042,
      "系": 3043,
      "紀": 3044,
      "約": 3045,
      "紅": 3046,
      "紋": 3047,
      "納": 3048,
      "純": 3049,
      "紘": 3050,
      "紙": 3051,
      "級": 3052,
      "素": 3053,
      "紡": 3054,
      "紫": 3055,
      "細": 3056,
      "紹": 3057,
      "紺": 3058,
      "終": 3059,
      "組": 3060,
      "絆": 3061,
      "経": 3062,
      "結": 3063,
      "絡": 3064,
      "給": 3065,
      "統": 3066,
      "絵": 3067,
      "絶": 3068,
      "綁": 3069,
      "經": 3070,
      "継": 3071,
      "続": 3072,
      "綜": 3073,
      "綠": 3074,
      "維": 3075,
      "綯": 3076,
      "綱": 3077,
      "網": 3078,
      "綸": 3079,
      "綺": 3080,
      "綾": 3081,
      "緋": 3082,
      "総": 3083,
      "緑": 3084,
      "緒": 3085,
      "線": 3086,
      "締": 3087,
      "編": 3088,
      "緩": 3089,
      "緯": 3090,
      "縄": 3091,
      "縊": 3092,
      "縣": 3093,
      "總": 3094,
      "繋": 3095,
      "織": 3096,
      "繼": 3097,
      "續": 3098,
      "红": 3099,
      "级": 3100,
      "纪": 3101,
      "纯": 3102,
      "纲": 3103,
      "纵": 3104,
      "线": 3105,
      "组": 3106,
      "绅": 3107,
      "细": 3108,
      "终": 3109,
      "绍": 3110,
      "经": 3111,
      "给": 3112,
      "统": 3113,
      "继": 3114,
      "绮": 3115,
      "维": 3116,
      "综": 3117,
      "缽": 3118,
      "网": 3119,
      "罗": 3120,
      "罠": 3121,
      "罪": 3122,
      "置": 3123,
      "罰": 3124,
      "罸": 3125,
      "羅": 3126,
      "羊": 3127,
      "美": 3128,
      "群": 3129,
      "義": 3130,
      "羽": 3131,
      "翁": 3132,
      "習": 3133,
      "翔": 3134,
      "翘": 3135,
      "翠": 3136,
      "翡": 3137,
      "翱": 3138,
      "翹": 3139,
      "翻": 3140,
      "翼": 3141,
      "老": 3142,
      "考": 3143,
      "者": 3144,
      "耆": 3145,
      "而": 3146,
      "耕": 3147,
      "耳": 3148,
      "耶": 3149,
      "耿": 3150,
      "聃": 3151,
      "联": 3152,
      "聖": 3153,
      "聘": 3154,
      "聚": 3155,
      "聞": 3156,
      "聡": 3157,
      "聯": 3158,
      "聰": 3159,
      "聲": 3160,
      "職": 3161,
      "肃": 3162,
      "肉": 3163,
      "肖": 3164,
      "肚": 3165,
      "股": 3166,
      "肥": 3167,
      "肩": 3168,
      "育": 3169,
      "胞": 3170,
      "胠": 3171,
      "胡": 3172,
      "胤": 3173,
      "胴": 3174,
      "胸": 3175,
      "能": 3176,
      "脂": 3177,
      "脇": 3178,
      "脈": 3179,
      "脉": 3180,
      "脚": 3181,
      "脩": 3182,
      "脱": 3183,
      "脳": 3184,
      "腎": 3185,
      "腐": 3186,
      "腰": 3187,
      "腹": 3188,
      "腿": 3189,
      "膀": 3190,
      "膺": 3191,
      "臂": 3192,
      "臘": 3193,
      "臚": 3194,
      "臣": 3195,
      "臨": 3196,
      "自": 3197,
      "臭": 3198,
      "至": 3199,
      "致": 3200,
      "臺": 3201,
      "與": 3202,
      "興": 3203,
      "舍": 3204,
      "舎": 3205,
      "舞": 3206,
      "舟": 3207,
      "航": 3208,
      "船": 3209,
      "艦": 3210,
      "良": 3211,
      "色": 3212,
      "艳": 3213,
      "艶": 3214,
      "艺": 3215,
      "节": 3216,
      "芒": 3217,
      "芙": 3218,
      "芝": 3219,
      "芦": 3220,
      "芬": 3221,
      "芭": 3222,
      "芮": 3223,
      "芯": 3224,
      "花": 3225,
      "芳": 3226,
      "芸": 3227,
      "芹": 3228,
      "芽": 3229,
      "苏": 3230,
      "苑": 3231,
      "苗": 3232,
      "苣": 3233,
      "若": 3234,
      "英": 3235,
      "苺": 3236,
      "茂": 3237,
      "范": 3238,
      "茅": 3239,
      "茜": 3240,
      "茶": 3241,
      "茸": 3242,
      "草": 3243,
      "荊": 3244,
      "荒": 3245,
      "荔": 3246,
      "荘": 3247,
      "荥": 3248,
      "荪": 3249,
      "荫": 3250,
      "药": 3251,
      "荷": 3252,
      "荻": 3253,
      "荼": 3254,
      "莉": 3255,
      "莊": 3256,
      "莎": 3257,
      "莘": 3258,
      "莞": 3259,
      "莫": 3260,
      "莱": 3261,
      "莲": 3262,
      "莴": 3263,
      "菇": 3264,
      "菉": 3265,
      "菊": 3266,
      "菜": 3267,
      "華": 3268,
      "菱": 3269,
      "菲": 3270,
      "萌": 3271,
      "萍": 3272,
      "萝": 3273,
      "营": 3274,
      "萧": 3275,
      "萨": 3276,
      "萬": 3277,
      "落": 3278,
      "葆": 3279,
      "葉": 3280,
      "著": 3281,
      "葛": 3282,
      "董": 3283,
      "葦": 3284,
      "葫": 3285,
      "葵": 3286,
      "蒙": 3287,
      "蒭": 3288,
      "蒲": 3289,
      "蒼": 3290,
      "蒿": 3291,
      "蓀": 3292,
      "蓑": 3293,
      "蓝": 3294,
      "蓮": 3295,
      "蔡": 3296,
      "蔭": 3297,
      "蔵": 3298,
      "蕃": 3299,
      "蕉": 3300,
      "蕨": 3301,
      "蕩": 3302,
      "蕭": 3303,
      "薇": 3304,
      "薊": 3305,
      "薔": 3306,
      "薙": 3307,
      "薛": 3308,
      "薩": 3309,
      "薫": 3310,
      "薯": 3311,
      "藍": 3312,
      "藏": 3313,
      "藕": 3314,
      "藝": 3315,
      "藤": 3316,
      "藥": 3317,
      "藩": 3318,
      "藻": 3319,
      "蘄": 3320,
      "蘅": 3321,
      "蘇": 3322,
      "蘑": 3323,
      "蘭": 3324,
      "虎": 3325,
      "虐": 3326,
      "虔": 3327,
      "處": 3328,
      "虚": 3329,
      "虛": 3330,
      "號": 3331,
      "虫": 3332,
      "虹": 3333,
      "蛇": 3334,
      "蛍": 3335,
      "蛙": 3336,
      "蛭": 3337,
      "蜃": 3338,
      "蜡": 3339,
      "蝉": 3340,
      "蝕": 3341,
      "蝶": 3342,
      "融": 3343,
      "螺": 3344,
      "蟲": 3345,
      "蠕": 3346,
      "蠻": 3347,
      "血": 3348,
      "衆": 3349,
      "行": 3350,
      "術": 3351,
      "街": 3352,
      "衙": 3353,
      "衛": 3354,
      "衝": 3355,
      "衡": 3356,
      "衢": 3357,
      "衣": 3358,
      "补": 3359,
      "表": 3360,
      "袁": 3361,
      "袈": 3362,
      "袖": 3363,
      "被": 3364,
      "裁": 3365,
      "裂": 3366,
      "装": 3367,
      "裏": 3368,
      "裔": 3369,
      "裕": 3370,
      "補": 3371,
      "裟": 3372,
      "裳": 3373,
      "裸": 3374,
      "製": 3375,
      "褒": 3376,
      "襄": 3377,
      "襟": 3378,
      "襲": 3379,
      "西": 3380,
      "要": 3381,
      "覇": 3382,
      "見": 3383,
      "規": 3384,
      "視": 3385,
      "覚": 3386,
      "親": 3387,
      "観": 3388,
      "覺": 3389,
      "觀": 3390,
      "观": 3391,
      "角": 3392,
      "解": 3393,
      "触": 3394,
      "觳": 3395,
      "言": 3396,
      "計": 3397,
      "記": 3398,
      "設": 3399,
      "許": 3400,
      "訳": 3401,
      "証": 3402,
      "詔": 3403,
      "詞": 3404,
      "詠": 3405,
      "試": 3406,
      "詩": 3407,
      "話": 3408,
      "誌": 3409,
      "誐": 3410,
      "誒": 3411,
      "誓": 3412,
      "誕": 3413,
      "誘": 3414,
      "語": 3415,
      "誠": 3416,
      "誡": 3417,
      "誦": 3418,
      "說": 3419,
      "説": 3420,
      "読": 3421,
      "誰": 3422,
      "課": 3423,
      "調": 3424,
      "談": 3425,
      "論": 3426,
      "諭": 3427,
      "諷": 3428,
      "諸": 3429,
      "謀": 3430,
      "謁": 3431,
      "謎": 3432,
      "謙": 3433,
      "講": 3434,
      "謝": 3435,
      "謡": 3436,
      "識": 3437,
      "譚": 3438,
      "譜": 3439,
      "警": 3440,
      "議": 3441,
      "護": 3442,
      "讀": 3443,
      "變": 3444,
      "讐": 3445,
      "讓": 3446,
      "计": 3447,
      "让": 3448,
      "议": 3449,
      "许": 3450,
      "论": 3451,
      "讼": 3452,
      "诉": 3453,
      "词": 3454,
      "诗": 3455,
      "诚": 3456,
      "话": 3457,
      "语": 3458,
      "诶": 3459,
      "请": 3460,
      "诺": 3461,
      "读": 3462,
      "课": 3463,
      "谁": 3464,
      "谦": 3465,
      "谭": 3466,
      "谷": 3467,
      "豆": 3468,
      "豊": 3469,
      "豌": 3470,
      "豐": 3471,
      "豚": 3472,
      "象": 3473,
      "豪": 3474,
      "豫": 3475,
      "豬": 3476,
      "豹": 3477,
      "貓": 3478,
      "貝": 3479,
      "貞": 3480,
      "負": 3481,
      "財": 3482,
      "貫": 3483,
      "貴": 3484,
      "費": 3485,
      "賀": 3486,
      "資": 3487,
      "賈": 3488,
      "賊": 3489,
      "賓": 3490,
      "賞": 3491,
      "賢": 3492,
      "賦": 3493,
      "質": 3494,
      "購": 3495,
      "贝": 3496,
      "贞": 3497,
      "财": 3498,
      "贤": 3499,
      "质": 3500,
      "贵": 3501,
      "贺": 3502,
      "贼": 3503,
      "资": 3504,
      "赤": 3505,
      "赭": 3506,
      "走": 3507,
      "赵": 3508,
      "起": 3509,
      "超": 3510,
      "越": 3511,
      "趙": 3512,
      "足": 3513,
      "跆": 3514,
      "跑": 3515,
      "跖": 3516,
      "跟": 3517,
      "跡": 3518,
      "路": 3519,
      "跳": 3520,
      "踊": 3521,
      "踏": 3522,
      "踢": 3523,
      "蹴": 3524,
      "身": 3525,
      "車": 3526,
      "軌": 3527,
      "軍": 3528,
      "軒": 3529,
      "転": 3530,
      "軽": 3531,
      "載": 3532,
      "輔": 3533,
      "輛": 3534,
      "輝": 3535,
      "輪": 3536,
      "輿": 3537,
      "轉": 3538,
      "车": 3539,
      "轩": 3540,
      "转": 3541,
      "辆": 3542,
      "辉": 3543,
      "辛": 3544,
      "辣": 3545,
      "辭": 3546,
      "辯": 3547,
      "辰": 3548,
      "農": 3549,
      "边": 3550,
      "辺": 3551,
      "辽": 3552,
      "达": 3553,
      "辿": 3554,
      "迄": 3555,
      "迅": 3556,
      "过": 3557,
      "迈": 3558,
      "运": 3559,
      "近": 3560,
      "返": 3561,
      "这": 3562,
      "进": 3563,
      "远": 3564,
      "迦": 3565,
      "迪": 3566,
      "述": 3567,
      "迷": 3568,
      "追": 3569,
      "送": 3570,
      "适": 3571,
      "逆": 3572,
      "选": 3573,
      "這": 3574,
      "通": 3575,
      "造": 3576,
      "逢": 3577,
      "連": 3578,
      "逯": 3579,
      "週": 3580,
      "進": 3581,
      "遁": 3582,
      "遇": 3583,
      "遊": 3584,
      "運": 3585,
      "遍": 3586,
      "過": 3587,
      "道": 3588,
      "達": 3589,
      "遗": 3590,
      "遙": 3591,
      "遜": 3592,
      "遠": 3593,
      "遥": 3594,
      "遮": 3595,
      "選": 3596,
      "遺": 3597,
      "遼": 3598,
      "避": 3599,
      "邁": 3600,
      "還": 3601,
      "邊": 3602,
      "邑": 3603,
      "邓": 3604,
      "那": 3605,
      "邦": 3606,
      "邪": 3607,
      "邱": 3608,
      "郁": 3609,
      "郊": 3610,
      "郎": 3611,
      "郑": 3612,
      "郛": 3613,
      "郝": 3614,
      "郡": 3615,
      "部": 3616,
      "郭": 3617,
      "郷": 3618,
      "都": 3619,
      "鄧": 3620,
      "鄭": 3621,
      "酈": 3622,
      "酉": 3623,
      "酒": 3624,
      "酔": 3625,
      "酥": 3626,
      "酱": 3627,
      "酷": 3628,
      "酸": 3629,
      "醋": 3630,
      "醒": 3631,
      "醫": 3632,
      "采": 3633,
      "釈": 3634,
      "釋": 3635,
      "里": 3636,
      "重": 3637,
      "野": 3638,
      "量": 3639,
      "金": 3640,
      "釗": 3641,
      "釣": 3642,
      "鈍": 3643,
      "鈴": 3644,
      "鉄": 3645,
      "鉢": 3646,
      "鉦": 3647,
      "鉱": 3648,
      "鉴": 3649,
      "銀": 3650,
      "銃": 3651,
      "銅": 3652,
      "銓": 3653,
      "銖": 3654,
      "銘": 3655,
      "銳": 3656,
      "鋒": 3657,
      "鋪": 3658,
      "鋼": 3659,
      "錄": 3660,
      "錡": 3661,
      "錦": 3662,
      "錬": 3663,
      "録": 3664,
      "鍋": 3665,
      "鍵": 3666,
      "鎖": 3667,
      "鎧": 3668,
      "鎮": 3669,
      "鏡": 3670,
      "鐘": 3671,
      "鐵": 3672,
      "鐸": 3673,
      "鑒": 3674,
      "钊": 3675,
      "钢": 3676,
      "钦": 3677,
      "钱": 3678,
      "铁": 3679,
      "铎": 3680,
      "铜": 3681,
      "铭": 3682,
      "铺": 3683,
      "锡": 3684,
      "键": 3685,
      "镇": 3686,
      "镗": 3687,
      "镜": 3688,
      "長": 3689,
      "长": 3690,
      "門": 3691,
      "閃": 3692,
      "開": 3693,
      "閏": 3694,
      "閒": 3695,
      "間": 3696,
      "関": 3697,
      "閣": 3698,
      "閨": 3699,
      "闇": 3700,
      "闍": 3701,
      "闕": 3702,
      "闘": 3703,
      "關": 3704,
      "门": 3705,
      "问": 3706,
      "闯": 3707,
      "阁": 3708,
      "阪": 3709,
      "防": 3710,
      "阳": 3711,
      "阿": 3712,
      "陀": 3713,
      "附": 3714,
      "际": 3715,
      "陈": 3716,
      "降": 3717,
      "限": 3718,
      "陛": 3719,
      "院": 3720,
      "陣": 3721,
      "除": 3722,
      "陪": 3723,
      "陳": 3724,
      "陵": 3725,
      "陶": 3726,
      "陸": 3727,
      "険": 3728,
      "陽": 3729,
      "隆": 3730,
      "隊": 3731,
      "階": 3732,
      "隔": 3733,
      "隗": 3734,
      "隠": 3735,
      "隣": 3736,
      "隱": 3737,
      "隴": 3738,
      "隸": 3739,
      "隻": 3740,
      "隼": 3741,
      "雀": 3742,
      "雁": 3743,
      "雄": 3744,
      "雅": 3745,
      "集": 3746,
      "雇": 3747,
      "雉": 3748,
      "雎": 3749,
      "雕": 3750,
      "雙": 3751,
      "雛": 3752,
      "雜": 3753,
      "雞": 3754,
      "離": 3755,
      "難": 3756,
      "雨": 3757,
      "雪": 3758,
      "雲": 3759,
      "雳": 3760,
      "零": 3761,
      "雷": 3762,
      "電": 3763,
      "雾": 3764,
      "需": 3765,
      "霆": 3766,
      "震": 3767,
      "霊": 3768,
      "霍": 3769,
      "霖": 3770,
      "霜": 3771,
      "霞": 3772,
      "霧": 3773,
      "霰": 3774,
      "露": 3775,
      "霸": 3776,
      "霹": 3777,
      "靂": 3778,
      "靈": 3779,
      "青": 3780,
      "靖": 3781,
      "静": 3782,
      "非": 3783,
      "靠": 3784,
      "面": 3785,
      "革": 3786,
      "靴": 3787,
      "靼": 3788,
      "鞋": 3789,
      "鞍": 3790,
      "鞠": 3791,
      "韃": 3792,
      "韋": 3793,
      "韓": 3794,
      "韦": 3795,
      "韩": 3796,
      "韭": 3797,
      "音": 3798,
      "韶": 3799,
      "響": 3800,
      "頃": 3801,
      "項": 3802,
      "順": 3803,
      "須": 3804,
      "頌": 3805,
      "領": 3806,
      "頭": 3807,
      "顆": 3808,
      "題": 3809,
      "額": 3810,
      "顏": 3811,
      "顔": 3812,
      "願": 3813,
      "顯": 3814,
      "项": 3815,
      "顾": 3816,
      "颂": 3817,
      "颊": 3818,
      "颖": 3819,
      "颗": 3820,
      "颜": 3821,
      "風": 3822,
      "颪": 3823,
      "颱": 3824,
      "飄": 3825,
      "风": 3826,
      "飛": 3827,
      "飞": 3828,
      "食": 3829,
      "飯": 3830,
      "飾": 3831,
      "餅": 3832,
      "養": 3833,
      "餓": 3834,
      "館": 3835,
      "饼": 3836,
      "馆": 3837,
      "馒": 3838,
      "首": 3839,
      "香": 3840,
      "馬": 3841,
      "馮": 3842,
      "駆": 3843,
      "駐": 3844,
      "駒": 3845,
      "駙": 3846,
      "駢": 3847,
      "駿": 3848,
      "騎": 3849,
      "騒": 3850,
      "験": 3851,
      "騭": 3852,
      "騰": 3853,
      "騷": 3854,
      "驁": 3855,
      "驚": 3856,
      "驤": 3857,
      "马": 3858,
      "驰": 3859,
      "骨": 3860,
      "骸": 3861,
      "髀": 3862,
      "高": 3863,
      "髪": 3864,
      "鬘": 3865,
      "鬥": 3866,
      "鬪": 3867,
      "鬼": 3868,
      "魂": 3869,
      "魄": 3870,
      "魔": 3871,
      "魚": 3872,
      "魯": 3873,
      "鮑": 3874,
      "鮫": 3875,
      "鮮": 3876,
      "鯖": 3877,
      "鯵": 3878,
      "鰐": 3879,
      "鱀": 3880,
      "鱼": 3881,
      "鲁": 3882,
      "鲤": 3883,
      "鳥": 3884,
      "鳩": 3885,
      "鳳": 3886,
      "鳴": 3887,
      "鳶": 3888,
      "鴉": 3889,
      "鴣": 3890,
      "鴨": 3891,
      "鴻": 3892,
      "鵡": 3893,
      "鵩": 3894,
      "鵬": 3895,
      "鶍": 3896,
      "鶴": 3897,
      "鷓": 3898,
      "鷹": 3899,
      "鷺": 3900,
      "鸚": 3901,
      "鸟": 3902,
      "鸡": 3903,
      "鸭": 3904,
      "鸿": 3905,
      "鹅": 3906,
      "鹹": 3907,
      "鹼": 3908,
      "鹽": 3909,
      "鹿": 3910,
      "麗": 3911,
      "麥": 3912,
      "麵": 3913,
      "麻": 3914,
      "麼": 3915,
      "麾": 3916,
      "黃": 3917,
      "黄": 3918,
      "黎": 3919,
      "黑": 3920,
      "黒": 3921,
      "黙": 3922,
      "黛": 3923,
      "黨": 3924,
      "鼉": 3925,
      "鼎": 3926,
      "鼓": 3927,
      "鼠": 3928,
      "鼻": 3929,
      "齉": 3930,
      "齊": 3931,
      "齋": 3932,
      "齐": 3933,
      "龍": 3934,
      "龙": 3935,
      "ꜛ": 3936,
      "ꜜ": 3937,
      "ꜣ": 3938,
      "ꜩ": 3939,
      "ꜫ": 3940,
      "ꜭ": 3941,
      "ꞅ": 3942,
      "ꞎ": 3943,
      "ꞵ": 3944,
      "ꦠ": 3945,
      "ꦯ": 3946,
      "ꦲ": 3947,
      "ꭓ": 3948,
      "ꭰ": 3949,
      "ꭳ": 3950,
      "ꭶ": 3951,
      "ꭸ": 3952,
      "ꭹ": 3953,
      "ꮀ": 3954,
      "ꮃ": 3955,
      "ꮉ": 3956,
      "ꮝ": 3957,
      "ꮿ": 3958,
      "ﬀ": 3959,
      "ﬁ": 3960,
      "ﬂ": 3961,
      "ﮭ": 3962,
      "ﮮ": 3963,
      "ﷲ": 3964,
      "ﷺ": 3965,
      "ﺒ": 3966,
      "ﻉ": 3967,
      "ﻋ": 3968,
      "ﻔ": 3969,
      "ﻴ": 3970,
      "﻿": 3971,
      "！": 3972,
      "％": 3973,
      "＆": 3974,
      "（": 3975,
      "）": 3976,
      "，": 3977,
      "－": 3978,
      "／": 3979,
      "１": 3980,
      "２": 3981,
      "３": 3982,
      "４": 3983,
      "６": 3984,
      "：": 3985,
      "＜": 3986,
      "＝": 3987,
      "＞": 3988,
      "？": 3989,
      "［": 3990,
      "］": 3991,
      "ａ": 3992,
      "ｃ": 3993,
      "ｄ": 3994,
      "ｇ": 3995,
      "ｉ": 3996,
      "ｊ": 3997,
      "ｌ": 3998,
      "ｍ": 3999,
      "ｐ": 4000,
      "ｒ": 4001,
      "ｘ": 4002,
      "｜": 4003,
      "～": 4004,
      "｢": 4005,
      "｣": 4006,
      "･": 4007,
      "ｰ": 4008,
      "￥": 4009,
      "�": 4010,
      "𐀁": 4011,
      "𐀈": 4012,
      "𐀫": 4013,
      "𐎠": 4014,
      "𐎢": 4015,
      "𐎭": 4016,
      "𐎰": 4017,
      "𐎹": 4018,
      "𐎺": 4019,
      "𐎼": 4020,
      "𐏁": 4021,
      "𐭃": 4022,
      "𐭉": 4023,
      "𐭓": 4024,
      "𐭕": 4025,
      "𒀯": 4026,
      "𒀳": 4027,
      "𝕄": 4028,
      "𝕡": 4029,
      "🖕": 4030,
      "##1": 4031,
      "##2": 4032,
      "##7": 4033,
      "##o": 4034,
      "##u": 4035,
      "##n": 4036,
      "##d": 4037,
      "##p": 4038,
      "##c": 4039,
      "##a": 4040,
      "##r": 4041,
      "##t": 4042,
      "##h": 4043,
      "##y": 4044,
      "##i": 4045,
      "##e": 4046,
      "##m": 4047,
      "##v": 4048,
      "##g": 4049,
      "##s": 4050,
      "##l": 4051,
      "##豪": 4052,
      "##の": 4053,
      "##術": 4054,
      "##q": 4055,
      "##f": 4056,
      "##4": 4057,
      "##ǝ": 4058,
      "##ˈ": 4059,
      "##k": 4060,
      "##x": 4061,
      "##b": 4062,
      "##j": 4063,
      "##z": 4064,
      "##0": 4065,
      "##8": 4066,
      "##w": 4067,
      "##6": 4068,
      "##ユ": 4069,
      "##タ": 4070,
      "##マ": 4071,
      "##æ": 4072,
      "##ᵻ": 4073,
      "##ɔ": 4074,
      "##ː": 4075,
      "##а": 4076,
      "##р": 4077,
      "##в": 4078,
      "##斗": 4079,
      "##米": 4080,
      "##道": 4081,
      "##羽": 4082,
      "##3": 4083,
      "##白": 4084,
      "##ɑ": 4085,
      "##ɡ": 4086,
      "##ɪ": 4087,
      "##9": 4088,
      "##ɒ": 4089,
      "##ø": 4090,
      "##5": 4091,
      "##е": 4092,
      "##д": 4093,
      "##о": 4094,
      "##ы": 4095,
      "##и": 4096,
      "##本": 4097,
      "##书": 4098,
      "##ə": 4099,
      "##ー": 4100,
      "##フ": 4101,
      "##ォ": 4102,
      "##ッ": 4103,
      "##ク": 4104,
      "##ス": 4105,
      "##ト": 4106,
      "##キ": 4107,
      "##ャ": 4108,
      "##さ": 4109,
      "##く": 4110,
      "##ら": 4111,
      "##ο": 4112,
      "##υ": 4113,
      "##δ": 4114,
      "##α": 4115,
      "##ι": 4116,
      "##ω": 4117,
      "##ν": 4118,
      "##ϕ": 4119,
      "##ħ": 4120,
      "##μ": 4121,
      "##у": 4122,
      "##ɛ": 4123,
      "##ɐ": 4124,
      "##ʌ": 4125,
      "##へ": 4126,
      "##る": 4127,
      "##も": 4128,
      "##ラ": 4129,
      "##ð": 4130,
      "##đ": 4131,
      "##鼎": 4132,
      "##茶": 4133,
      "##ј": 4134,
      "##ш": 4135,
      "##к": 4136,
      "##馬": 4137,
      "##屋": 4138,
      "##か": 4139,
      "##瞬": 4140,
      "##こ": 4141,
      "##ん": 4142,
      "##な": 4143,
      "##夜": 4144,
      "##に": 4145,
      "##門": 4146,
      "##ʀ": 4147,
      "##н": 4148,
      "##ュ": 4149,
      "##蝕": 4150,
      "##仮": 4151,
      "##面": 4152,
      "##म": 4153,
      "##त": 4154,
      "##ˌ": 4155,
      "##鐘": 4156,
      "##ᅡ": 4157,
      "##ᆫ": 4158,
      "##ᄀ": 4159,
      "##ᅢ": 4160,
      "##ᄋ": 4161,
      "##ᅴ": 4162,
      "##ʱ": 4163,
      "##ʷ": 4164,
      "##ς": 4165,
      "##ʲ": 4166,
      "##ε": 4167,
      "##ァ": 4168,
      "##レ": 4169,
      "##ン": 4170,
      "##र": 4171,
      "##क": 4172,
      "##ч": 4173,
      "##λ": 4174,
      "##η": 4175,
      "##º": 4176,
      "##غ": 4177,
      "##ا": 4178,
      "##栖": 4179,
      "##川": 4180,
      "##重": 4181,
      "##工": 4182,
      "##セ": 4183,
      "##ツ": 4184,
      "##œ": 4185,
      "##ʁ": 4186,
      "##客": 4187,
      "##濃": 4188,
      "##س": 4189,
      "##ر": 4190,
      "##ي": 4191,
      "##ل": 4192,
      "##ו": 4193,
      "##ט": 4194,
      "##א": 4195,
      "##将": 4196,
      "##軍": 4197,
      "##ɖ": 4198,
      "##ʳ": 4199,
      "##澤": 4200,
      "##早": 4201,
      "##雷": 4202,
      "##ł": 4203,
      "##チ": 4204,
      "##ホ": 4205,
      "##ル": 4206,
      "##リ": 4207,
      "##オ": 4208,
      "##サ": 4209,
      "##巫": 4210,
      "##ʻ": 4211,
      "##т": 4212,
      "##я": 4213,
      "##伏": 4214,
      "##景": 4215,
      "##子": 4216,
      "##間": 4217,
      "##ひ": 4218,
      "##と": 4219,
      "##ρ": 4220,
      "##χ": 4221,
      "##ナ": 4222,
      "##を": 4223,
      "##見": 4224,
      "##て": 4225,
      "##い": 4226,
      "##た": 4227,
      "##し": 4228,
      "##烙": 4229,
      "##印": 4230,
      "##向": 4231,
      "##シ": 4232,
      "##า": 4233,
      "##ล": 4234,
      "##ก": 4235,
      "##ข": 4236,
      "##น": 4237,
      "##ใ": 4238,
      "##с": 4239,
      "##ı": 4240,
      "##原": 4241,
      "##ग": 4242,
      "##ß": 4243,
      "##ʃ": 4244,
      "##ь": 4245,
      "##ל": 4246,
      "##ʊ": 4247,
      "##香": 4248,
      "##里": 4249,
      "##頭": 4250,
      "##關": 4251,
      "##з": 4252,
      "##玄": 4253,
      "##爾": 4254,
      "##楼": 4255,
      "##霊": 4256,
      "##神": 4257,
      "##々": 4258,
      "##න": 4259,
      "##ර": 4260,
      "##ධ": 4261,
      "##ප": 4262,
      "##園": 4263,
      "##エ": 4264,
      "##ワ": 4265,
      "##і": 4266,
      "##ю": 4267,
      "##終": 4268,
      "##幻": 4269,
      "##想": 4270,
      "##ب": 4271,
      "##ح": 4272,
      "##洁": 4273,
      "##凤": 4274,
      "##π": 4275,
      "##ա": 4276,
      "##ղ": 4277,
      "##ք": 4278,
      "##ց": 4279,
      "##ի": 4280,
      "##б": 4281,
      "##ع": 4282,
      "##瓦": 4283,
      "##ष": 4284,
      "##恩": 4285,
      "##寺": 4286,
      "##龙": 4287,
      "##经": 4288,
      "##ज": 4289,
      "##פ": 4290,
      "##ה": 4291,
      "##阳": 4292,
      "##长": 4293,
      "##公": 4294,
      "##主": 4295,
      "##ᅩ": 4296,
      "##ᅲ": 4297,
      "##ᄌ": 4298,
      "##ن": 4299,
      "##ص": 4300,
      "##曜": 4301,
      "##は": 4302,
      "##イ": 4303,
      "##ョ": 4304,
      "##ण": 4305,
      "##व": 4306,
      "##न": 4307,
      "##د": 4308,
      "##و": 4309,
      "##ʕ": 4310,
      "##τ": 4311,
      "##σ": 4312,
      "##花": 4313,
      "##春": 4314,
      "##煌": 4315,
      "##θ": 4316,
      "##г": 4317,
      "##莞": 4318,
      "##縣": 4319,
      "##造": 4320,
      "##法": 4321,
      "##式": 4322,
      "##ノ": 4323,
      "##尚": 4324,
      "##義": 4325,
      "##護": 4326,
      "##番": 4327,
      "##谷": 4328,
      "##申": 4329,
      "##テ": 4330,
      "##モ": 4331,
      "##魂": 4332,
      "##ц": 4333,
      "##м": 4334,
      "##盆": 4335,
      "##而": 4336,
      "##歌": 4337,
      "##य": 4338,
      "##ल": 4339,
      "##ह": 4340,
      "##ʒ": 4341,
      "##略": 4342,
      "##ր": 4343,
      "##ξ": 4344,
      "##月": 4345,
      "##溪": 4346,
      "##忘": 4347,
      "##懷": 4348,
      "##錄": 4349,
      "##γ": 4350,
      "##ด": 4351,
      "##แ": 4352,
      "##ง": 4353,
      "##コ": 4354,
      "##ち": 4355,
      "##亀": 4356,
      "##大": 4357,
      "##福": 4358,
      "##β": 4359,
      "##ゆ": 4360,
      "##き": 4361,
      "##甫": 4362,
      "##冉": 4363,
      "##ד": 4364,
      "##ע": 4365,
      "##ן": 4366,
      "##л": 4367,
      "##京": 4368,
      "##賦": 4369,
      "##云": 4370,
      "##清": 4371,
      "##行": 4372,
      "##星": 4373,
      "##ی": 4374,
      "##ɣ": 4375,
      "##ˠ": 4376,
      "##ɨ": 4377,
      "##唄": 4378,
      "##κ": 4379,
      "##官": 4380,
      "##च": 4381,
      "##ר": 4382,
      "##מ": 4383,
      "##נ": 4384,
      "##י": 4385,
      "##ס": 4386,
      "##ש": 4387,
      "##ɲ": 4388,
      "##皇": 4389,
      "##帝": 4390,
      "##剛": 4391,
      "##型": 4392,
      "##巡": 4393,
      "##洋": 4394,
      "##戦": 4395,
      "##艦": 4396,
      "##選": 4397,
      "##ʼ": 4398,
      "##φ": 4399,
      "##श": 4400,
      "##م": 4401,
      "##人": 4402,
      "##द": 4403,
      "##越": 4404,
      "##ج": 4405,
      "##њ": 4406,
      "##信": 4407,
      "##念": 4408,
      "##田": 4409,
      "##亚": 4410,
      "##坤": 4411,
      "##ж": 4412,
      "##如": 4413,
      "##प": 4414,
      "##п": 4415,
      "##夫": 4416,
      "##จ": 4417,
      "##อ": 4418,
      "##ม": 4419,
      "##ร": 4420,
      "##ะ": 4421,
      "##ต": 4422,
      "##พ": 4423,
      "##ท": 4424,
      "##ษ": 4425,
      "##լ": 4426,
      "##կ": 4427,
      "##յ": 4428,
      "##り": 4429,
      "##ゃ": 4430,
      "##生": 4431,
      "##徒": 4432,
      "##会": 4433,
      "##長": 4434,
      "##巨": 4435,
      "##像": 4436,
      "##ʔ": 4437,
      "##ג": 4438,
      "##動": 4439,
      "##士": 4440,
      "##カ": 4441,
      "##ム": 4442,
      "##超": 4443,
      "##百": 4444,
      "##科": 4445,
      "##ζ": 4446,
      "##寔": 4447,
      "##भ": 4448,
      "##利": 4449,
      "##波": 4450,
      "##特": 4451,
      "##與": 4452,
      "##豹": 4453,
      "##走": 4454,
      "##龍": 4455,
      "##เ": 4456,
      "##ป": 4457,
      "##ย": 4458,
      "##村": 4459,
      "##抜": 4460,
      "##刀": 4461,
      "##斎": 4462,
      "##ه": 4463,
      "##ठ": 4464,
      "##ब": 4465,
      "##ハ": 4466,
      "##三": 4467,
      "##所": 4468,
      "##պ": 4469,
      "##ե": 4470,
      "##տ": 4471,
      "##ق": 4472,
      "##め": 4473,
      "##宝": 4474,
      "##石": 4475,
      "##水": 4476,
      "##域": 4477,
      "##स": 4478,
      "##ъ": 4479,
      "##ਸ": 4480,
      "##經": 4481,
      "##ת": 4482,
      "##ர": 4483,
      "##澄": 4484,
      "##个": 4485,
      "##夏": 4486,
      "##物": 4487,
      "##語": 4488,
      "##ヤ": 4489,
      "##贤": 4490,
      "##ड": 4491,
      "##ध": 4492,
      "##救": 4493,
      "##þ": 4494,
      "##納": 4495,
      "##宙": 4496,
      "##東": 4497,
      "##現": 4498,
      "##わ": 4499,
      "##督": 4500,
      "##府": 4501,
      "##ห": 4502,
      "##డ": 4503,
      "##మ": 4504,
      "##乱": 4505,
      "##闘": 4506,
      "##ᅨ": 4507,
      "##ᅭ": 4508,
      "##ᆼ": 4509,
      "##ᄒ": 4510,
      "##ة": 4511,
      "##踊": 4512,
      "##ʾ": 4513,
      "##ব": 4514,
      "##ল": 4515,
      "##গ": 4516,
      "##教": 4517,
      "##հ": 4518,
      "##ն": 4519,
      "##ո": 4520,
      "##ւ": 4521,
      "##ウ": 4522,
      "##話": 4523,
      "##字": 4524,
      "##み": 4525,
      "##ပ": 4526,
      "##င": 4527,
      "##ア": 4528,
      "##ケ": 4529,
      "##ɫ": 4530,
      "##砲": 4531,
      "##ꦲ": 4532,
      "##ꦠ": 4533,
      "##江": 4534,
      "##南": 4535,
      "##ィ": 4536,
      "##木": 4537,
      "##ミ": 4538,
      "##氏": 4539,
      "##ʰ": 4540,
      "##光": 4541,
      "##指": 4542,
      "##圧": 4543,
      "##師": 4544,
      "##天": 4545,
      "##守": 4546,
      "##ヒ": 4547,
      "##輪": 4548,
      "##眼": 4549,
      "##養": 4550,
      "##調": 4551,
      "##せ": 4552,
      "##ល": 4553,
      "##ង": 4554,
      "##ស": 4555,
      "##ម": 4556,
      "##រ": 4557,
      "##ប": 4558,
      "##ទ": 4559,
      "##薇": 4560,
      "##つ": 4561,
      "##ほ": 4562,
      "##妹": 4563,
      "##都": 4564,
      "##不": 4565,
      "##能": 4566,
      "##少": 4567,
      "##ɟ": 4568,
      "##夕": 4569,
      "##焼": 4570,
      "##け": 4571,
      "##ಠ": 4572,
      "##市": 4573,
      "##觀": 4574,
      "##騎": 4575,
      "##警": 4576,
      "##隊": 4577,
      "##ศ": 4578,
      "##港": 4579,
      "##航": 4580,
      "##空": 4581,
      "##司": 4582,
      "##音": 4583,
      "##色": 4584,
      "##话": 4585,
      "##ʿ": 4586,
      "##怪": 4587,
      "##录": 4588,
      "##代": 4589,
      "##補": 4590,
      "##佐": 4591,
      "##明": 4592,
      "##陽": 4593,
      "##町": 4594,
      "##ᄆ": 4595,
      "##ᄇ": 4596,
      "##ᄅ": 4597,
      "##ᅪ": 4598,
      "##勝": 4599,
      "##廟": 4600,
      "##ս": 4601,
      "##海": 4602,
      "##支": 4603,
      "##ส": 4604,
      "##โ": 4605,
      "##ⴰ": 4606,
      "##ⵎ": 4607,
      "##ⵣ": 4608,
      "##ⵉ": 4609,
      "##ⵖ": 4610,
      "##ⵜ": 4611,
      "##ぃ": 4612,
      "##嘘": 4613,
      "##鼓": 4614,
      "##ʑ": 4615,
      "##ʂ": 4616,
      "##断": 4617,
      "##烟": 4618,
      "##火": 4619,
      "##气": 4620,
      "##耳": 4621,
      "##祖": 4622,
      "##読": 4623,
      "##む": 4624,
      "##כ": 4625,
      "##根": 4626,
      "##ɾ": 4627,
      "##ŋ": 4628,
      "##娘": 4629,
      "##育": 4630,
      "##终": 4631,
      "##那": 4632,
      "##ニ": 4633,
      "##ב": 4634,
      "##未": 4635,
      "##來": 4636,
      "##笠": 4637,
      "##惑": 4638,
      "##記": 4639,
      "##メ": 4640,
      "##ས": 4641,
      "##全": 4642,
      "##集": 4643,
      "##塘": 4644,
      "##四": 4645,
      "##山": 4646,
      "##西": 4647,
      "##解": 4648,
      "##黄": 4649,
      "##宣": 4650,
      "##岸": 4651,
      "##禁": 4652,
      "##桑": 4653,
      "##区": 4654,
      "##農": 4655,
      "##手": 4656,
      "##綜": 4657,
      "##ར": 4658,
      "##ख": 4659,
      "##堂": 4660,
      "##正": 4661,
      "##的": 4662,
      "##中": 4663,
      "##國": 4664,
      "##ձ": 4665,
      "##վ": 4666,
      "##ز": 4667,
      "##ء": 4668,
      "##曲": 4669,
      "##ន": 4670,
      "##易": 4671,
      "##極": 4672,
      "##良": 4673,
      "##経": 4674,
      "##ᅮ": 4675,
      "##ᄃ": 4676,
      "##ᆯ": 4677,
      "##ᄈ": 4678,
      "##ᅵ": 4679,
      "##蔵": 4680,
      "##版": 4681,
      "##ף": 4682,
      "##湖": 4683,
      "##风": 4684,
      "##邊": 4685,
      "##界": 4686,
      "##圖": 4687,
      "##よ": 4688,
      "##文": 4689,
      "##庫": 4690,
      "##猿": 4691,
      "##ɮ": 4692,
      "##ว": 4693,
      "##บ": 4694,
      "##ɜ": 4695,
      "##ネ": 4696,
      "##高": 4697,
      "##校": 4698,
      "##劣": 4699,
      "##等": 4700,
      "##ಡ": 4701,
      "##х": 4702,
      "##珂": 4703,
      "##桃": 4704,
      "##儿": 4705,
      "##雲": 4706,
      "##す": 4707,
      "##あ": 4708,
      "##ⴽ": 4709,
      "##ⵓ": 4710,
      "##ⵛ": 4711,
      "##寶": 4712,
      "##え": 4713,
      "##う": 4714,
      "##恋": 4715,
      "##拉": 4716,
      "##斯": 4717,
      "##师": 4718,
      "##井": 4719,
      "##რ": 4720,
      "##ი": 4721,
      "##ს": 4722,
      "##ტ": 4723,
      "##ჱ": 4724,
      "##饼": 4725,
      "##収": 4726,
      "##載": 4727,
      "##უ": 4728,
      "##再": 4729,
      "##屠": 4730,
      "##智": 4731,
      "##牙": 4732,
      "##ت": 4733,
      "##周": 4734,
      "##ק": 4735,
      "##過": 4736,
      "##磨": 4737,
      "##影": 4738,
      "##翼": 4739,
      "##理": 4740,
      "##ش": 4741,
      "##宮": 4742,
      "##国": 4743,
      "##艺": 4744,
      "##蘅": 4745,
      "##ʉ": 4746,
      "##ˣ": 4747,
      "##郎": 4748,
      "##っ": 4749,
      "##始": 4750,
      "##御": 4751,
      "##剣": 4752,
      "##流": 4753,
      "##县": 4754,
      "##צ": 4755,
      "##ᄉ": 4756,
      "##ᅧ": 4757,
      "##意": 4758,
      "##坂": 4759,
      "##ɯ": 4760,
      "##-": 4761,
      "##赭": 4762,
      "##足": 4763,
      "##茸": 4764,
      "##汤": 4765,
      "##赤": 4766,
      "##壁": 4767,
      "##ლ": 4768,
      "##მ": 4769,
      "##წ": 4770,
      "##ფ": 4771,
      "##ე": 4772,
      "##世": 4773,
      "##内": 4774,
      "##弁": 4775,
      "##当": 4776,
      "##女": 4777,
      "##日": 4778,
      "##恵": 4779,
      "##比": 4780,
      "##寿": 4781,
      "##祭": 4782,
      "##為": 4783,
      "##會": 4784,
      "##羅": 4785,
      "##ф": 4786,
      "##狛": 4787,
      "##ロ": 4788,
      "##ণ": 4789,
      "##芳": 4790,
      "##翁": 4791,
      "##ך": 4792,
      "##貝": 4793,
      "##計": 4794,
      "##劃": 4795,
      "##ˢ": 4796,
      "##太": 4797,
      "##സ": 4798,
      "##喜": 4799,
      "##歡": 4800,
      "##你": 4801,
      "##心": 4802,
      "##冒": 4803,
      "##険": 4804,
      "##变": 4805,
      "##成": 4806,
      "##了": 4807,
      "##一": 4808,
      "##棵": 4809,
      "##树": 4810,
      "##弘": 4811,
      "##雄": 4812,
      "##ソ": 4813,
      "##ᅦ": 4814,
      "##ᆨ": 4815,
      "##ᆸ": 4816,
      "##ف": 4817,
      "##我": 4818,
      "##城": 4819,
      "##津": 4820,
      "##島": 4821,
      "##野": 4822,
      "##ᆷ": 4823,
      "##作": 4824,
      "##民": 4825,
      "##学": 4826,
      "##管": 4827,
      "##熊": 4828,
      "##猫": 4829,
      "##凰": 4830,
      "##院": 4831,
      "##前": 4832,
      "##装": 4833,
      "##錬": 4834,
      "##金": 4835,
      "##吟": 4836,
      "##芬": 4837,
      "##突": 4838,
      "##ญ": 4839,
      "##君": 4840,
      "##釗": 4841,
      "##身": 4842,
      "##战": 4843,
      "##輔": 4844,
      "##同": 4845,
      "##榮": 4846,
      "##ɕ": 4847,
      "##両": 4848,
      "##取": 4849,
      "##ತ": 4850,
      "##路": 4851,
      "##བ": 4852,
      "##ག": 4853,
      "##ہ": 4854,
      "##خ": 4855,
      "##ʐ": 4856,
      "##絡": 4857,
      "##地": 4858,
      "##ﬂ": 4859,
      "##霞": 4860,
      "##罸": 4861,
      "##象": 4862,
      "##引": 4863,
      "##八": 4864,
      "##ᛟ": 4865,
      "##ᚾ": 4866,
      "##ᚨ": 4867,
      "##ᚱ": 4868,
      "##ћ": 4869,
      "##戸": 4870,
      "##修": 4871,
      "##平": 4872,
      "##股": 4873,
      "##定": 4874,
      "##遁": 4875,
      "##希": 4876,
      "##概": 4877,
      "##奥": 4878,
      "##ェ": 4879,
      "##虎": 4880,
      "##俊": 4881,
      "##ם": 4882,
      "##摩": 4883,
      "##之": 4884,
      "##継": 4885,
      "##限": 4886,
      "##ट": 4887,
      "##ම": 4888,
      "##淹": 4889,
      "##篇": 4890,
      "##保": 4891,
      "##騒": 4892,
      "##沢": 4893,
      "##樹": 4894,
      "##聖": 4895,
      "##歓": 4896,
      "##号": 4897,
      "##右": 4898,
      "##衛": 4899,
      "##թ": 4900,
      "##ܘ": 4901,
      "##ܠ": 4902,
      "##ܣ": 4903,
      "##康": 4904,
      "##衢": 4905,
      "##輿": 4906,
      "##ల": 4907,
      "##辯": 4908,
      "##圓": 4909,
      "##年": 4910,
      "##和": 4911,
      "##殿": 4912,
      "##蘭": 4913,
      "##豬": 4914,
      "##球": 4915,
      "##入": 4916,
      "##ろ": 4917,
      "##ᄑ": 4918,
      "##ψ": 4919,
      "##砂": 4920,
      "##時": 4921,
      "##戎": 4922,
      "##事": 4923,
      "##件": 4924,
      "##ภ": 4925,
      "##壌": 4926,
      "##翔": 4927,
      "##者": 4928,
      "##書": 4929,
      "##五": 4930,
      "##十": 4931,
      "##回": 4932,
      "##目": 4933,
      "##死": 4934,
      "##撃": 4935,
      "##妙": 4936,
      "##ཁ": 4937,
      "##འ": 4938,
      "##授": 4939,
      "##魔": 4940,
      "##笛": 4941,
      "##奇": 4942,
      "##泉": 4943,
      "##小": 4944,
      "##品": 4945,
      "##讀": 4946,
      "##ᅳ": 4947,
      "##ᄂ": 4948,
      "##ᅥ": 4949,
      "##咫": 4950,
      "##鏡": 4951,
      "##笑": 4952,
      "##顔": 4953,
      "##側": 4954,
      "##異": 4955,
      "##ذ": 4956,
      "##ܕ": 4957,
      "##ܡ": 4958,
      "##ܪ": 4959,
      "##ܬ": 4960,
      "##ܐ": 4961,
      "##ხ": 4962,
      "##ჳ": 4963,
      "##尋": 4964,
      "##ǂ": 4965,
      "##や": 4966,
      "##ね": 4967,
      "##紅": 4968,
      "##牡": 4969,
      "##丹": 4970,
      "##具": 4971,
      "##掛": 4972,
      "##楽": 4973,
      "##ѡ": 4974,
      "##岚": 4975,
      "##监": 4976,
      "##狱": 4977,
      "##靂": 4978,
      "##氣": 4979,
      "##ث": 4980,
      "##閣": 4981,
      "##霖": 4982,
      "##操": 4983,
      "##ʏ": 4984,
      "##器": 4985,
      "##ক": 4986,
      "##ত": 4987,
      "##詩": 4988,
      "##英": 4989,
      "##门": 4990,
      "##郁": 4991,
      "##ま": 4992,
      "##藤": 4993,
      "##業": 4994,
      "##ז": 4995,
      "##姫": 4996,
      "##血": 4997,
      "##編": 4998,
      "##ქ": 4999,
      "##ა": 5000,
      "##ნ": 5001,
      "##დ": 5002,
      "##ك": 5003,
      "##沉": 5004,
      "##ヌ": 5005,
      "##拏": 5006,
      "##感": 5007,
      "##謝": 5008,
      "##补": 5009,
      "##孔": 5010,
      "##雀": 5011,
      "##報": 5012,
      "##ན": 5013,
      "##銖": 5014,
      "##ヘ": 5015,
      "##پ": 5016,
      "##ይ": 5017,
      "##ኲ": 5018,
      "##ን": 5019,
      "##ぅ": 5020,
      "##問": 5021,
      "##題": 5022,
      "##検": 5023,
      "##証": 5024,
      "##告": 5025,
      "##贝": 5026,
      "##娜": 5027,
      "##永": 5028,
      "##羊": 5029,
      "##雕": 5030,
      "##ى": 5031,
      "##秀": 5032,
      "##习": 5033,
      "##親": 5034,
      "##美": 5035,
      "##模": 5036,
      "##晶": 5037,
      "##鬼": 5038,
      "##封": 5039,
      "##尽": 5040,
      "##下": 5041,
      "##ำ": 5042,
      "##孟": 5043,
      "##堅": 5044,
      "##數": 5045,
      "##బ": 5046,
      "##沒": 5047,
      "##到": 5048,
      "##坊": 5049,
      "##州": 5050,
      "##萬": 5051,
      "##շ": 5052,
      "##来": 5053,
      "##挑": 5054,
      "##չ": 5055,
      "##ը": 5056,
      "##陛": 5057,
      "##ᅫ": 5058,
      "##ɭ": 5059,
      "##館": 5060,
      "##住": 5061,
      "##乘": 5062,
      "##थ": 5063,
      "##風": 5064,
      "##迷": 5065,
      "##照": 5066,
      "##尺": 5067,
      "##王": 5068,
      "##щ": 5069,
      "##ல": 5070,
      "##ங": 5071,
      "##櫓": 5072,
      "##稚": 5073,
      "##է": 5074,
      "##期": 5075,
      "##净": 5076,
      "##ɹ": 5077,
      "##陵": 5078,
      "##線": 5079,
      "##ய": 5080,
      "##伝": 5081,
      "##説": 5082,
      "##瑜": 5083,
      "##髀": 5084,
      "##算": 5085,
      "##商": 5086,
      "##枝": 5087,
      "##ض": 5088,
      "##浦": 5089,
      "##二": 5090,
      "##次": 5091,
      "##お": 5092,
      "##殻": 5093,
      "##機": 5094,
      "##ฤ": 5095,
      "##倉": 5096,
      "##雙": 5097,
      "##塚": 5098,
      "##瀬": 5099,
      "##ᆺ": 5100,
      "##մ": 5101,
      "##գ": 5102,
      "##植": 5103,
      "##ゑ": 5104,
      "##憎": 5105,
      "##荻": 5106,
      "##葉": 5107,
      "##哉": 5108,
      "##健": 5109,
      "##牢": 5110,
      "##戰": 5111,
      "##德": 5112,
      "##座": 5113,
      "##沛": 5114,
      "##寧": 5115,
      "##塔": 5116,
      "##,": 5117,
      "##@": 5118,
      "##果": 5119,
      "##昌": 5120,
      "##හ": 5121,
      "##鷓": 5122,
      "##鴣": 5123,
      "##ʋ": 5124,
      "##ˑ": 5125,
      "##օ": 5126,
      "##宿": 5127,
      "##顯": 5128,
      "##家": 5129,
      "##抄": 5130,
      "##鼻": 5131,
      "##丑": 5132,
      "##宅": 5133,
      "##善": 5134,
      "##學": 5135,
      "##侯": 5136,
      "##穌": 5137,
      "##覚": 5138,
      "##朝": 5139,
      "##隣": 5140,
      "##無": 5141,
      "##舎": 5142,
      "##句": 5143,
      "##合": 5144,
      "##ค": 5145,
      "##賢": 5146,
      "##磅": 5147,
      "##使": 5148,
      "##复": 5149,
      "##寄": 5150,
      "##ష": 5151,
      "##ළ": 5152,
      "##ය": 5153,
      "##言": 5154,
      "##ץ": 5155,
      "##名": 5156,
      "##童": 5157,
      "##ฎ": 5158,
      "##歩": 5159,
      "##脂": 5160,
      "##零": 5161,
      "##外": 5162,
      "##裏": 5163,
      "##軽": 5164,
      "##真": 5165,
      "##வ": 5166,
      "##ன": 5167,
      "##ซ": 5168,
      "##ಲ": 5169,
      "##ಕ": 5170,
      "##給": 5171,
      "##潜": 5172,
      "##榔": 5173,
      "##嶼": 5174,
      "##船": 5175,
      "##綱": 5176,
      "##権": 5177,
      "##述": 5178,
      "##尧": 5179,
      "##橋": 5180,
      "##雅": 5181,
      "##則": 5182,
      "##鈍": 5183,
      "##ᄎ": 5184,
      "##漢": 5185,
      "##鳥": 5186,
      "##池": 5187,
      "##鎮": 5188,
      "##雞": 5189,
      "##渡": 5190,
      "##附": 5191,
      "##台": 5192,
      "##棟": 5193,
      "##裕": 5194,
      "##泊": 5195,
      "##場": 5196,
      "##ょ": 5197,
      "##奉": 5198,
      "##仕": 5199,
      "##.": 5200,
      "##独": 5201,
      "##関": 5202,
      "##係": 5203,
      "##ɦ": 5204,
      "##థ": 5205,
      "##ゅ": 5206,
      "##փ": 5207,
      "##骨": 5208,
      "##嵐": 5209,
      "##ᄐ": 5210,
      "##雪": 5211,
      "##ふ": 5212,
      "##迄": 5213,
      "##ɳ": 5214,
      "##忍": 5215,
      "##𐎠": 5216,
      "##𐎼": 5217,
      "##𐎹": 5218,
      "##𐎢": 5219,
      "##𐏁": 5220,
      "##桀": 5221,
      "##唱": 5222,
      "##団": 5223,
      "##词": 5224,
      "##化": 5225,
      "##役": 5226,
      "##线": 5227,
      "##曦": 5228,
      "##ח": 5229,
      "##乃": 5230,
      "##裳": 5231,
      "##魚": 5232,
      "##仙": 5233,
      "##震": 5234,
      "##ฐ": 5235,
      "##族": 5236,
      "##分": 5237,
      "##墓": 5238,
      "##刷": 5239,
      "##表": 5240,
      "##熱": 5241,
      "##ሐ": 5242,
      "##ዘ": 5243,
      "##በ": 5244,
      "##拳": 5245,
      "##知": 5246,
      "##茂": 5247,
      "##鬪": 5248,
      "##ظ": 5249,
      "##խ": 5250,
      "##蓝": 5251,
      "##达": 5252,
      "##զ": 5253,
      "##口": 5254,
      "##樂": 5255,
      "##廻": 5256,
      "##螺": 5257,
      "##旋": 5258,
      "##ட": 5259,
      "##昂": 5260,
      "##军": 5261,
      "##桥": 5262,
      "##憑": 5263,
      "##ɻ": 5264,
      "##房": 5265,
      "##ゥ": 5266,
      "##ⴻ": 5267,
      "##ⴳ": 5268,
      "##ᛁ": 5269,
      "##ᛚ": 5270,
      "##ᚷ": 5271,
      "##ک": 5272,
      "##査": 5273,
      "##兵": 5274,
      "##芦": 5275,
      "##卦": 5276,
      "##儀": 5277,
      "##ঙ": 5278,
      "##প": 5279,
      "##ৰ": 5280,
      "##臂": 5281,
      "##膀": 5282,
      "##遼": 5283,
      "##ผ": 5284,
      "##ʎ": 5285,
      "##µ": 5286,
      "##ც": 5287,
      "##愛": 5288,
      "##毛": 5289,
      "##華": 5290,
      "##写": 5291,
      "##父": 5292,
      "##史": 5293,
      "##郡": 5294,
      "##閃": 5295,
      "##ط": 5296,
      "##ヶ": 5297,
      "##出": 5298,
      "##ช": 5299,
      "##崎": 5300,
      "##颊": 5301,
      "##河": 5302,
      "##様": 5303,
      "##傭": 5304,
      "##尉": 5305,
      "##蒲": 5306,
      "##藏": 5307,
      "##歷": 5308,
      "##玉": 5309,
      "##ណ": 5310,
      "##槐": 5311,
      "##探": 5312,
      "##堀": 5313,
      "##れ": 5314,
      "##宏": 5315,
      "##決": 5316,
      "##ᇂ": 5317,
      "##芸": 5318,
      "##ܗ": 5319,
      "##連": 5320,
      "##ট": 5321,
      "##武": 5322,
      "##總": 5323,
      "##要": 5324,
      "##社": 5325,
      "##閒": 5326,
      "##瑠": 5327,
      "##罠": 5328,
      "##方": 5329,
      "##朱": 5330,
      "##辆": 5331,
      "##车": 5332,
      "##陣": 5333,
      "##ვ": 5334,
      "##თ": 5335,
      "##首": 5336,
      "##半": 5337,
      "##自": 5338,
      "##然": 5339,
      "##鱀": 5340,
      "##豚": 5341,
      "##护": 5342,
      "##菜": 5343,
      "##安": 5344,
      "##墙": 5345,
      "##林": 5346,
      "##列": 5347,
      "##综": 5348,
      "##厦": 5349,
      "##車": 5350,
      "##ང": 5351,
      "##砖": 5352,
      "##梅": 5353,
      "##ถ": 5354,
      "##帮": 5355,
      "##ܔ": 5356,
      "##卫": 5357,
      "##华": 5358,
      "##徽": 5359,
      "##六": 5360,
      "##籃": 5361,
      "##草": 5362,
      "##є": 5363,
      "##斤": 5364,
      "##ᶷ": 5365,
      "##渦": 5366,
      "##维": 5367,
      "##若": 5368,
      "##狂": 5369,
      "##吹": 5370,
      "##直": 5371,
      "##莊": 5372,
      "##在": 5373,
      "##力": 5374,
      "##図": 5375,
      "##万": 5376,
      "##秒": 5377,
      "##问": 5378,
      "##答": 5379,
      "##ѧ": 5380,
      "##ம": 5381,
      "##袈": 5382,
      "##裟": 5383,
      "##遠": 5384,
      "##ˤ": 5385,
      "##男": 5386,
      "##跡": 5387,
      "##苣": 5388,
      "##极": 5389,
      "##图": 5390,
      "##央": 5391,
      "##卸": 5392,
      "##売": 5393,
      "##蛇": 5394,
      "##薙": 5395,
      "##找": 5396,
      "##鸟": 5397,
      "##３": 5398,
      "##姉": 5399,
      "##劍": 5400,
      "##翹": 5401,
      "##醫": 5402,
      "##令": 5403,
      "##豫": 5404,
      "##屍": 5405,
      "##転": 5406,
      "##切": 5407,
      "##札": 5408,
      "##旗": 5409,
      "##囂": 5410,
      "##犬": 5411,
      "##區": 5412,
      "##聘": 5413,
      "##用": 5414,
      "##庭": 5415,
      "##桓": 5416,
      "##酥": 5417,
      "##鸡": 5418,
      "##亨": 5419,
      "##ۍ": 5420,
      "##届": 5421,
      "##季": 5422,
      "##青": 5423,
      "##匹": 5424,
      "##克": 5425,
      "##运": 5426,
      "##动": 5427,
      "##胞": 5428,
      "##怎": 5429,
      "##么": 5430,
      "##过": 5431,
      "##遊": 5432,
      "##獵": 5433,
      "##久": 5434,
      "##毘": 5435,
      "##恭": 5436,
      "##介": 5437,
      "##儡": 5438,
      "##ฟ": 5439,
      "##宋": 5440,
      "##興": 5441,
      "##岳": 5442,
      "##傳": 5443,
      "##ธ": 5444,
      "##ณ": 5445,
      "##ฑ": 5446,
      "##焉": 5447,
      "##ɽ": 5448,
      "##部": 5449,
      "##省": 5450,
      "##և": 5451,
      "##範": 5452,
      "##轩": 5453,
      "##俱": 5454,
      "##乐": 5455,
      "##裂": 5456,
      "##病": 5457,
      "##締": 5458,
      "##素": 5459,
      "##质": 5460,
      "##壷": 5461,
      "##旦": 5462,
      "##ไ": 5463,
      "##讐": 5464,
      "##բ": 5465,
      "##徹": 5466,
      "##底": 5467,
      "##析": 5468,
      "##吸": 5469,
      "##丸": 5470,
      "##佳": 5471,
      "##私": 5472,
      "##塊": 5473,
      "##盒": 5474,
      "##灯": 5475,
      "##泡": 5476,
      "##弥": 5477,
      "##柆": 5478,
      "##志": 5479,
      "##思": 5480,
      "##元": 5481,
      "##帥": 5482,
      "##梁": 5483,
      "##蝶": 5484,
      "##ƒ": 5485,
      "##历": 5486,
      "##望": 5487,
      "##ச": 5488,
      "##ђ": 5489,
      "##居": 5490,
      "##進": 5491,
      "##祿": 5492,
      "##勳": 5493,
      "##組": 5494,
      "##堡": 5495,
      "##包": 5496,
      "##ព": 5497,
      "##章": 5498,
      "##紡": 5499,
      "##七": 5500,
      "##災": 5501,
      "##們": 5502,
      "##起": 5503,
      "##追": 5504,
      "##孩": 5505,
      "##杜": 5506,
      "##ڠ": 5507,
      "##ڬ": 5508,
      "##ɢ": 5509,
      "##段": 5510,
      "##爆": 5511,
      "##狩": 5512,
      "##刃": 5513,
      "##圣": 5514,
      "##东": 5515,
      "##站": 5516,
      "##侍": 5517,
      "##堯": 5518,
      "##漫": 5519,
      "##画": 5520,
      "##ｃ": 5521,
      "##ｄ": 5522,
      "##祺": 5523,
      "##満": 5524,
      "##争": 5525,
      "##秋": 5526,
      "##爵": 5527,
      "##ռ": 5528,
      "##标": 5529,
      "##伊": 5530,
      "##壽": 5531,
      "##ብ": 5532,
      "##夢": 5533,
      "##譚": 5534,
      "##約": 5535,
      "##盟": 5536,
      "##牧": 5537,
      "##質": 5538,
      "##変": 5539,
      "##跖": 5540,
      "##賊": 5541,
      "##虹": 5542,
      "##闇": 5543,
      "##敬": 5544,
      "##剧": 5545,
      "##統": 5546,
      "##急": 5547,
      "##打": 5548,
      "##上": 5549,
      "##љ": 5550,
      "##改": 5551,
      "##莉": 5552,
      "##揺": 5553,
      "##郷": 5554,
      "##э": 5555,
      "##博": 5556,
      "##馆": 5557,
      "##楚": 5558,
      "##竹": 5559,
      "##制": 5560,
      "##度": 5561,
      "##判": 5562,
      "##盼": 5563,
      "##亮": 5564,
      "##翱": 5565,
      "##ဟ": 5566,
      "##န": 5567,
      "##議": 5568,
      "##衡": 5569,
      "##供": 5570,
      "##延": 5571,
      "##兰": 5572,
      "##ϑ": 5573,
      "##琴": 5574,
      "##何": 5575,
      "##时": 5576,
      "##跟": 5577,
      "##凯": 5578,
      "##富": 5579,
      "##脈": 5580,
      "##辭": 5581,
      "##礁": 5582,
      "##創": 5583,
      "##留": 5584,
      "##簿": 5585,
      "##通": 5586,
      "##晋": 5587,
      "##第": 5588,
      "##活": 5589,
      "##ᛇ": 5590,
      "##ᛋ": 5591,
      "##ᚻ": 5592,
      "##ᛠ": 5593,
      "##ᛞ": 5594,
      "##局": 5595,
      "##ⵔ": 5596,
      "##ⴼ": 5597,
      "##ⵏ": 5598,
      "##ត": 5599,
      "##憶": 5600,
      "##棘": 5601,
      "##鉄": 5602,
      "##柩": 5603,
      "##گ": 5604,
      "##ە": 5605,
      "##可": 5606,
      "##汗": 5607,
      "##դ": 5608,
      "##蓮": 5609,
      "##弓": 5610,
      "##矢": 5611,
      "##ბ": 5612,
      "##ძ": 5613,
      "##ɵ": 5614,
      "##律": 5615,
      "##ჲ": 5616,
      "##ⴷ": 5617,
      "##命": 5618,
      "##古": 5619,
      "##県": 5620,
      "##浜": 5621,
      "##ѣ": 5622,
      "##棍": 5623,
      "##蛙": 5624,
      "##飛": 5625,
      "##ন": 5626,
      "##肉": 5627,
      "##確": 5628,
      "##録": 5629,
      "##多": 5630,
      "##侨": 5631,
      "##እ": 5632,
      "##ስ": 5633,
      "##የ": 5634,
      "##奈": 5635,
      "##治": 5636,
      "##泾": 5637,
      "##舞": 5638,
      "##孛": 5639,
      "##份": 5640,
      "##有": 5641,
      "##柏": 5642,
      "##ᵀ": 5643,
      "##ᅱ": 5644,
      "##ᅯ": 5645,
      "##葵": 5646,
      "##他": 5647,
      "##共": 5648,
      "##栄": 5649,
      "##苺": 5650,
      "##盤": 5651,
      "##征": 5652,
      "##គ": 5653,
      "##ខ": 5654,
      "##隱": 5655,
      "##服": 5656,
      "##銃": 5657,
      "##吳": 5658,
      "##ջ": 5659,
      "##ծ": 5660,
      "##庆": 5661,
      "##発": 5662,
      "##課": 5663,
      "##後": 5664,
      "##阪": 5665,
      "##研": 5666,
      "##究": 5667,
      "##腐": 5668,
      "##渣": 5669,
      "##程": 5670,
      "##ङ": 5671,
      "##銀": 5672,
      "##先": 5673,
      "##荘": 5674,
      "##灣": 5675,
      "##堆": 5676,
      "##填": 5677,
      "##屬": 5678,
      "##尾": 5679,
      "##狐": 5680,
      "##ⁿ": 5681,
      "##案": 5682,
      "##參": 5683,
      "##考": 5684,
      "##資": 5685,
      "##料": 5686,
      "##角": 5687,
      "##以": 5688,
      "##关": 5689,
      "##酷": 5690,
      "##邪": 5691,
      "##岐": 5692,
      "##ᵝ": 5693,
      "##雎": 5694,
      "##鳩": 5695,
      "##劇": 5696,
      "##ɺ": 5697,
      "##皮": 5698,
      "##伴": 5699,
      "##尼": 5700,
      "##夤": 5701,
      "##籍": 5702,
      "##散": 5703,
      "##將": 5704,
      "##釈": 5705,
      "##系": 5706,
      "##ऽ": 5707,
      "##ﬁ": 5708,
      "##鷺": 5709,
      "##沙": 5710,
      "##耶": 5711,
      "##実": 5712,
      "##母": 5713,
      "##罪": 5714,
      "##嫁": 5715,
      "##気": 5716,
      "##አ": 5717,
      "##弦": 5718,
      "##形": 5719,
      "##占": 5720,
      "##鵬": 5721,
      "##達": 5722,
      "##ܝ": 5723,
      "##ܢ": 5724,
      "##仲": 5725,
      "##放": 5726,
      "##送": 5727,
      "##簡": 5728,
      "##悠": 5729,
      "##灵": 5730,
      "##宫": 5731,
      "##鍵": 5732,
      "##板": 5733,
      "##政": 5734,
      "##ө": 5735,
      "##节": 5736,
      "##课": 5737,
      "##鶴": 5738,
      "##丈": 5739,
      "##謎": 5740,
      "##休": 5741,
      "##規": 5742,
      "##ম": 5743,
      "##棚": 5744,
      "##裁": 5745,
      "##談": 5746,
      "##登": 5747,
      "##技": 5748,
      "##翠": 5749,
      "##缽": 5750,
      "##鹼": 5751,
      "##滿": 5752,
      "##洲": 5753,
      "##典": 5754,
      "##禮": 5755,
      "##李": 5756,
      "##豊": 5757,
      "##孫": 5758,
      "##鎖": 5759,
      "##斬": 5760,
      "##狗": 5761,
      "##需": 5762,
      "##慧": 5763,
      "##巳": 5764,
      "##落": 5765,
      "##格": 5766,
      "##后": 5767,
      "##呂": 5768,
      "##蕉": 5769,
      "##抓": 5770,
      "##双": 5771,
      "##性": 5772,
      "##ო": 5773,
      "##ꮝ": 5774,
      "##ꭶ": 5775,
      "##ꮿ": 5776,
      "##鐵": 5777,
      "##員": 5778,
      "##別": 5779,
      "##協": 5780,
      "##籌": 5781,
      "##備": 5782,
      "##菇": 5783,
      "##綾": 5784,
      "##វ": 5785,
      "##க": 5786,
      "##友": 5787,
      "##韶": 5788,
      "##ʽ": 5789,
      "##檻": 5790,
      "##幸": 5791,
      "##欠": 5792,
      "##片": 5793,
      "##ள": 5794,
      "##忠": 5795,
      "##割": 5796,
      "##沂": 5797,
      "##室": 5798,
      "##硝": 5799,
      "##円": 5800,
      "##妮": 5801,
      "##投": 5802,
      "##票": 5803,
      "##促": 5804,
      "##恒": 5805,
      "##ھ": 5806,
      "##狸": 5807,
      "##精": 5808,
      "##也": 5809,
      "##ᒡ": 5810,
      "##ᓘ": 5811,
      "##ᑲ": 5812,
      "##藥": 5813,
      "##细": 5814,
      "##喝": 5815,
      "##彩": 5816,
      "##産": 5817,
      "##庙": 5818,
      "##彦": 5819,
      "##節": 5820,
      "##语": 5821,
      "##汇": 5822,
      "##与": 5823,
      "##汉": 5824,
      "##级": 5825,
      "##纲": 5826,
      "##沖": 5827,
      "##敵": 5828,
      "##ں": 5829,
      "##葆": 5830,
      "##常": 5831,
      "##𒀳": 5832,
      "##燈": 5833,
      "##ʈ": 5834,
      "##ਝ": 5835,
      "##ఠ": 5836,
      "##採": 5837,
      "##購": 5838,
      "##陸": 5839,
      "##鴻": 5840,
      "##漸": 5841,
      "##棲": 5842,
      "##采": 5843,
      "##宵": 5844,
      "##隠": 5845,
      "##户": 5846,
      "##স": 5847,
      "##দ": 5848,
      "##糖": 5849,
      "##岛": 5850,
      "##帆": 5851,
      "##布": 5852,
      "##彼": 5853,
      "##ᅣ": 5854,
      "##鹿": 5855,
      "##裔": 5856,
      "##𐭉": 5857,
      "##𐭓": 5858,
      "##𐭃": 5859,
      "##𐭕": 5860,
      "##貞": 5861,
      "##北": 5862,
      "##僕": 5863,
      "##ﮭ": 5864,
      "##ﻔ": 5865,
      "##ᡝ": 5866,
      "##ᠴ": 5867,
      "##ᡵ": 5868,
      "##失": 5869,
      "##好": 5870,
      "##弟": 5871,
      "##廿": 5872,
      "##ಬ": 5873,
      "##難": 5874,
      "##涙": 5875,
      "##ɬ": 5876,
      "##痴": 5877,
      "##ｒ": 5878,
      "##ｐ": 5879,
      "##ｇ": 5880,
      "##इ": 5881,
      "##返": 5882,
      "##持": 5883,
      "##ꜜ": 5884,
      "##𐎰": 5885,
      "##润": 5886,
      "##姦": 5887,
      "##賀": 5888,
      "##扉": 5889,
      "##ჯ": 5890,
      "##悟": 5891,
      "##ច": 5892,
      "##ក": 5893,
      "##ˀ": 5894,
      "##烏": 5895,
      "##珙": 5896,
      "##尸": 5897,
      "##藩": 5898,
      "##宇": 5899,
      "##议": 5900,
      "##聲": 5901,
      "##马": 5902,
      "##珍": 5903,
      "##药": 5904,
      "##ಮ": 5905,
      "##ಶ": 5906,
      "##婷": 5907,
      "##運": 5908,
      "##乙": 5909,
      "##ሥ": 5910,
      "##ሓ": 5911,
      "##涼": 5912,
      "##奏": 5913,
      "##臣": 5914,
      "##譜": 5915,
      "##勃": 5916,
      "##医": 5917,
      "##蒿": 5918,
      "##紀": 5919,
      "##梦": 5920,
      "##厩": 5921,
      "##種": 5922,
      "##例": 5923,
      "##鸿": 5924,
      "##撲": 5925,
      "##建": 5926,
      "##联": 5927,
      "##謀": 5928,
      "##篋": 5929,
      "##職": 5930,
      "##境": 5931,
      "##杏": 5932,
      "##消": 5933,
      "##論": 5934,
      "##扇": 5935,
      "##衙": 5936,
      "##倫": 5937,
      "##減": 5938,
      "##ⵍ": 5939,
      "##誘": 5940,
      "##拐": 5941,
      "##爱": 5942,
      "##尔": 5943,
      "##雁": 5944,
      "##仪": 5945,
      "##ජ": 5946,
      "##យ": 5947,
      "##姬": 5948,
      "##妻": 5949,
      "##予": 5950,
      "##相": 5951,
      "##酒": 5952,
      "##兆": 5953,
      "##吾": 5954,
      "##ᵿ": 5955,
      "##淵": 5956,
      "##酸": 5957,
      "##竺": 5958,
      "##鼠": 5959,
      "##束": 5960,
      "##稷": 5961,
      "##悦": 5962,
      "##敦": 5963,
      "##漁": 5964,
      "##旅": 5965,
      "##হ": 5966,
      "##য": 5967,
      "##ನ": 5968,
      "##唯": 5969,
      "##尊": 5970,
      "##佛": 5971,
      "##刘": 5972,
      "##亦": 5973,
      "##ƀ": 5974,
      "##瑞": 5975,
      "##温": 5976,
      "##昏": 5977,
      "##交": 5978,
      "##差": 5979,
      "##点": 5980,
      "##穂": 5981,
      "##边": 5982,
      "##糸": 5983,
      "##潤": 5984,
      "##വ": 5985,
      "##ശ": 5986,
      "##秘": 5987,
      "##ஸ": 5988,
      "##雜": 5989,
      "##绍": 5990,
      "##辉": 5991,
      "##勘": 5992,
      "##最": 5993,
      "##玲": 5994,
      "##曆": 5995,
      "##看": 5996,
      "##兩": 5997,
      "##個": 5998,
      "##壯": 5999,
      "##腎": 6000,
      "##賈": 6001,
      "##ɥ": 6002,
      "##ந": 6003,
      "##序": 6004,
      "##翻": 6005,
      "##坝": 6006,
      "##铁": 6007,
      "##今": 6008,
      "##奴": 6009,
      "##ܒ": 6010,
      "##崇": 6011,
      "##穗": 6012,
      "##冶": 6013,
      "##ｰ": 6014,
      "##虔": 6015,
      "##厥": 6016,
      "##叉": 6017,
      "##降": 6018,
      "##誕": 6019,
      "##積": 6020,
      "##跳": 6021,
      "##還": 6022,
      "##願": 6023,
      "##ව": 6024,
      "##ල": 6025,
      "##苑": 6026,
      "##亞": 6027,
      "##ञ": 6028,
      "##彭": 6029,
      "##土": 6030,
      "##禾": 6031,
      "##姑": 6032,
      "##說": 6033,
      "##對": 6034,
      "##刊": 6035,
      "##蠕": 6036,
      "##қ": 6037,
      "##घ": 6038,
      "##ｍ": 6039,
      "##ａ": 6040,
      "##２": 6041,
      "##綯": 6042,
      "##红": 6043,
      "##မ": 6044,
      "##縄": 6045,
      "##吧": 6046,
      "##宗": 6047,
      "##疾": 6048,
      "##勅": 6049,
      "##ⵙ": 6050,
      "##ⵡ": 6051,
      "##ር": 6052,
      "##危": 6053,
      "##机": 6054,
      "##抱": 6055,
      "##ដ": 6056,
      "##瓢": 6057,
      "##箪": 6058,
      "##র": 6059,
      "##磲": 6060,
      "##碗": 6061,
      "##薔": 6062,
      "##窟": 6063,
      "##`": 6064,
      "##權": 6065,
      "##剑": 6066,
      "##翘": 6067,
      "##森": 6068,
      "##宸": 6069,
      "##绮": 6070,
      "##靼": 6071,
      "##漂": 6072,
      "##郛": 6073,
      "##電": 6074,
      "##ರ": 6075,
      "##ದ": 6076,
      "##ಸ": 6077,
      "##१": 6078,
      "##愍": 6079,
      "##鋼": 6080,
      "##着": 6081,
      "##悪": 6082,
      "##貫": 6083,
      "##த": 6084,
      "##勢": 6085,
      "##湾": 6086,
      "##ᄏ": 6087,
      "##芒": 6088,
      "##迦": 6089,
      "##养": 6090,
      "##们": 6091,
      "##邦": 6092,
      "##総": 6093,
      "##狀": 6094,
      "##標": 6095,
      "##卿": 6096,
      "##渠": 6097,
      "##ƿ": 6098,
      "##愁": 6099,
      "##宜": 6100,
      "##苗": 6101,
      "##კ": 6102,
      "##昭": 6103,
      "##辰": 6104,
      "##絶": 6105,
      "##騷": 6106,
      "##付": 6107,
      "##杯": 6108,
      "##ལ": 6109,
      "##衝": 6110,
      "##卖": 6111,
      "##静": 6112,
      "##寂": 6113,
      "##刻": 6114,
      "##چ": 6115,
      "##圏": 6116,
      "##新": 6117,
      "##依": 6118,
      "##冬": 6119,
      "##注": 6120,
      "##咲": 6121,
      "##蕩": 6122,
      "##息": 6123,
      "##柱": 6124,
      "##卒": 6125,
      "##蓑": 6126,
      "##千": 6127,
      "##吉": 6128,
      "##源": 6129,
      "##ฬ": 6130,
      "##脉": 6131,
      "##蒭": 6132,
      "##ʝ": 6133,
      "##祀": 6134,
      "##糊": 6135,
      "##请": 6136,
      "##舍": 6137,
      "##菊": 6138,
      "##攝": 6139,
      "##ሕ": 6140,
      "##ዛ": 6141,
      "##竜": 6142,
      "##情": 6143,
      "##株": 6144,
      "##対": 6145,
      "##応": 6146,
      "##币": 6147,
      "##屿": 6148,
      "##端": 6149,
      "##决": 6150,
      "##坡": 6151,
      "##ѹ": 6152,
      "##紋": 6153,
      "##ደ": 6154,
      "##ሰ": 6155,
      "##沽": 6156,
      "##菱": 6157,
      "##პ": 6158,
      "##蔭": 6159,
      "##体": 6160,
      "##置": 6161,
      "##ⅱ": 6162,
      "##掲": 6163,
      "##示": 6164,
      "##響": 6165,
      "##妃": 6166,
      "##财": 6167,
      "##萨": 6168,
      "##际": 6169,
      "##從": 6170,
      "##禰": 6171,
      "##梭": 6172,
      "##耕": 6173,
      "##莘": 6174,
      "##寞": 6175,
      "##咖": 6176,
      "##啡": 6177,
      "##因": 6178,
      "##籠": 6179,
      "##傘": 6180,
      "##襲": 6181,
      "##२": 6182,
      "##威": 6183,
      "##立": 6184,
      "##ಗ": 6185,
      "##辿": 6186,
      "##絵": 6187,
      "##巻": 6188,
      "##开": 6189,
      "##浚": 6190,
      "##奪": 6191,
      "##斉": 6192,
      "##應": 6193,
      "##担": 6194,
      "##暮": 6195,
      "##ぬ": 6196,
      "##鞋": 6197,
      "##才": 6198,
      "##ᡨ": 6199,
      "##鳳": 6200,
      "##僑": 6201,
      "##鷹": 6202,
      "##鉦": 6203,
      "##功": 6204,
      "##貓": 6205,
      "##衣": 6206,
      "##去": 6207,
      "##蝉": 6208,
      "##脱": 6209,
      "##壳": 6210,
      "##非": 6211,
      "##謡": 6212,
      "##फ": 6213,
      "##ለ": 6214,
      "##游": 6215,
      "##結": 6216,
      "##婚": 6217,
      "##杖": 6218,
      "##倭": 6219,
      "##ಭ": 6220,
      "##泗": 6221,
      "##臺": 6222,
      "##钦": 6223,
      "##齊": 6224,
      "##碩": 6225,
      "##額": 6226,
      "##駙": 6227,
      "##屑": 6228,
      "##租": 6229,
      "##蕃": 6230,
      "##భ": 6231,
      "##ฆ": 6232,
      "##視": 6233,
      "##只": 6234,
      "##是": 6235,
      "##槤": 6236,
      "##飄": 6237,
      "##兔": 6238,
      "##条": 6239,
      "##容": 6240,
      "##礮": 6241,
      "##报": 6242,
      "##ฏ": 6243,
      "##完": 6244,
      "##შ": 6245,
      "##璽": 6246,
      "##ɓ": 6247,
      "##ឯ": 6248,
      "##ភ": 6249,
      "##ជ": 6250,
      "##宁": 6251,
      "##攻": 6252,
      "##即": 6253,
      "##廷": 6254,
      "##６": 6255,
      "##ᅬ": 6256,
      "##紙": 6257,
      "##ｌ": 6258,
      "##弱": 6259,
      "##漠": 6260,
      "##朏": 6261,
      "##滑": 6262,
      "##委": 6263,
      "##峰": 6264,
      "##虛": 6265,
      "##粥": 6266,
      "##钊": 6267,
      "##ⲩ": 6268,
      "##ⲥ": 6269,
      "##ⲧ": 6270,
      "##ⲁ": 6271,
      "##ⲱ": 6272,
      "##ⲛ": 6273,
      "##ے": 6274,
      "##雉": 6275,
      "##策": 6276,
      "##ရ": 6277,
      "##盏": 6278,
      "##傅": 6279,
      "##壓": 6280,
      "##ⵢ": 6281,
      "##牛": 6282,
      "##ـ": 6283,
      "##陶": 6284,
      "##騭": 6285,
      "##ষ": 6286,
      "##妇": 6287,
      "##準": 6288,
      "##贵": 6289,
      "##छ": 6290,
      "##ȝ": 6291,
      "##叶": 6292,
      "##枯": 6293,
      "##巴": 6294,
      "##旺": 6295,
      "##溫": 6296,
      "##甲": 6297,
      "##齋": 6298,
      "##初": 6299,
      "##左": 6300,
      "##ᆰ": 6301,
      "##ર": 6302,
      "##ખ": 6303,
      "##密": 6304,
      "##察": 6305,
      "##處": 6306,
      "##涵": 6307,
      "##怀": 6308,
      "##爺": 6309,
      "##訳": 6310,
      "##桜": 6311,
      "##吞": 6312,
      "##槻": 6313,
      "##拟": 6314,
      "##统": 6315,
      "##升": 6316,
      "##鳴": 6317,
      "##肃": 6318,
      "##莱": 6319,
      "##箭": 6320,
      "##綺": 6321,
      "##樉": 6322,
      "##獅": 6323,
      "##霹": 6324,
      "##雳": 6325,
      "##炮": 6326,
      "##復": 6327,
      "##魄": 6328,
      "##巖": 6329,
      "##梏": 6330,
      "##庁": 6331,
      "##鍋": 6332,
      "##松": 6333,
      "##祚": 6334,
      "##奐": 6335,
      "##ద": 6336,
      "##晉": 6337,
      "##鹽": 6338,
      "##箱": 6339,
      "##群": 6340,
      "##營": 6341,
      "##ভ": 6342,
      "##獣": 6343,
      "##٧": 6344,
      "##ദ": 6345,
      "##齐": 6346,
      "##嚣": 6347,
      "##借": 6348,
      "##黨": 6349,
      "##皿": 6350,
      "##敷": 6351,
      "##继": 6352,
      "##瑋": 6353,
      "##由": 6354,
      "##ኢ": 6355,
      "##ት": 6356,
      "##ዮ": 6357,
      "##ጵ": 6358,
      "##ያ": 6359,
      "##炎": 6360,
      "##貴": 6361,
      "##ɤ": 6362,
      "##朗": 6363,
      "##键": 6364,
      "##ɞ": 6365,
      "##庚": 6366,
      "##侠": 6367,
      "##蜃": 6368,
      "##廊": 6369,
      "##ཛ": 6370,
      "##诺": 6371,
      "##択": 6372,
      "##層": 6373,
      "##崖": 6374,
      "##荪": 6375,
      "##步": 6376,
      "##瑣": 6377,
      "##帖": 6378,
      "##卜": 6379,
      "##朋": 6380,
      "##稔": 6381,
      "##烦": 6382,
      "##恼": 6383,
      "##煩": 6384,
      "##旭": 6385,
      "##菉": 6386,
      "##铜": 6387,
      "##铭": 6388,
      "##选": 6389,
      "##沫": 6390,
      "##垣": 6391,
      "##筍": 6392,
      "##გ": 6393,
      "##著": 6394,
      "##狼": 6395,
      "##獄": 6396,
      "##鬥": 6397,
      "##岩": 6398,
      "##寬": 6399,
      "##錡": 6400,
      "##迅": 6401,
      "##症": 6402,
      "##广": 6403,
      "##瓷": 6404,
      "##စ": 6405,
      "##လ": 6406,
      "##没": 6407,
      "##悼": 6408,
      "##祈": 6409,
      "##階": 6410,
      "##粟": 6411,
      "##內": 6412,
      "##そ": 6413,
      "##盘": 6414,
      "##鱼": 6415,
      "##ヨ": 6416,
      "##够": 6417,
      "##据": 6418,
      "##启": 6419,
      "##'": 6420,
      "##細": 6421,
      "##ማ": 6422,
      "##ረ": 6423,
      "##充": 6424,
      "##１": 6425,
      "##其": 6426,
      "##坚": 6427,
      "##ཙ": 6428,
      "##添": 6429,
      "##牌": 6430,
      "##務": 6431,
      "##賞": 6432,
      "##襟": 6433,
      "##哲": 6434,
      "##允": 6435,
      "##থ": 6436,
      "##淑": 6437,
      "##熙": 6438,
      "##聞": 6439,
      "##径": 6440,
      "##数": 6441,
      "##映": 6442,
      "##椅": 6443,
      "##老": 6444,
      "##晴": 6445,
      "##荷": 6446,
      "##移": 6447,
      "##滅": 6448,
      "##罰": 6449,
      "##滨": 6450,
      "##誦": 6451,
      "##声": 6452,
      "##夷": 6453,
      "##導": 6454,
      "##憂": 6455,
      "##ѥ": 6456,
      "##九": 6457,
      "##泣": 6458,
      "##蘄": 6459,
      "##堤": 6460,
      "##除": 6461,
      "##雾": 6462,
      "##廣": 6463,
      "##殺": 6464,
      "##灰": 6465,
      "##毬": 6466,
      "##观": 6467,
      "##远": 6468,
      "##祐": 6469,
      "##楠": 6470,
      "##岬": 6471,
      "##艳": 6472,
      "##派": 6473,
      "##亜": 6474,
      "##敏": 6475,
      "##గ": 6476,
      "##鮮": 6477,
      "##械": 6478,
      "##鎧": 6479,
      "##ˁ": 6480,
      "##続": 6481,
      "##就": 6482,
      "##靠": 6483,
      "##腿": 6484,
      "##炬": 6485,
      "##店": 6486,
      "##麼": 6487,
      "##執": 6488,
      "##嘉": 6489,
      "##甜": 6490,
      "##負": 6491,
      "##助": 6492,
      "##臚": 6493,
      "##仔": 6494,
      "##魯": 6495,
      "##爭": 6496,
      "##迈": 6497,
      "##煜": 6498,
      "##婆": 6499,
      "##射": 6500,
      "##ਜ": 6501,
      "##ਲ": 6502,
      "##奧": 6503,
      "##棋": 6504,
      "##ฉ": 6505,
      "##膺": 6506,
      "##宴": 6507,
      "##ɚ": 6508,
      "##庇": 6509,
      "##ｘ": 6510,
      "##暖": 6511,
      "##深": 6512,
      "##號": 6513,
      "##臨": 6514,
      "##麾": 6515,
      "##献": 6516,
      "##梓": 6517,
      "##స": 6518,
      "##柳": 6519,
      "##振": 6520,
      "##铎": 6521,
      "##逢": 6522,
      "##ண": 6523,
      "##ҷ": 6524,
      "##瓜": 6525,
      "##暴": 6526,
      "##弹": 6527,
      "##颖": 6528,
      "##黒": 6529,
      "##彪": 6530,
      "##防": 6531,
      "##得": 6532,
      "##加": 6533,
      "##破": 6534,
      "##環": 6535,
      "##硕": 6536,
      "##柔": 6537,
      "##食": 6538,
      "##楯": 6539,
      "##镇": 6540,
      "##伯": 6541,
      "##ਵ": 6542,
      "##須": 6543,
      "##盗": 6544,
      "##岡": 6545,
      "##爲": 6546,
      "##ធ": 6547,
      "##寨": 6548,
      "##ශ": 6549,
      "##融": 6550,
      "##摸": 6551,
      "##泰": 6552,
      "##鵡": 6553,
      "##ਹ": 6554,
      "##耆": 6555,
      "##瓊": 6556,
      "##焦": 6557,
      "##習": 6558,
      "##艶": 6559,
      "##詞": 6560,
      "##脩": 6561,
      "##嬢": 6562,
      "##壮": 6563,
      "##炼": 6564,
      "##残": 6565,
      "##緒": 6566,
      "##ப": 6567,
      "##湯": 6568,
      "##漏": 6569,
      "##ର": 6570,
      "##皙": 6571,
      "##ឫ": 6572,
      "##乎": 6573,
      "##ү": 6574,
      "##併": 6575,
      "##郑": 6576,
      "##霸": 6577,
      "##悲": 6578,
      "##芙": 6579,
      "##ழ": 6580,
      "##玩": 6581,
      "##厂": 6582,
      "##偵": 6583,
      "##止": 6584,
      "##侗": 6585,
      "##豆": 6586,
      "##丁": 6587,
      "##ई": 6588,
      "##孵": 6589,
      "##泥": 6590,
      "##味": 6591,
      "##強": 6592,
      "##沼": 6593,
      "##ぇ": 6594,
      "##丞": 6595,
      "##態": 6596,
      "##恥": 6597,
      "##誌": 6598,
      "##惠": 6599,
      "##蓀": 6600,
      "##椒": 6601,
      "##開": 6602,
      "##为": 6603,
      "##験": 6604,
      "##ܚ": 6605,
      "##箇": 6606,
      "##誓": 6607,
      "##读": 6608,
      "##ճ": 6609,
      "##戯": 6610,
      "##弐": 6611,
      "##拾": 6612,
      "##壱": 6613,
      "##汝": 6614,
      "##适": 6615,
      "##ყ": 6616,
      "##ই": 6617,
      "##拍": 6618,
      "##姚": 6619,
      "##叫": 6620,
      "##殊": 6621,
      "##阁": 6622,
      "##閏": 6623,
      "##晒": 6624,
      "##致": 6625,
      "##珠": 6626,
      "##些": 6627,
      "##淘": 6628,
      "##汰": 6629,
      "##筐": 6630,
      "##斜": 6631,
      "##ſ": 6632,
      "##灼": 6633,
      "##蕨": 6634,
      "##麗": 6635,
      "##托": 6636,
      "##驁": 6637,
      "##𐀁": 6638,
      "##𐀫": 6639,
      "##ᵊ": 6640,
      "##头": 6641,
      "##網": 6642,
      "##坪": 6643,
      "##铺": 6644,
      "##库": 6645,
      "##ѯ": 6646,
      "##施": 6647,
      "##設": 6648,
      "##叡": 6649,
      "##瀛": 6650,
      "##颜": 6651,
      "##遗": 6652,
      "##敢": 6653,
      "##横": 6654,
      "##繋": 6655,
      "##渊": 6656,
      "##覺": 6657,
      "##桐": 6658,
      "##ｉ": 6659,
      "##妖": 6660,
      "##儒": 6661,
      "##叔": 6662,
      "##幕": 6663,
      "##椛": 6664,
      "##頌": 6665,
      "##丘": 6666,
      "##駒": 6667,
      "##张": 6668,
      "##靖": 6669,
      "##慶": 6670,
      "##ര": 6671,
      "##ങ": 6672,
      "##爽": 6673,
      "##街": 6674,
      "##总": 6675,
      "##暁": 6676,
      "##閨": 6677,
      "##銳": 6678,
      "##展": 6679,
      "##帰": 6680,
      "##喬": 6681,
      "##符": 6682,
      "##焔": 6683,
      "##ɘ": 6684,
      "##乌": 6685,
      "##贼": 6686,
      "##描": 6687,
      "##秦": 6688,
      "##怒": 6689,
      "##誡": 6690,
      "##濞": 6691,
      "##逆": 6692,
      "##騰": 6693,
      "##怖": 6694,
      "##芮": 6695,
      "##丙": 6696,
      "##ぉ": 6697,
      "##末": 6698,
      "##維": 6699,
      "##仇": 6700,
      "##闕": 6701,
      "##豐": 6702,
      "##瑙": 6703,
      "##勒": 6704,
      "##獻": 6705,
      "##迪": 6706,
      "##屯": 6707,
      "##镗": 6708,
      "##油": 6709,
      "##ꭸ": 6710,
      "##ᏹ": 6711,
      "##窓": 6712,
      "##肖": 6713,
      "##隸": 6714,
      "##ហ": 6715,
      "##ⵃ": 6716,
      "##ⵕ": 6717,
      "##拘": 6718,
      "##埔": 6719,
      "##芝": 6720,
      "##輝": 6721,
      "##వ": 6722,
      "##ర": 6723,
      "##ﮮ": 6724,
      "##শ": 6725,
      "##篤": 6726,
      "##𐎺": 6727,
      "##笨": 6728,
      "##誠": 6729,
      "##鋪": 6730,
      "##ᆻ": 6731,
      "##灾": 6732,
      "##恢": 6733,
      "##对": 6734,
      "##援": 6735,
      "##靈": 6736,
      "##阿": 6737,
      "##邑": 6738,
      "##嶋": 6739,
      "##碼": 6740,
      "##协": 6741,
      "##筹": 6742,
      "##备": 6743,
      "##券": 6744,
      "##拖": 6745,
      "##煙": 6746,
      "##椰": 6747,
      "##ʙ": 6748,
      "##མ": 6749,
      "##进": 6750,
      "##噛": 6751,
      "##孝": 6752,
      "##承": 6753,
      "##痘": 6754,
      "##闍": 6755,
      "##梨": 6756,
      "##诉": 6757,
      "##讼": 6758,
      "##ʹ": 6759,
      "##受": 6760,
      "##ᛗ": 6761,
      "##虐": 6762,
      "##颗": 6763,
      "##挥": 6764,
      "##礼": 6765,
      "##似": 6766,
      "##革": 6767,
      "##组": 6768,
      "##ȷ": 6769,
      "##紹": 6770,
      "##頃": 6771,
      "##詠": 6772,
      "##雇": 6773,
      "##త": 6774,
      "##產": 6775,
      "##瘡": 6776,
      "##న": 6777,
      "##ገ": 6778,
      "##ድ": 6779,
      "##材": 6780,
      "##ꮃ": 6781,
      "##ꮀ": 6782,
      "##ꮉ": 6783,
      "##勇": 6784,
      "##髪": 6785,
      "##荒": 6786,
      "##卡": 6787,
      "##戈": 6788,
      "##麥": 6789,
      "##给": 6790,
      "##权": 6791,
      "##锡": 6792,
      "##ဘ": 6793,
      "##က": 6794,
      "##营": 6795,
      "##財": 6796,
      "##ಟ": 6797,
      "##丝": 6798,
      "##洞": 6799,
      "##ᠣ": 6800,
      "##ᠯ": 6801,
      "##ᡳ": 6802,
      "##椿": 6803,
      "##級": 6804,
      "##ਘ": 6805,
      "##鐸": 6806,
      "##更": 6807,
      "##近": 6808,
      "##ᶦ": 6809,
      "##这": 6810,
      "##处": 6811,
      "##琪": 6812,
      "##ᠰ": 6813,
      "##却": 6814,
      "##候": 6815,
      "##荼": 6816,
      "##架": 6817,
      "##ᡥ": 6818,
      "##惟": 6819,
      "##憲": 6820,
      "##坑": 6821,
      "##梯": 6822,
      "##琮": 6823,
      "##鮫": 6824,
      "##ള": 6825,
      "##筆": 6826,
      "##優": 6827,
      "##ና": 6828,
      "##鉢": 6829,
      "##巂": 6830,
      "##圻": 6831,
      "##蠻": 6832,
      "##軒": 6833,
      "##伟": 6834,
      "##歲": 6835,
      "##琬": 6836,
      "##芯": 6837,
      "##ზ": 6838,
      "##処": 6839,
      "##鋒": 6840,
      "##冠": 6841,
      "##緩": 6842,
      "##棺": 6843,
      "##ᠠ": 6844,
      "##ᠨ": 6845,
      "##ᠵ": 6846,
      "##ᡠ": 6847,
      "##彙": 6848,
      "##燕": 6849,
      "##駆": 6850,
      "##谦": 6851,
      "##踏": 6852,
      "##億": 6853,
      "##均": 6854,
      "##犖": 6855,
      "##遇": 6856,
      "##罗": 6857,
      "##胴": 6858,
      "##控": 6859,
      "##ɴ": 6860,
      "##ᆮ": 6861,
      "##撒": 6862,
      "##莎": 6863,
      "##臘": 6864,
      "##匠": 6865,
      "##緯": 6866,
      "##鉴": 6867,
      "##縊": 6868,
      "##沌": 6869,
      "##浪": 6870,
      "##炯": 6871,
      "##准": 6872,
      "##伐": 6873,
      "##跆": 6874,
      "##抵": 6875,
      "##栗": 6876,
      "##禺": 6877,
      "##ϟ": 6878,
      "##甘": 6879,
      "##岭": 6880,
      "##庵": 6881,
      "##培": 6882,
      "##纪": 6883,
      "##实": 6884,
      "##খ": 6885,
      "##及": 6886,
      "##欣": 6887,
      "##ﬀ": 6888,
      "##呪": 6889,
      "##愚": 6890,
      "##穎": 6891,
      "##恆": 6892,
      "##顏": 6893,
      "##襄": 6894,
      "##鰐": 6895,
      "##碍": 6896,
      "##歳": 6897,
      "##瑾": 6898,
      "##ဝ": 6899,
      "##ယ": 6900,
      "##銓": 6901,
      "##兜": 6902,
      "##肚": 6903,
      "##ឪ": 6904,
      "##乩": 6905,
      "##樓": 6906,
      "##賓": 6907,
      "##计": 6908,
      "##划": 6909,
      "##囃": 6910,
      "##聯": 6911,
      "##燃": 6912,
      "##侬": 6913,
      "##溢": 6914,
      "##遺": 6915,
      "##幡": 6916,
      "##囁": 6917,
      "##喚": 6918,
      "##叢": 6919,
      "##幽": 6920,
      "##脚": 6921,
      "##飾": 6922,
      "##彬": 6923,
      "##徳": 6924,
      "##લ": 6925,
      "##સ": 6926,
      "##栽": 6927,
      "##畑": 6928,
      "##增": 6929,
      "##霆": 6930,
      "##發": 6931,
      "##咆": 6932,
      "##哮": 6933,
      "##滋": 6934,
      "##జ": 6935,
      "##任": 6936,
      "##ᡴ": 6937,
      "##ᠪ": 6938,
      "##禎": 6939,
      "##暦": 6940,
      "##括": 6941,
      "##召": 6942,
      "##咙": 6943,
      "##胡": 6944,
      "##邁": 6945,
      "##ᚢ": 6946,
      "##ᛏ": 6947,
      "##ᚹ": 6948,
      "##无": 6949,
      "##領": 6950,
      "##位": 6951,
      "##厚": 6952,
      "##ฝ": 6953,
      "##副": 6954,
      "##鈴": 6955,
      "##瑪": 6956,
      "##竇": 6957,
      "##矩": 6958,
      "##悫": 6959,
      "##曾": 6960,
      "##陈": 6961,
      "##ⵇ": 6962,
      "##倪": 6963,
      "##祠": 6964,
      "##霰": 6965,
      "##弾": 6966,
      "##綸": 6967,
      "##亡": 6968,
      "##虫": 6969,
      "##舟": 6970,
      "##ዕ": 6971,
      "##ቆ": 6972,
      "##驤": 6973,
      "##繼": 6974,
      "##ഹ": 6975,
      "##淇": 6976,
      "##午": 6977,
      "##鑒": 6978,
      "##微": 6979,
      "##變": 6980,
      "##凱": 6981,
      "##ሀ": 6982,
      "##ฮ": 6983,
      "##ཡ": 6984,
      "##块": 6985,
      "##ɸ": 6986,
      "##爪": 6987,
      "##ᶴ": 6988,
      "##ɰ": 6989,
      "##贞": 6990,
      "##强": 6991,
      "##塞": 6992,
      "##杲": 6993,
      "##ᚩ": 6994,
      "##ᚦ": 6995,
      "##鞠": 6996,
      "##溜": 6997,
      "##橚": 6998,
      "##歴": 6999,
      "##丽": 7000,
      "##萍": 7001,
      "##肩": 7002,
      "##ថ": 7003,
      "##己": 7004,
      "##办": 7005,
      "##踢": 7006,
      "##醒": 7007,
      "##姿": 7008,
      "##畫": 7009,
      "##炸": 7010,
      "##桧": 7011,
      "##黙": 7012,
      "##礎": 7013,
      "##識": 7014,
      "##发": 7015,
      "##响": 7016,
      "##传": 7017,
      "##纵": 7018,
      "##驰": 7019,
      "##奔": 7020,
      "##製": 7021,
      "##観": 7022,
      "##測": 7023,
      "##祥": 7024,
      "##卓": 7025,
      "##妍": 7026,
      "##諭": 7027,
      "##幣": 7028,
      "##週": 7029,
      "##禄": 7030,
      "##镜": 7031,
      "##义": 7032,
      "##條": 7033,
      "##嶺": 7034,
      "##ժ": 7035,
      "##聚": 7036,
      "##鲤": 7037,
      "##烧": 7038,
      "##広": 7039,
      "##颂": 7040,
      "##聃": 7041,
      "##駿": 7042,
      "##璉": 7043,
      "##韓": 7044,
      "##ታ": 7045,
      "##ቲ": 7046,
      "##ኖ": 7047,
      "##喇": 7048,
      "##彌": 7049,
      "##換": 7050,
      "##杀": 7051,
      "##欽": 7052,
      "##琦": 7053,
      "##ከ": 7054,
      "##ነ": 7055,
      "##he": 7056,
      "the": 7057,
      "##er": 7058,
      "##in": 7059,
      "##on": 7060,
      "##ed": 7061,
      "##nd": 7062,
      "##or": 7063,
      "##at": 7064,
      "##es": 7065,
      "##ar": 7066,
      "##en": 7067,
      "in": 7068,
      "of": 7069,
      "##an": 7070,
      "##al": 7071,
      "##it": 7072,
      "##ing": 7073,
      "##as": 7074,
      "and": 7075,
      "##is": 7076,
      "to": 7077,
      "##ic": 7078,
      "##ou": 7079,
      "##ion": 7080,
      "##re": 7081,
      "##om": 7082,
      "##il": 7083,
      "##el": 7084,
      "th": 7085,
      "##ec": 7086,
      "##ent": 7087,
      "##st": 7088,
      "##am": 7089,
      "##et": 7090,
      "##ro": 7091,
      "on": 7092,
      "##ac": 7093,
      "##ad": 7094,
      "was": 7095,
      "##ur": 7096,
      "st": 7097,
      "##ol": 7098,
      "for": 7099,
      "##le": 7100,
      "##ly": 7101,
      "##ir": 7102,
      "as": 7103,
      "##id": 7104,
      "@-": 7105,
      "@-@": 7106,
      "##ter": 7107,
      "##iv": 7108,
      "##ig": 7109,
      "##ot": 7110,
      "re": 7111,
      "##ut": 7112,
      "##im": 7113,
      "##ow": 7114,
      "##ith": 7115,
      "##ay": 7116,
      "be": 7117,
      "al": 7118,
      "with": 7119,
      "##ation": 7120,
      "that": 7121,
      "wh": 7122,
      "it": 7123,
      "con": 7124,
      "##ers": 7125,
      "##em": 7126,
      "at": 7127,
      "an": 7128,
      "by": 7129,
      "fr": 7130,
      "is": 7131,
      "he": 7132,
      "##us": 7133,
      "##ch": 7134,
      "##ce": 7135,
      "##ver": 7136,
      "##th": 7137,
      "##ul": 7138,
      "##os": 7139,
      "##and": 7140,
      "ch": 7141,
      "##ain": 7142,
      "19": 7143,
      "his": 7144,
      "##her": 7145,
      "##est": 7146,
      "##ag": 7147,
      "##av": 7148,
      "##um": 7149,
      "com": 7150,
      "##ct": 7151,
      "su": 7152,
      "se": 7153,
      "from": 7154,
      "pro": 7155,
      "##od": 7156,
      "##ess": 7157,
      "de": 7158,
      "##ri": 7159,
      "20": 7160,
      "##ap": 7161,
      "##ist": 7162,
      "##ect": 7163,
      "##un": 7164,
      "ne": 7165,
      "##op": 7166,
      "##ere": 7167,
      "sh": 7168,
      "##ill": 7169,
      "##igh": 7170,
      "##ies": 7171,
      "##art": 7172,
      "##ard": 7173,
      "##ber": 7174,
      "##if": 7175,
      "or": 7176,
      "##ld": 7177,
      "ar": 7178,
      "##all": 7179,
      "##oc": 7180,
      "##ak": 7181,
      "ex": 7182,
      "pl": 7183,
      "were": 7184,
      "##ate": 7185,
      "##ich": 7186,
      "##ort": 7187,
      "un": 7188,
      "##ab": 7189,
      "pr": 7190,
      "##pp": 7191,
      "le": 7192,
      "##ant": 7193,
      "sp": 7194,
      "##ud": 7195,
      "##gh": 7196,
      "##ong": 7197,
      "tr": 7198,
      "##se": 7199,
      "##ated": 7200,
      "##ity": 7201,
      "##ive": 7202,
      "##ie": 7203,
      "en": 7204,
      "##ame": 7205,
      "had": 7206,
      "##ore": 7207,
      "##ack": 7208,
      "##ip": 7209,
      "##our": 7210,
      "##ast": 7211,
      "##ear": 7212,
      "which": 7213,
      "##ge": 7214,
      "##ov": 7215,
      "##ough": 7216,
      "are": 7217,
      "not": 7218,
      "##ment": 7219,
      "##ian": 7220,
      "af": 7221,
      "##ell": 7222,
      "##ial": 7223,
      "##ound": 7224,
      "##ost": 7225,
      "##pt": 7226,
      "rec": 7227,
      "##ia": 7228,
      "##ight": 7229,
      "cl": 7230,
      "##qu": 7231,
      "##out": 7232,
      "##ust": 7233,
      "wor": 7234,
      "##ary": 7235,
      "whe": 7236,
      "##ine": 7237,
      "br": 7238,
      "##oun": 7239,
      "ad": 7240,
      "##cc": 7241,
      "##ical": 7242,
      "##ave": 7243,
      "sc": 7244,
      "her": 7245,
      "fir": 7246,
      "comp": 7247,
      "but": 7248,
      "##ord": 7249,
      "this": 7250,
      "inc": 7251,
      "##ther": 7252,
      "200": 7253,
      "cont": 7254,
      "##ould": 7255,
      "tw": 7256,
      "##ous": 7257,
      "ab": 7258,
      "after": 7259,
      "##ish": 7260,
      "int": 7261,
      "first": 7262,
      "gr": 7263,
      "##ions": 7264,
      "##so": 7265,
      "res": 7266,
      "its": 7267,
      "new": 7268,
      "##ure": 7269,
      "their": 7270,
      "am": 7271,
      "all": 7272,
      "man": 7273,
      "##og": 7274,
      "one": 7275,
      "##ue": 7276,
      "##per": 7277,
      "per": 7278,
      "##ass": 7279,
      "##ign": 7280,
      "also": 7281,
      "##ome": 7282,
      "mar": 7283,
      "##ub": 7284,
      "##ok": 7285,
      "us": 7286,
      "rel": 7287,
      "she": 7288,
      "##oll": 7289,
      "##ater": 7290,
      "tim": 7291,
      "##00": 7292,
      "##age": 7293,
      "##ide": 7294,
      "##ond": 7295,
      "they": 7296,
      "##orm": 7297,
      "ser": 7298,
      "##ire": 7299,
      "##hed": 7300,
      "two": 7301,
      "cr": 7302,
      "part": 7303,
      "ag": 7304,
      "fe": 7305,
      "comm": 7306,
      "des": 7307,
      "##uc": 7308,
      "##ans": 7309,
      "have": 7310,
      "bec": 7311,
      "##ally": 7312,
      "##ff": 7313,
      "dis": 7314,
      "##pl": 7315,
      "##ence": 7316,
      "##ry": 7317,
      "who": 7318,
      "app": 7319,
      "##ree": 7320,
      "go": 7321,
      "18": 7322,
      "##ile": 7323,
      "##ance": 7324,
      "@.": 7325,
      "@.@": 7326,
      "we": 7327,
      "##ition": 7328,
      "##end": 7329,
      "year": 7330,
      "##own": 7331,
      "##iz": 7332,
      "off": 7333,
      "play": 7334,
      "has": 7335,
      "##act": 7336,
      "##uring": 7337,
      "been": 7338,
      "ro": 7339,
      "##uct": 7340,
      "##ely": 7341,
      "other": 7342,
      "over": 7343,
      "201": 7344,
      "@,": 7345,
      "@,@": 7346,
      "im": 7347,
      "##aw": 7348,
      "car": 7349,
      "##ult": 7350,
      "##lud": 7351,
      "##ory": 7352,
      "##ice": 7353,
      "out": 7354,
      "##ations": 7355,
      "co": 7356,
      "##ember": 7357,
      "up": 7358,
      "##ach": 7359,
      "inter": 7360,
      "att": 7361,
      "ev": 7362,
      "##ace": 7363,
      "##ke": 7364,
      "dec": 7365,
      "fin": 7366,
      "when": 7367,
      "##land": 7368,
      "pre": 7369,
      "bo": 7370,
      "##ade": 7371,
      "##ib": 7372,
      "##pr": 7373,
      "##ail": 7374,
      "time": 7375,
      "can": 7376,
      "during": 7377,
      "##ens": 7378,
      "##ount": 7379,
      "##urn": 7380,
      "fl": 7381,
      "##ite": 7382,
      "includ": 7383,
      "ind": 7384,
      "te": 7385,
      "would": 7386,
      "sec": 7387,
      "##eas": 7388,
      "##ks": 7389,
      "fil": 7390,
      "##ict": 7391,
      "##ang": 7392,
      "##man": 7393,
      "##one": 7394,
      "##ward": 7395,
      "into": 7396,
      "##we": 7397,
      "him": 7398,
      "act": 7399,
      "bl": 7400,
      "##wn": 7401,
      "##int": 7402,
      "dr": 7403,
      "ear": 7404,
      "##ates": 7405,
      "war": 7406,
      "str": 7407,
      "jo": 7408,
      "##ied": 7409,
      "##ick": 7410,
      "##able": 7411,
      "char": 7412,
      "bet": 7413,
      "more": 7414,
      "##nder": 7415,
      "##ose": 7416,
      "##ited": 7417,
      "##amp": 7418,
      "cent": 7419,
      "form": 7420,
      "##itt": 7421,
      "film": 7422,
      "par": 7423,
      "me": 7424,
      "##ents": 7425,
      "acc": 7426,
      "##les": 7427,
      "cons": 7428,
      "##ors": 7429,
      "##way": 7430,
      "el": 7431,
      "##old": 7432,
      "##ason": 7433,
      "##form": 7434,
      "##ings": 7435,
      "while": 7436,
      "mus": 7437,
      "##vel": 7438,
      "##ild": 7439,
      "##ces": 7440,
      "most": 7441,
      "game": 7442,
      "##att": 7443,
      "##ft": 7444,
      "##ind": 7445,
      "##ug": 7446,
      "thr": 7447,
      "there": 7448,
      "##gr": 7449,
      "kn": 7450,
      "##port": 7451,
      "rem": 7452,
      "nor": 7453,
      "gen": 7454,
      "##fer": 7455,
      "ass": 7456,
      "##aus": 7457,
      "##ake": 7458,
      "##ious": 7459,
      "wr": 7460,
      "how": 7461,
      "qu": 7462,
      "em": 7463,
      "##ican": 7464,
      "##reat": 7465,
      "no": 7466,
      "##iss": 7467,
      "prod": 7468,
      "later": 7469,
      "song": 7470,
      "##ra": 7471,
      "again": 7472,
      "only": 7473,
      "reg": 7474,
      "so": 7475,
      "##rib": 7476,
      "##gan": 7477,
      "##ved": 7478,
      "under": 7479,
      "work": 7480,
      "##ood": 7481,
      "##rop": 7482,
      "sy": 7483,
      "may": 7484,
      "##ey": 7485,
      "them": 7486,
      "ret": 7487,
      "than": 7488,
      "some": 7489,
      "po": 7490,
      "##als": 7491,
      "pe": 7492,
      "three": 7493,
      "about": 7494,
      "col": 7495,
      "##ubl": 7496,
      "##eld": 7497,
      "199": 7498,
      "##ix": 7499,
      "##ween": 7500,
      "##ath": 7501,
      "bu": 7502,
      "##ons": 7503,
      "between": 7504,
      "##ollow": 7505,
      "##oth": 7506,
      "day": 7507,
      "air": 7508,
      "##ered": 7509,
      "high": 7510,
      "bro": 7511,
      "rev": 7512,
      "mon": 7513,
      "##hip": 7514,
      "through": 7515,
      "record": 7516,
      "##te": 7517,
      "follow": 7518,
      "##ock": 7519,
      "ma": 7520,
      "eng": 7521,
      "##ational": 7522,
      "bas": 7523,
      "second": 7524,
      "##fore": 7525,
      "end": 7526,
      "li": 7527,
      "##outh": 7528,
      "releas": 7529,
      "ph": 7530,
      "ac": 7531,
      "num": 7532,
      "##ters": 7533,
      "sub": 7534,
      "min": 7535,
      "pres": 7536,
      "##hn": 7537,
      "##ph": 7538,
      "sa": 7539,
      "##orn": 7540,
      "##iew": 7541,
      "pol": 7542,
      "ed": 7543,
      "alb": 7544,
      "season": 7545,
      "##ced": 7546,
      "ep": 7547,
      "four": 7548,
      "##ics": 7549,
      "def": 7550,
      "amer": 7551,
      "pos": 7552,
      "world": 7553,
      "do": 7554,
      "north": 7555,
      "where": 7556,
      "cap": 7557,
      "before": 7558,
      "team": 7559,
      "mov": 7560,
      "##ular": 7561,
      "spec": 7562,
      "##ating": 7563,
      "##ames": 7564,
      "##ral": 7565,
      "arm": 7566,
      "lar": 7567,
      "sm": 7568,
      "made": 7569,
      "sch": 7570,
      "##urr": 7571,
      "##ision": 7572,
      "will": 7573,
      "gu": 7574,
      "##ived": 7575,
      "such": 7576,
      "##hes": 7577,
      "##son": 7578,
      "sing": 7579,
      "000": 7580,
      "##str": 7581,
      "album": 7582,
      "publ": 7583,
      "##ton": 7584,
      "##ep": 7585,
      "met": 7586,
      "##ished": 7587,
      "sever": 7588,
      "##ever": 7589,
      "years": 7590,
      "##ained": 7591,
      "##io": 7592,
      "##ode": 7593,
      "supp": 7594,
      "##ros": 7595,
      "loc": 7596,
      "call": 7597,
      "10": 7598,
      "gener": 7599,
      "count": 7600,
      "show": 7601,
      "back": 7602,
      "south": 7603,
      "add": 7604,
      "##ning": 7605,
      "##let": 7606,
      "inv": 7607,
      "both": 7608,
      "##ected": 7609,
      "##ual": 7610,
      "##tern": 7611,
      "then": 7612,
      "art": 7613,
      "##ily": 7614,
      "however": 7615,
      "epis": 7616,
      "##ery": 7617,
      "used": 7618,
      "mill": 7619,
      "##br": 7620,
      "rece": 7621,
      "##uction": 7622,
      "batt": 7623,
      "##ific": 7624,
      "being": 7625,
      "these": 7626,
      "well": 7627,
      "##ury": 7628,
      "##oup": 7629,
      "stud": 7630,
      "set": 7631,
      "##ection": 7632,
      "##ve": 7633,
      "series": 7634,
      "##uary": 7635,
      "against": 7636,
      "##air": 7637,
      "##ank": 7638,
      "charac": 7639,
      "##az": 7640,
      "##ale": 7641,
      "bel": 7642,
      "##velop": 7643,
      "##ife": 7644,
      "found": 7645,
      "number": 7646,
      "##led": 7647,
      "17": 7648,
      "lead": 7649,
      "many": 7650,
      "music": 7651,
      "sim": 7652,
      "##other": 7653,
      "##ement": 7654,
      "sur": 7655,
      "perform": 7656,
      "##ather": 7657,
      "long": 7658,
      "main": 7659,
      "mat": 7660,
      "##ert": 7661,
      "op": 7662,
      "##irect": 7663,
      "city": 7664,
      "pop": 7665,
      "##ool": 7666,
      "ter": 7667,
      "##ause": 7668,
      "##ince": 7669,
      "##oy": 7670,
      "develop": 7671,
      "##fl": 7672,
      "became": 7673,
      "united": 7674,
      "hist": 7675,
      "several": 7676,
      "including": 7677,
      "##igin": 7678,
      "direct": 7679,
      "sl": 7680,
      "cre": 7681,
      "state": 7682,
      "early": 7683,
      "##ise": 7684,
      "mil": 7685,
      "brit": 7686,
      "##ower": 7687,
      "##ier": 7688,
      "origin": 7689,
      "div": 7690,
      "##ised": 7691,
      "##vern": 7692,
      "ob": 7693,
      "15": 7694,
      "198": 7695,
      "12": 7696,
      "##au": 7697,
      "trans": 7698,
      "##its": 7699,
      "did": 7700,
      "##anc": 7701,
      "appear": 7702,
      "##ork": 7703,
      "##ures": 7704,
      "dist": 7705,
      "##iet": 7706,
      "nov": 7707,
      "194": 7708,
      "ext": 7709,
      "##ines": 7710,
      "##ities": 7711,
      "ship": 7712,
      "contin": 7713,
      "govern": 7714,
      "##ron": 7715,
      "pers": 7716,
      "conc": 7717,
      "##olog": 7718,
      "win": 7719,
      "##are": 7720,
      "prov": 7721,
      "episode": 7722,
      "##ole": 7723,
      "states": 7724,
      "##til": 7725,
      "##elf": 7726,
      "##ross": 7727,
      "john": 7728,
      "said": 7729,
      "##ird": 7730,
      "ann": 7731,
      "##ful": 7732,
      "following": 7733,
      "crit": 7734,
      "##ley": 7735,
      "est": 7736,
      "##ield": 7737,
      "design": 7738,
      "group": 7739,
      "exp": 7740,
      "could": 7741,
      "dif": 7742,
      "med": 7743,
      "##ative": 7744,
      "16": 7745,
      "return": 7746,
      "##ouse": 7747,
      "oper": 7748,
      "run": 7749,
      "desc": 7750,
      "##ought": 7751,
      "##ann": 7752,
      "american": 7753,
      "##sp": 7754,
      "bar": 7755,
      "alth": 7756,
      "##der": 7757,
      "known": 7758,
      "dep": 7759,
      "##eng": 7760,
      "although": 7761,
      "near": 7762,
      "any": 7763,
      "ger": 7764,
      "west": 7765,
      "##ivers": 7766,
      "aust": 7767,
      "sign": 7768,
      "serv": 7769,
      "har": 7770,
      "##ah": 7771,
      "197": 7772,
      "mod": 7773,
      "king": 7774,
      "jun": 7775,
      "##ase": 7776,
      "pass": 7777,
      "11": 7778,
      "down": 7779,
      "##ually": 7780,
      "196": 7781,
      "##ll": 7782,
      "##ued": 7783,
      "##uch": 7784,
      "land": 7785,
      "##ident": 7786,
      "fam": 7787,
      "disc": 7788,
      "##iam": 7789,
      "red": 7790,
      "##iver": 7791,
      "began": 7792,
      "gre": 7793,
      "like": 7794,
      "eff": 7795,
      "offic": 7796,
      "##ined": 7797,
      "until": 7798,
      "##row": 7799,
      "lo": 7800,
      "##emb": 7801,
      "feat": 7802,
      "##ople": 7803,
      "##ism": 7804,
      "ste": 7805,
      "##up": 7806,
      "##ject": 7807,
      "##ty": 7808,
      "##enn": 7809,
      "##ange": 7810,
      "##0s": 7811,
      "##aking": 7812,
      "##ern": 7813,
      "school": 7814,
      "own": 7815,
      "because": 7816,
      "along": 7817,
      "point": 7818,
      "##ided": 7819,
      "released": 7820,
      "rep": 7821,
      "port": 7822,
      "open": 7823,
      "##ccess": 7824,
      "inst": 7825,
      "##ele": 7826,
      "resp": 7827,
      "##ins": 7828,
      "##ized": 7829,
      "called": 7830,
      "imp": 7831,
      "prev": 7832,
      "national": 7833,
      "star": 7834,
      "maj": 7835,
      "##els": 7836,
      "##ists": 7837,
      "people": 7838,
      "##stem": 7839,
      "##ured": 7840,
      "##ys": 7841,
      "wee": 7842,
      "##ially": 7843,
      "##ution": 7844,
      "class": 7845,
      "adv": 7846,
      "million": 7847,
      "##ull": 7848,
      "##osed": 7849,
      "##xt": 7850,
      "##ium": 7851,
      "just": 7852,
      "system": 7853,
      "id": 7854,
      "cour": 7855,
      "ever": 7856,
      "british": 7857,
      "since": 7858,
      "13": 7859,
      "aut": 7860,
      "six": 7861,
      "##ession": 7862,
      "best": 7863,
      "head": 7864,
      "around": 7865,
      "cor": 7866,
      "aug": 7867,
      "award": 7868,
      "major": 7869,
      "life": 7870,
      "ju": 7871,
      "##ene": 7872,
      "writ": 7873,
      "var": 7874,
      "##ica": 7875,
      "##cept": 7876,
      "if": 7877,
      "each": 7878,
      "success": 7879,
      "##red": 7880,
      "##ains": 7881,
      "##ont": 7882,
      "##any": 7883,
      "##ets": 7884,
      "av": 7885,
      "sept": 7886,
      "bre": 7887,
      "la": 7888,
      "produc": 7889,
      "attack": 7890,
      "##gest": 7891,
      "##ments": 7892,
      "##ently": 7893,
      "coll": 7894,
      "character": 7895,
      "##ark": 7896,
      "##oot": 7897,
      "use": 7898,
      "arr": 7899,
      "describ": 7900,
      "september": 7901,
      "start": 7902,
      "##amed": 7903,
      "august": 7904,
      "same": 7905,
      "##ible": 7906,
      "tri": 7907,
      "road": 7908,
      "##ts": 7909,
      "ge": 7910,
      "occ": 7911,
      "east": 7912,
      "final": 7913,
      "##aced": 7914,
      "##ane": 7915,
      "result": 7916,
      "dem": 7917,
      "support": 7918,
      "oct": 7919,
      "hel": 7920,
      "another": 7921,
      "five": 7922,
      "##yp": 7923,
      "sw": 7924,
      "##aining": 7925,
      "14": 7926,
      "public": 7927,
      "build": 7928,
      "prom": 7929,
      "##rap": 7930,
      "##ired": 7931,
      "km": 7932,
      "##ik": 7933,
      "great": 7934,
      "##ended": 7935,
      "my": 7936,
      "old": 7937,
      "camp": 7938,
      "you": 7939,
      "##aving": 7940,
      "195": 7941,
      "gl": 7942,
      "det": 7943,
      "##ues": 7944,
      "took": 7945,
      "sk": 7946,
      "band": 7947,
      "austral": 7948,
      "german": 7949,
      "book": 7950,
      "##cl": 7951,
      "line": 7952,
      "ra": 7953,
      "mid": 7954,
      "area": 7955,
      "house": 7956,
      "##ob": 7957,
      "small": 7958,
      "complet": 7959,
      "##ner": 7960,
      "193": 7961,
      "report": 7962,
      "consid": 7963,
      "##ove": 7964,
      "century": 7965,
      "##und": 7966,
      "##ober": 7967,
      "##ott": 7968,
      "received": 7969,
      "turn": 7970,
      "##get": 7971,
      "contro": 7972,
      "october": 7973,
      "chr": 7974,
      "##ants": 7975,
      "stre": 7976,
      "##hern": 7977,
      "univers": 7978,
      "##ically": 7979,
      "##hing": 7980,
      "##ives": 7981,
      "rout": 7982,
      "##uss": 7983,
      "191": 7984,
      "##ble": 7985,
      "games": 7986,
      "what": 7987,
      "partic": 7988,
      "short": 7989,
      "##ison": 7990,
      "last": 7991,
      "due": 7992,
      "government": 7993,
      "##ility": 7994,
      "hal": 7995,
      "vers": 7996,
      "##ina": 7997,
      "leg": 7998,
      "rest": 7999,
      "march": 8000,
      "##ately": 8001,
      "ent": 8002,
      "ke": 8003,
      "##gin": 8004,
      "person": 8005,
      "command": 8006,
      "##ored": 8007,
      "##ink": 8008,
      "way": 8009,
      "mag": 8010,
      "##oss": 8011,
      "home": 8012,
      "jan": 8013,
      "june": 8014,
      "##ians": 8015,
      "prot": 8016,
      "mark": 8017,
      "del": 8018,
      "third": 8019,
      "##inc": 8020,
      "general": 8021,
      "single": 8022,
      "conv": 8023,
      "##app": 8024,
      "child": 8025,
      "squ": 8026,
      "july": 8027,
      "##ission": 8028,
      "tit": 8029,
      "capt": 8030,
      "##iving": 8031,
      "##sc": 8032,
      "men": 8033,
      "november": 8034,
      "track": 8035,
      "##urch": 8036,
      "apr": 8037,
      "##omet": 8038,
      "death": 8039,
      "care": 8040,
      "review": 8041,
      "fur": 8042,
      "event": 8043,
      "much": 8044,
      "##ute": 8045,
      "island": 8046,
      "york": 8047,
      "april": 8048,
      "differ": 8049,
      "top": 8050,
      "dam": 8051,
      "##enc": 8052,
      "cal": 8053,
      "large": 8054,
      "##lish": 8055,
      "accord": 8056,
      "soc": 8057,
      "power": 8058,
      "even": 8059,
      "left": 8060,
      "town": 8061,
      "che": 8062,
      "##ash": 8063,
      "cast": 8064,
      "##ilt": 8065,
      "##ural": 8066,
      "eu": 8067,
      "vide": 8068,
      "intern": 8069,
      "##res": 8070,
      "gun": 8071,
      "allow": 8072,
      "##ively": 8073,
      "ant": 8074,
      "##ric": 8075,
      "30": 8076,
      "##aim": 8077,
      "month": 8078,
      "##ger": 8079,
      "pat": 8080,
      "story": 8081,
      "##ting": 8082,
      "##idge": 8083,
      "progr": 8084,
      "kill": 8085,
      "appro": 8086,
      "vis": 8087,
      "based": 8088,
      "law": 8089,
      "family": 8090,
      "##bo": 8091,
      "##ague": 8092,
      "place": 8093,
      "now": 8094,
      "##ms": 8095,
      "vict": 8096,
      "##ales": 8097,
      "incre": 8098,
      "expl": 8099,
      "park": 8100,
      "black": 8101,
      "##bert": 8102,
      "right": 8103,
      "##ified": 8104,
      "spe": 8105,
      "##over": 8106,
      "ele": 8107,
      "enter": 8108,
      "company": 8109,
      "army": 8110,
      "conf": 8111,
      "##empt": 8112,
      "december": 8113,
      "25": 8114,
      "history": 8115,
      "##avy": 8116,
      "club": 8117,
      "##ted": 8118,
      "cond": 8119,
      "played": 8120,
      "addition": 8121,
      "##ten": 8122,
      "according": 8123,
      "##..": 8124,
      "post": 8125,
      "included": 8126,
      "##by": 8127,
      "storm": 8128,
      "name": 8129,
      "river": 8130,
      "##ats": 8131,
      "##rote": 8132,
      "water": 8133,
      "led": 8134,
      "192": 8135,
      "##ention": 8136,
      "january": 8137,
      "##ench": 8138,
      "battle": 8139,
      "##ograp": 8140,
      "hand": 8141,
      "##aged": 8142,
      "##ient": 8143,
      "##ared": 8144,
      "##ime": 8145,
      "ang": 8146,
      "wind": 8147,
      "##ling": 8148,
      "##ball": 8149,
      "wom": 8150,
      "##side": 8151,
      "ii": 8152,
      "wrote": 8153,
      "won": 8154,
      "##apan": 8155,
      "hum": 8156,
      "##hen": 8157,
      "##ony": 8158,
      "##ven": 8159,
      "##erg": 8160,
      "times": 8161,
      "##eal": 8162,
      "##ages": 8163,
      "##min": 8164,
      "organ": 8165,
      "opp": 8166,
      "...": 8167,
      "##ience": 8168,
      "val": 8169,
      "japan": 8170,
      "previous": 8171,
      "requ": 8172,
      "far": 8173,
      "within": 8174,
      "##ody": 8175,
      "make": 8176,
      "rad": 8177,
      "described": 8178,
      "init": 8179,
      "##ital": 8180,
      "##med": 8181,
      "those": 8182,
      "##uck": 8183,
      "bill": 8184,
      "still": 8185,
      "video": 8186,
      "champ": 8187,
      "stand": 8188,
      "##ides": 8189,
      "next": 8190,
      "##ption": 8191,
      "##erv": 8192,
      "##omin": 8193,
      "named": 8194,
      "late": 8195,
      "constr": 8196,
      "belie": 8197,
      "##hy": 8198,
      "bus": 8199,
      "week": 8200,
      "original": 8201,
      "release": 8202,
      "among": 8203,
      "##ract": 8204,
      "further": 8205,
      "##aff": 8206,
      "##ister": 8207,
      "attempt": 8208,
      "repl": 8209,
      "##por": 8210,
      "list": 8211,
      "##iven": 8212,
      "league": 8213,
      "##ilar": 8214,
      "##embers": 8215,
      "effect": 8216,
      "very": 8217,
      "dest": 8218,
      "foot": 8219,
      "force": 8220,
      "iss": 8221,
      "view": 8222,
      "poss": 8223,
      "##mer": 8224,
      "##na": 8225,
      "##iod": 8226,
      "real": 8227,
      "100": 8228,
      "deb": 8229,
      "##ior": 8230,
      "##itions": 8231,
      "route": 8232,
      "production": 8233,
      "commun": 8234,
      "exper": 8235,
      "species": 8236,
      "##ret": 8237,
      "##ps": 8238,
      "##hest": 8239,
      "##ached": 8240,
      "members": 8241,
      "sound": 8242,
      "##ne": 8243,
      "##ival": 8244,
      "polit": 8245,
      "cy": 8246,
      "europ": 8247,
      "infl": 8248,
      "inf": 8249,
      "christ": 8250,
      "ref": 8251,
      "former": 8252,
      "milit": 8253,
      "febr": 8254,
      "tak": 8255,
      "february": 8256,
      "tour": 8257,
      "sol": 8258,
      "similar": 8259,
      "elect": 8260,
      "white": 8261,
      "##ances": 8262,
      "##ences": 8263,
      "sold": 8264,
      "period": 8265,
      "nort": 8266,
      "though": 8267,
      "##ren": 8268,
      "repr": 8269,
      "division": 8270,
      "days": 8271,
      "built": 8272,
      "roy": 8273,
      "##ee": 8274,
      "match": 8275,
      "tele": 8276,
      "super": 8277,
      "nat": 8278,
      "control": 8279,
      "##augh": 8280,
      "side": 8281,
      "##hor": 8282,
      "prop": 8283,
      "tem": 8284,
      "held": 8285,
      "europe": 8286,
      "sout": 8287,
      "trop": 8288,
      "plan": 8289,
      "youn": 8290,
      "rock": 8291,
      "##ars": 8292,
      "##ney": 8293,
      "good": 8294,
      "university": 8295,
      "##ented": 8296,
      "light": 8297,
      "##rod": 8298,
      "cle": 8299,
      "french": 8300,
      "president": 8301,
      "##ness": 8302,
      "say": 8303,
      "service": 8304,
      "typ": 8305,
      "##ched": 8306,
      "fle": 8307,
      "local": 8308,
      "role": 8309,
      "desp": 8310,
      "estab": 8311,
      "help": 8312,
      "2010": 8313,
      "fre": 8314,
      "##wards": 8315,
      "equ": 8316,
      "21": 8317,
      "order": 8318,
      "eas": 8319,
      "coun": 8320,
      "came": 8321,
      "every": 8322,
      "##ax": 8323,
      "tot": 8324,
      "caus": 8325,
      "##ech": 8326,
      "beh": 8327,
      "having": 8328,
      "sen": 8329,
      "never": 8330,
      "william": 8331,
      "##oci": 8332,
      "cross": 8333,
      "##sh": 8334,
      "sum": 8335,
      "##ford": 8336,
      "##ipp": 8337,
      "sug": 8338,
      "few": 8339,
      "mor": 8340,
      "##ler": 8341,
      "##ulation": 8342,
      "##line": 8343,
      "##uted": 8344,
      "test": 8345,
      "associ": 8346,
      "##raft": 8347,
      "pa": 8348,
      "chart": 8349,
      "player": 8350,
      "prof": 8351,
      "mount": 8352,
      "2008": 8353,
      "often": 8354,
      "see": 8355,
      "common": 8356,
      "stat": 8357,
      "take": 8358,
      "24": 8359,
      "##ards": 8360,
      "##ices": 8361,
      "pet": 8362,
      "2009": 8363,
      "half": 8364,
      "career": 8365,
      "geor": 8366,
      "##itten": 8367,
      "##ying": 8368,
      "##par": 8369,
      "low": 8370,
      "continued": 8371,
      "pri": 8372,
      "sty": 8373,
      "ten": 8374,
      "claim": 8375,
      "histor": 8376,
      "##ator": 8377,
      "2011": 8378,
      "level": 8379,
      "sent": 8380,
      "press": 8381,
      "different": 8382,
      "##omb": 8383,
      "mich": 8384,
      "fire": 8385,
      "fun": 8386,
      "without": 8387,
      "##erc": 8388,
      "##estern": 8389,
      "despite": 8390,
      "##ese": 8391,
      "##ots": 8392,
      "england": 8393,
      "cover": 8394,
      "rom": 8395,
      "wat": 8396,
      "##af": 8397,
      "less": 8398,
      "je": 8399,
      "22": 8400,
      "##ology": 8401,
      "court": 8402,
      "considered": 8403,
      "comb": 8404,
      "##read": 8405,
      "party": 8406,
      "dav": 8407,
      "##ried": 8408,
      "##ops": 8409,
      "development": 8410,
      "fact": 8411,
      "##ves": 8412,
      "##aster": 8413,
      "field": 8414,
      "2007": 8415,
      "##iend": 8416,
      "repres": 8417,
      "don": 8418,
      "##me": 8419,
      "arch": 8420,
      "church": 8421,
      "##ru": 8422,
      "tre": 8423,
      "increas": 8424,
      "country": 8425,
      "night": 8426,
      "##atic": 8427,
      "##hel": 8428,
      "county": 8429,
      "influ": 8430,
      "##con": 8431,
      "champions": 8432,
      "##ham": 8433,
      "songs": 8434,
      "friend": 8435,
      "##iter": 8436,
      "royal": 8437,
      "version": 8438,
      "english": 8439,
      "##ittle": 8440,
      "hig": 8441,
      "##ones": 8442,
      "moved": 8443,
      "colle": 8444,
      "military": 8445,
      "written": 8446,
      "vol": 8447,
      "highway": 8448,
      "trad": 8449,
      "##essed": 8450,
      "##lex": 8451,
      "want": 8452,
      "position": 8453,
      "strong": 8454,
      "##vision": 8455,
      "program": 8456,
      "become": 8457,
      "2012": 8458,
      "anim": 8459,
      "mi": 8460,
      "lim": 8461,
      "##eder": 8462,
      "##alk": 8463,
      "chang": 8464,
      "ve": 8465,
      "23": 8466,
      "forces": 8467,
      "lost": 8468,
      "##ize": 8469,
      "lond": 8470,
      "international": 8471,
      "##urs": 8472,
      "son": 8473,
      "building": 8474,
      "little": 8475,
      "london": 8476,
      "given": 8477,
      "miss": 8478,
      "mo": 8479,
      "total": 8480,
      "##ened": 8481,
      "author": 8482,
      "tropical": 8483,
      "suggest": 8484,
      "invol": 8485,
      "##elt": 8486,
      "refer": 8487,
      "##craft": 8488,
      "vir": 8489,
      "ord": 8490,
      "announ": 8491,
      "let": 8492,
      "vi": 8493,
      "190": 8494,
      "phil": 8495,
      "##ald": 8496,
      "##ged": 8497,
      "lab": 8498,
      "##atter": 8499,
      "street": 8500,
      "read": 8501,
      "hour": 8502,
      "import": 8503,
      "project": 8504,
      "##ai": 8505,
      "sel": 8506,
      "##ising": 8507,
      "##irc": 8508,
      "free": 8509,
      "##iety": 8510,
      "get": 8511,
      "canad": 8512,
      "eight": 8513,
      "aff": 8514,
      "bur": 8515,
      "rail": 8516,
      "##sequ": 8517,
      "const": 8518,
      "surv": 8519,
      "performance": 8520,
      "gold": 8521,
      "ly": 8522,
      "##que": 8523,
      "sal": 8524,
      "station": 8525,
      "defe": 8526,
      "gave": 8527,
      "earl": 8528,
      "##bs": 8529,
      "went": 8530,
      "cop": 8531,
      "father": 8532,
      "find": 8533,
      "returned": 8534,
      "##ches": 8535,
      "somet": 8536,
      "##ailed": 8537,
      "##ae": 8538,
      "using": 8539,
      "jack": 8540,
      "need": 8541,
      "broad": 8542,
      "published": 8543,
      "coast": 8544,
      "produced": 8545,
      "arg": 8546,
      "conn": 8547,
      "western": 8548,
      "compet": 8549,
      "##oint": 8550,
      "##ead": 8551,
      "hun": 8552,
      "front": 8553,
      "reported": 8554,
      "popular": 8555,
      "##xim": 8556,
      "trav": 8557,
      "mass": 8558,
      "children": 8559,
      "recorded": 8560,
      "particular": 8561,
      "cult": 8562,
      "##ably": 8563,
      "television": 8564,
      "##roy": 8565,
      "##ional": 8566,
      "##ories": 8567,
      "2006": 8568,
      "ins": 8569,
      "##self": 8570,
      "stated": 8571,
      "aircraft": 8572,
      "mc": 8573,
      "##aign": 8574,
      "ball": 8575,
      "##ama": 8576,
      "special": 8577,
      "hol": 8578,
      "interest": 8579,
      "dev": 8580,
      "##ency": 8581,
      "ground": 8582,
      "campaign": 8583,
      "circ": 8584,
      "ships": 8585,
      "should": 8586,
      "##ned": 8587,
      "##echn": 8588,
      "include": 8589,
      "live": 8590,
      "making": 8591,
      "hit": 8592,
      "critic": 8593,
      "dou": 8594,
      "love": 8595,
      "age": 8596,
      "hom": 8597,
      "27": 8598,
      "women": 8599,
      "##ief": 8600,
      "hurr": 8601,
      "hurrican": 8602,
      "28": 8603,
      "##day": 8604,
      "##ef": 8605,
      "vo": 8606,
      "central": 8607,
      "throughout": 8608,
      "50": 8609,
      "prim": 8610,
      "upon": 8611,
      "##used": 8612,
      "once": 8613,
      "##iment": 8614,
      "young": 8615,
      "##iness": 8616,
      "terr": 8617,
      "cas": 8618,
      "##ength": 8619,
      "##ploy": 8620,
      "##yl": 8621,
      "##uced": 8622,
      "suff": 8623,
      "obs": 8624,
      "himself": 8625,
      "##osp": 8626,
      "official": 8627,
      "2013": 8628,
      "australia": 8629,
      "techn": 8630,
      "mot": 8631,
      "wall": 8632,
      "championship": 8633,
      "aud": 8634,
      "##cess": 8635,
      "depart": 8636,
      "##co": 8637,
      "characters": 8638,
      "tro": 8639,
      "ap": 8640,
      "non": 8641,
      "rich": 8642,
      "vill": 8643,
      "##ensive": 8644,
      "fav": 8645,
      "##play": 8646,
      "26": 8647,
      "present": 8648,
      "mad": 8649,
      "##rew": 8650,
      "relations": 8651,
      "players": 8652,
      "40": 8653,
      "##itive": 8654,
      "##alth": 8655,
      "##vers": 8656,
      "##ring": 8657,
      "sit": 8658,
      "tur": 8659,
      "ft": 8660,
      "##ither": 8661,
      "instead": 8662,
      "fall": 8663,
      "##iting": 8664,
      "squad": 8665,
      "southern": 8666,
      "title": 8667,
      "james": 8668,
      "writing": 8669,
      "seven": 8670,
      "##akes": 8671,
      "away": 8672,
      "189": 8673,
      "cost": 8674,
      "base": 8675,
      "hor": 8676,
      "fac": 8677,
      "begin": 8678,
      "sea": 8679,
      "fem": 8680,
      "##acy": 8681,
      "introd": 8682,
      "hall": 8683,
      "across": 8684,
      "cam": 8685,
      "died": 8686,
      "ir": 8687,
      "remained": 8688,
      "months": 8689,
      "center": 8690,
      "##ense": 8691,
      "##ges": 8692,
      "grand": 8693,
      "enc": 8694,
      "developed": 8695,
      "promot": 8696,
      "signific": 8697,
      "du": 8698,
      "full": 8699,
      "fort": 8700,
      "political": 8701,
      "look": 8702,
      "net": 8703,
      "##rict": 8704,
      "##ked": 8705,
      "various": 8706,
      "##uce": 8707,
      "manag": 8708,
      "mem": 8709,
      "##lo": 8710,
      "fif": 8711,
      "modern": 8712,
      "hot": 8713,
      "##ument": 8714,
      "cat": 8715,
      "##ape": 8716,
      "##utes": 8717,
      "pal": 8718,
      "hurricane": 8719,
      "wood": 8720,
      "put": 8721,
      "too": 8722,
      "hon": 8723,
      "hill": 8724,
      "aver": 8725,
      "ham": 8726,
      "ill": 8727,
      "##itted": 8728,
      "race": 8729,
      "##field": 8730,
      "decl": 8731,
      "##ael": 8732,
      "fight": 8733,
      "pra": 8734,
      "hy": 8735,
      "curr": 8736,
      "office": 8737,
      "bow": 8738,
      "##ries": 8739,
      "big": 8740,
      "##ucted": 8741,
      "##ille": 8742,
      "##isted": 8743,
      "hard": 8744,
      "##fic": 8745,
      "works": 8746,
      "america": 8747,
      "felt": 8748,
      "areas": 8749,
      "noted": 8750,
      "indust": 8751,
      "sil": 8752,
      "eventually": 8753,
      "mal": 8754,
      "style": 8755,
      "##ple": 8756,
      "russ": 8757,
      "announced": 8758,
      "born": 8759,
      "created": 8760,
      "college": 8761,
      "hop": 8762,
      "brother": 8763,
      "##ett": 8764,
      "thought": 8765,
      "reached": 8766,
      "##ering": 8767,
      "miles": 8768,
      "##dom": 8769,
      "destroy": 8770,
      "engine": 8771,
      "construction": 8772,
      "mer": 8773,
      "stri": 8774,
      "bri": 8775,
      "sun": 8776,
      "hold": 8777,
      "successful": 8778,
      "northern": 8779,
      "2005": 8780,
      "##most": 8781,
      "japanese": 8782,
      "san": 8783,
      "cro": 8784,
      "body": 8785,
      "seen": 8786,
      "cut": 8787,
      "pain": 8788,
      "29": 8789,
      "struct": 8790,
      "##ana": 8791,
      "esc": 8792,
      "sym": 8793,
      "toget": 8794,
      "heavy": 8795,
      "adm": 8796,
      "followed": 8797,
      "agre": 8798,
      "together": 8799,
      "range": 8800,
      "##ements": 8801,
      "meet": 8802,
      "performed": 8803,
      "brown": 8804,
      "civ": 8805,
      "served": 8806,
      "##ization": 8807,
      "##ress": 8808,
      "##ows": 8809,
      "2014": 8810,
      "member": 8811,
      "activ": 8812,
      "##work": 8813,
      "george": 8814,
      "##orts": 8815,
      "bridge": 8816,
      "hen": 8817,
      "mix": 8818,
      "football": 8819,
      "god": 8820,
      "cert": 8821,
      "tor": 8822,
      "que": 8823,
      "##idence": 8824,
      "significant": 8825,
      "killed": 8826,
      "saw": 8827,
      "round": 8828,
      "##olution": 8829,
      "taken": 8830,
      "able": 8831,
      "##ality": 8832,
      "establ": 8833,
      "bomb": 8834,
      "##elling": 8835,
      "##ature": 8836,
      "gar": 8837,
      "##ming": 8838,
      "mm": 8839,
      "impro": 8840,
      "ident": 8841,
      "sat": 8842,
      "##ration": 8843,
      "##ids": 8844,
      "becom": 8845,
      "##cent": 8846,
      "##aft": 8847,
      "action": 8848,
      "reb": 8849,
      "points": 8850,
      "human": 8851,
      "los": 8852,
      "does": 8853,
      "pi": 8854,
      "##enth": 8855,
      "##ecut": 8856,
      "mean": 8857,
      "established": 8858,
      "ur": 8859,
      "sn": 8860,
      "thom": 8861,
      "originally": 8862,
      "invest": 8863,
      "grow": 8864,
      "##yn": 8865,
      "insp": 8866,
      "subsequ": 8867,
      "##irl": 8868,
      "##tain": 8869,
      "others": 8870,
      "##enced": 8871,
      "entire": 8872,
      "##aval": 8873,
      "##ox": 8874,
      "appeared": 8875,
      "david": 8876,
      "australian": 8877,
      "director": 8878,
      "voc": 8879,
      "features": 8880,
      "located": 8881,
      "process": 8882,
      "crew": 8883,
      "stage": 8884,
      "##ground": 8885,
      "business": 8886,
      "##oon": 8887,
      "den": 8888,
      "playing": 8889,
      "##ara": 8890,
      "mother": 8891,
      "commission": 8892,
      "started": 8893,
      "expr": 8894,
      "##aves": 8895,
      "caused": 8896,
      "##odes": 8897,
      "decided": 8898,
      "critics": 8899,
      "##ects": 8900,
      "pot": 8901,
      "kingdom": 8902,
      "##ius": 8903,
      "civil": 8904,
      "##ogn": 8905,
      "word": 8906,
      "feet": 8907,
      "rather": 8908,
      "mater": 8909,
      "##ster": 8910,
      "rank": 8911,
      "##ript": 8912,
      "##bur": 8913,
      "##ators": 8914,
      "fourth": 8915,
      "##ament": 8916,
      "econ": 8917,
      "##epend": 8918,
      "fell": 8919,
      "inform": 8920,
      "econom": 8921,
      "independ": 8922,
      "behind": 8923,
      "resear": 8924,
      "##ani": 8925,
      "bi": 8926,
      "##cil": 8927,
      "ital": 8928,
      "represent": 8929,
      "magaz": 8930,
      "discover": 8931,
      "site": 8932,
      "formed": 8933,
      "added": 8934,
      "fleet": 8935,
      "afr": 8936,
      "important": 8937,
      "soon": 8938,
      "188": 8939,
      "pred": 8940,
      "31": 8941,
      "##ample": 8942,
      "##ateg": 8943,
      "##emy": 8944,
      "##ivid": 8945,
      "comment": 8946,
      "jud": 8947,
      "sam": 8948,
      "##reek": 8949,
      "mart": 8950,
      "know": 8951,
      "##wood": 8952,
      "##ped": 8953,
      "eastern": 8954,
      "educ": 8955,
      "damage": 8956,
      "##iers": 8957,
      "pen": 8958,
      "guns": 8959,
      "##be": 8960,
      "completed": 8961,
      "##ades": 8962,
      "green": 8963,
      "mult": 8964,
      "population": 8965,
      "sex": 8966,
      "##den": 8967,
      "almost": 8968,
      "##hic": 8969,
      "tom": 8970,
      "##omm": 8971,
      "##head": 8972,
      "robert": 8973,
      "##ata": 8974,
      "inj": 8975,
      "ru": 8976,
      "##aces": 8977,
      "peak": 8978,
      "neg": 8979,
      "lang": 8980,
      "cup": 8981,
      "##ction": 8982,
      "close": 8983,
      "interv": 8984,
      "##less": 8985,
      "jour": 8986,
      "er": 8987,
      "key": 8988,
      "##ination": 8989,
      "di": 8990,
      "awards": 8991,
      "initially": 8992,
      "indian": 8993,
      "##erm": 8994,
      "princ": 8995,
      "##ki": 8996,
      "##itar": 8997,
      "region": 8998,
      "treat": 8999,
      "loss": 9000,
      "2004": 9001,
      "##go": 9002,
      "social": 9003,
      "opened": 9004,
      "creat": 9005,
      "##eth": 9006,
      "##aps": 9007,
      "##oney": 9008,
      "lack": 9009,
      "scre": 9010,
      "case": 9011,
      "host": 9012,
      "midd": 9013,
      "michael": 9014,
      "##ino": 9015,
      "##arch": 9016,
      "pract": 9017,
      "proble": 9018,
      "girl": 9019,
      "relationship": 9020,
      "##itor": 9021,
      "##ship": 9022,
      "186": 9023,
      "ul": 9024,
      "nar": 9025,
      "individ": 9026,
      "##ceed": 9027,
      "pur": 9028,
      "fund": 9029,
      "sus": 9030,
      "sett": 9031,
      "##lin": 9032,
      "leading": 9033,
      "sour": 9034,
      "##ways": 9035,
      "weeks": 9036,
      "tradition": 9037,
      "bay": 9038,
      "instr": 9039,
      "radio": 9040,
      "working": 9041,
      "separ": 9042,
      "2015": 9043,
      "##ending": 9044,
      "prem": 9045,
      "##cast": 9046,
      "worked": 9047,
      "clos": 9048,
      "france": 9049,
      "recording": 9050,
      "diffic": 9051,
      "difficult": 9052,
      "lou": 9053,
      "secret": 9054,
      "draw": 9055,
      "exc": 9056,
      "towards": 9057,
      "mac": 9058,
      "appoint": 9059,
      "##ma": 9060,
      "##medi": 9061,
      "union": 9062,
      "##istic": 9063,
      "council": 9064,
      "mel": 9065,
      "scene": 9066,
      "laun": 9067,
      "##ky": 9068,
      "##umb": 9069,
      "##imes": 9070,
      "##ula": 9071,
      "goal": 9072,
      "republ": 9073,
      "wid": 9074,
      "rain": 9075,
      "##uel": 9076,
      "henry": 9077,
      "room": 9078,
      "angel": 9079,
      "norm": 9080,
      "##igned": 9081,
      "quick": 9082,
      "##anch": 9083,
      "rap": 9084,
      "material": 9085,
      "pit": 9086,
      "break": 9087,
      "records": 9088,
      "accept": 9089,
      "vot": 9090,
      "scored": 9091,
      "washing": 9092,
      "##ena": 9093,
      "training": 9094,
      "must": 9095,
      "provided": 9096,
      "navy": 9097,
      "least": 9098,
      "colon": 9099,
      "reach": 9100,
      "wanted": 9101,
      "rob": 9102,
      "fig": 9103,
      "500": 9104,
      "ey": 9105,
      "brought": 9106,
      "average": 9107,
      "dut": 9108,
      "##board": 9109,
      "recogn": 9110,
      "brig": 9111,
      "feder": 9112,
      "earth": 9113,
      "featured": 9114,
      "##iding": 9115,
      "##ze": 9116,
      "##ams": 9117,
      "##osition": 9118,
      "##ological": 9119,
      "troops": 9120,
      "##off": 9121,
      "tar": 9122,
      "foc": 9123,
      "either": 9124,
      "quar": 9125,
      "nomin": 9126,
      "proper": 9127,
      "cur": 9128,
      "187": 9129,
      "allowed": 9130,
      "fut": 9131,
      "past": 9132,
      "wife": 9133,
      "mur": 9134,
      "unc": 9135,
      "contract": 9136,
      "##ential": 9137,
      "fa": 9138,
      "respect": 9139,
      "##cher": 9140,
      "estim": 9141,
      "victory": 9142,
      "##here": 9143,
      "generally": 9144,
      "studio": 9145,
      "washington": 9146,
      "avail": 9147,
      "inn": 9148,
      "placed": 9149,
      "ach": 9150,
      "priv": 9151,
      "cho": 9152,
      "phys": 9153,
      "rul": 9154,
      "##aut": 9155,
      "example": 9156,
      "dark": 9157,
      "runs": 9158,
      "events": 9159,
      "magazine": 9160,
      "dro": 9161,
      "##antic": 9162,
      "chief": 9163,
      "##eter": 9164,
      "##aur": 9165,
      "board": 9166,
      "paul": 9167,
      "##li": 9168,
      "##oring": 9169,
      "##iction": 9170,
      "summer": 9171,
      "grad": 9172,
      "cred": 9173,
      "##to": 9174,
      "##gar": 9175,
      "battal": 9176,
      "eg": 9177,
      "staff": 9178,
      "2003": 9179,
      "particip": 9180,
      "joined": 9181,
      "designed": 9182,
      "surf": 9183,
      "wil": 9184,
      "##ville": 9185,
      "regular": 9186,
      "hours": 9187,
      "quest": 9188,
      "squadron": 9189,
      "##ells": 9190,
      "##chest": 9191,
      "employ": 9192,
      "35": 9193,
      "speed": 9194,
      "nine": 9195,
      "esp": 9196,
      "##mp": 9197,
      "bal": 9198,
      "shot": 9199,
      "##ka": 9200,
      "threat": 9201,
      "operation": 9202,
      "media": 9203,
      "opening": 9204,
      "believed": 9205,
      "relig": 9206,
      "##ving": 9207,
      "regard": 9208,
      "##iff": 9209,
      "##tim": 9210,
      "come": 9211,
      "der": 9212,
      "mary": 9213,
      "##omp": 9214,
      "##anks": 9215,
      "flight": 9216,
      "cycl": 9217,
      "ox": 9218,
      "bir": 9219,
      "transport": 9220,
      "step": 9221,
      "##aper": 9222,
      "replaced": 9223,
      "ide": 9224,
      "prior": 9225,
      "mph": 9226,
      "scen": 9227,
      "##uit": 9228,
      "pay": 9229,
      "##erous": 9230,
      "captain": 9231,
      "winds": 9232,
      "sequ": 9233,
      "##imin": 9234,
      "european": 9235,
      "stop": 9236,
      "stone": 9237,
      "police": 9238,
      "langu": 9239,
      "minutes": 9240,
      "district": 9241,
      "involved": 9242,
      "##gn": 9243,
      "##ification": 9244,
      "earlier": 9245,
      "mcc": 9246,
      "##ico": 9247,
      "infant": 9248,
      "##west": 9249,
      "finished": 9250,
      "research": 9251,
      "##fall": 9252,
      "committ": 9253,
      "society": 9254,
      "news": 9255,
      "##asion": 9256,
      "length": 9257,
      "contrib": 9258,
      "possible": 9259,
      "##ago": 9260,
      "saying": 9261,
      "##men": 9262,
      "pil": 9263,
      "immedi": 9264,
      "commerc": 9265,
      "change": 9266,
      "association": 9267,
      "depr": 9268,
      "keep": 9269,
      "##ray": 9270,
      "trib": 9271,
      "space": 9272,
      "##icated": 9273,
      "middle": 9274,
      "admin": 9275,
      "boy": 9276,
      "particularly": 9277,
      "highest": 9278,
      "2000": 9279,
      "films": 9280,
      "fly": 9281,
      "largest": 9282,
      "remov": 9283,
      "##for": 9284,
      "bad": 9285,
      "beginning": 9286,
      "scott": 9287,
      "exist": 9288,
      "lower": 9289,
      "##ecutive": 9290,
      "available": 9291,
      "##ishing": 9292,
      "piec": 9293,
      "uk": 9294,
      "roman": 9295,
      "virgin": 9296,
      "percent": 9297,
      "ny": 9298,
      "2001": 9299,
      "forced": 9300,
      "flor": 9301,
      "respons": 9302,
      "assist": 9303,
      "better": 9304,
      "section": 9305,
      "atl": 9306,
      "ver": 9307,
      "##ha": 9308,
      "deal": 9309,
      "achie": 9310,
      "disp": 9311,
      "##hib": 9312,
      "weak": 9313,
      "taking": 9314,
      "lear": 9315,
      "anti": 9316,
      "outside": 9317,
      "novel": 9318,
      "##anned": 9319,
      "meas": 9320,
      "##ems": 9321,
      "##reg": 9322,
      "heart": 9323,
      "plat": 9324,
      "grant": 9325,
      "charles": 9326,
      "##ography": 9327,
      "##of": 9328,
      "thomas": 9329,
      "##lement": 9330,
      "##itz": 9331,
      "##mar": 9332,
      "span": 9333,
      "increased": 9334,
      "turned": 9335,
      "ended": 9336,
      "##erson": 9337,
      "viol": 9338,
      "##ises": 9339,
      "reason": 9340,
      "feel": 9341,
      "clear": 9342,
      "calif": 9343,
      "reviews": 9344,
      "##bor": 9345,
      "##ested": 9346,
      "units": 9347,
      "community": 9348,
      "##ocr": 9349,
      "acad": 9350,
      "californ": 9351,
      "passed": 9352,
      "##ck": 9353,
      "praised": 9354,
      "es": 9355,
      "hous": 9356,
      "##oph": 9357,
      "product": 9358,
      "move": 9359,
      "##key": 9360,
      "##wer": 9361,
      "going": 9362,
      "emp": 9363,
      "##ios": 9364,
      "##heast": 9365,
      "future": 9366,
      "##iation": 9367,
      "##ude": 9368,
      "additional": 9369,
      "beat": 9370,
      "2002": 9371,
      "above": 9372,
      "appearance": 9373,
      "phot": 9374,
      "bird": 9375,
      "##oke": 9376,
      "thus": 9377,
      "beg": 9378,
      "guitar": 9379,
      "pan": 9380,
      "canada": 9381,
      "##sel": 9382,
      "lik": 9383,
      "ty": 9384,
      "enough": 9385,
      "##ership": 9386,
      "liter": 9387,
      "smith": 9388,
      "##aded": 9389,
      "castle": 9390,
      "lake": 9391,
      "daugh": 9392,
      "pun": 9393,
      "ordered": 9394,
      "lat": 9395,
      "##gress": 9396,
      "previously": 9397,
      "franc": 9398,
      "##ests": 9399,
      "personal": 9400,
      "##ush": 9401,
      "musical": 9402,
      "##oul": 9403,
      "account": 9404,
      "signed": 9405,
      "minor": 9406,
      "infantry": 9407,
      "doc": 9408,
      "##rison": 9409,
      "market": 9410,
      "##agon": 9411,
      "richard": 9412,
      "alex": 9413,
      "shar": 9414,
      "theat": 9415,
      "elements": 9416,
      "instit": 9417,
      "type": 9418,
      "##che": 9419,
      "rights": 9420,
      "dig": 9421,
      "##tr": 9422,
      "california": 9423,
      "##pped": 9424,
      "##arily": 9425,
      "positive": 9426,
      "ber": 9427,
      "##ida": 9428,
      "corn": 9429,
      "lyr": 9430,
      "nec": 9431,
      "pac": 9432,
      "##icket": 9433,
      "prob": 9434,
      "critical": 9435,
      "abs": 9436,
      "##ections": 9437,
      "parts": 9438,
      "lord": 9439,
      "food": 9440,
      "##ference": 9441,
      "##nal": 9442,
      "dead": 9443,
      "profession": 9444,
      "give": 9445,
      "female": 9446,
      "background": 9447,
      "travel": 9448,
      "##berg": 9449,
      "pow": 9450,
      "lines": 9451,
      "debut": 9452,
      "##ening": 9453,
      "reveal": 9454,
      "spent": 9455,
      "poor": 9456,
      "impr": 9457,
      "term": 9458,
      "##pper": 9459,
      "money": 9460,
      "told": 9461,
      "overall": 9462,
      "##ased": 9463,
      "ps": 9464,
      "mic": 9465,
      "##ilities": 9466,
      "tax": 9467,
      "##uation": 9468,
      "committee": 9469,
      "##back": 9470,
      "directed": 9471,
      "flood": 9472,
      "45": 9473,
      "victor": 9474,
      "blue": 9475,
      "##uter": 9476,
      "failed": 9477,
      "interview": 9478,
      "deep": 9479,
      "##elled": 9480,
      "##nes": 9481,
      "domin": 9482,
      "roll": 9483,
      "chap": 9484,
      "##usion": 9485,
      "required": 9486,
      "ren": 9487,
      "kil": 9488,
      "groups": 9489,
      "plot": 9490,
      "concert": 9491,
      "mach": 9492,
      "##nel": 9493,
      "broadcast": 9494,
      "happ": 9495,
      "scient": 9496,
      "##bers": 9497,
      "##ique": 9498,
      "##ston": 9499,
      "constit": 9500,
      "##ays": 9501,
      "germany": 9502,
      "anal": 9503,
      "env": 9504,
      "india": 9505,
      "##ume": 9506,
      "health": 9507,
      "itself": 9508,
      "peter": 9509,
      "evidence": 9510,
      "christian": 9511,
      "sometimes": 9512,
      "##my": 9513,
      "##isl": 9514,
      "frank": 9515,
      "fore": 9516,
      "object": 9517,
      "##gen": 9518,
      "appl": 9519,
      "60": 9520,
      "##ibility": 9521,
      "prison": 9522,
      "reception": 9523,
      "wal": 9524,
      "bank": 9525,
      "185": 9526,
      "##ites": 9527,
      "election": 9528,
      "occup": 9529,
      "##ga": 9530,
      "commercial": 9531,
      "asked": 9532,
      "battalion": 9533,
      "ha": 9534,
      "except": 9535,
      "parl": 9536,
      "investig": 9537,
      "##stand": 9538,
      "##erved": 9539,
      "transfer": 9540,
      "##ready": 9541,
      "##aker": 9542,
      "living": 9543,
      "##edy": 9544,
      "mex": 9545,
      "sov": 9546,
      "##ability": 9547,
      "our": 9548,
      "##apt": 9549,
      "administ": 9550,
      "whose": 9551,
      "cru": 9552,
      "study": 9553,
      "natural": 9554,
      "##airs": 9555,
      "complete": 9556,
      "claimed": 9557,
      "already": 9558,
      "doct": 9559,
      "##kn": 9560,
      "score": 9561,
      "##tt": 9562,
      "##ream": 9563,
      "approxim": 9564,
      "governor": 9565,
      "react": 9566,
      "clim": 9567,
      "bey": 9568,
      "##onna": 9569,
      "soviet": 9570,
      "ol": 9571,
      "square": 9572,
      "introduced": 9573,
      "minister": 9574,
      "bul": 9575,
      "##onse": 9576,
      "frequ": 9577,
      "whom": 9578,
      "usually": 9579,
      "32": 9580,
      "think": 9581,
      "students": 9582,
      "##bc": 9583,
      "##ii": 9584,
      "woman": 9585,
      "##ex": 9586,
      "burn": 9587,
      "amb": 9588,
      "education": 9589,
      "##wor": 9590,
      "##igan": 9591,
      "wild": 9592,
      "idea": 9593,
      "ben": 9594,
      "muse": 9595,
      "lu": 9596,
      "quickly": 9597,
      "bud": 9598,
      "limited": 9599,
      "##enue": 9600,
      "chic": 9601,
      "##aint": 9602,
      "occurr": 9603,
      "might": 9604,
      "effects": 9605,
      "stars": 9606,
      "guard": 9607,
      "rh": 9608,
      "concern": 9609,
      "##atory": 9610,
      "movement": 9611,
      "response": 9612,
      "issue": 9613,
      "syn": 9614,
      "subject": 9615,
      "queen": 9616,
      "tun": 9617,
      "polic": 9618,
      "rac": 9619,
      "centre": 9620,
      "##ump": 9621,
      "certain": 9622,
      "##bour": 9623,
      "surface": 9624,
      "commander": 9625,
      "your": 9626,
      "##ores": 9627,
      "slow": 9628,
      "lay": 9629,
      "plant": 9630,
      "lib": 9631,
      "espec": 9632,
      "fifth": 9633,
      "lie": 9634,
      "anc": 9635,
      "sand": 9636,
      "department": 9637,
      "arrived": 9638,
      "hosp": 9639,
      "especially": 9640,
      "services": 9641,
      "##ergy": 9642,
      "britain": 9643,
      "decision": 9644,
      "parliam": 9645,
      "face": 9646,
      "##oor": 9647,
      "contr": 9648,
      "voice": 9649,
      "compl": 9650,
      "box": 9651,
      "village": 9652,
      "self": 9653,
      "teams": 9654,
      "shows": 9655,
      "gard": 9656,
      "##esh": 9657,
      "structure": 9658,
      "diss": 9659,
      "##anded": 9660,
      "museum": 9661,
      "industry": 9662,
      "operations": 9663,
      "larger": 9664,
      "walk": 9665,
      "science": 9666,
      "writer": 9667,
      "impact": 9668,
      "fest": 9669,
      "##ounded": 9670,
      "ultim": 9671,
      "episodes": 9672,
      "becoming": 9673,
      "mas": 9674,
      "mont": 9675,
      "parliament": 9676,
      "remaining": 9677,
      "##val": 9678,
      "remain": 9679,
      "latter": 9680,
      "access": 9681,
      "estimated": 9682,
      "heav": 9683,
      "carried": 9684,
      "multip": 9685,
      "##ba": 9686,
      "defeated": 9687,
      "network": 9688,
      "##aries": 9689,
      "discuss": 9690,
      "ran": 9691,
      "##iron": 9692,
      "pressure": 9693,
      "flag": 9694,
      "kh": 9695,
      "surr": 9696,
      "blood": 9697,
      "gro": 9698,
      "1999": 9699,
      "tex": 9700,
      "##ully": 9701,
      "cm": 9702,
      "##wh": 9703,
      "36": 9704,
      "scenes": 9705,
      "##ties": 9706,
      "##ugg": 9707,
      "consider": 9708,
      "cand": 9709,
      "brief": 9710,
      "leaving": 9711,
      "virginia": 9712,
      "##ective": 9713,
      "##ulf": 9714,
      "changes": 9715,
      "sem": 9716,
      "running": 9717,
      "acqu": 9718,
      "##onstr": 9719,
      "##ift": 9720,
      "jew": 9721,
      "susp": 9722,
      "suggested": 9723,
      "meth": 9724,
      "entered": 9725,
      "##porary": 9726,
      "##wr": 9727,
      "nearly": 9728,
      "fail": 9729,
      "quarter": 9730,
      "##ania": 9731,
      "winning": 9732,
      "appointed": 9733,
      "influence": 9734,
      "naval": 9735,
      "date": 9736,
      "twent": 9737,
      "approximately": 9738,
      "dom": 9739,
      "depression": 9740,
      "van": 9741,
      "chall": 9742,
      "size": 9743,
      "##ander": 9744,
      "##ining": 9745,
      "##inct": 9746,
      "got": 9747,
      "leader": 9748,
      "capital": 9749,
      "language": 9750,
      "fant": 9751,
      "bat": 9752,
      "shortly": 9753,
      "##erve": 9754,
      "establish": 9755,
      "##oms": 9756,
      "islands": 9757,
      "jackson": 9758,
      "favor": 9759,
      "empire": 9760,
      "course": 9761,
      "script": 9762,
      "princip": 9763,
      "today": 9764,
      "finally": 9765,
      "tracks": 9766,
      "cann": 9767,
      "screen": 9768,
      "federal": 9769,
      "wide": 9770,
      "regiment": 9771,
      "emb": 9772,
      "oly": 9773,
      "mission": 9774,
      "##change": 9775,
      "upper": 9776,
      "louis": 9777,
      "amount": 9778,
      "kr": 9779,
      "proposed": 9780,
      "territ": 9781,
      "daughter": 9782,
      "##pre": 9783,
      "current": 9784,
      "##anced": 9785,
      "olymp": 9786,
      "##ulated": 9787,
      "wing": 9788,
      "##iser": 9789,
      "purch": 9790,
      "producer": 9791,
      "higher": 9792,
      "manager": 9793,
      "##ecting": 9794,
      "destroyed": 9795,
      "arrang": 9796,
      "75": 9797,
      "nature": 9798,
      "lad": 9799,
      "distrib": 9800,
      "experience": 9801,
      "ens": 9802,
      "gi": 9803,
      "aw": 9804,
      "pict": 9805,
      "corps": 9806,
      "environ": 9807,
      "##burg": 9808,
      "##abor": 9809,
      "fer": 9810,
      "##dr": 9811,
      "horse": 9812,
      "spanish": 9813,
      "canc": 9814,
      "300": 9815,
      "provide": 9816,
      "railway": 9817,
      "spir": 9818,
      "breed": 9819,
      "subsequently": 9820,
      "altern": 9821,
      "professional": 9822,
      "##ension": 9823,
      "##idents": 9824,
      "democr": 9825,
      "compared": 9826,
      "brigade": 9827,
      "concept": 9828,
      "##oid": 9829,
      "married": 9830,
      "battles": 9831,
      "cer": 9832,
      "liber": 9833,
      "cele": 9834,
      "emerg": 9835,
      "##uk": 9836,
      "immediately": 9837,
      "intended": 9838,
      "saf": 9839,
      "184": 9840,
      "private": 9841,
      "complex": 9842,
      "journal": 9843,
      "fans": 9844,
      "##ication": 9845,
      "temper": 9846,
      "##king": 9847,
      "supported": 9848,
      "##inese": 9849,
      "##ope": 9850,
      "stay": 9851,
      "entertain": 9852,
      "mr": 9853,
      "card": 9854,
      "model": 9855,
      "agreed": 9856,
      "##ronic": 9857,
      "80": 9858,
      "done": 9859,
      "shoot": 9860,
      "edward": 9861,
      "ca": 9862,
      "##alled": 9863,
      "imm": 9864,
      "feature": 9865,
      "initial": 9866,
      "awarded": 9867,
      "archit": 9868,
      "chicago": 9869,
      "compan": 9870,
      "bord": 9871,
      "celebr": 9872,
      "increasing": 9873,
      "fair": 9874,
      "display": 9875,
      "whether": 9876,
      "related": 9877,
      "weap": 9878,
      "##hem": 9879,
      "##tained": 9880,
      "helped": 9881,
      "intens": 9882,
      "jose": 9883,
      "books": 9884,
      "text": 9885,
      "##ria": 9886,
      "legisl": 9887,
      "planned": 9888,
      "1998": 9889,
      "ho": 9890,
      "chinese": 9891,
      "officer": 9892,
      "##ris": 9893,
      "##down": 9894,
      "##oles": 9895,
      "create": 9896,
      "bring": 9897,
      "artic": 9898,
      "penn": 9899,
      "trade": 9900,
      "longer": 9901,
      "kar": 9902,
      "soldiers": 9903,
      "gal": 9904,
      "here": 9905,
      "##uing": 9906,
      "##atively": 9907,
      "attract": 9908,
      "##aring": 9909,
      "color": 9910,
      "cause": 9911,
      "memor": 9912,
      "conserv": 9913,
      "valley": 9914,
      "33": 9915,
      "##thing": 9916,
      "plans": 9917,
      "yet": 9918,
      "buildings": 9919,
      "##ken": 9920,
      "##teen": 9921,
      "captured": 9922,
      "##icted": 9923,
      "changed": 9924,
      "winter": 9925,
      "martin": 9926,
      "forward": 9927,
      "sev": 9928,
      "unit": 9929,
      "##ector": 9930,
      "block": 9931,
      "conclud": 9932,
      "friends": 9933,
      "##ban": 9934,
      "##ching": 9935,
      "##aph": 9936,
      "dance": 9937,
      "mom": 9938,
      "something": 9939,
      "associated": 9940,
      "##ny": 9941,
      "pu": 9942,
      "spring": 9943,
      "coach": 9944,
      "officers": 9945,
      "singles": 9946,
      "##selves": 9947,
      "remains": 9948,
      "johnson": 9949,
      "billboard": 9950,
      "mostly": 9951,
      "subst": 9952,
      "standard": 9953,
      "##kin": 9954,
      "themselves": 9955,
      "pacific": 9956,
      "##abit": 9957,
      "##rupt": 9958,
      "rat": 9959,
      "countries": 9960,
      "lyrics": 9961,
      "mixed": 9962,
      "##riage": 9963,
      "hero": 9964,
      "exam": 9965,
      "really": 9966,
      "probably": 9967,
      "method": 9968,
      "uns": 9969,
      "extended": 9970,
      "draft": 9971,
      "##mon": 9972,
      "ray": 9973,
      "kore": 9974,
      "iron": 9975,
      "moving": 9976,
      "numerous": 9977,
      "financ": 9978,
      "sir": 9979,
      "ple": 9980,
      "##ta": 9981,
      "##umn": 9982,
      "information": 9983,
      "copies": 9984,
      "oce": 9985,
      "portray": 9986,
      "scot": 9987,
      "##asy": 9988,
      "goals": 9989,
      "rid": 9990,
      "contem": 9991,
      "always": 9992,
      "nation": 9993,
      "visit": 9994,
      "birth": 9995,
      "location": 9996,
      "sales": 9997,
      "37": 9998,
      "tas": 9999,
      "admir": 10000,
      "##isions": 10001,
      "individual": 10002,
      "##well": 10003,
      "##isc": 10004,
      "focus": 10005,
      "congress": 10006,
      "##olic": 10007,
      "##rd": 10008,
      "##gs": 10009,
      "##rol": 10010,
      "energy": 10011,
      "1997": 10012,
      "issued": 10013,
      "atlantic": 10014,
      "leave": 10015,
      "##ands": 10016,
      "includes": 10017,
      "counter": 10018,
      "cit": 10019,
      "confl": 10020,
      "artist": 10021,
      "status": 10022,
      "##andon": 10023,
      "mess": 10024,
      "singer": 10025,
      "conference": 10026,
      "edition": 10027,
      "suffered": 10028,
      "male": 10029,
      "jim": 10030,
      "traff": 10031,
      "via": 10032,
      "tal": 10033,
      "hospital": 10034,
      "florida": 10035,
      "prec": 10036,
      "albums": 10037,
      "maxim": 10038,
      "problems": 10039,
      "##rated": 10040,
      "gall": 10041,
      "##hood": 10042,
      "meeting": 10043,
      "termin": 10044,
      "70": 10045,
      "bene": 10046,
      "likely": 10047,
      "##aught": 10048,
      "revolution": 10049,
      "increase": 10050,
      "independent": 10051,
      "##ounds": 10052,
      "dog": 10053,
      "double": 10054,
      "hu": 10055,
      "carry": 10056,
      "assemb": 10057,
      "##hl": 10058,
      "##bury": 10059,
      "china": 10060,
      "approach": 10061,
      "movie": 10062,
      "removed": 10063,
      "00": 10064,
      "texas": 10065,
      "inspired": 10066,
      "##can": 10067,
      "##ypt": 10068,
      "morn": 10069,
      "##fact": 10070,
      "##bed": 10071,
      "##etic": 10072,
      "lin": 10073,
      "bond": 10074,
      "carol": 10075,
      "##ental": 10076,
      "foreign": 10077,
      "##atives": 10078,
      "##ously": 10079,
      "master": 10080,
      "##ili": 10081,
      "rang": 10082,
      "terms": 10083,
      "primary": 10084,
      "kind": 10085,
      "compos": 10086,
      "majority": 10087,
      "dv": 10088,
      "##itting": 10089,
      "##tic": 10090,
      "##ograph": 10091,
      "##jected": 10092,
      "offered": 10093,
      "sar": 10094,
      "creek": 10095,
      "##vin": 10096,
      "vehic": 10097,
      "ice": 10098,
      "consist": 10099,
      "qual": 10100,
      "stad": 10101,
      "minute": 10102,
      "##icans": 10103,
      "ut": 10104,
      "refl": 10105,
      "dail": 10106,
      "tons": 10107,
      "od": 10108,
      "##ette": 10109,
      "drum": 10110,
      "entertainment": 10111,
      "adop": 10112,
      "##lands": 10113,
      "inters": 10114,
      "makes": 10115,
      "attacks": 10116,
      "fox": 10117,
      "confir": 10118,
      "takes": 10119,
      "simp": 10120,
      "183": 10121,
      "composed": 10122,
      "oil": 10123,
      "raised": 10124,
      "environment": 10125,
      "canadian": 10126,
      "observ": 10127,
      "wa": 10128,
      "damaged": 10129,
      "ranked": 10130,
      "log": 10131,
      "combat": 10132,
      "africa": 10133,
      "##aches": 10134,
      "adult": 10135,
      "categ": 10136,
      "letter": 10137,
      "bor": 10138,
      "##era": 10139,
      "daily": 10140,
      "mun": 10141,
      "appears": 10142,
      "intell": 10143,
      "revealed": 10144,
      "cyclone": 10145,
      "##uth": 10146,
      "train": 10147,
      "und": 10148,
      "selected": 10149,
      "ath": 10150,
      "metal": 10151,
      "##ado": 10152,
      "discovered": 10153,
      "##ails": 10154,
      "##ucle": 10155,
      "determ": 10156,
      "mountain": 10157,
      "fighting": 10158,
      "active": 10159,
      "##chester": 10160,
      "ign": 10161,
      "era": 10162,
      "##ify": 10163,
      "34": 10164,
      "russian": 10165,
      "twenty": 10166,
      "ven": 10167,
      "conditions": 10168,
      "dun": 10169,
      "inside": 10170,
      "kent": 10171,
      "tv": 10172,
      "architect": 10173,
      "morning": 10174,
      "##uries": 10175,
      "greater": 10176,
      "unable": 10177,
      "accomp": 10178,
      "launched": 10179,
      "wrest": 10180,
      "##light": 10181,
      "##rect": 10182,
      "respectively": 10183,
      "angeles": 10184,
      "##umed": 10185,
      "38": 10186,
      "iv": 10187,
      "incor": 10188,
      "1995": 10189,
      "whole": 10190,
      "sched": 10191,
      "sister": 10192,
      "issues": 10193,
      "deg": 10194,
      "##ription": 10195,
      "numbers": 10196,
      "ali": 10197,
      "needed": 10198,
      "bed": 10199,
      "gas": 10200,
      "yard": 10201,
      "smaller": 10202,
      "lived": 10203,
      "thir": 10204,
      "contains": 10205,
      "schol": 10206,
      "traditional": 10207,
      "##aj": 10208,
      "dar": 10209,
      "touch": 10210,
      "##oud": 10211,
      "below": 10212,
      "wit": 10213,
      "shown": 10214,
      "newsp": 10215,
      "attempted": 10216,
      "##leg": 10217,
      "slight": 10218,
      "culture": 10219,
      "iii": 10220,
      "cart": 10221,
      "occurred": 10222,
      "##ste": 10223,
      "yards": 10224,
      "attacked": 10225,
      "religious": 10226,
      "##lor": 10227,
      "cab": 10228,
      "##uals": 10229,
      "##zz": 10230,
      "silver": 10231,
      "##uments": 10232,
      "nick": 10233,
      "##aging": 10234,
      "bab": 10235,
      "##oo": 10236,
      "##ortun": 10237,
      "##joy": 10238,
      "tourn": 10239,
      "ring": 10240,
      "sports": 10241,
      "actor": 10242,
      "festival": 10243,
      "elected": 10244,
      "annual": 10245,
      "defeat": 10246,
      "experi": 10247,
      "constant": 10248,
      "2016": 10249,
      "##ev": 10250,
      "larg": 10251,
      "1996": 10252,
      "##olk": 10253,
      "rein": 10254,
      "reform": 10255,
      "referred": 10256,
      "peace": 10257,
      "fear": 10258,
      "neigh": 10259,
      "##izing": 10260,
      "mind": 10261,
      "bon": 10262,
      "asp": 10263,
      "os": 10264,
      "sav": 10265,
      "##vert": 10266,
      "theme": 10267,
      "##amb": 10268,
      "ocean": 10269,
      "##ault": 10270,
      "psy": 10271,
      "19th": 10272,
      "audience": 10273,
      "magn": 10274,
      "ris": 10275,
      "##rial": 10276,
      "schools": 10277,
      "##ari": 10278,
      "largely": 10279,
      "prince": 10280,
      "express": 10281,
      "resulted": 10282,
      "##urity": 10283,
      "##enant": 10284,
      "link": 10285,
      "assigned": 10286,
      "covered": 10287,
      "listed": 10288,
      "fast": 10289,
      "##com": 10290,
      "variety": 10291,
      "collection": 10292,
      "italian": 10293,
      "90": 10294,
      "purp": 10295,
      "coup": 10296,
      "##ogue": 10297,
      "competition": 10298,
      "glob": 10299,
      "##uated": 10300,
      "indic": 10301,
      "1994": 10302,
      "cath": 10303,
      "ash": 10304,
      "pair": 10305,
      "conflict": 10306,
      "viet": 10307,
      "haw": 10308,
      "earned": 10309,
      "matt": 10310,
      "stadium": 10311,
      "cham": 10312,
      "expected": 10313,
      "controvers": 10314,
      "commented": 10315,
      "names": 10316,
      "recover": 10317,
      "##itude": 10318,
      "dvd": 10319,
      "attention": 10320,
      "nucle": 10321,
      "starting": 10322,
      "##ocks": 10323,
      "closed": 10324,
      "francis": 10325,
      "##quar": 10326,
      "question": 10327,
      "performances": 10328,
      "pick": 10329,
      "rapid": 10330,
      "imper": 10331,
      "##tered": 10332,
      "airport": 10333,
      "prevent": 10334,
      "extre": 10335,
      "giving": 10336,
      "spl": 10337,
      "legal": 10338,
      "figh": 10339,
      "##ims": 10340,
      "refused": 10341,
      "economic": 10342,
      "cust": 10343,
      "ros": 10344,
      "mir": 10345,
      "zeal": 10346,
      "crow": 10347,
      "##ya": 10348,
      "greatest": 10349,
      "##ees": 10350,
      "enjoy": 10351,
      "waters": 10352,
      "contact": 10353,
      "michigan": 10354,
      "##aped": 10355,
      "stories": 10356,
      "hus": 10357,
      "tower": 10358,
      "electric": 10359,
      "##asc": 10360,
      "ability": 10361,
      "notes": 10362,
      "disapp": 10363,
      "##rian": 10364,
      "serious": 10365,
      "##ker": 10366,
      "##bridge": 10367,
      "rate": 10368,
      "hund": 10369,
      "forest": 10370,
      "meant": 10371,
      "##ipped": 10372,
      "declared": 10373,
      "wales": 10374,
      "promin": 10375,
      "stan": 10376,
      "vocals": 10377,
      "native": 10378,
      "49": 10379,
      "poll": 10380,
      "matches": 10381,
      "things": 10382,
      "##use": 10383,
      "##yr": 10384,
      "##bre": 10385,
      "##isher": 10386,
      "hundred": 10387,
      "mention": 10388,
      "180": 10389,
      "levels": 10390,
      "##ples": 10391,
      "words": 10392,
      "swe": 10393,
      "progress": 10394,
      "abandon": 10395,
      "##ij": 10396,
      "chann": 10397,
      "athlet": 10398,
      "marriage": 10399,
      "nearby": 10400,
      "##iest": 10401,
      "fill": 10402,
      "die": 10403,
      "produce": 10404,
      "##yan": 10405,
      "nin": 10406,
      "kenn": 10407,
      "practice": 10408,
      "defense": 10409,
      "necess": 10410,
      "constitution": 10411,
      "mech": 10412,
      "constructed": 10413,
      "41": 10414,
      "source": 10415,
      "##itation": 10416,
      "wear": 10417,
      "##hold": 10418,
      "fantasy": 10419,
      "lot": 10420,
      "##odies": 10421,
      "candid": 10422,
      "advance": 10423,
      "doctor": 10424,
      "##ols": 10425,
      "##win": 10426,
      "1992": 10427,
      "##ona": 10428,
      "weather": 10429,
      "vocal": 10430,
      "mu": 10431,
      "##road": 10432,
      "emper": 10433,
      "kilomet": 10434,
      "##wide": 10435,
      "labor": 10436,
      "separate": 10437,
      "##overs": 10438,
      "highly": 10439,
      "oh": 10440,
      "means": 10441,
      "farm": 10442,
      "writers": 10443,
      "eth": 10444,
      "overs": 10445,
      "executive": 10446,
      "medical": 10447,
      "##ellow": 10448,
      "directly": 10449,
      "1st": 10450,
      "sle": 10451,
      "##acher": 10452,
      "african": 10453,
      "exhib": 10454,
      "mexico": 10455,
      "presented": 10456,
      "##ishop": 10457,
      "purs": 10458,
      "ultimately": 10459,
      "continue": 10460,
      "##onom": 10461,
      "cub": 10462,
      "reduced": 10463,
      "ess": 10464,
      "northwest": 10465,
      "zealand": 10466,
      "##ging": 10467,
      "direction": 10468,
      "positions": 10469,
      "##yst": 10470,
      "flow": 10471,
      "effort": 10472,
      "400": 10473,
      "##rie": 10474,
      "chem": 10475,
      "admiral": 10476,
      "##mas": 10477,
      "##rey": 10478,
      "dan": 10479,
      "##gl": 10480,
      "##ingu": 10481,
      "efforts": 10482,
      "brad": 10483,
      "##ibly": 10484,
      "animals": 10485,
      "##band": 10486,
      "formation": 10487,
      "mechan": 10488,
      "dism": 10489,
      "##oper": 10490,
      "55": 10491,
      "lieut": 10492,
      "defend": 10493,
      "chris": 10494,
      "houses": 10495,
      "dyn": 10496,
      "tried": 10497,
      "attended": 10498,
      "strateg": 10499,
      "accepted": 10500,
      "studies": 10501,
      "batter": 10502,
      "ram": 10503,
      "talk": 10504,
      "financial": 10505,
      "stating": 10506,
      "rule": 10507,
      "libr": 10508,
      "perm": 10509,
      "symb": 10510,
      "theatre": 10511,
      "stra": 10512,
      "lif": 10513,
      "specific": 10514,
      "##ror": 10515,
      "##rier": 10516,
      "memorial": 10517,
      "bob": 10518,
      "advent": 10519,
      "madonna": 10520,
      "1993": 10521,
      "##vement": 10522,
[...]
