{
  "version": "1.0",
  "truncation": null,
  "padding": null,
  "added_tokens": [
    {
      "id": 0,
      "content": "[PAD]",
      "single_word": false,
      "lstrip": false,
      "rstrip": false,
      "normalized": false,
      "special": true
    },
    {
      "id": 1,
      "content": "[UNK]",
      "single_word": false,
      "lstrip": false,
      "rstrip": false,
      "normalized": false,
      "special": true
    },
    {
      "id": 2,
      "content": "[CLS]",
      "single_word": false,
      "lstrip": false,
      "rstrip": false,
      "normalized": false,
      "special": true
    },
    {
      "id": 3,
      "content": "[SEP]",
      "single_word": false,
      "lstrip": false,
      "rstrip": false,
      "normalized": false,
      "special": true
    },
    {
      "id": 4,
      "content": "[MASK]",
      "single_word": false,
      "lstrip": false,
      "rstrip": false,
      "normalized": false,
      "special": true
    }
  ],
  "normalizer": {
    "type": "BertNormalizer",
    "clean_text": true,
    "handle_chinese_chars": true,
    "strip_accents": null,
    "lowercase": true
  },
  "pre_tokenizer": {
    "type": "BertPreTokenizer"
  },
  "post_processor": {
    "type": "TemplateProcessing",
    "single": [
      {
        "SpecialToken": {
          "id": "[CLS]",
          "type_id": 0
        }
      },
      {
        "Sequence": {
          "id": "A",
          "type_id": 0
        }
      },
      {
        "SpecialToken": {
          "id": "[SEP]",
          "type_id": 0
        }
      }
    ],
    "pair": [
      {
        "SpecialToken": {
          "id": "[CLS]",
          "type_id": 0
        }
      },
      {
        "Sequence": {
          "id": "A",
          "type_id": 0
        }
      },
      {
        "SpecialToken": {
          "id": "[SEP]",
          "type_id": 0
        }
      },
      {
        "Sequence": {
          "id": "B",
          "type_id": 1
        }
      },
      {
        "SpecialToken": {
          "id": "[SEP]",
          "type_id": 1
        }
      }
    ],
    "special_tokens": {
      "[CLS]": {
        "id": "[CLS]",
        "ids": [
          2
        ],
        "tokens": [
          "[CLS]"
        ]
      },
      "[SEP]": {
        "id": "[SEP]",
        "ids": [
          3
        ],
        "tokens": [
          "[SEP]"
        ]
      }
    }
  },
  "decoder": {
    "type": "WordPiece",
    "prefix": "##",
    "cleanup": true
  },
  "model": {
    "type": "WordPiece",
    "unk_token": "[UNK]",
    "continuing_subword_prefix": "##",
    "max_input_chars_per_word": 100,
    "vocab": {
      "[PAD]": 0,
      "[UNK]": 1,
      "[CLS]": 2,
      "[SEP]": 3,
      "[MASK]": 4,
      "!": 5,
      "\"": 6,
      "#": 7,
      "$": 8,
      "%": 9,
      "&": 10,
      "'": 11,
      "(": 12,
      ")": 13,
      "*": 14,
      "+": 15,
      ",": 16,
      "-": 17,
      ".": 18,
      "/": 19,
      "0": 20,
      "1": 21,
      "2": 22,
      "3": 23,
      "4": 24,
      "5": 25,
      "6": 26,
      "7": 27,
      "8": 28,
      "9": 29,
      ":": 30,
      ";": 31,
      "<": 32,
      "=": 33,
      ">": 34,
      "?": 35,
      "@": 36,
      "[": 37,
      "\\": 38,
      "]": 39,
      "^": 40,
      "_": 41,
      "`": 42,
      "a": 43,
      "b": 44,
      "c": 45,
      "d": 46,
      "e": 47,
      "f": 48,
      "g": 49,
      "h": 50,
      "i": 51,
      "j": 52,
      "k": 53,
      "l": 54,
      "m": 55,
      "n": 56,
      "o": 57,
      "p": 58,
      "q": 59,
      "r": 60,
      "s": 61,
      "t": 62,
      "u": 63,
      "v": 64,
      "w": 65,
      "x": 66,
      "y": 67,
      "z": 68,
      "{": 69,
      "|": 70,
      "}": 71,
      "~": 72,
      "¡": 73,
      "¢": 74,
      "£": 75,
      "¤": 76,
      "¥": 77,
      "¦": 78,
      "§": 79,
      "¨": 80,
      "©": 81,
      "ª": 82,
      "«": 83,
      "¬": 84,
      "®": 85,
      "¯": 86,
      "°": 87,
      "±": 88,
      "²": 89,
      "³": 90,
      "´": 91,
      "µ": 92,
      "¶": 93,
      "·": 94,
      "¸": 95,
      "¹": 96,
      "º": 97,
      "»": 98,
      "¼": 99,
      "½": 100,
      "¾": 101,
      "¿": 102,
      "×": 103,
      "ß": 104,
      "æ": 105,
      "ð": 106,
      "÷": 107,
      "ø": 108,
      "þ": 109,
      "đ": 110,
      "ħ": 111,
      "ı": 112,
      "ĸ": 113,
      "ł": 114,
      "ŋ": 115,
      "œ": 116,
      "ŧ": 117,
      "ſ": 118,
      "ƃ": 119,
      "ƈ": 120,
      "ƒ": 121,
      "ƙ": 122,
      "ƚ": 123,
      "ƴ": 124,
      "ƶ": 125,
      "ƹ": 126,
      "ƿ": 127,
      "ǁ": 128,
      "ǂ": 129,
      "ǝ": 130,
      "ǥ": 131,
      "ȝ": 132,
      "ȼ": 133,
      "ɂ": 134,
      "ɏ": 135,
      "ɐ": 136,
      "ɑ": 137,
      "ɒ": 138,
      "ɓ": 139,
      "ɔ": 140,
      "ɖ": 141,
      "ə": 142,
      "ɛ": 143,
      "ɟ": 144,
      "ɡ": 145,
      "ɣ": 146,
      "ɤ": 147,
      "ɥ": 148,
      "ɨ": 149,
      "ɩ": 150,
      "ɪ": 151,
      "ɮ": 152,
      "ɯ": 153,
      "ɱ": 154,
      "ɲ": 155,
      "ɳ": 156,
      "ɵ": 157,
      "ɸ": 158,
      "ɹ": 159,
      "ɻ": 160,
      "ɽ": 161,
      "ʃ": 162,
      "ʊ": 163,
      "ʌ": 164,
      "ʎ": 165,
      "ʑ": 166,
      "ʒ": 167,
      "ʔ": 168,
      "ʕ": 169,
      "ʘ": 170,
      "ʤ": 171,
      "ʧ": 172,
      "ʲ": 173,
      "ʷ": 174,
      "ʹ": 175,
      "ʺ": 176,
      "ʻ": 177,
      "ʽ": 178,
      "ʾ": 179,
      "ʿ": 180,
      "ˀ": 181,
      "˂": 182,
      "˃": 183,
      "˄": 184,
      "˅": 185,
      "ˆ": 186,
      "ˇ": 187,
      "ˈ": 188,
      "ˉ": 189,
      "ˋ": 190,
      "ˌ": 191,
      "ː": 192,
      "˗": 193,
      "˘": 194,
      "˙": 195,
      "˚": 196,
      "˜": 197,
      "˝": 198,
      "ˤ": 199,
      "ˮ": 200,
      "˴": 201,
      "ͻ": 202,
      "΄": 203,
      "α": 204,
      "β": 205,
      "γ": 206,
      "δ": 207,
      "ε": 208,
      "ζ": 209,
      "η": 210,
      "θ": 211,
      "ι": 212,
      "κ": 213,
      "λ": 214,
      "μ": 215,
      "ν": 216,
      "ξ": 217,
      "ο": 218,
      "π": 219,
      "ρ": 220,
      "ς": 221,
      "σ": 222,
      "τ": 223,
      "υ": 224,
      "φ": 225,
      "χ": 226,
      "ψ": 227,
      "ω": 228,
      "ϒ": 229,
      "ϕ": 230,
      "ϙ": 231,
      "ϛ": 232,
      "ϝ": 233,
      "ϟ": 234,
      "ϵ": 235,
      "ϸ": 236,
      "а": 237,
      "б": 238,
      "в": 239,
      "г": 240,
      "д": 241,
      "е": 242,
      "ж": 243,
      "з": 244,
      "и": 245,
      "к": 246,
      "л": 247,
      "м": 248,
      "н": 249,
      "о": 250,
      "п": 251,
      "р": 252,
      "с": 253,
      "т": 254,
      "у": 255,
      "ф": 256,
      "х": 257,
      "ц": 258,
      "ч": 259,
      "ш": 260,
      "щ": 261,
      "ъ": 262,
      "ы": 263,
      "ь": 264,
      "э": 265,
      "ю": 266,
      "я": 267,
      "ђ": 268,
      "є": 269,
      "ѕ": 270,
      "і": 271,
      "ј": 272,
      "љ": 273,
      "њ": 274,
      "ћ": 275,
      "џ": 276,
      "ѭ": 277,
      "ѵ": 278,
      "ѻ": 279,
      "҉": 280,
      "ґ": 281,
      "ғ": 282,
      "қ": 283,
      "ҡ": 284,
      "ң": 285,
      "ҫ": 286,
      "ү": 287,
      "ұ": 288,
      "ҳ": 289,
      "һ": 290,
      "ӈ": 291,
      "ӏ": 292,
      "ә": 293,
      "ө": 294,
      "ԑ": 295,
      "ԛ": 296,
      "֎": 297,
      "־": 298,
      "׀": 299,
      "׃": 300,
      "א": 301,
      "ב": 302,
      "ג": 303,
      "ד": 304,
      "ה": 305,
      "ו": 306,
      "ז": 307,
      "ח": 308,
      "ט": 309,
      "י": 310,
      "ך": 311,
      "כ": 312,
      "ל": 313,
      "ם": 314,
      "מ": 315,
      "ן": 316,
      "נ": 317,
      "ס": 318,
      "ע": 319,
      "ף": 320,
      "פ": 321,
      "ץ": 322,
      "צ": 323,
      "ק": 324,
      "ר": 325,
      "ש": 326,
      "ת": 327,
      "ײ": 328,
      "׳": 329,
      "״": 330,
      "،": 331,
      "؛": 332,
      "؟": 333,
      "ء": 334,
      "ا": 335,
      "ب": 336,
      "ة": 337,
      "ت": 338,
      "ث": 339,
      "ج": 340,
      "ح": 341,
      "خ": 342,
      "د": 343,
      "ذ": 344,
      "ر": 345,
      "ز": 346,
      "س": 347,
      "ش": 348,
      "ص": 349,
      "ض": 350,
      "ط": 351,
      "ظ": 352,
      "ع": 353,
      "غ": 354,
      "ـ": 355,
      "ف": 356,
      "ق": 357,
      "ك": 358,
      "ل": 359,
      "م": 360,
      "ن": 361,
      "ه": 362,
      "و": 363,
      "ى": 364,
      "ي": 365,
      "٠": 366,
      "١": 367,
      "٢": 368,
      "٣": 369,
      "٤": 370,
      "٥": 371,
      "٦": 372,
      "٧": 373,
      "٨": 374,
      "٩": 375,
      "٪": 376,
      "٬": 377,
      "٭": 378,
      "ٱ": 379,
      "ٳ": 380,
      "ٴ": 381,
      "پ": 382,
      "ځ": 383,
      "څ": 384,
      "چ": 385,
      "ڏ": 386,
      "ڔ": 387,
      "ڕ": 388,
      "ژ": 389,
      "ڛ": 390,
      "ک": 391,
      "گ": 392,
      "ڰ": 393,
      "ڳ": 394,
      "ڷ": 395,
      "ھ": 396,
      "ڿ": 397,
      "ہ": 398,
      "ۃ": 399,
      "ۇ": 400,
      "ۈ": 401,
      "ۋ": 402,
      "ی": 403,
      "ۍ": 404,
      "ۏ": 405,
      "۔": 406,
      "ە": 407,
      "۞": 408,
      "ۥ": 409,
      "ۦ": 410,
      "۩": 411,
      "۰": 412,
      "۱": 413,
      "۲": 414,
      "۳": 415,
      "۴": 416,
      "۵": 417,
      "۶": 418,
      "۷": 419,
      "۸": 420,
      "۹": 421,
      "߷": 422,
      "ः": 423,
      "अ": 424,
      "आ": 425,
      "इ": 426,
      "ई": 427,
      "उ": 428,
      "ऊ": 429,
      "ऋ": 430,
      "ए": 431,
      "ऐ": 432,
      "ओ": 433,
      "औ": 434,
      "क": 435,
      "ख": 436,
      "ग": 437,
      "घ": 438,
      "ङ": 439,
      "च": 440,
      "छ": 441,
      "ज": 442,
      "झ": 443,
      "ञ": 444,
      "ट": 445,
      "ठ": 446,
      "ड": 447,
      "ढ": 448,
      "ण": 449,
      "त": 450,
      "थ": 451,
      "द": 452,
      "ध": 453,
      "न": 454,
      "प": 455,
      "फ": 456,
      "ब": 457,
      "भ": 458,
      "म": 459,
      "य": 460,
      "र": 461,
      "ल": 462,
      "व": 463,
      "श": 464,
      "ष": 465,
      "स": 466,
      "ह": 467,
      "ऽ": 468,
      "ा": 469,
      "ि": 470,
      "ी": 471,
      "ो": 472,
      "ौ": 473,
      "ॐ": 474,
      "ॠ": 475,
      "।": 476,
      "॥": 477,
      "०": 478,
      "१": 479,
      "२": 480,
      "३": 481,
      "४": 482,
      "५": 483,
      "६": 484,
      "७": 485,
      "८": 486,
      "९": 487,
      "ং": 488,
      "ঃ": 489,
      "অ": 490,
      "আ": 491,
      "ই": 492,
      "ঈ": 493,
      "উ": 494,
      "ঋ": 495,
      "এ": 496,
      "ঐ": 497,
      "ও": 498,
      "ঔ": 499,
      "ক": 500,
      "খ": 501,
      "গ": 502,
      "ঘ": 503,
      "ঙ": 504,
      "চ": 505,
      "ছ": 506,
      "জ": 507,
      "ঝ": 508,
      "ঞ": 509,
      "ট": 510,
      "ঠ": 511,
      "ড": 512,
      "ঢ": 513,
      "ণ": 514,
      "ত": 515,
      "থ": 516,
      "দ": 517,
      "ধ": 518,
      "ন": 519,
      "প": 520,
      "ফ": 521,
      "ব": 522,
      "ভ": 523,
      "ম": 524,
      "য": 525,
      "র": 526,
      "ল": 527,
      "শ": 528,
      "ষ": 529,
      "স": 530,
      "হ": 531,
      "া": 532,
      "ি": 533,
      "ী": 534,
      "ে": 535,
      "ৈ": 536,
      "ৎ": 537,
      "ৗ": 538,
      "০": 539,
      "১": 540,
      "২": 541,
      "৩": 542,
      "৪": 543,
      "৫": 544,
      "৬": 545,
      "৭": 546,
      "৮": 547,
      "৯": 548,
      "ਅ": 549,
      "ਈ": 550,
      "ਉ": 551,
      "ਕ": 552,
      "ਖ": 553,
      "ਗ": 554,
      "ਚ": 555,
      "ਜ": 556,
      "ਤ": 557,
      "ਥ": 558,
      "ਦ": 559,
      "ਧ": 560,
      "ਨ": 561,
      "ਪ": 562,
      "ਬ": 563,
      "ਭ": 564,
      "ਮ": 565,
      "ਰ": 566,
      "ਲ": 567,
      "ਸ": 568,
      "ਹ": 569,
      "ਾ": 570,
      "ਿ": 571,
      "ੀ": 572,
      "੧": 573,
      "੩": 574,
      "ஃ": 575,
      "அ": 576,
      "ஆ": 577,
      "இ": 578,
      "ஈ": 579,
      "உ": 580,
      "ஊ": 581,
      "எ": 582,
      "ஏ": 583,
      "ஐ": 584,
      "ஒ": 585,
      "ஓ": 586,
      "க": 587,
      "ங": 588,
      "ச": 589,
      "ஜ": 590,
      "ஞ": 591,
      "ட": 592,
      "ண": 593,
      "த": 594,
      "ந": 595,
      "ன": 596,
      "ப": 597,
      "ம": 598,
      "ய": 599,
      "ர": 600,
      "ற": 601,
      "ல": 602,
      "ள": 603,
      "ழ": 604,
      "வ": 605,
      "ஷ": 606,
      "ஸ": 607,
      "ா": 608,
      "ி": 609,
      "ு": 610,
      "ூ": 611,
      "ெ": 612,
      "ே": 613,
      "ை": 614,
      "ௗ": 615,
      "ด": 616,
      "ว": 617,
      "ส": 618,
      "๛": 619,
      "༅": 620,
      "༻": 621,
      "࿇": 622,
      "ခ": 623,
      "င": 624,
      "ဆ": 625,
      "န": 626,
      "ပ": 627,
      "သ": 628,
      "ါ": 629,
      "ာ": 630,
      "ေ": 631,
      "း": 632,
      "ᄃ": 633,
      "ᅠ": 634,
      "ᐯ": 635,
      "ᑌ": 636,
      "ᑎ": 637,
      "ᑕ": 638,
      "ᑭ": 639,
      "ᒍ": 640,
      "ᒪ": 641,
      "ᖴ": 642,
      "ᗩ": 643,
      "ᗪ": 644,
      "ᗰ": 645,
      "ᗷ": 646,
      "ᴥ": 647,
      "ᴼ": 648,
      "ᵒ": 649,
      "ᵛ": 650,
      "ᵦ": 651,
      "ᶜ": 652,
      "᾽": 653,
      "῾": 654,
      "‐": 655,
      "‑": 656,
      "‒": 657,
      "–": 658,
      "—": 659,
      "―": 660,
      "‖": 661,
      "‗": 662,
      "†": 663,
      "‡": 664,
      "•": 665,
      "‧": 666,
      "‰": 667,
      "‱": 668,
      "′": 669,
      "″": 670,
      "‴": 671,
      "‶": 672,
      "‹": 673,
      "›": 674,
      "※": 675,
      "‼": 676,
      "‽": 677,
      "‿": 678,
      "⁀": 679,
      "⁃": 680,
      "⁄": 681,
      "⁉": 682,
      "⁰": 683,
      "⁴": 684,
      "⁵": 685,
      "⁶": 686,
      "⁷": 687,
      "⁸": 688,
      "⁹": 689,
      "⁺": 690,
      "₀": 691,
      "₁": 692,
      "₂": 693,
      "₃": 694,
      "₄": 695,
      "₅": 696,
      "₆": 697,
      "₇": 698,
      "₉": 699,
      "₡": 700,
      "₣": 701,
      "₤": 702,
      "₦": 703,
      "₧": 704,
      "₪": 705,
      "₫": 706,
      "€": 707,
      "₰": 708,
      "₱": 709,
      "₹": 710,
      "℃": 711,
      "℉": 712,
      "ℌ": 713,
      "ℎ": 714,
      "ℏ": 715,
      "ℓ": 716,
      "№": 717,
      "ℝ": 718,
      "™": 719,
      "⅓": 720,
      "⅔": 721,
      "⅖": 722,
      "⅘": 723,
      "⅚": 724,
      "⅛": 725,
      "⅜": 726,
      "⅞": 727,
      "ⅱ": 728,
      "ⅵ": 729,
      "ↄ": 730,
      "←": 731,
      "↑": 732,
      "→": 733,
      "↓": 734,
      "↔": 735,
      "↩": 736,
      "↵": 737,
      "⇐": 738,
      "⇒": 739,
      "⇓": 740,
      "⇔": 741,
      "⇝": 742,
      "⇧": 743,
      "⇪": 744,
      "∂": 745,
      "∅": 746,
      "∆": 747,
      "∈": 748,
      "∎": 749,
      "∏": 750,
      "∑": 751,
      "−": 752,
      "∓": 753,
      "∕": 754,
      "∗": 755,
      "∘": 756,
      "∙": 757,
      "√": 758,
      "∛": 759,
      "∝": 760,
      "∞": 761,
      "∟": 762,
      "∣": 763,
      "∧": 764,
      "∨": 765,
      "∩": 766,
      "∪": 767,
      "∫": 768,
      "∬": 769,
      "∴": 770,
      "∶": 771,
      "∼": 772,
      "≅": 773,
      "≈": 774,
      "≋": 775,
      "≎": 776,
      "≒": 777,
      "≡": 778,
      "≤": 779,
      "≥": 780,
      "≦": 781,
      "≧": 782,
      "≳": 783,
      "⊂": 784,
      "⊆": 785,
      "⊕": 786,
      "⊗": 787,
      "⊘": 788,
      "⊙": 789,
      "⊢": 790,
      "⊣": 791,
      "⋄": 792,
      "⋆": 793,
      "⋯": 794,
      "⋲": 795,
      "⌂": 796,
      "⌈": 797,
      "⌉": 798,
      "⌘": 799,
      "⍟": 800,
      "⍺": 801,
      "⎛": 802,
      "⎢": 803,
      "⎯": 804,
      "⏰": 805,
      "⏱": 806,
      "⏲": 807,
      "①": 808,
      "②": 809,
      "③": 810,
      "④": 811,
      "⑤": 812,
      "⑥": 813,
      "⑦": 814,
      "ⓐ": 815,
      "ⓒ": 816,
      "─": 817,
      "│": 818,
      "┌": 819,
      "┐": 820,
      "└": 821,
      "┘": 822,
      "├": 823,
      "┥": 824,
      "┬": 825,
      "┴": 826,
      "┼": 827,
      "═": 828,
      "║": 829,
      "╖": 830,
      "╜": 831,
      "╟": 832,
      "╠": 833,
      "╣": 834,
      "╥": 835,
      "╦": 836,
      "╨": 837,
      "█": 838,
      "▌": 839,
      "■": 840,
      "□": 841,
      "▪": 842,
      "▫": 843,
      "▲": 844,
      "△": 845,
      "▶": 846,
      "▸": 847,
      "►": 848,
      "▻": 849,
      "▼": 850,
      "▽": 851,
      "◄": 852,
      "◅": 853,
      "◆": 854,
      "◇": 855,
      "◉": 856,
      "◊": 857,
      "○": 858,
      "◍": 859,
      "●": 860,
      "◐": 861,
      "◑": 862,
      "◙": 863,
      "◡": 864,
      "◦": 865,
      "☀": 866,
      "★": 867,
      "☆": 868,
      "☇": 869,
      "☉": 870,
      "☎": 871,
      "☏": 872,
      "☐": 873,
      "☑": 874,
      "☔": 875,
      "☜": 876,
      "☝": 877,
      "☞": 878,
      "☠": 879,
      "☢": 880,
      "☣": 881,
      "☥": 882,
      "☪": 883,
      "☮": 884,
      "☯": 885,
      "☸": 886,
      "☹": 887,
      "☺": 888,
      "☻": 889,
      "☼": 890,
      "☽": 891,
      "☾": 892,
      "☿": 893,
      "♀": 894,
      "♂": 895,
      "♃": 896,
      "♄": 897,
      "♆": 898,
      "♈": 899,
      "♍": 900,
      "♏": 901,
      "♐": 902,
      "♑": 903,
      "♒": 904,
      "♔": 905,
      "♕": 906,
      "♚": 907,
      "♛": 908,
      "♜": 909,
      "♝": 910,
      "♞": 911,
      "♟": 912,
      "♠": 913,
      "♡": 914,
      "♣": 915,
      "♥": 916,
      "♦": 917,
      "♩": 918,
      "♪": 919,
      "♫": 920,
      "♬": 921,
      "♯": 922,
      "♿": 923,
      "⚔": 924,
      "⚗": 925,
      "⚛": 926,
      "⚜": 927,
      "⚡": 928,
      "⚤": 929,
      "⚧": 930,
      "⚫": 931,
      "⚽": 932,
      "⚾": 933,
      "⛄": 934,
      "⛔": 935,
      "⛟": 936,
      "⛰": 937,
      "⛱": 938,
      "⛴": 939,
      "⛽": 940,
      "✅": 941,
      "✈": 942,
      "✋": 943,
      "✍": 944,
      "✓": 945,
      "✔": 946,
      "✖": 947,
      "✗": 948,
      "✘": 949,
      "✝": 950,
      "✞": 951,
      "✟": 952,
      "✠": 953,
      "✡": 954,
      "✦": 955,
      "✧": 956,
      "✨": 957,
      "✩": 958,
      "✪": 959,
      "✯": 960,
      "✰": 961,
      "✽": 962,
      "❀": 963,
      "❁": 964,
      "❃": 965,
      "❄": 966,
      "❊": 967,
      "❋": 968,
      "❌": 969,
      "❎": 970,
      "❏": 971,
      "❑": 972,
      "❖": 973,
      "❛": 974,
      "❜": 975,
      "❝": 976,
      "❞": 977,
      "❤": 978,
      "❥": 979,
      "❦": 980,
      "➔": 981,
      "➜": 982,
      "➡": 983,
      "➢": 984,
      "➤": 985,
      "➳": 986,
      "➹": 987,
      "⟞": 988,
      "⧠": 989,
      "⧳": 990,
      "⩾": 991,
      "⭐": 992,
      "ⱥ": 993,
      "ⲅ": 994,
      "⸮": 995,
      "⺄": 996,
      "⺈": 997,
      "⺊": 998,
      "⺌": 999,
      "⺍": 1000,
      "⺕": 1001,
      "⺜": 1002,
      "⺧": 1003,
      "⺶": 1004,
      "⺷": 1005,
      "⺻": 1006,
      "⺼": 1007,
      "⻊": 1008,
      "⻏": 1009,
      "⻖": 1010,
      "、": 1011,
      "。": 1012,
      "〈": 1013,
      "〉": 1014,
      "《": 1015,
      "》": 1016,
      "「": 1017,
      "」": 1018,
      "『": 1019,
      "』": 1020,
      "〜": 1021,
      "〡": 1022,
      "・": 1023,
      "ヽ": 1024,
      "ㄅ": 1025,
      "㇀": 1026,
      "㇂": 1027,
      "㋛": 1028,
      "㐂": 1029,
      "㐆": 1030,
      "㐫": 1031,
      "㐬": 1032,
      "㐭": 1033,
      "㐮": 1034,
      "㐱": 1035,
      "㐴": 1036,
      "㑄": 1037,
      "㑅": 1038,
      "㑒": 1039,
      "㑦": 1040,
      "㑨": 1041,
      "㑪": 1042,
      "㑹": 1043,
      "㒒": 1044,
      "㒵": 1045,
      "㒼": 1046,
      "㓁": 1047,
      "㓇": 1048,
      "㓛": 1049,
      "㔟": 1050,
      "㔪": 1051,
      "㔬": 1052,
      "㔺": 1053,
      "㔾": 1054,
      "㕍": 1055,
      "㕚": 1056,
      "㕛": 1057,
      "㕜": 1058,
      "㕝": 1059,
      "㕞": 1060,
      "㕡": 1061,
      "㕣": 1062,
      "㕮": 1063,
      "㖦": 1064,
      "㖨": 1065,
      "㖾": 1066,
      "㗅": 1067,
      "㗈": 1068,
      "㗊": 1069,
      "㗋": 1070,
      "㗙": 1071,
      "㗚": 1072,
      "㗴": 1073,
      "㗿": 1074,
      "㘅": 1075,
      "㘩": 1076,
      "㘴": 1077,
      "㙊": 1078,
      "㙓": 1079,
      "㙕": 1080,
      "㙵": 1081,
      "㙹": 1082,
      "㚅": 1083,
      "㚇": 1084,
      "㚊": 1085,
      "㚍": 1086,
      "㚏": 1087,
      "㚑": 1088,
      "㚒": 1089,
      "㚔": 1090,
      "㚖": 1091,
      "㚘": 1092,
      "㚙": 1093,
      "㚢": 1094,
      "㚣": 1095,
      "㚥": 1096,
      "㚦": 1097,
      "㚳": 1098,
      "㚶": 1099,
      "㚷": 1100,
      "㚻": 1101,
      "㚼": 1102,
      "㛂": 1103,
      "㛍": 1104,
      "㛏": 1105,
      "㛑": 1106,
      "㛒": 1107,
      "㛕": 1108,
      "㛙": 1109,
      "㛚": 1110,
      "㛺": 1111,
      "㛻": 1112,
      "㛼": 1113,
      "㛾": 1114,
      "㝉": 1115,
      "㝊": 1116,
      "㝡": 1117,
      "㝢": 1118,
      "㝫": 1119,
      "㝬": 1120,
      "㝵": 1121,
      "㝶": 1122,
      "㝻": 1123,
      "㞁": 1124,
      "㞋": 1125,
      "㞍": 1126,
      "㞐": 1127,
      "㞑": 1128,
      "㞒": 1129,
      "㞓": 1130,
      "㞚": 1131,
      "㞞": 1132,
      "㞠": 1133,
      "㞡": 1134,
      "㞢": 1135,
      "㞧": 1136,
      "㞬": 1137,
      "㞵": 1138,
      "㞺": 1139,
      "㟁": 1140,
      "㟢": 1141,
      "㟨": 1142,
      "㟴": 1143,
      "㟽": 1144,
      "㠀": 1145,
      "㠪": 1146,
      "㠭": 1147,
      "㠮": 1148,
      "㠯": 1149,
      "㠱": 1150,
      "㠲": 1151,
      "㠶": 1152,
      "㠻": 1153,
      "㠾": 1154,
      "㡀": 1155,
      "㡜": 1156,
      "㡡": 1157,
      "㡣": 1158,
      "㡯": 1159,
      "㡰": 1160,
      "㡿": 1161,
      "㢂": 1162,
      "㢄": 1163,
      "㢟": 1164,
      "㢽": 1165,
      "㣉": 1166,
      "㣍": 1167,
      "㣏": 1168,
      "㣔": 1169,
      "㣯": 1170,
      "㣺": 1171,
      "㤗": 1172,
      "㤚": 1173,
      "㤟": 1174,
      "㤨": 1175,
      "㤻": 1176,
      "㤽": 1177,
      "㤿": 1178,
      "㥃": 1179,
      "㥆": 1180,
      "㥐": 1181,
      "㥡": 1182,
      "㥣": 1183,
      "㥯": 1184,
      "㥰": 1185,
      "㥾": 1186,
      "㦉": 1187,
      "㦊": 1188,
      "㦖": 1189,
      "㦤": 1190,
      "㦰": 1191,
      "㧈": 1192,
      "㧖": 1193,
      "㧗": 1194,
      "㨢": 1195,
      "㩇": 1196,
      "㩮": 1197,
      "㩳": 1198,
      "㪁": 1199,
      "㪅": 1200,
      "㫃": 1201,
      "㫕": 1202,
      "㫖": 1203,
      "㫗": 1204,
      "㫪": 1205,
      "㫷": 1206,
      "㫸": 1207,
      "㫺": 1208,
      "㬎": 1209,
      "㬚": 1210,
      "㬜": 1211,
      "㬝": 1212,
      "㬟": 1213,
      "㬢": 1214,
      "㬮": 1215,
      "㬵": 1216,
      "㬶": 1217,
      "㬸": 1218,
      "㭟": 1219,
      "㭭": 1220,
      "㭷": 1221,
      "㮇": 1222,
      "㮈": 1223,
      "㮍": 1224,
      "㮤": 1225,
      "㮶": 1226,
      "㯃": 1227,
      "㯍": 1228,
      "㯎": 1229,
      "㯰": 1230,
      "㰏": 1231,
      "㰦": 1232,
      "㱀": 1233,
      "㱒": 1234,
      "㱜": 1235,
      "㱸": 1236,
      "㱿": 1237,
      "㲂": 1238,
      "㲃": 1239,
      "㲇": 1240,
      "㲋": 1241,
      "㲺": 1242,
      "㳃": 1243,
      "㳒": 1244,
      "㳔": 1245,
      "㳙": 1246,
      "㴑": 1247,
      "㴞": 1248,
      "㵙": 1249,
      "㵤": 1250,
      "㶚": 1251,
      "㷀": 1252,
      "㷔": 1253,
      "㸅": 1254,
      "㸿": 1255,
      "㹠": 1256,
      "㹦": 1257,
      "㹨": 1258,
      "㺃": 1259,
      "㺔": 1260,
      "㽗": 1261,
      "㽲": 1262,
      "㽵": 1263,
      "㽷": 1264,
      "㾏": 1265,
      "㾮": 1266,
      "㾯": 1267,
      "㿉": 1268,
      "㿗": 1269,
      "㿻": 1270,
      "䀎": 1271,
      "䀣": 1272,
      "䀹": 1273,
      "䁘": 1274,
      "䁧": 1275,
      "䁹": 1276,
      "䂐": 1277,
      "䂑": 1278,
      "䂓": 1279,
      "䄅": 1280,
      "䅈": 1281,
      "䅏": 1282,
      "䅣": 1283,
      "䆓": 1284,
      "䆴": 1285,
      "䆿": 1286,
      "䇂": 1287,
      "䇏": 1288,
      "䇦": 1289,
      "䇮": 1290,
      "䇳": 1291,
      "䈇": 1292,
      "䈎": 1293,
      "䉤": 1294,
      "䊵": 1295,
      "䋆": 1296,
      "䋎": 1297,
      "䋖": 1298,
      "䋝": 1299,
      "䋡": 1300,
      "䌂": 1301,
      "䌕": 1302,
      "䌟": 1303,
      "䌫": 1304,
      "䍃": 1305,
      "䍗": 1306,
      "䍧": 1307,
      "䍬": 1308,
      "䍰": 1309,
      "䍳": 1310,
      "䍷": 1311,
      "䍻": 1312,
      "䎹": 1313,
      "䏌": 1314,
      "䏍": 1315,
      "䏎": 1316,
      "䏏": 1317,
      "䏐": 1318,
      "䏠": 1319,
      "䏤": 1320,
      "䏮": 1321,
      "䏰": 1322,
      "䏶": 1323,
      "䏺": 1324,
      "䐃": 1325,
      "䐅": 1326,
      "䐇": 1327,
      "䐈": 1328,
      "䐉": 1329,
      "䐋": 1330,
      "䐌": 1331,
      "䐍": 1332,
      "䐖": 1333,
      "䐗": 1334,
      "䐜": 1335,
      "䐡": 1336,
      "䐢": 1337,
      "䐤": 1338,
      "䐥": 1339,
      "䐨": 1340,
      "䐩": 1341,
      "䐭": 1342,
      "䐵": 1343,
      "䑀": 1344,
      "䑉": 1345,
      "䑊": 1346,
      "䑓": 1347,
      "䑛": 1348,
      "䑲": 1349,
      "䑶": 1350,
      "䑺": 1351,
      "䒋": 1352,
      "䒍": 1353,
      "䒏": 1354,
      "䒐": 1355,
      "䒑": 1356,
      "䒭": 1357,
      "䒳": 1358,
      "䒶": 1359,
      "䒾": 1360,
      "䓔": 1361,
      "䔈": 1362,
      "䔍": 1363,
      "䔥": 1364,
      "䔬": 1365,
      "䕃": 1366,
      "䖝": 1367,
      "䖤": 1368,
      "䖧": 1369,
      "䖫": 1370,
      "䖵": 1371,
      "䖸": 1372,
      "䗖": 1373,
      "䗥": 1374,
      "䗪": 1375,
      "䘏": 1376,
      "䘒": 1377,
      "䘕": 1378,
      "䘮": 1379,
      "䘸": 1380,
      "䙁": 1381,
      "䙆": 1382,
      "䙒": 1383,
      "䙝": 1384,
      "䙥": 1385,
      "䙦": 1386,
      "䙮": 1387,
      "䙴": 1388,
      "䙵": 1389,
      "䚏": 1390,
      "䚗": 1391,
      "䚡": 1392,
      "䚯": 1393,
      "䚰": 1394,
      "䚼": 1395,
      "䛄": 1396,
      "䛇": 1397,
      "䛎": 1398,
      "䛏": 1399,
      "䛑": 1400,
      "䛙": 1401,
      "䛠": 1402,
      "䛷": 1403,
      "䛿": 1404,
      "䜋": 1405,
      "䜌": 1406,
      "䜞": 1407,
      "䜡": 1408,
      "䜭": 1409,
      "䜴": 1410,
      "䜵": 1411,
      "䜷": 1412,
      "䜸": 1413,
      "䜻": 1414,
      "䝂": 1415,
      "䝆": 1416,
      "䝇": 1417,
      "䝐": 1418,
      "䝤": 1419,
      "䝪": 1420,
      "䝿": 1421,
      "䞑": 1422,
      "䞙": 1423,
      "䟽": 1424,
      "䠑": 1425,
      "䠖": 1426,
      "䡀": 1427,
      "䡄": 1428,
      "䡎": 1429,
      "䢵": 1430,
      "䣊": 1431,
      "䤫": 1432,
      "䦌": 1433,
      "䦥": 1434,
      "䦫": 1435,
      "䦬": 1436,
      "䦯": 1437,
      "䦰": 1438,
      "䧧": 1439,
      "䧺": 1440,
      "䨄": 1441,
      "䨩": 1442,
      "䪏": 1443,
      "䪼": 1444,
      "䬻": 1445,
      "䭇": 1446,
      "䯂": 1447,
      "䯆": 1448,
      "䯊": 1449,
      "䯒": 1450,
      "䯛": 1451,
      "䯨": 1452,
      "䰗": 1453,
      "䰠": 1454,
      "䳄": 1455,
      "䳑": 1456,
      "䴇": 1457,
      "䵷": 1458,
      "ꜣ": 1459,
      "ꝩ": 1460,
      "ꞵ": 1461,
      "ꟷ": 1462,
      "﨏": 1463,
      "﨑": 1464,
      "﨓": 1465,
      "﨔": 1466,
      "﨟": 1467,
      "﨡": 1468,
      "﨤": 1469,
      "ﬠ": 1470,
      "ﭏ": 1471,
      "ﭘ": 1472,
      "ﭼ": 1473,
      "ﮔ": 1474,
      "ﮕ": 1475,
      "﴾": 1476,
      "﴿": 1477,
      "﷓": 1478,
      "ﷺ": 1479,
      "﹘": 1480,
      "ﺋ": 1481,
      "ﺍ": 1482,
      "ﺎ": 1483,
      "ﺐ": 1484,
      "ﺑ": 1485,
      "ﺒ": 1486,
      "ﺖ": 1487,
      "ﺗ": 1488,
      "ﺘ": 1489,
      "ﺙ": 1490,
      "ﺛ": 1491,
      "ﺜ": 1492,
      "ﺟ": 1493,
      "ﺠ": 1494,
      "ﺢ": 1495,
      "ﺣ": 1496,
      "ﺤ": 1497,
      "ﺧ": 1498,
      "ﺨ": 1499,
      "ﺪ": 1500,
      "ﺬ": 1501,
      "ﺮ": 1502,
      "ﺰ": 1503,
      "ﺲ": 1504,
      "ﺳ": 1505,
      "ﺴ": 1506,
      "ﺶ": 1507,
      "ﺷ": 1508,
      "ﺸ": 1509,
      "ﺻ": 1510,
      "ﺼ": 1511,
      "ﺿ": 1512,
      "ﻀ": 1513,
      "ﻃ": 1514,
      "ﻄ": 1515,
      "ﻈ": 1516,
      "ﻊ": 1517,
      "ﻋ": 1518,
      "ﻌ": 1519,
      "ﻐ": 1520,
      "ﻓ": 1521,
      "ﻔ": 1522,
      "ﻖ": 1523,
      "ﻗ": 1524,
      "ﻘ": 1525,
      "ﻚ": 1526,
      "ﻛ": 1527,
      "ﻜ": 1528,
      "ﻞ": 1529,
      "ﻟ": 1530,
      "ﻠ": 1531,
      "ﻢ": 1532,
      "ﻣ": 1533,
      "ﻤ": 1534,
      "ﻥ": 1535,
      "ﻦ": 1536,
      "ﻧ": 1537,
      "ﻨ": 1538,
      "ﻪ": 1539,
      "ﻫ": 1540,
      "ﻬ": 1541,
      "ﻮ": 1542,
      "ﻲ": 1543,
      "ﻳ": 1544,
      "ﻴ": 1545,
      "ﻻ": 1546,
      "ﻼ": 1547,
      "𐇲": 1548,
      "𝐻": 1549,
      "𝐿": 1550,
      "𝑃": 1551,
      "𝑓": 1552,
      "𝑔": 1553,
      "𝑖": 1554,
      "𝑧": 1555,
      "𝛑": 1556,
      "𝛼": 1557,
      "𝛾": 1558,
      "𝛿": 1559,
      "𝜶": 1560,
      "🃏": 1561,
      "🆒": 1562,
      "🌃": 1563,
      "🌏": 1564,
      "🍆": 1565,
      "🍉": 1566,
      "🍔": 1567,
      "🍷": 1568,
      "🍽": 1569,
      "🎁": 1570,
      "🎓": 1571,
      "🎦": 1572,
      "🎭": 1573,
      "🎾": 1574,
      "🏊": 1575,
      "🏓": 1576,
      "🏖": 1577,
      "👂": 1578,
      "👅": 1579,
      "👇": 1580,
      "👊": 1581,
      "👋": 1582,
      "👌": 1583,
      "👍": 1584,
      "👎": 1585,
      "👦": 1586,
      "👧": 1587,
      "👨": 1588,
      "👩": 1589,
      "👫": 1590,
      "👬": 1591,
      "👭": 1592,
      "👰": 1593,
      "💉": 1594,
      "💊": 1595,
      "💍": 1596,
      "💑": 1597,
      "💜": 1598,
      "💣": 1599,
      "💤": 1600,
      "💪": 1601,
      "📖": 1602,
      "📚": 1603,
      "📮": 1604,
      "📽": 1605,
      "🔞": 1606,
      "🔥": 1607,
      "🔦": 1608,
      "🕖": 1609,
      "🕚": 1610,
      "🗝": 1611,
      "🗣": 1612,
      "😀": 1613,
      "😁": 1614,
      "😂": 1615,
      "😃": 1616,
      "😄": 1617,
      "😅": 1618,
      "😆": 1619,
      "😇": 1620,
      "😉": 1621,
      "😊": 1622,
      "😋": 1623,
      "😍": 1624,
      "😐": 1625,
      "😒": 1626,
      "😓": 1627,
      "😔": 1628,
      "😕": 1629,
      "😘": 1630,
      "😚": 1631,
      "😜": 1632,
      "😞": 1633,
      "😟": 1634,
      "😠": 1635,
      "😡": 1636,
      "😢": 1637,
      "😥": 1638,
      "😫": 1639,
      "😬": 1640,
      "😮": 1641,
      "😱": 1642,
      "😲": 1643,
      "😳": 1644,
      "🙁": 1645,
      "🙂": 1646,
      "🙃": 1647,
      "🙄": 1648,
      "🙏": 1649,
      "🚬": 1650,
      "🚴": 1651,
      "🛏": 1652,
      "🤔": 1653,
      "🤙": 1654,
      "🤞": 1655,
      "🤡": 1656,
      "🤣": 1657,
      "🤵": 1658,
      "🥑": 1659,
      "𠀋": 1660,
      "𠂉": 1661,
      "𠂢": 1662,
      "𠂤": 1663,
      "𠆢": 1664,
      "𠈓": 1665,
      "𠌫": 1666,
      "𠍱": 1667,
      "𠎁": 1668,
      "𠏹": 1669,
      "𠑊": 1670,
      "𠔉": 1671,
      "𠗖": 1672,
      "𠘨": 1673,
      "𠝏": 1674,
      "𠠇": 1675,
      "𠠺": 1676,
      "𠢹": 1677,
      "𠥼": 1678,
      "𠦝": 1679,
      "𠫓": 1680,
      "𠫔": 1681,
      "𠬝": 1682,
      "𠮟": 1683,
      "𠮷": 1684,
      "𠵅": 1685,
      "𠷡": 1686,
      "𠹤": 1687,
      "𠹭": 1688,
      "𠺕": 1689,
      "𠽟": 1690,
      "𡈁": 1691,
      "𡈽": 1692,
      "𡉕": 1693,
      "𡉴": 1694,
      "𡉻": 1695,
      "𡋗": 1696,
      "𡋤": 1697,
      "𡋽": 1698,
      "𡌛": 1699,
      "𡌶": 1700,
      "𡍄": 1701,
      "𡏄": 1702,
      "𡑭": 1703,
      "𡑮": 1704,
      "𡗗": 1705,
      "𡙇": 1706,
      "𡚴": 1707,
      "𡜆": 1708,
      "𡝂": 1709,
      "𡢽": 1710,
      "𡧃": 1711,
      "𡱖": 1712,
      "𡴭": 1713,
      "𡵅": 1714,
      "𡵢": 1715,
      "𡵸": 1716,
      "𡶒": 1717,
      "𡶜": 1718,
      "𡶡": 1719,
      "𡶷": 1720,
      "𡷠": 1721,
      "𡸳": 1722,
      "𡸴": 1723,
      "𡼞": 1724,
      "𡽶": 1725,
      "𡿺": 1726,
      "𢅻": 1727,
      "𢈘": 1728,
      "𢌞": 1729,
      "𢎭": 1730,
      "𢛳": 1731,
      "𢡛": 1732,
      "𢢫": 1733,
      "𢦏": 1734,
      "𢪸": 1735,
      "𢭆": 1736,
      "𢭏": 1737,
      "𢭐": 1738,
      "𢮦": 1739,
      "𢰝": 1740,
      "𢰤": 1741,
      "𢷡": 1742,
      "𣆶": 1743,
      "𣇃": 1744,
      "𣇄": 1745,
      "𣇵": 1746,
      "𣍲": 1747,
      "𣏐": 1748,
      "𣏒": 1749,
      "𣏓": 1750,
      "𣏕": 1751,
      "𣏚": 1752,
      "𣏟": 1753,
      "𣏤": 1754,
      "𣑊": 1755,
      "𣑋": 1756,
      "𣑑": 1757,
      "𣑥": 1758,
      "𣓤": 1759,
      "𣕚": 1760,
      "𣖔": 1761,
      "𣗄": 1762,
      "𣘸": 1763,
      "𣘹": 1764,
      "𣘺": 1765,
      "𣙇": 1766,
      "𣜌": 1767,
      "𣜜": 1768,
      "𣜿": 1769,
      "𣝣": 1770,
      "𣝤": 1771,
      "𣟧": 1772,
      "𣟿": 1773,
      "𣠤": 1774,
      "𣠽": 1775,
      "𣪘": 1776,
      "𣱿": 1777,
      "𣳾": 1778,
      "𣴀": 1779,
      "𣴎": 1780,
      "𣵀": 1781,
      "𣷓": 1782,
      "𣷹": 1783,
      "𣷺": 1784,
      "𣽾": 1785,
      "𤂖": 1786,
      "𤄃": 1787,
      "𤇆": 1788,
      "𤇾": 1789,
      "𤎼": 1790,
      "𤘩": 1791,
      "𤚥": 1792,
      "𤟱": 1793,
      "𤢖": 1794,
      "𤥠": 1795,
      "𤩍": 1796,
      "𤭖": 1797,
      "𤭯": 1798,
      "𤰖": 1799,
      "𤴔": 1800,
      "𤸎": 1801,
      "𤸷": 1802,
      "𤹪": 1803,
      "𤺋": 1804,
      "𥁊": 1805,
      "𥁕": 1806,
      "𥄢": 1807,
      "𥆩": 1808,
      "𥇍": 1809,
      "𥇥": 1810,
      "𥈞": 1811,
      "𥉌": 1812,
      "𥐮": 1813,
      "𥒎": 1814,
      "𥓙": 1815,
      "𥔎": 1816,
      "𥖧": 1817,
      "𥝱": 1818,
      "𥞩": 1819,
      "𥞴": 1820,
      "𥧄": 1821,
      "𥧔": 1822,
      "𥫣": 1823,
      "𥫤": 1824,
      "𥫱": 1825,
      "𥮲": 1826,
      "𥱋": 1827,
      "𥱤": 1828,
      "𥶡": 1829,
      "𥸮": 1830,
      "𥹖": 1831,
      "𥹢": 1832,
      "𥹥": 1833,
      "𥻂": 1834,
      "𥻘": 1835,
      "𥻨": 1836,
      "𥼣": 1837,
      "𥽜": 1838,
      "𥿔": 1839,
      "𥿠": 1840,
      "𥿻": 1841,
      "𦀌": 1842,
      "𦀗": 1843,
      "𦁠": 1844,
      "𦃭": 1845,
      "𦉰": 1846,
      "𦊆": 1847,
      "𦍌": 1848,
      "𦐂": 1849,
      "𦙾": 1850,
      "𦚰": 1851,
      "𦜝": 1852,
      "𦣝": 1853,
      "𦣪": 1854,
      "𦥑": 1855,
      "𦥯": 1856,
      "𦧝": 1857,
      "𦨞": 1858,
      "𦩘": 1859,
      "𦪌": 1860,
      "𦪷": 1861,
      "𦫿": 1862,
      "𦰩": 1863,
      "𦱳": 1864,
      "𦳝": 1865,
      "𦹀": 1866,
      "𦹥": 1867,
      "𦾔": 1868,
      "𦿶": 1869,
      "𦿷": 1870,
      "𦿸": 1871,
      "𧃴": 1872,
      "𧄍": 1873,
      "𧄹": 1874,
      "𧏚": 1875,
      "𧏛": 1876,
      "𧏾": 1877,
      "𧐐": 1878,
      "𧑉": 1879,
      "𧘔": 1880,
      "𧘕": 1881,
      "𧘱": 1882,
      "𧚄": 1883,
      "𧚓": 1884,
      "𧜎": 1885,
      "𧜣": 1886,
      "𧝒": 1887,
      "𧦅": 1888,
      "𧪄": 1889,
      "𧮳": 1890,
      "𧮾": 1891,
      "𧯇": 1892,
      "𧲸": 1893,
      "𧶠": 1894,
      "𧸐": 1895,
      "𧾷": 1896,
      "𨂊": 1897,
      "𨂻": 1898,
      "𨉷": 1899,
      "𨊂": 1900,
      "𨋳": 1901,
      "𨏍": 1902,
      "𨐌": 1903,
      "𨑕": 1904,
      "𨕫": 1905,
      "𨗈": 1906,
      "𨗉": 1907,
      "𨛗": 1908,
      "𨛺": 1909,
      "𨥆": 1910,
      "𨥉": 1911,
      "𨥫": 1912,
      "𨦇": 1913,
      "𨦈": 1914,
      "𨦺": 1915,
      "𨦻": 1916,
      "𨨞": 1917,
      "𨨩": 1918,
      "𨩃": 1919,
      "𨩱": 1920,
      "𨪙": 1921,
      "𨫍": 1922,
      "𨫝": 1923,
      "𨫤": 1924,
      "𨯁": 1925,
      "𨯯": 1926,
      "𨴐": 1927,
      "𨵱": 1928,
      "𨷻": 1929,
      "𨸟": 1930,
      "𨸶": 1931,
      "𨺉": 1932,
      "𨻫": 1933,
      "𨼲": 1934,
      "𨿸": 1935,
      "𩊠": 1936,
      "𩊱": 1937,
      "𩒐": 1938,
      "𩗏": 1939,
      "𩙿": 1940,
      "𩛰": 1941,
      "𩜙": 1942,
      "𩝐": 1943,
      "𩣆": 1944,
      "𩩲": 1945,
      "𩷛": 1946,
      "𩸕": 1947,
      "𩸽": 1948,
      "𩹉": 1949,
      "𩺊": 1950,
      "𩻄": 1951,
      "𩻛": 1952,
      "𩻩": 1953,
      "𩿎": 1954,
      "𪀚": 1955,
      "𪀯": 1956,
      "𪂂": 1957,
      "𪃹": 1958,
      "𪆐": 1959,
      "𪎌": 1960,
      "𪐷": 1961,
      "𪗱": 1962,
      "𪘂": 1963,
      "𪘚": 1964,
      "𪚲": 1965,
      "##o": 1966,
      "##n": 1967,
      "##a": 1968,
      "##t": 1969,
      "##u": 1970,
      "##r": 1971,
      "##l": 1972,
      "##e": 1973,
      "##g": 1974,
      "##w": 1975,
      "##k": 1976,
      "##s": 1977,
      "##y": 1978,
      "##i": 1979,
      "##p": 1980,
      "##m": 1981,
      "##1": 1982,
      "##z": 1983,
      "##c": 1984,
      "##h": 1985,
      "##d": 1986,
      "##v": 1987,
      "##е": 1988,
      "##ı": 1989,
      "##f": 1990,
      "##ে": 1991,
      "##ল": 1992,
      "##ি": 1993,
      "##ভ": 1994,
      "##শ": 1995,
      "##ন": 1996,
      "##8": 1997,
      "##3": 1998,
      "##5": 1999,
      "##0": 2000,
      "##7": 2001,
      "##ن": 2002,
      "##ف": 2003,
      "##س": 2004,
      "##ο": 2005,
      "##ρ": 2006,
      "##α": 2007,
      "##τ": 2008,
      "##η": 2009,
      "##ς": 2010,
      "##j": 2011,
      "##9": 2012,
      "##п": 2013,
      "##ч": 2014,
      "##у": 2015,
      "##т": 2016,
      "##с": 2017,
      "##я": 2018,
      "##6": 2019,
      "##2": 2020,
      "##ң": 2021,
      "##і": 2022,
      "##з": 2023,
      "##b": 2024,
      "##л": 2025,
      "##д": 2026,
      "##а": 2027,
      "##о": 2028,
      "##ь": 2029,
      "##р": 2030,
      "##и": 2031,
      "##н": 2032,
      "##ц": 2033,
      "##г": 2034,
      "##ि": 2035,
      "##र": 2036,
      "##ध": 2037,
      "##प": 2038,
      "##म": 2039,
      "##य": 2040,
      "##स": 2041,
      "##ा": 2042,
      "##в": 2043,
      "##ט": 2044,
      "##ר": 2045,
      "##י": 2046,
      "##א": 2047,
      "##ל": 2048,
      "##ז": 2049,
      "##ם": 2050,
      "##ط": 2051,
      "##ل": 2052,
      "##ا": 2053,
      "##ق": 2054,
      "##خ": 2055,
      "##و": 2056,
      "##қ": 2057,
      "##4": 2058,
      "##q": 2059,
      "##ٱ": 2060,
      "##ت": 2061,
      "##ذ": 2062,
      "##ه": 2063,
      "##ي": 2064,
      "##د": 2065,
      "##ر": 2066,
      "##ł": 2067,
      "##б": 2068,
      "##к": 2069,
      "##κ": 2070,
      "##ι": 2071,
      "##ع": 2072,
      "##م": 2073,
      "##x": 2074,
      "##ѕ": 2075,
      "##כ": 2076,
      "##ظ": 2077,
      "##х": 2078,
      "##ы": 2079,
      "##ற": 2080,
      "##ு": 2081,
      "##க": 2082,
      "##м": 2083,
      "##ж": 2084,
      "##ش": 2085,
      "##ء": 2086,
      "##π": 2087,
      "##χ": 2088,
      "##ν": 2089,
      "##ச": 2090,
      "##ந": 2091,
      "##த": 2092,
      "##வ": 2093,
      "##ழ": 2094,
      "##ி": 2095,
      "##ү": 2096,
      "##ю": 2097,
      "##ب": 2098,
      "##ה": 2099,
      "##ו": 2100,
      "##ך": 2101,
      "##ε": 2102,
      "##ष": 2103,
      "##न": 2104,
      "##त": 2105,
      "##ட": 2106,
      "##ர": 2107,
      "##φ": 2108,
      "##ш": 2109,
      "##ג": 2110,
      "##ə": 2111,
      "##σ": 2112,
      "##υ": 2113,
      "##ெ": 2114,
      "##ய": 2115,
      "##ப": 2116,
      "##ை": 2117,
      "##ா": 2118,
      "##ـ": 2119,
      "##غ": 2120,
      "##ъ": 2121,
      "##ұ": 2122,
      "##ғ": 2123,
      "##व": 2124,
      "##ो": 2125,
      "##ऽ": 2126,
      "##ह": 2127,
      "##©": 2128,
      "##μ": 2129,
      "##γ": 2130,
      "##λ": 2131,
      "##ة": 2132,
      "##ত": 2133,
      "##খ": 2134,
      "##া": 2135,
      "##ی": 2136,
      "##щ": 2137,
      "##ல": 2138,
      "##द": 2139,
      "##ी": 2140,
      "##ம": 2141,
      "##ح": 2142,
      "##ড": 2143,
      "##ও": 2144,
      "##ө": 2145,
      "##÷": 2146,
      "##ক": 2147,
      "##র": 2148,
      "##˴": 2149,
      "##ك": 2150,
      "##ன": 2151,
      "##হ": 2152,
      "##ز": 2153,
      "##क": 2154,
      "##ω": 2155,
      "##ә": 2156,
      "##ண": 2157,
      "##ள": 2158,
      "##נ": 2159,
      "##®": 2160,
      "##þ": 2161,
      "##ۥ": 2162,
      "##ஞ": 2163,
      "##ى": 2164,
      "##ח": 2165,
      "##ூ": 2166,
      "##±": 2167,
      "##θ": 2168,
      "##श": 2169,
      "##º": 2170,
      "##ξ": 2171,
      "##∗": 2172,
      "##ल": 2173,
      "##´": 2174,
      "##ד": 2175,
      "##ˌ": 2176,
      "##₃": 2177,
      "##ת": 2178,
      "##ב": 2179,
      "##भ": 2180,
      "##δ": 2181,
      "##জ": 2182,
      "##য": 2183,
      "##ব": 2184,
      "##স": 2185,
      "##æ": 2186,
      "##−": 2187,
      "##⎛": 2188,
      "##ק": 2189,
      "##ס": 2190,
      "##ম": 2191,
      "##ß": 2192,
      "##च": 2193,
      "##ே": 2194,
      "##ζ": 2195,
      "##ф": 2196,
      "##ض": 2197,
      "##ছ": 2198,
      "##β": 2199,
      "##ங": 2200,
      "##ص": 2201,
      "##מ": 2202,
      "##گ": 2203,
      "##ث": 2204,
      "##ج": 2205,
      "##দ": 2206,
      "##ש": 2207,
      "##ʾ": 2208,
      "##ע": 2209,
      "##ः": 2210,
      "##ী": 2211,
      "##ই": 2212,
      "##פ": 2213,
      "##צ": 2214,
      "##ঙ": 2215,
      "##™": 2216,
      "##↓": 2217,
      "##ک": 2218,
      "##চ": 2219,
      "##°": 2220,
      "##ˈ": 2221,
      "##ן": 2222,
      "##ঠ": 2223,
      "##¬": 2224,
      "##ট": 2225,
      "##ण": 2226,
      "##×": 2227,
      "##۷": 2228,
      "##ψ": 2229,
      "##ҳ": 2230,
      "##ং": 2231,
      "##ɡ": 2232,
      "##ﺳ": 2233,
      "##ﺘ": 2234,
      "##ﻴ": 2235,
      "##ﻨ": 2236,
      "##ﺎ": 2237,
      "##१": 2238,
      "##ज": 2239,
      "##घ": 2240,
      "##ফ": 2241,
      "##﷓": 2242,
      "##थ": 2243,
      "##ग": 2244,
      "##ণ": 2245,
      "##¸": 2246,
      "##ब": 2247,
      "##ধ": 2248,
      "##ख": 2249,
      "##அ": 2250,
      "##ۦ": 2251,
      "##€": 2252,
      "##²": 2253,
      "##ষ": 2254,
      "##ɑ": 2255,
      "##ञ": 2256,
      "##◄": 2257,
      "##ड": 2258,
      "##ठ": 2259,
      "##᾽": 2260,
      "##ȝ": 2261,
      "##ﻓ": 2262,
      "##ﻲ": 2263,
      "##£": 2264,
      "##ɛ": 2265,
      "##¨": 2266,
      "##µ": 2267,
      "##¹": 2268,
      "##৯": 2269,
      "##১": 2270,
      "##¤": 2271,
      "##˚": 2272,
      "##প": 2273,
      "##►": 2274,
      "##ہ": 2275,
      "##ৎ": 2276,
      "##∆": 2277,
      "##→": 2278,
      "##≥": 2279,
      "##০": 2280,
      "##২": 2281,
      "##গ": 2282,
      "##ौ": 2283,
      "##ð": 2284,
      "##є": 2285,
      "##ङ": 2286,
      "##۰": 2287,
      "##ϸ": 2288,
      "##ट": 2289,
      "##উ": 2290,
      "##ø": 2291,
      "##پ": 2292,
      "##ஃ": 2293,
      "##৫": 2294,
      "##৩": 2295,
      "##۵": 2296,
      "##ץ": 2297,
      "##چ": 2298,
      "##இ": 2299,
      "##ৗ": 2300,
      "##─": 2301,
      "##ঞ": 2302,
      "##═": 2303,
      "##╦": 2304,
      "##छ": 2305,
      "##फ": 2306,
      "##⅓": 2307,
      "##६": 2308,
      "##₂": 2309,
      "##ʻ": 2310,
      "##∘": 2311,
      "##۩": 2312,
      "##³": 2313,
      "##ɔ": 2314,
      "##ː": 2315,
      "##э": 2316,
      "##¾": 2317,
      "##ǁ": 2318,
      "##எ": 2319,
      "##❖": 2320,
      "##ﻧ": 2321,
      "##ﺒ": 2322,
      "##ﻪ": 2323,
      "##ɪ": 2324,
      "##ף": 2325,
      "##∓": 2326,
      "##ˆ": 2327,
      "##ஜ": 2328,
      "##உ": 2329,
      "##থ": 2330,
      "##½": 2331,
      "##¼": 2332,
      "##◦": 2333,
      "##۳": 2334,
      "##۴": 2335,
      "##۲": 2336,
      "##०": 2337,
      "##≤": 2338,
      "##₪": 2339,
      "##ژ": 2340,
      "##ɣ": 2341,
      "##đ": 2342,
      "##ਰ": 2343,
      "##ਭ": 2344,
      "##ঘ": 2345,
      "##ﺮ": 2346,
      "##ﻳ": 2347,
      "##ℓ": 2348,
      "##∂": 2349,
      "##●": 2350,
      "##♥": 2351,
      "##ە": 2352,
      "##۱": 2353,
      "##۶": 2354,
      "##⁄": 2355,
      "##☼": 2356,
      "##ʿ": 2357,
      "##✦": 2358,
      "##४": 2359,
      "##΄": 2360,
      "##∙": 2361,
      "##ʹ": 2362,
      "##ई": 2363,
      "##ௗ": 2364,
      "##█": 2365,
      "##ٴ": 2366,
      "##ஒ": 2367,
      "##ﺤ": 2368,
      "##ﻘ": 2369,
      "##ﻖ": 2370,
      "##ﻐ": 2371,
      "##ﺴ": 2372,
      "##ј": 2373,
      "##ɳ": 2374,
      "##५": 2375,
      "##२": 2376,
      "##ঃ": 2377,
      "##¦": 2378,
      "##⁰": 2379,
      "##│": 2380,
      "##ஆ": 2381,
      "##★": 2382,
      "##♔": 2383,
      "##≈": 2384,
      "##♪": 2385,
      "##⎯": 2386,
      "##œ": 2387,
      "##ঝ": 2388,
      "##ﮔ": 2389,
      "##ﻫ": 2390,
      "##ढ": 2391,
      "##ھ": 2392,
      "##¢": 2393,
      "##ﻈ": 2394,
      "##ﻣ": 2395,
      "##◊": 2396,
      "##⋯": 2397,
      "##ﻗ": 2398,
      "##ए": 2399,
      "##∫": 2400,
      "##ƒ": 2401,
      "##≧": 2402,
      "##⁷": 2403,
      "##ۃ": 2404,
      "##℃": 2405,
      "##٠": 2406,
      "##١": 2407,
      "##٨": 2408,
      "##८": 2409,
      "##😐": 2410,
      "##ਾ": 2411,
      "##ਕ": 2412,
      "##¥": 2413,
      "##ħ": 2414,
      "##♀": 2415,
      "##ԛ": 2416,
      "##○": 2417,
      "##ஐ": 2418,
      "##ਸ": 2419,
      "##ਤ": 2420,
      "##←": 2421,
      "##◇": 2422,
      "##۹": 2423,
      "##ℏ": 2424,
      "##√": 2425,
      "##ৈ": 2426,
      "##ஈ": 2427,
      "##ɸ": 2428,
      "##৮": 2429,
      "##৭": 2430,
      "##◅": 2431,
      "##⊙": 2432,
      "##▻": 2433,
      "##њ": 2434,
      "##ﻼ": 2435,
      "##ª": 2436,
      "##ˉ": 2437,
      "##һ": 2438,
      "##♍": 2439,
      "##ﻠ": 2440,
      "##३": 2441,
      "##ஊ": 2442,
      "##ˇ": 2443,
      "##⊢": 2444,
      "##⁶": 2445,
      "##♒": 2446,
      "##№": 2447,
      "##ਲ": 2448,
      "##☠": 2449,
      "##⁺": 2450,
      "##৬": 2451,
      "##♏": 2452,
      "##झ": 2453,
      "##इ": 2454,
      "##✧": 2455,
      "##⋆": 2456,
      "##ۈ": 2457,
      "##ʊ": 2458,
      "##ſ": 2459,
      "##९": 2460,
      "##आ": 2461,
      "##¯": 2462,
      "##ﻮ": 2463,
      "##ﻌ": 2464,
      "##ﻟ": 2465,
      "##ﺖ": 2466,
      "##ڷ": 2467,
      "##ڔ": 2468,
      "##ڳ": 2469,
      "##ﺣ": 2470,
      "##ᵛ": 2471,
      "##⁵": 2472,
      "##ਚ": 2473,
      "##⛽": 2474,
      "##˝": 2475,
      "##င": 2476,
      "##း": 2477,
      "##ပ": 2478,
      "##န": 2479,
      "##ੀ": 2480,
      "##ਨ": 2481,
      "##☆": 2482,
      "##ਗ": 2483,
      "##ਿ": 2484,
      "##ٳ": 2485,
      "##🌃": 2486,
      "##🛏": 2487,
      "##↔": 2488,
      "##👫": 2489,
      "##ﺟ": 2490,
      "##џ": 2491,
      "##𝐻": 2492,
      "##𝑧": 2493,
      "##ﺪ": 2494,
      "##♦": 2495,
      "##♛": 2496,
      "##٦": 2497,
      "##ਪ": 2498,
      "##ﺑ": 2499,
      "##⚤": 2500,
      "##˂": 2501,
      "##٥": 2502,
      "##ओ": 2503,
      "##ᴼ": 2504,
      "##☹": 2505,
      "##⅞": 2506,
      "##˙": 2507,
      "##∞": 2508,
      "##ʔ": 2509,
      "##ґ": 2510,
      "##ஏ": 2511,
      "##▼": 2512,
      "##ᵒ": 2513,
      "##④": 2514,
      "##♣": 2515,
      "##৪": 2516,
      "##ɨ": 2517,
      "##ﻛ": 2518,
      "##ﺰ": 2519,
      "##♂": 2520,
      "##❤": 2521,
      "##℉": 2522,
      "##ƴ": 2523,
      "##↩": 2524,
      "##𝛑": 2525,
      "##ʃ": 2526,
      "##ਜ": 2527,
      "##ɮ": 2528,
      "##⁸": 2529,
      "##ਉ": 2530,
      "##ȼ": 2531,
      "##ﻤ": 2532,
      "##≋": 2533,
      "##❃": 2534,
      "##ﺷ": 2535,
      "##ǝ": 2536,
      "##ɽ": 2537,
      "##ʲ": 2538,
      "##ۇ": 2539,
      "##ʎ": 2540,
      "##ɟ": 2541,
      "##ɯ": 2542,
      "##ﻬ": 2543,
      "##ﻄ": 2544,
      "##𝐿": 2545,
      "##𝑃": 2546,
      "##▲": 2547,
      "##ﺙ": 2548,
      "##ҫ": 2549,
      "##ђ": 2550,
      "##ћ": 2551,
      "##✨": 2552,
      "##ஷ": 2553,
      "##˜": 2554,
      "##҉": 2555,
      "##╖": 2556,
      "##₄": 2557,
      "##ﺲ": 2558,
      "##۸": 2559,
      "##ϕ": 2560,
      "##ऊ": 2561,
      "##♫": 2562,
      "##■": 2563,
      "##ﻦ": 2564,
      "##এ": 2565,
      "##আ": 2566,
      "##❊": 2567,
      "##⅔": 2568,
      "##⁴": 2569,
      "##ʌ": 2570,
      "##ɐ": 2571,
      "##ɥ": 2572,
      "##љ": 2573,
      "##🤵": 2574,
      "##💍": 2575,
      "##ɹ": 2576,
      "##☣": 2577,
      "##ʤ": 2578,
      "##⇒": 2579,
      "##₱": 2580,
      "##∈": 2581,
      "##✯": 2582,
      "##ﺼ": 2583,
      "##ᗰ": 2584,
      "##ᗩ": 2585,
      "##✈": 2586,
      "##⅛": 2587,
      "##ڿ": 2588,
      "##ۍ": 2589,
      "##ڕ": 2590,
      "##□": 2591,
      "##٤": 2592,
      "##ﺍ": 2593,
      "##ﻜ": 2594,
      "##⛴": 2595,
      "##औ": 2596,
      "##ﻀ": 2597,
      "##ﺋ": 2598,
      "##ﻢ": 2599,
      "##ﺸ": 2600,
      "##ﮕ": 2601,
      "##ꝩ": 2602,
      "##ਮ": 2603,
      "##ਹ": 2604,
      "##ŋ": 2605,
      "##😠": 2606,
      "##⁹": 2607,
      "##ӈ": 2608,
      "##ʒ": 2609,
      "##✩": 2610,
      "##ﺐ": 2611,
      "##ⅱ": 2612,
      "##₅": 2613,
      "##∩": 2614,
      "##ﻻ": 2615,
      "##ѵ": 2616,
      "##٧": 2617,
      "##ஸ": 2618,
      "##①": 2619,
      "##😂": 2620,
      "##ƚ": 2621,
      "##७": 2622,
      "##ꟷ": 2623,
      "##👬": 2624,
      "##👭": 2625,
      "##ﺧ": 2626,
      "##⅜": 2627,
      "##↑": 2628,
      "##ʽ": 2629,
      "##∣": 2630,
      "##💑": 2631,
      "##🙁": 2632,
      "##ﻞ": 2633,
      "##☺": 2634,
      "##⌂": 2635,
      "##ځ": 2636,
      "##ਖ": 2637,
      "##♠": 2638,
      "##ɩ": 2639,
      "##⛟": 2640,
      "##ɵ": 2641,
      "##┐": 2642,
      "##ﺢ": 2643,
      "##ᑎ": 2644,
      "##ᗪ": 2645,
      "##ﺠ": 2646,
      "##۞": 2647,
      "##₇": 2648,
      "##₀": 2649,
      "##ﺬ": 2650,
      "##♐": 2651,
      "##ஓ": 2652,
      "##ǂ": 2653,
      "##✍": 2654,
      "##🤙": 2655,
      "##ﺗ": 2656,
      "##☏": 2657,
      "##ﺛ": 2658,
      "##ĸ": 2659,
      "##₤": 2660,
      "##٣": 2661,
      "##ɂ": 2662,
      "##✔": 2663,
      "##ⱥ": 2664,
      "##ɏ": 2665,
      "##ਬ": 2666,
      "##ڏ": 2667,
      "##₉": 2668,
      "##₆": 2669,
      "##₁": 2670,
      "##📚": 2671,
      "##⅖": 2672,
      "##⭐": 2673,
      "##∕": 2674,
      "##٩": 2675,
      "##٢": 2676,
      "##ᶜ": 2677,
      "##ﺻ": 2678,
      "##ਦ": 2679,
      "##🍔": 2680,
      "##🚬": 2681,
      "##🍷": 2682,
      "##💉": 2683,
      "##💊": 2684,
      "##👊": 2685,
      "##💣": 2686,
      "##ਥ": 2687,
      "##🚴": 2688,
      "##🏊": 2689,
      "##⚽": 2690,
      "##🎾": 2691,
      "##🏓": 2692,
      "##🍉": 2693,
      "##🍆": 2694,
      "##🥑": 2695,
      "##🏖": 2696,
      "##⛰": 2697,
      "##🍽": 2698,
      "##📽": 2699,
      "##🎦": 2700,
      "##🎭": 2701,
      "##📖": 2702,
      "##║": 2703,
      "##▌": 2704,
      "##ɒ": 2705,
      "##⅚": 2706,
      "##∪": 2707,
      "##∼": 2708,
      "##ˀ": 2709,
      "##❀": 2710,
      "##≒": 2711,
      "##ﺜ": 2712,
      "##☽": 2713,
      "##☀": 2714,
      "##☾": 2715,
      "##┼": 2716,
      "##ŧ": 2717,
      "##▽": 2718,
      "##ﺨ": 2719,
      "##ﻚ": 2720,
      "##😱": 2721,
      "##🔥": 2722,
      "##ϒ": 2723,
      "##ﻊ": 2724,
      "##♿": 2725,
      "##ʧ": 2726,
      "##ਈ": 2727,
      "##ေ": 2728,
      "##ါ": 2729,
      "##ဆ": 2730,
      "##ာ": 2731,
      "##သ": 2732,
      "##₦": 2733,
      "##₡": 2734,
      "##△": 2735,
      "##˃": 2736,
      "##ﻋ": 2737,
      "##څ": 2738,
      "##उ": 2739,
      "##ﺶ": 2740,
      "##♯": 2741,
      "##ƶ": 2742,
      "##╜": 2743,
      "##┘": 2744,
      "##ᒪ": 2745,
      "##ᑕ": 2746,
      "##ᒍ": 2747,
      "##ᑭ": 2748,
      "##ᐯ": 2749,
      "##❄": 2750,
      "##⚫": 2751,
      "##✝": 2752,
      "##✽": 2753,
      "##𝜶": 2754,
      "##☞": 2755,
      "##☜": 2756,
      "##ϝ": 2757,
      "##ˤ": 2758,
      "##ƈ": 2759,
      "##└": 2760,
      "##ڰ": 2761,
      "##♡": 2762,
      "##🙂": 2763,
      "##ϛ": 2764,
      "##ɓ": 2765,
      "##ﻔ": 2766,
      "##☢": 2767,
      "##ว": 2768,
      "##ส": 2769,
      "##ด": 2770,
      "##♑": 2771,
      "##②": 2772,
      "##ʷ": 2773,
      "##⊘": 2774,
      "##◆": 2775,
      "##ᖴ": 2776,
      "##ᵦ": 2777,
      "##₧": 2778,
      "##🔦": 2779,
      "##👩": 2780,
      "##🔞": 2781,
      "##➡": 2782,
      "##👧": 2783,
      "##👦": 2784,
      "##⟞": 2785,
      "##┴": 2786,
      "##┬": 2787,
      "##🆒": 2788,
      "##☮": 2789,
      "##😇": 2790,
      "##💪": 2791,
      "##🌏": 2792,
      "##✖": 2793,
      "##👅": 2794,
      "##🎓": 2795,
      "##🤡": 2796,
      "##🕚": 2797,
      "##💤": 2798,
      "##🕖": 2799,
      "##🗣": 2800,
      "##☯": 2801,
      "##😒": 2802,
      "##⍺": 2803,
      "##ऋ": 2804,
      "##😋": 2805,
      "##🤔": 2806,
      "##🙄": 2807,
      "##😮": 2808,
      "##😟": 2809,
      "##😓": 2810,
      "##🤣": 2811,
      "##😔": 2812,
      "##😄": 2813,
      "##😬": 2814,
      "##😡": 2815,
      "##😕": 2816,
      "##😳": 2817,
      "##😀": 2818,
      "##😲": 2819,
      "##╥": 2820,
      "##ﭏ": 2821,
      "##⋄": 2822,
      "##अ": 2823,
      "##ਧ": 2824,
      "th": 2825,
      "the": 2826,
      "##er": 2827,
      "##in": 2828,
      "##ed": 2829,
      "##nd": 2830,
      "##ou": 2831,
      "##at": 2832,
      "##ing": 2833,
      "to": 2834,
      "##en": 2835,
      "##or": 2836,
      "##on": 2837,
      "##es": 2838,
      "and": 2839,
      "##ar": 2840,
      "##is": 2841,
      "##an": 2842,
      "##ll": 2843,
      "##as": 2844,
      "of": 2845,
      "##it": 2846,
      "in": 2847,
      "##re": 2848,
      "he": 2849,
      "##om": 2850,
      "be": 2851,
      "you": 2852,
      "sh": 2853,
      "ha": 2854,
      "##ow": 2855,
      "##le": 2856,
      "wh": 2857,
      "##ut": 2858,
      "##ot": 2859,
      "##ic": 2860,
      "##id": 2861,
      "it": 2862,
      "##et": 2863,
      "##ac": 2864,
      "##ld": 2865,
      "was": 2866,
      "on": 2867,
      "##al": 2868,
      "##gh": 2869,
      "##ve": 2870,
      "that": 2871,
      "st": 2872,
      "##ly": 2873,
      "her": 2874,
      "##st": 2875,
      "##ay": 2876,
      "re": 2877,
      "##im": 2878,
      "##ion": 2879,
      "##ent": 2880,
      "##se": 2881,
      "as": 2882,
      "for": 2883,
      "##ur": 2884,
      "his": 2885,
      "##ir": 2886,
      "she": 2887,
      "##ith": 2888,
      "##ad": 2889,
      "##ver": 2890,
      "with": 2891,
      "##oo": 2892,
      "an": 2893,
      "##ght": 2894,
      "we": 2895,
      "##am": 2896,
      "is": 2897,
      "##ould": 2898,
      "##ch": 2899,
      "me": 2900,
      "at": 2901,
      "li": 2902,
      "fr": 2903,
      "##ke": 2904,
      "se": 2905,
      "##ter": 2906,
      "##all": 2907,
      "##th": 2908,
      "my": 2909,
      "##ro": 2910,
      "had": 2911,
      "##ce": 2912,
      "not": 2913,
      "ch": 2914,
      "but": 2915,
      "##ill": 2916,
      "do": 2917,
      "##il": 2918,
      "##ct": 2919,
      "##ess": 2920,
      "ne": 2921,
      "##pp": 2922,
      "##ain": 2923,
      "##ere": 2924,
      "they": 2925,
      "so": 2926,
      "##ri": 2927,
      "sa": 2928,
      "him": 2929,
      "##el": 2930,
      "this": 2931,
      "##ight": 2932,
      "##ked": 2933,
      "##ome": 2934,
      "su": 2935,
      "##ant": 2936,
      "have": 2937,
      "##est": 2938,
      "de": 2939,
      "##ack": 2940,
      "from": 2941,
      "go": 2942,
      "##ore": 2943,
      "##us": 2944,
      "what": 2945,
      "##ust": 2946,
      "all": 2947,
      "up": 2948,
      "out": 2949,
      "##rou": 2950,
      "con": 2951,
      "al": 2952,
      "##ers": 2953,
      "ab": 2954,
      "kn": 2955,
      "##ie": 2956,
      "##ge": 2957,
      "##ra": 2958,
      "##ard": 2959,
      "##ation": 2960,
      "le": 2961,
      "no": 2962,
      "##ul": 2963,
      "##out": 2964,
      "##un": 2965,
      "##her": 2966,
      "or": 2967,
      "ex": 2968,
      "are": 2969,
      "##op": 2970,
      "sp": 2971,
      "##ind": 2972,
      "##king": 2973,
      "##one": 2974,
      "wor": 2975,
      "would": 2976,
      "said": 2977,
      "int": 2978,
      "##um": 2979,
      "##ab": 2980,
      "were": 2981,
      "##os": 2982,
      "one": 2983,
      "there": 2984,
      "##ist": 2985,
      "fe": 2986,
      "##art": 2987,
      "if": 2988,
      "com": 2989,
      "##ol": 2990,
      "##and": 2991,
      "tr": 2992,
      "loo": 2993,
      "can": 2994,
      "##ate": 2995,
      "did": 2996,
      "##ood": 2997,
      "un": 2998,
      "your": 2999,
      "could": 3000,
      "##em": 3001,
      "them": 3002,
      "by": 3003,
      "##ast": 3004,
      "##own": 3005,
      "cl": 3006,
      "en": 3007,
      "##ally": 3008,
      "like": 3009,
      "back": 3010,
      "##ap": 3011,
      "when": 3012,
      "##if": 3013,
      "pl": 3014,
      "pr": 3015,
      "about": 3016,
      "tim": 3017,
      "##ven": 3018,
      "into": 3019,
      "man": 3020,
      "##ace": 3021,
      "pro": 3022,
      "##ig": 3023,
      "just": 3024,
      "ma": 3025,
      "##ong": 3026,
      "##ide": 3027,
      "##ck": 3028,
      "##ive": 3029,
      "their": 3030,
      "ag": 3031,
      "ro": 3032,
      "will": 3033,
      "who": 3034,
      "##ep": 3035,
      "know": 3036,
      "any": 3037,
      "##hing": 3038,
      "mo": 3039,
      "##ous": 3040,
      "##ect": 3041,
      "some": 3042,
      "##ame": 3043,
      "##au": 3044,
      "then": 3045,
      "te": 3046,
      "bl": 3047,
      "us": 3048,
      "##way": 3049,
      "##lf": 3050,
      "over": 3051,
      "lo": 3052,
      "ar": 3053,
      "##ort": 3054,
      "get": 3055,
      "##ity": 3056,
      "time": 3057,
      "ever": 3058,
      "co": 3059,
      "been": 3060,
      "sm": 3061,
      "qu": 3062,
      "how": 3063,
      "##our": 3064,
      "##ice": 3065,
      "##ach": 3066,
      "##urn": 3067,
      "down": 3068,
      "off": 3069,
      "ta": 3070,
      "hand": 3071,
      "more": 3072,
      "##ine": 3073,
      "bo": 3074,
      "##ry": 3075,
      "now": 3076,
      "too": 3077,
      "want": 3078,
      "af": 3079,
      "oth": 3080,
      "##round": 3081,
      "##ies": 3082,
      "see": 3083,
      "tw": 3084,
      "##ment": 3085,
      "thou": 3086,
      "##ich": 3087,
      "fl": 3088,
      "##nder": 3089,
      "##ag": 3090,
      "don": 3091,
      "sc": 3092,
      "##reat": 3093,
      "##ink": 3094,
      "pe": 3095,
      "br": 3096,
      "##ved": 3097,
      "##ick": 3098,
      "##ound": 3099,
      "##ear": 3100,
      "##pl": 3101,
      "##pt": 3102,
      "car": 3103,
      "am": 3104,
      "##ure": 3105,
      "than": 3106,
      "again": 3107,
      "##ile": 3108,
      "ey": 3109,
      "##ass": 3110,
      "our": 3111,
      "##fore": 3112,
      "##ull": 3113,
      "##ving": 3114,
      "##other": 3115,
      "im": 3116,
      "bec": 3117,
      "##itt": 3118,
      "##ud": 3119,
      "##ip": 3120,
      "##ose": 3121,
      "every": 3122,
      "way": 3123,
      "##ue": 3124,
      "##act": 3125,
      "##self": 3126,
      "only": 3127,
      "even": 3128,
      "##fe": 3129,
      "before": 3130,
      "##ish": 3131,
      "other": 3132,
      "ad": 3133,
      "sl": 3134,
      "##ft": 3135,
      "##ence": 3136,
      "say": 3137,
      "gr": 3138,
      "head": 3139,
      "##ings": 3140,
      "didn": 3141,
      "##ble": 3142,
      "##ire": 3143,
      "after": 3144,
      "cont": 3145,
      "##ated": 3146,
      "##ite": 3147,
      "ac": 3148,
      "##led": 3149,
      "##per": 3150,
      "dis": 3151,
      "##ks": 3152,
      "##rough": 3153,
      "##able": 3154,
      "##ance": 3155,
      "##ade": 3156,
      "##iz": 3157,
      "through": 3158,
      "##ber": 3159,
      "here": 3160,
      "##pped": 3161,
      "po": 3162,
      "need": 3163,
      "right": 3164,
      "##ree": 3165,
      "which": 3166,
      "##ans": 3167,
      "##age": 3168,
      "##omet": 3169,
      "around": 3170,
      "res": 3171,
      "eyes": 3172,
      "##ci": 3173,
      "##ell": 3174,
      "day": 3175,
      "##ward": 3176,
      "##ang": 3177,
      "somet": 3178,
      "has": 3179,
      "##ath": 3180,
      "peop": 3181,
      "two": 3182,
      "fir": 3183,
      "mar": 3184,
      "fo": 3185,
      "people": 3186,
      "##ff": 3187,
      "turn": 3188,
      "where": 3189,
      "##wn": 3190,
      "good": 3191,
      "##ves": 3192,
      "##ak": 3193,
      "think": 3194,
      "going": 3195,
      "##oun": 3196,
      "well": 3197,
      "gu": 3198,
      "should": 3199,
      "##ions": 3200,
      "let": 3201,
      "##qu": 3202,
      "mu": 3203,
      "##ause": 3204,
      "gl": 3205,
      "looked": 3206,
      "jo": 3207,
      "thought": 3208,
      "ll": 3209,
      "wat": 3210,
      "comp": 3211,
      "app": 3212,
      "per": 3213,
      "##oth": 3214,
      "long": 3215,
      "rem": 3216,
      "still": 3217,
      "str": 3218,
      "under": 3219,
      "##ery": 3220,
      "god": 3221,
      "em": 3222,
      "ve": 3223,
      "##ord": 3224,
      "##co": 3225,
      "bet": 3226,
      "may": 3227,
      "wa": 3228,
      "##ia": 3229,
      "##ather": 3230,
      "##ew": 3231,
      "##thing": 3232,
      "cr": 3233,
      "##iss": 3234,
      "##ild": 3235,
      "##ting": 3236,
      "sw": 3237,
      "something": 3238,
      "first": 3239,
      "##ase": 3240,
      "away": 3241,
      "pre": 3242,
      "##ning": 3243,
      "##ious": 3244,
      "##ied": 3245,
      "##dy": 3246,
      "never": 3247,
      "door": 3248,
      "##ress": 3249,
      "asked": 3250,
      "##ted": 3251,
      "new": 3252,
      "life": 3253,
      "got": 3254,
      "much": 3255,
      "made": 3256,
      "des": 3257,
      "##ave": 3258,
      "ho": 3259,
      "because": 3260,
      "make": 3261,
      "part": 3262,
      "feel": 3263,
      "##ened": 3264,
      "face": 3265,
      "call": 3266,
      "spe": 3267,
      "##ens": 3268,
      "hel": 3269,
      "##ough": 3270,
      "##ah": 3271,
      "come": 3272,
      "op": 3273,
      "why": 3274,
      "ke": 3275,
      "##igh": 3276,
      "##gg": 3277,
      "bel": 3278,
      "##te": 3279,
      "take": 3280,
      "##orm": 3281,
      "happ": 3282,
      "##ady": 3283,
      "wal": 3284,
      "##ered": 3285,
      "look": 3286,
      "##are": 3287,
      "##ittle": 3288,
      "year": 3289,
      "##iv": 3290,
      "little": 3291,
      "room": 3292,
      "act": 3293,
      "ph": 3294,
      "##air": 3295,
      "##ched": 3296,
      "tell": 3297,
      "##ise": 3298,
      "##so": 3299,
      "##ily": 3300,
      "ear": 3301,
      "##ss": 3302,
      "very": 3303,
      "start": 3304,
      "##ents": 3305,
      "##ty": 3306,
      "sur": 3307,
      "arm": 3308,
      "while": 3309,
      "##ying": 3310,
      "##av": 3311,
      "being": 3312,
      "att": 3313,
      "mom": 3314,
      "##ary": 3315,
      "##ried": 3316,
      "##ful": 3317,
      "its": 3318,
      "wr": 3319,
      "##be": 3320,
      "##ark": 3321,
      "real": 3322,
      "##dd": 3323,
      "##ook": 3324,
      "inter": 3325,
      "##ory": 3326,
      "el": 3327,
      "##side": 3328,
      "those": 3329,
      "these": 3330,
      "help": 3331,
      "##uck": 3332,
      "##iff": 3333,
      "own": 3334,
      "took": 3335,
      "##ness": 3336,
      "find": 3337,
      "rel": 3338,
      "seem": 3339,
      "tal": 3340,
      "##ical": 3341,
      "knew": 3342,
      "most": 3343,
      "##ced": 3344,
      "fin": 3345,
      "another": 3346,
      "dr": 3347,
      "##ub": 3348,
      "##ph": 3349,
      "##elt": 3350,
      "mat": 3351,
      "##tain": 3352,
      "imp": 3353,
      "sure": 3354,
      "##cl": 3355,
      "left": 3356,
      "##xt": 3357,
      "few": 3358,
      "##ign": 3359,
      "ser": 3360,
      "##ian": 3361,
      "came": 3362,
      "beg": 3363,
      "##ations": 3364,
      "exp": 3365,
      "word": 3366,
      "really": 3367,
      "ev": 3368,
      "old": 3369,
      "work": 3370,
      "end": 3371,
      "##oss": 3372,
      "put": 3373,
      "things": 3374,
      "##ons": 3375,
      "wom": 3376,
      "beh": 3377,
      "also": 3378,
      "turned": 3379,
      "##ared": 3380,
      "##ult": 3381,
      "does": 3382,
      "##get": 3383,
      "felt": 3384,
      "night": 3385,
      "comm": 3386,
      "##owed": 3387,
      "mind": 3388,
      "world": 3389,
      "unt": 3390,
      "##ever": 3391,
      "##vel": 3392,
      "war": 3393,
      "many": 3394,
      "vo": 3395,
      "pers": 3396,
      "light": 3397,
      "last": 3398,
      "##int": 3399,
      "la": 3400,
      "love": 3401,
      "##ouse": 3402,
      "sk": 3403,
      "gra": 3404,
      "##ail": 3405,
      "##de": 3406,
      "min": 3407,
      "bu": 3408,
      "##ys": 3409,
      "##ush": 3410,
      "sin": 3411,
      "wasn": 3412,
      "##ool": 3413,
      "##ps": 3414,
      "##ower": 3415,
      "told": 3416,
      "cle": 3417,
      "ind": 3418,
      "side": 3419,
      "went": 3420,
      "each": 3421,
      "ret": 3422,
      "##ors": 3423,
      "##ru": 3424,
      "set": 3425,
      "##een": 3426,
      "##ways": 3427,
      "##ont": 3428,
      "##ne": 3429,
      "rep": 3430,
      "##iend": 3431,
      "##ross": 3432,
      "ob": 3433,
      "##ible": 3434,
      "found": 3435,
      "friend": 3436,
      "##les": 3437,
      "yes": 3438,
      "keep": 3439,
      "hum": 3440,
      "wait": 3441,
      "both": 3442,
      "place": 3443,
      "##ating": 3444,
      "toward": 3445,
      "##ash": 3446,
      "cons": 3447,
      "belie": 3448,
      "hands": 3449,
      "##og": 3450,
      "must": 3451,
      "nothing": 3452,
      "pull": 3453,
      "might": 3454,
      "##ition": 3455,
      "##ict": 3456,
      "inst": 3457,
      "##cess": 3458,
      "next": 3459,
      "##ual": 3460,
      "par": 3461,
      "home": 3462,
      "same": 3463,
      "dec": 3464,
      "##ib": 3465,
      "##ple": 3466,
      "sat": 3467,
      "great": 3468,
      "diff": 3469,
      "##ually": 3470,
      "cor": 3471,
      "##ling": 3472,
      "years": 3473,
      "body": 3474,
      "che": 3475,
      "against": 3476,
      "anything": 3477,
      "saw": 3478,
      "ste": 3479,
      "far": 3480,
      "foll": 3481,
      "ass": 3482,
      "wanted": 3483,
      "##ange": 3484,
      "without": 3485,
      "##iver": 3486,
      "##ost": 3487,
      "enough": 3488,
      "##ial": 3489,
      "hard": 3490,
      "thing": 3491,
      "##ream": 3492,
      "once": 3493,
      "though": 3494,
      "pass": 3495,
      "##ned": 3496,
      "always": 3497,
      "##ner": 3498,
      "behind": 3499,
      "fam": 3500,
      "until": 3501,
      "men": 3502,
      "##sp": 3503,
      "##ction": 3504,
      "##ces": 3505,
      "such": 3506,
      "person": 3507,
      "house": 3508,
      "high": 3509,
      "gi": 3510,
      "##na": 3511,
      "looking": 3512,
      "##az": 3513,
      "small": 3514,
      "open": 3515,
      "gir": 3516,
      "three": 3517,
      "bre": 3518,
      "##ently": 3519,
      "voice": 3520,
      "ple": 3521,
      "inf": 3522,
      "coun": 3523,
      "child": 3524,
      "##oc": 3525,
      "rest": 3526,
      "##red": 3527,
      "##cept": 3528,
      "##ised": 3529,
      "gre": 3530,
      "##aring": 3531,
      "couldn": 3532,
      "dark": 3533,
      "##owing": 3534,
      "met": 3535,
      "hop": 3536,
      "##ars": 3537,
      "himself": 3538,
      "wo": 3539,
      "hu": 3540,
      "sound": 3541,
      "acc": 3542,
      "##ng": 3543,
      "##ead": 3544,
      "run": 3545,
      "sim": 3546,
      "stand": 3547,
      "##uc": 3548,
      "father": 3549,
      "##aught": 3550,
      "moment": 3551,
      "##der": 3552,
      "conf": 3553,
      "mor": 3554,
      "inv": 3555,
      "heart": 3556,
      "cour": 3557,
      "ang": 3558,
      "clos": 3559,
      "bed": 3560,
      "supp": 3561,
      "pa": 3562,
      "tra": 3563,
      "give": 3564,
      "##uth": 3565,
      "girl": 3566,
      "underst": 3567,
      "cur": 3568,
      "##med": 3569,
      "dri": 3570,
      "##sw": 3571,
      "gen": 3572,
      "##bed": 3573,
      "front": 3574,
      "contin": 3575,
      "better": 3576,
      "mon": 3577,
      "##less": 3578,
      "##ching": 3579,
      "##outh": 3580,
      "##ix": 3581,
      "resp": 3582,
      "##day": 3583,
      "##ken": 3584,
      "##ows": 3585,
      "mean": 3586,
      "smil": 3587,
      "20": 3588,
      "##cond": 3589,
      "sy": 3590,
      "sil": 3591,
      "betw": 3592,
      "between": 3593,
      "quest": 3594,
      "plan": 3595,
      "chr": 3596,
      "care": 3597,
      "char": 3598,
      "woman": 3599,
      "dra": 3600,
      "##gn": 3601,
      "everything": 3602,
      "quick": 3603,
      "maybe": 3604,
      "##ier": 3605,
      "second": 3606,
      "answ": 3607,
      "##ater": 3608,
      "pres": 3609,
      "##ank": 3610,
      "kill": 3611,
      "ed": 3612,
      "expl": 3613,
      "##end": 3614,
      "rec": 3615,
      "mother": 3616,
      "someone": 3617,
      "heard": 3618,
      "wind": 3619,
      "ter": 3620,
      "hold": 3621,
      "##ember": 3622,
      "since": 3623,
      "##ense": 3624,
      "water": 3625,
      "read": 3626,
      "air": 3627,
      "differ": 3628,
      "reg": 3629,
      "play": 3630,
      "##cer": 3631,
      "breat": 3632,
      "##ung": 3633,
      "##ason": 3634,
      "##ret": 3635,
      "##used": 3636,
      "##ock": 3637,
      "big": 3638,
      "##ained": 3639,
      "oh": 3640,
      "bit": 3641,
      "##ond": 3642,
      "dist": 3643,
      "lau": 3644,
      "ra": 3645,
      "##ject": 3646,
      "inside": 3647,
      "alm": 3648,
      "started": 3649,
      "##ably": 3650,
      "near": 3651,
      "bar": 3652,
      "ref": 3653,
      "seemed": 3654,
      "miss": 3655,
      "black": 3656,
      "flo": 3657,
      "yet": 3658,
      "##ention": 3659,
      "use": 3660,
      "##ished": 3661,
      "pat": 3662,
      "red": 3663,
      "add": 3664,
      "sch": 3665,
      "chap": 3666,
      "remember": 3667,
      "##tered": 3668,
      "hair": 3669,
      "return": 3670,
      "##ready": 3671,
      "kind": 3672,
      "already": 3673,
      "##ized": 3674,
      "stood": 3675,
      "lar": 3676,
      "##up": 3677,
      "trying": 3678,
      "ent": 3679,
      "inc": 3680,
      "called": 3681,
      "lot": 3682,
      "##bo": 3683,
      "ca": 3684,
      "sle": 3685,
      "##ully": 3686,
      "poss": 3687,
      "wall": 3688,
      "name": 3689,
      "laugh": 3690,
      "power": 3691,
      "cap": 3692,
      "pol": 3693,
      "walked": 3694,
      "aw": 3695,
      "##ates": 3696,
      "reach": 3697,
      "ok": 3698,
      "doing": 3699,
      "done": 3700,
      "##kes": 3701,
      "gave": 3702,
      "understand": 3703,
      "began": 3704,
      "##gether": 3705,
      "sub": 3706,
      "pain": 3707,
      "stay": 3708,
      "deep": 3709,
      "words": 3710,
      "19": 3711,
      "else": 3712,
      "##ren": 3713,
      "chapter": 3714,
      "best": 3715,
      "form": 3716,
      "##iet": 3717,
      "across": 3718,
      "##rew": 3719,
      "blood": 3720,
      "##amp": 3721,
      "almost": 3722,
      "##ny": 3723,
      "used": 3724,
      "##ott": 3725,
      "dire": 3726,
      "mr": 3727,
      "wonder": 3728,
      "young": 3729,
      "det": 3730,
      "sn": 3731,
      "col": 3732,
      "##ately": 3733,
      "soon": 3734,
      "ide": 3735,
      "minut": 3736,
      "together": 3737,
      "vis": 3738,
      "##io": 3739,
      "##ided": 3740,
      "seen": 3741,
      "##pr": 3742,
      "says": 3743,
      "christ": 3744,
      "##ined": 3745,
      "##ump": 3746,
      "bus": 3747,
      "hour": 3748,
      "##pping": 3749,
      "stop": 3750,
      "##als": 3751,
      "believe": 3752,
      "fact": 3753,
      "##its": 3754,
      "human": 3755,
      "##wh": 3756,
      "sto": 3757,
      "eas": 3758,
      "family": 3759,
      "tried": 3760,
      "comple": 3761,
      "##umb": 3762,
      "along": 3763,
      "point": 3764,
      "##ene": 3765,
      "##ts": 3766,
      "##ited": 3767,
      "##ither": 3768,
      "breath": 3769,
      "sec": 3770,
      "pur": 3771,
      "dro": 3772,
      "repl": 3773,
      "##ake": 3774,
      "move": 3775,
      "sign": 3776,
      "##row": 3777,
      "past": 3778,
      "pulled": 3779,
      "stud": 3780,
      "tri": 3781,
      "coll": 3782,
      "list": 3783,
      "close": 3784,
      "##ters": 3785,
      "##eng": 3786,
      "leave": 3787,
      "later": 3788,
      "##iness": 3789,
      "wee": 3790,
      "table": 3791,
      "##aced": 3792,
      "##itch": 3793,
      "ye": 3794,
      "days": 3795,
      "mem": 3796,
      "##ased": 3797,
      "bri": 3798,
      "##ected": 3799,
      "creat": 3800,
      "ele": 3801,
      "##hip": 3802,
      "hear": 3803,
      "##ured": 3804,
      "feet": 3805,
      "lead": 3806,
      "##ued": 3807,
      "##ures": 3808,
      "slow": 3809,
      "myself": 3810,
      "others": 3811,
      "##ically": 3812,
      "thin": 3813,
      "meet": 3814,
      "leg": 3815,
      "smile": 3816,
      "course": 3817,
      "smiled": 3818,
      "tre": 3819,
      "##cy": 3820,
      "sit": 3821,
      "everyone": 3822,
      "##sel": 3823,
      "##man": 3824,
      "getting": 3825,
      "perf": 3826,
      "fing": 3827,
      "##ins": 3828,
      "##uring": 3829,
      "##oy": 3830,
      "nodd": 3831,
      "bad": 3832,
      "land": 3833,
      "dem": 3834,
      "##ering": 3835,
      "four": 3836,
      "book": 3837,
      "har": 3838,
      "bro": 3839,
      "##ular": 3840,
      "trans": 3841,
      "spir": 3842,
      "step": 3843,
      "able": 3844,
      "##to": 3845,
      "prot": 3846,
      "fall": 3847,
      "##ets": 3848,
      "coming": 3849,
      "cou": 3850,
      "##olog": 3851,
      "appear": 3852,
      "hur": 3853,
      "different": 3854,
      "##ric": 3855,
      "##idd": 3856,
      "ap": 3857,
      "held": 3858,
      "mouth": 3859,
      "floor": 3860,
      "nat": 3861,
      "eff": 3862,
      "having": 3863,
      "lord": 3864,
      "del": 3865,
      "##oke": 3866,
      "##ities": 3867,
      "sor": 3868,
      "##ility": 3869,
      "talk": 3870,
      "##vers": 3871,
      "least": 3872,
      "arms": 3873,
      "dead": 3874,
      "##oney": 3875,
      "ground": 3876,
      "##aps": 3877,
      "half": 3878,
      "##ience": 3879,
      "dep": 3880,
      "exper": 3881,
      "loc": 3882,
      "white": 3883,
      "##cc": 3884,
      "school": 3885,
      "##ize": 3886,
      "##icked": 3887,
      "def": 3888,
      "hor": 3889,
      "fire": 3890,
      "med": 3891,
      "##cial": 3892,
      "needed": 3893,
      "clear": 3894,
      "prob": 3895,
      "wouldn": 3896,
      "morning": 3897,
      "cent": 3898,
      "dan": 3899,
      "finally": 3900,
      "nodded": 3901,
      "##cus": 3902,
      "quickly": 3903,
      "free": 3904,
      "##ged": 3905,
      "##aking": 3906,
      "top": 3907,
      "sun": 3908,
      "ask": 3909,
      "##iew": 3910,
      "times": 3911,
      "##sc": 3912,
      "##du": 3913,
      "cer": 3914,
      "death": 3915,
      "herself": 3916,
      "tom": 3917,
      "##ten": 3918,
      "full": 3919,
      "##ushed": 3920,
      "question": 3921,
      "large": 3922,
      "##br": 3923,
      "making": 3924,
      "towards": 3925,
      "hell": 3926,
      "##hn": 3927,
      "okay": 3928,
      "lear": 3929,
      "cal": 3930,
      "##ific": 3931,
      "jes": 3932,
      "build": 3933,
      "##ept": 3934,
      "##itting": 3935,
      "happened": 3936,
      "##ms": 3937,
      "ran": 3938,
      "##ines": 3939,
      "earth": 3940,
      "##ments": 3941,
      "##fully": 3942,
      "cat": 3943,
      "eng": 3944,
      "sever": 3945,
      "##dden": 3946,
      "mus": 3947,
      "##uff": 3948,
      "short": 3949,
      "##ug": 3950,
      "boy": 3951,
      "appro": 3952,
      "##by": 3953,
      "upon": 3954,
      "fa": 3955,
      "doesn": 3956,
      "sudden": 3957,
      "sleep": 3958,
      "##ired": 3959,
      "won": 3960,
      "reason": 3961,
      "fur": 3962,
      "gone": 3963,
      "##ma": 3964,
      "king": 3965,
      "##ames": 3966,
      "anyone": 3967,
      "try": 3968,
      "eye": 3969,
      "probably": 3970,
      "john": 3971,
      "friends": 3972,
      "##ening": 3973,
      "##ield": 3974,
      "less": 3975,
      "prom": 3976,
      "contro": 3977,
      "##oud": 3978,
      "feeling": 3979,
      "##ird": 3980,
      "within": 3981,
      "##ative": 3982,
      "##irt": 3983,
      "cover": 3984,
      "idea": 3985,
      "fre": 3986,
      "pri": 3987,
      "##ove": 3988,
      "hope": 3989,
      "stopped": 3990,
      "##ife": 3991,
      "##eth": 3992,
      "fun": 3993,
      "fight": 3994,
      "please": 3995,
      "taking": 3996,
      "stra": 3997,
      "##fort": 3998,
      "cra": 3999,
      "tou": 4000,
      "##iously": 4001,
      "opened": 4002,
      "gener": 4003,
      "##gged": 4004,
      "spirit": 4005,
      "fell": 4006,
      "surpr": 4007,
      "mess": 4008,
      "##ants": 4009,
      "##yp": 4010,
      "however": 4011,
      "##ane": 4012,
      "outside": 4013,
      "children": 4014,
      "whole": 4015,
      "certain": 4016,
      "grab": 4017,
      "proble": 4018,
      "##aut": 4019,
      "##00": 4020,
      "grou": 4021,
      "##ient": 4022,
      "moved": 4023,
      "##ton": 4024,
      "money": 4025,
      "jesus": 4026,
      "dam": 4027,
      "nor": 4028,
      "##selves": 4029,
      "adv": 4030,
      "show": 4031,
      "cell": 4032,
      "son": 4033,
      "lea": 4034,
      "cut": 4035,
      "av": 4036,
      "##orn": 4037,
      "matter": 4038,
      "sho": 4039,
      "num": 4040,
      "kiss": 4041,
      "ready": 4042,
      "ins": 4043,
      "dou": 4044,
      "true": 4045,
      "##tern": 4046,
      "reached": 4047,
      "dad": 4048,
      "pos": 4049,
      "sorry": 4050,
      "five": 4051,
      "stre": 4052,
      "sam": 4053,
      "##ides": 4054,
      "today": 4055,
      "count": 4056,
      "become": 4057,
      "##head": 4058,
      "actually": 4059,
      "consid": 4060,
      "##ister": 4061,
      "##att": 4062,
      "bring": 4063,
      "fig": 4064,
      "minutes": 4065,
      "forward": 4066,
      "interest": 4067,
      "##aw": 4068,
      "law": 4069,
      "yeah": 4070,
      "##ards": 4071,
      "thinking": 4072,
      "alone": 4073,
      "inform": 4074,
      "##mm": 4075,
      "truth": 4076,
      "onto": 4077,
      "##od": 4078,
      "wrong": 4079,
      "either": 4080,
      "##ident": 4081,
      "sou": 4082,
      "living": 4083,
      "live": 4084,
      "lost": 4085,
      "complete": 4086,
      "swe": 4087,
      "food": 4088,
      "kept": 4089,
      "imag": 4090,
      "sent": 4091,
      "fill": 4092,
      "state": 4093,
      "ext": 4094,
      "jack": 4095,
      "mil": 4096,
      "##app": 4097,
      "##erg": 4098,
      "##inted": 4099,
      "several": 4100,
      "continued": 4101,
      "city": 4102,
      "hadn": 4103,
      "import": 4104,
      "beaut": 4105,
      "replied": 4106,
      "phone": 4107,
      "##ches": 4108,
      "##esh": 4109,
      "slowly": 4110,
      "##que": 4111,
      "thank": 4112,
      "job": 4113,
      "##rought": 4114,
      "whis": 4115,
      "change": 4116,
      "##ipped": 4117,
      "shook": 4118,
      "dream": 4119,
      "##where": 4120,
      "chang": 4121,
      "given": 4122,
      "quite": 4123,
      "##gr": 4124,
      "dev": 4125,
      "shall": 4126,
      "opp": 4127,
      "press": 4128,
      "mag": 4129,
      "kid": 4130,
      "direct": 4131,
      "##room": 4132,
      "sing": 4133,
      "walk": 4134,
      "fear": 4135,
      "##aster": 4136,
      "case": 4137,
      "cre": 4138,
      "##ists": 4139,
      "##ract": 4140,
      "##land": 4141,
      "##airs": 4142,
      "thr": 4143,
      "taken": 4144,
      "hot": 4145,
      "##osed": 4146,
      "##ina": 4147,
      "quiet": 4148,
      "ann": 4149,
      "##ution": 4150,
      "##aces": 4151,
      "##ther": 4152,
      "brought": 4153,
      "story": 4154,
      "mark": 4155,
      "##ression": 4156,
      "during": 4157,
      "id": 4158,
      "bes": 4159,
      "##els": 4160,
      "##clud": 4161,
      "##ored": 4162,
      "##gan": 4163,
      "##lic": 4164,
      "ir": 4165,
      "watched": 4166,
      "control": 4167,
      "##ik": 4168,
      "##otion": 4169,
      "##ues": 4170,
      "talking": 4171,
      "soft": 4172,
      "##ison": 4173,
      "##cle": 4174,
      "strong": 4175,
      "break": 4176,
      "bur": 4177,
      "adm": 4178,
      "sense": 4179,
      "##ics": 4180,
      "foot": 4181,
      "dest": 4182,
      "dress": 4183,
      "je": 4184,
      "##ien": 4185,
      "women": 4186,
      "number": 4187,
      "##ime": 4188,
      "art": 4189,
      "##enty": 4190,
      "hall": 4191,
      "month": 4192,
      "##ger": 4193,
      "lay": 4194,
      "arri": 4195,
      "road": 4196,
      "##stem": 4197,
      "win": 4198,
      "main": 4199,
      "saying": 4200,
      "instead": 4201,
      "tem": 4202,
      "##ices": 4203,
      "answer": 4204,
      "cir": 4205,
      "suddenly": 4206,
      "##ike": 4207,
      "##ism": 4208,
      "##iced": 4209,
      "##ape": 4210,
      "roll": 4211,
      "guess": 4212,
      "occ": 4213,
      "ten": 4214,
      "pet": 4215,
      "order": 4216,
      "sol": 4217,
      "pub": 4218,
      "##aned": 4219,
      "blue": 4220,
      "standing": 4221,
      "##aining": 4222,
      "low": 4223,
      "business": 4224,
      "ago": 4225,
      "six": 4226,
      "above": 4227,
      "reco": 4228,
      "line": 4229,
      "followed": 4230,
      "system": 4231,
      "self": 4232,
      "##haps": 4233,
      "cold": 4234,
      "perhaps": 4235,
      "##ute": 4236,
      "bab": 4237,
      "pay": 4238,
      "speak": 4239,
      "begin": 4240,
      "lips": 4241,
      "serv": 4242,
      "sal": 4243,
      "waiting": 4244,
      "group": 4245,
      "heal": 4246,
      "val": 4247,
      "pret": 4248,
      "brother": 4249,
      "##iding": 4250,
      "##body": 4251,
      "grand": 4252,
      "##ots": 4253,
      "prov": 4254,
      "ge": 4255,
      "wood": 4256,
      "exc": 4257,
      "##ze": 4258,
      "town": 4259,
      "##iting": 4260,
      "decided": 4261,
      "isn": 4262,
      "##velop": 4263,
      "##cing": 4264,
      "closed": 4265,
      "looks": 4266,
      "glass": 4267,
      "chest": 4268,
      "perfect": 4269,
      "10": 4270,
      "compan": 4271,
      "important": 4272,
      "hours": 4273,
      "shoulder": 4274,
      "class": 4275,
      "fine": 4276,
      "skin": 4277,
      "##sh": 4278,
      "cross": 4279,
      "##ians": 4280,
      "##cious": 4281,
      "happy": 4282,
      "pap": 4283,
      "hit": 4284,
      "gun": 4285,
      "##tend": 4286,
      "deal": 4287,
      "rather": 4288,
      "longer": 4289,
      "jud": 4290,
      "prof": 4291,
      "attention": 4292,
      "spoke": 4293,
      "da": 4294,
      "##anger": 4295,
      "working": 4296,
      "aff": 4297,
      "entire": 4298,
      "window": 4299,
      "known": 4300,
      "##aughter": 4301,
      "disapp": 4302,
      "suc": 4303,
      "##iful": 4304,
      "sigh": 4305,
      "watch": 4306,
      "whatever": 4307,
      "ship": 4308,
      "bra": 4309,
      "requ": 4310,
      "whisper": 4311,
      "laughed": 4312,
      "guy": 4313,
      "possible": 4314,
      "sitting": 4315,
      "201": 4316,
      "##anced": 4317,
      "became": 4318,
      "cry": 4319,
      "office": 4320,
      "exact": 4321,
      "##ising": 4322,
      "bas": 4323,
      "pretty": 4324,
      "yell": 4325,
      "##not": 4326,
      "sens": 4327,
      "##ror": 4328,
      "##aged": 4329,
      "cond": 4330,
      "couple": 4331,
      "##ony": 4332,
      "mer": 4333,
      "seat": 4334,
      "soul": 4335,
      "##imes": 4336,
      "##ational": 4337,
      "exam": 4338,
      "hon": 4339,
      "const": 4340,
      "##ories": 4341,
      "caught": 4342,
      "neck": 4343,
      "##ital": 4344,
      "partic": 4345,
      "path": 4346,
      "pray": 4347,
      "##vern": 4348,
      "##acked": 4349,
      "univer": 4350,
      "cho": 4351,
      "##ief": 4352,
      "##ective": 4353,
      "##aim": 4354,
      "mur": 4355,
      "pie": 4356,
      "warm": 4357,
      "passed": 4358,
      "commun": 4359,
      "enj": 4360,
      "##ength": 4361,
      "running": 4362,
      "fingers": 4363,
      "##erv": 4364,
      "view": 4365,
      "squ": 4366,
      "##antly": 4367,
      "bott": 4368,
      "##ped": 4369,
      "est": 4370,
      "chair": 4371,
      "trust": 4372,
      "chur": 4373,
      "test": 4374,
      "sir": 4375,
      "burn": 4376,
      "tight": 4377,
      "esc": 4378,
      "forg": 4379,
      "yourself": 4380,
      "prin": 4381,
      "rock": 4382,
      "includ": 4383,
      "scream": 4384,
      "##ior": 4385,
      "##eric": 4386,
      "##ob": 4387,
      "straight": 4388,
      "command": 4389,
      "##zy": 4390,
      "##ages": 4391,
      "offic": 4392,
      "lift": 4393,
      "##medi": 4394,
      "##rupt": 4395,
      "##read": 4396,
      "ver": 4397,
      "wife": 4398,
      "##son": 4399,
      "conn": 4400,
      "chance": 4401,
      "##ision": 4402,
      "mir": 4403,
      "often": 4404,
      "accept": 4405,
      "##ef": 4406,
      "stru": 4407,
      "##res": 4408,
      "din": 4409,
      "##cent": 4410,
      "stared": 4411,
      "information": 4412,
      "nice": 4413,
      "concer": 4414,
      "##ural": 4415,
      "##ection": 4416,
      "building": 4417,
      "problem": 4418,
      "green": 4419,
      "ale": 4420,
      "bill": 4421,
      "parents": 4422,
      "means": 4423,
      "hund": 4424,
      "##night": 4425,
      "gaz": 4426,
      "##ination": 4427,
      "auth": 4428,
      "er": 4429,
      "typ": 4430,
      "ce": 4431,
      "boo": 4432,
      "rece": 4433,
      "bag": 4434,
      "hundred": 4435,
      "tor": 4436,
      "abs": 4437,
      "immedi": 4438,
      "##ara": 4439,
      "week": 4440,
      "##ale": 4441,
      "bene": 4442,
      "lim": 4443,
      "beautiful": 4444,
      "##ator": 4445,
      "cop": 4446,
      "eat": 4447,
      "norm": 4448,
      "space": 4449,
      "alth": 4450,
      "die": 4451,
      "##ply": 4452,
      "further": 4453,
      "##unch": 4454,
      "##ount": 4455,
      "cloth": 4456,
      "level": 4457,
      "grow": 4458,
      "produ": 4459,
      "thoughts": 4460,
      "area": 4461,
      "pop": 4462,
      "themselves": 4463,
      "although": 4464,
      "safe": 4465,
      "meant": 4466,
      "secret": 4467,
      "##ax": 4468,
      "##com": 4469,
      "ign": 4470,
      "ben": 4471,
      "sort": 4472,
      "heav": 4473,
      "stepped": 4474,
      "shot": 4475,
      "holding": 4476,
      "street": 4477,
      "slight": 4478,
      "##ains": 4479,
      "##ler": 4480,
      "trou": 4481,
      "follow": 4482,
      "pract": 4483,
      "##arr": 4484,
      "watching": 4485,
      "sex": 4486,
      "develop": 4487,
      "gri": 4488,
      "exist": 4489,
      "##old": 4490,
      "americ": 4491,
      "##ster": 4492,
      "shut": 4493,
      "hurt": 4494,
      "present": 4495,
      "ord": 4496,
      "##ones": 4497,
      "lu": 4498,
      "spec": 4499,
      "apart": 4500,
      "cannot": 4501,
      "var": 4502,
      "doub": 4503,
      "makes": 4504,
      "ill": 4505,
      "fast": 4506,
      "##ctor": 4507,
      "prev": 4508,
      "cam": 4509,
      "returned": 4510,
      "##bing": 4511,
      "##aching": 4512,
      "church": 4513,
      "ant": 4514,
      "##ork": 4515,
      "among": 4516,
      "guard": 4517,
      "jump": 4518,
      "##unt": 4519,
      "grin": 4520,
      "prep": 4521,
      "##ety": 4522,
      "drink": 4523,
      "mad": 4524,
      "##ement": 4525,
      "##ift": 4526,
      "hung": 4527,
      "using": 4528,
      "sear": 4529,
      "fut": 4530,
      "sold": 4531,
      "late": 4532,
      "leaving": 4533,
      "##cri": 4534,
      "mill": 4535,
      "##ote": 4536,
      "12": 4537,
      "##empt": 4538,
      "pal": 4539,
      "situ": 4540,
      "exactly": 4541,
      "expect": 4542,
      "noticed": 4543,
      "seeing": 4544,
      "sad": 4545,
      "event": 4546,
      "grabbed": 4547,
      "##ming": 4548,
      "##my": 4549,
      "moving": 4550,
      "sometimes": 4551,
      "##ee": 4552,
      "walking": 4553,
      "##ances": 4554,
      "equ": 4555,
      "filled": 4556,
      "##vin": 4557,
      "closer": 4558,
      "kitch": 4559,
      "sky": 4560,
      "div": 4561,
      "team": 4562,
      "shout": 4563,
      "super": 4564,
      "govern": 4565,
      "led": 4566,
      "##iny": 4567,
      "happen": 4568,
      "treat": 4569,
      "early": 4570,
      "faith": 4571,
      "obv": 4572,
      "energ": 4573,
      "except": 4574,
      "dav": 4575,
      "##ude": 4576,
      "gold": 4577,
      "##iddle": 4578,
      "##me": 4579,
      "pan": 4580,
      "11": 4581,
      "legs": 4582,
      "twenty": 4583,
      "##ili": 4584,
      "attack": 4585,
      "##ilt": 4586,
      "##ert": 4587,
      "dog": 4588,
      "shad": 4589,
      "##ived": 4590,
      "suff": 4591,
      "lit": 4592,
      "agre": 4593,
      "kitchen": 4594,
      "bare": 4595,
      "send": 4596,
      "process": 4597,
      "hist": 4598,
      "phys": 4599,
      "appeared": 4600,
      "news": 4601,
      "anim": 4602,
      "mich": 4603,
      "##ledge": 4604,
      "##ether": 4605,
      "lives": 4606,
      "##lect": 4607,
      "##oon": 4608,
      "sister": 4609,
      "##mb": 4610,
      "##cially": 4611,
      "completely": 4612,
      "convers": 4613,
      "raised": 4614,
      "##ley": 4615,
      "##ann": 4616,
      "##ats": 4617,
      "anyway": 4618,
      "sight": 4619,
      "pict": 4620,
      "simply": 4621,
      "report": 4622,
      "esp": 4623,
      "##acing": 4624,
      "rose": 4625,
      "##itive": 4626,
      "approach": 4627,
      "author": 4628,
      "empt": 4629,
      "comes": 4630,
      "age": 4631,
      "##idence": 4632,
      "desp": 4633,
      "##ha": 4634,
      "thro": 4635,
      "box": 4636,
      "baby": 4637,
      "##use": 4638,
      "crow": 4639,
      "force": 4640,
      "##ives": 4641,
      "sugg": 4642,
      "suggest": 4643,
      "middle": 4644,
      "tech": 4645,
      "mine": 4646,
      "pot": 4647,
      "immediately": 4648,
      "strange": 4649,
      "loud": 4650,
      "##dom": 4651,
      "wish": 4652,
      "tears": 4653,
      "rele": 4654,
      "##gin": 4655,
      "fail": 4656,
      "personal": 4657,
      "answered": 4658,
      "rev": 4659,
      "rub": 4660,
      "rich": 4661,
      "hea": 4662,
      "fle": 4663,
      "realized": 4664,
      "##sy": 4665,
      "bright": 4666,
      "cast": 4667,
      "enter": 4668,
      "easy": 4669,
      "clim": 4670,
      "##ey": 4671,
      "##light": 4672,
      "following": 4673,
      "comfort": 4674,
      "worry": 4675,
      "thanks": 4676,
      "##ek": 4677,
      "maj": 4678,
      "sand": 4679,
      "star": 4680,
      "##lly": 4681,
      "##ney": 4682,
      "result": 4683,
      "##bs": 4684,
      "arr": 4685,
      "killed": 4686,
      "stuff": 4687,
      "check": 4688,
      "silence": 4689,
      "smell": 4690,
      "enjoy": 4691,
      "wide": 4692,
      "future": 4693,
      "mist": 4694,
      "##ified": 4695,
      "den": 4696,
      "##cover": 4697,
      "##erm": 4698,
      "pushed": 4699,
      "##right": 4700,
      "##aled": 4701,
      "expression": 4702,
      "18": 4703,
      "knows": 4704,
      "moun": 4705,
      "knowing": 4706,
      "energy": 4707,
      "giving": 4708,
      "##ael": 4709,
      "##amed": 4710,
      "worked": 4711,
      "shar": 4712,
      "paul": 4713,
      "##unk": 4714,
      "tree": 4715,
      "corner": 4716,
      "tar": 4717,
      "recogn": 4718,
      "support": 4719,
      "di": 4720,
      "picked": 4721,
      "peace": 4722,
      "police": 4723,
      "stri": 4724,
      "##ring": 4725,
      "batt": 4726,
      "alex": 4727,
      "vi": 4728,
      "imm": 4729,
      "single": 4730,
      "relations": 4731,
      "weap": 4732,
      "##ffe": 4733,
      "lady": 4734,
      "##zz": 4735,
      "pen": 4736,
      "itself": 4737,
      "spot": 4738,
      "whether": 4739,
      "gas": 4740,
      "figure": 4741,
      "position": 4742,
      "girls": 4743,
      "seems": 4744,
      "##ology": 4745,
      "pleas": 4746,
      "fair": 4747,
      "round": 4748,
      "hang": 4749,
      "field": 4750,
      "vict": 4751,
      "susp": 4752,
      "proper": 4753,
      "experience": 4754,
      "questions": 4755,
      "loved": 4756,
      "mass": 4757,
      "bey": 4758,
      "stone": 4759,
      "##ashed": 4760,
      "mel": 4761,
      "##ern": 4762,
      "clean": 4763,
      "espe": 4764,
      "months": 4765,
      "rad": 4766,
      "ones": 4767,
      "touch": 4768,
      "hus": 4769,
      "##acy": 4770,
      "enc": 4771,
      "##fer": 4772,
      "##ries": 4773,
      "ru": 4774,
      "mut": 4775,
      "danger": 4776,
      "##irty": 4777,
      "luck": 4778,
      "gar": 4779,
      "crowd": 4780,
      "beside": 4781,
      "beyond": 4782,
      "special": 4783,
      "country": 4784,
      "##ocked": 4785,
      "draw": 4786,
      "especially": 4787,
      "attempt": 4788,
      "fav": 4789,
      "drive": 4790,
      "##band": 4791,
      "##ging": 4792,
      "##ope": 4793,
      "whispered": 4794,
      "learn": 4795,
      "obs": 4796,
      "##par": 4797,
      "fly": 4798,
      "pick": 4799,
      "died": 4800,
      "surv": 4801,
      "ahead": 4802,
      "south": 4803,
      "cy": 4804,
      "##und": 4805,
      "camp": 4806,
      "invol": 4807,
      "##cuss": 4808,
      "cas": 4809,
      "pointed": 4810,
      "ori": 4811,
      "diffic": 4812,
      "sett": 4813,
      "dropped": 4814,
      "sword": 4815,
      "ball": 4816,
      "allah": 4817,
      "placed": 4818,
      "direction": 4819,
      "clothes": 4820,
      "non": 4821,
      "15": 4822,
      "leaned": 4823,
      "ur": 4824,
      "books": 4825,
      "##bers": 4826,
      "changed": 4827,
      "game": 4828,
      "mis": 4829,
      "eight": 4830,
      "glanced": 4831,
      "finished": 4832,
      "##aded": 4833,
      "##isted": 4834,
      "##con": 4835,
      "##ousand": 4836,
      "thousand": 4837,
      "rob": 4838,
      "ris": 4839,
      "fil": 4840,
      "##ana": 4841,
      "jer": 4842,
      "heaven": 4843,
      "##itted": 4844,
      "paper": 4845,
      "##rib": 4846,
      "turning": 4847,
      "na": 4848,
      "lab": 4849,
      "guys": 4850,
      "edge": 4851,
      "incre": 4852,
      "situation": 4853,
      "##ously": 4854,
      "company": 4855,
      "wra": 4856,
      "coffe": 4857,
      "sar": 4858,
      "added": 4859,
      "mod": 4860,
      "drag": 4861,
      "summ": 4862,
      "techn": 4863,
      "none": 4864,
      "waited": 4865,
      "mention": 4866,
      "covered": 4867,
      "wondered": 4868,
      "port": 4869,
      "telling": 4870,
      "knowledge": 4871,
      "public": 4872,
      "captain": 4873,
      "disappear": 4874,
      "haven": 4875,
      "empty": 4876,
      "fore": 4877,
      "angel": 4878,
      "save": 4879,
      "desk": 4880,
      "nearly": 4881,
      "daughter": 4882,
      "van": 4883,
      "inde": 4884,
      "relig": 4885,
      "carry": 4886,
      "tonight": 4887,
      "##orrow": 4888,
      "respond": 4889,
      "##oid": 4890,
      "bir": 4891,
      "supposed": 4892,
      "##rif": 4893,
      "arrived": 4894,
      "magic": 4895,
      "reve": 4896,
      "coffee": 4897,
      "invest": 4898,
      "##raid": 4899,
      "trees": 4900,
      "fif": 4901,
      "david": 4902,
      "success": 4903,
      "tall": 4904,
      "discover": 4905,
      "relationship": 4906,
      "spent": 4907,
      "master": 4908,
      "shirt": 4909,
      "stom": 4910,
      "elect": 4911,
      "throat": 4912,
      "visit": 4913,
      "earl": 4914,
      "##usion": 4915,
      "organ": 4916,
      "afraid": 4917,
      "##eren": 4918,
      "evil": 4919,
      "particular": 4920,
      "priv": 4921,
      "##ishing": 4922,
      "sighed": 4923,
      "activ": 4924,
      "tot": 4925,
      "##uly": 4926,
      "ident": 4927,
      "effect": 4928,
      "meeting": 4929,
      "husband": 4930,
      "##port": 4931,
      "##ips": 4932,
      "gather": 4933,
      "shru": 4934,
      "discuss": 4935,
      "##atic": 4936,
      "##more": 4937,
      "kids": 4938,
      "bal": 4939,
      "general": 4940,
      "##osp": 4941,
      "arg": 4942,
      "##let": 4943,
      "pack": 4944,
      "##ena": 4945,
      "dar": 4946,
      "shoulders": 4947,
      "13": 4948,
      "##eless": 4949,
      "hey": 4950,
      "minute": 4951,
      "shit": 4952,
      "200": 4953,
      "wants": 4954,
      "surprised": 4955,
      "bath": 4956,
      "river": 4957,
      "oper": 4958,
      "16": 4959,
      "##go": 4960,
      "worth": 4961,
      "jour": 4962,
      "remind": 4963,
      "und": 4964,
      "threat": 4965,
      "nature": 4966,
      "compl": 4967,
      "conversation": 4968,
      "##ental": 4969,
      "heavy": 4970,
      "##ees": 4971,
      "needs": 4972,
      "brown": 4973,
      "doctor": 4974,
      "surround": 4975,
      "calm": 4976,
      "scr": 4977,
      "##ruct": 4978,
      "purp": 4979,
      "mountain": 4980,
      "party": 4981,
      "record": 4982,
      "gaze": 4983,
      "comput": 4984,
      "headed": 4985,
      "poor": 4986,
      "evening": 4987,
      "##lish": 4988,
      "##ivid": 4989,
      "##ration": 4990,
      "doubt": 4991,
      "james": 4992,
      "sounds": 4993,
      "rid": 4994,
      "frown": 4995,
      "tomorrow": 4996,
      "cause": 4997,
      "iss": 4998,
      "intern": 4999,
      "music": 5000,
      "alive": 5001,
      "listen": 5002,
      "lie": 5003,
      "brain": 5004,
      "##ency": 5005,
      "possib": 5006,
      "##cked": 5007,
      "weeks": 5008,
      "##urity": 5009,
      "vol": 5010,
      "descri": 5011,
      "##ining": 5012,
      "circ": 5013,
      "spend": 5014,
      "14": 5015,
      "darkness": 5016,
      "note": 5017,
      "##oring": 5018,
      "strength": 5019,
      "##ressed": 5020,
      "pock": 5021,
      "post": 5022,
      "steps": 5023,
      "##ron": 5024,
      "wild": 5025,
      "hosp": 5026,
      "##ples": 5027,
      "staring": 5028,
      "##yn": 5029,
      "##wards": 5030,
      "distance": 5031,
      "##itten": 5032,
      "government": 5033,
      "weak": 5034,
      "##oof": 5035,
      "univers": 5036,
      "protect": 5037,
      "detail": 5038,
      "##come": 5039,
      "trouble": 5040,
      "##lo": 5041,
      "holy": 5042,
      "##ral": 5043,
      "third": 5044,
      "difficult": 5045,
      "sweet": 5046,
      "mid": 5047,
      "consider": 5048,
      "##roy": 5049,
      "pun": 5050,
      "strugg": 5051,
      "huge": 5052,
      "subject": 5053,
      "##ought": 5054,
      "claim": 5055,
      "fuck": 5056,
      "mal": 5057,
      "gro": 5058,
      "lived": 5059,
      "proph": 5060,
      "finger": 5061,
      "major": 5062,
      "necess": 5063,
      "entered": 5064,
      "simple": 5065,
      "##iel": 5066,
      "showed": 5067,
      "##icking": 5068,
      "thick": 5069,
      "michael": 5070,
      "##ury": 5071,
      "##ushing": 5072,
      "cool": 5073,
      "dinner": 5074,
      "becom": 5075,
      "object": 5076,
      "##ires": 5077,
      "rom": 5078,
      "inn": 5079,
      "below": 5080,
      "health": 5081,
      "##ume": 5082,
      "##iam": 5083,
      "history": 5084,
      "rain": 5085,
      "##iling": 5086,
      "ash": 5087,
      "battle": 5088,
      "vill": 5089,
      "reading": 5090,
      "key": 5091,
      "##ises": 5092,
      "##une": 5093,
      "##ask": 5094,
      "normal": 5095,
      "##how": 5096,
      "##ilar": 5097,
      "##rect": 5098,
      "##ession": 5099,
      "forget": 5100,
      "##ov": 5101,
      "beginning": 5102,
      "##inite": 5103,
      "travel": 5104,
      "slightly": 5105,
      "dom": 5106,
      "ah": 5107,
      "center": 5108,
      "takes": 5109,
      "contact": 5110,
      "effort": 5111,
      "smo": 5112,
      "et": 5113,
      "mot": 5114,
      "tow": 5115,
      "##uel": 5116,
      "ut": 5117,
      "piece": 5118,
      "accord": 5119,
      "certainly": 5120,
      "broken": 5121,
      "##umbled": 5122,
      "enem": 5123,
      "somewhere": 5124,
      "usually": 5125,
      "##ham": 5126,
      "forest": 5127,
      "sick": 5128,
      "##action": 5129,
      "ways": 5130,
      "determ": 5131,
      "##gram": 5132,
      "ble": 5133,
      "sna": 5134,
      "glad": 5135,
      "##udd": 5136,
      "perform": 5137,
      "sour": 5138,
      "brief": 5139,
      "design": 5140,
      "mrs": 5141,
      "sea": 5142,
      "beat": 5143,
      "##ingly": 5144,
      "##iled": 5145,
      "walls": 5146,
      "##aff": 5147,
      "spl": 5148,
      "seven": 5149,
      "bull": 5150,
      "doors": 5151,
      "choice": 5152,
      "neg": 5153,
      "damn": 5154,
      "despite": 5155,
      "nose": 5156,
      "stomach": 5157,
      "respons": 5158,
      "horse": 5159,
      "gent": 5160,
      "managed": 5161,
      "##essed": 5162,
      "barely": 5163,
      "sque": 5164,
      "suit": 5165,
      "stup": 5166,
      "amaz": 5167,
      "##teen": 5168,
      "allowed": 5169,
      "appar": 5170,
      "##bert": 5171,
      "17": 5172,
      "individ": 5173,
      "born": 5174,
      "catch": 5175,
      "rolled": 5176,
      "cab": 5177,
      "serious": 5178,
      "wearing": 5179,
      "ring": 5180,
      "##ett": 5181,
      "viol": 5182,
      "clearly": 5183,
      "hill": 5184,
      "boys": 5185,
      "project": 5186,
      "common": 5187,
      "polit": 5188,
      "charac": 5189,
      "scre": 5190,
      "worse": 5191,
      "soci": 5192,
      "##ager": 5193,
      "security": 5194,
      "curr": 5195,
      "north": 5196,
      "##yle": 5197,
      "notice": 5198,
      "surprise": 5199,
      "spread": 5200,
      "##ges": 5201,
      "expected": 5202,
      "##ai": 5203,
      "hospital": 5204,
      "goes": 5205,
      "luc": 5206,
      "##ald": 5207,
      "##ential": 5208,
      "##akes": 5209,
      "##onse": 5210,
      "focus": 5211,
      "therefore": 5212,
      "aren": 5213,
      "surf": 5214,
      "earlier": 5215,
      "cancer": 5216,
      "##ality": 5217,
      "somehow": 5218,
      "hun": 5219,
      "origin": 5220,
      "bow": 5221,
      "fort": 5222,
      "wel": 5223,
      "##la": 5224,
      "wound": 5225,
      "##por": 5226,
      "lifted": 5227,
      "##ented": 5228,
      "agreed": 5229,
      "repe": 5230,
      "jen": 5231,
      "stro": 5232,
      "max": 5233,
      "explain": 5234,
      "chuck": 5235,
      "program": 5236,
      "demand": 5237,
      "cloud": 5238,
      "weren": 5239,
      "##owers": 5240,
      "##iliar": 5241,
      "planet": 5242,
      "pu": 5243,
      "##rodu": 5244,
      "continue": 5245,
      "anger": 5246,
      "jul": 5247,
      "bod": 5248,
      "mary": 5249,
      "##ulation": 5250,
      "conscious": 5251,
      "social": 5252,
      "##pper": 5253,
      "mach": 5254,
      "##atter": 5255,
      "demon": 5256,
      "##using": 5257,
      "dear": 5258,
      "comb": 5259,
      "created": 5260,
      "teeth": 5261,
      "##idden": 5262,
      "lang": 5263,
      "explained": 5264,
      "##ption": 5265,
      "message": 5266,
      "reality": 5267,
      "##ization": 5268,
      "##itions": 5269,
      "share": 5270,
      "response": 5271,
      "eventually": 5272,
      "hol": 5273,
      "regard": 5274,
      "##aint": 5275,
      "birth": 5276,
      "dim": 5277,
      "tone": 5278,
      "purpose": 5279,
      "individual": 5280,
      "stupid": 5281,
      "##uct": 5282,
      "jew": 5283,
      "playing": 5284,
      "##apt": 5285,
      "remembered": 5286,
      "ol": 5287,
      "seconds": 5288,
      "##sed": 5289,
      "track": 5290,
      "easily": 5291,
      "##iers": 5292,
      "helped": 5293,
      "accom": 5294,
      "local": 5295,
      "##gress": 5296,
      "##orge": 5297,
      "##ium": 5298,
      "stret": 5299,
      "##igg": 5300,
      "anymore": 5301,
      "cost": 5302,
      "jim": 5303,
      "phot": 5304,
      "allow": 5305,
      "speed": 5306,
      "neither": 5307,
      "stat": 5308,
      "kar": 5309,
      "broke": 5310,
      "presence": 5311,
      "emotion": 5312,
      "likely": 5313,
      "lad": 5314,
      "##izing": 5315,
      "aut": 5316,
      "anal": 5317,
      "fuc": 5318,
      "##idge": 5319,
      "defe": 5320,
      "deb": 5321,
      "silent": 5322,
      "tired": 5323,
      "##ceed": 5324,
      "station": 5325,
      "##iction": 5326,
      "fresh": 5327,
      "park": 5328,
      "rul": 5329,
      "##miss": 5330,
      "final": 5331,
      "##ball": 5332,
      "##uit": 5333,
      "similar": 5334,
      "angry": 5335,
      "offered": 5336,
      "emb": 5337,
      "##aped": 5338,
      "offer": 5339,
      "hide": 5340,
      "destroy": 5341,
      "coo": 5342,
      "##ama": 5343,
      "remained": 5344,
      "##ata": 5345,
      "works": 5346,
      "tele": 5347,
      "##he": 5348,
      "##ya": 5349,
      "intell": 5350,
      "##form": 5351,
      "gets": 5352,
      "court": 5353,
      "shrugged": 5354,
      "grace": 5355,
      "##cil": 5356,
      "including": 5357,
      "threw": 5358,
      "unl": 5359,
      "colle": 5360,
      "##olution": 5361,
      "learned": 5362,
      "##ploy": 5363,
      "##tt": 5364,
      "nerv": 5365,
      "bedroom": 5366,
      "moon": 5367,
      "beneath": 5368,
      "service": 5369,
      "frank": 5370,
      "action": 5371,
      "##etic": 5372,
      "##oved": 5373,
      "stairs": 5374,
      "forced": 5375,
      "indeed": 5376,
      "speaking": 5377,
      "fit": 5378,
      "asking": 5379,
      "truck": 5380,
      "computer": 5381,
      "study": 5382,
      "los": 5383,
      "tong": 5384,
      "truly": 5385,
      "separ": 5386,
      "humans": 5387,
      "##ensive": 5388,
      "considered": 5389,
      "natural": 5390,
      "opport": 5391,
      "liked": 5392,
      "##erial": 5393,
      "promise": 5394,
      "tast": 5395,
      "tiny": 5396,
      "bottom": 5397,
      "grew": 5398,
      "worried": 5399,
      "members": 5400,
      "depart": 5401,
      "written": 5402,
      "wit": 5403,
      "resear": 5404,
      "band": 5405,
      "motion": 5406,
      "phil": 5407,
      "handed": 5408,
      "shouted": 5409,
      "bell": 5410,
      "gently": 5411,
      "##men": 5412,
      "picture": 5413,
      "places": 5414,
      "opportun": 5415,
      "arch": 5416,
      "gh": 5417,
      "lying": 5418,
      "##erved": 5419,
      "##lt": 5420,
      "harm": 5421,
      "drew": 5422,
      "##ify": 5423,
      "##ette": 5424,
      "due": 5425,
      "favor": 5426,
      "##val": 5427,
      "cult": 5428,
      "experien": 5429,
      "memory": 5430,
      "pocket": 5431,
      "paused": 5432,
      "respect": 5433,
      "keeping": 5434,
      "cup": 5435,
      "aware": 5436,
      "disc": 5437,
      "relax": 5438,
      "pulling": 5439,
      "aftern": 5440,
      "gard": 5441,
      "based": 5442,
      "hom": 5443,
      "hes": 5444,
      "##icle": 5445,
      "##ray": 5446,
      "physical": 5447,
      "fix": 5448,
      "env": 5449,
      "##ended": 5450,
      "langu": 5451,
      "example": 5452,
      "quietly": 5453,
      "ger": 5454,
      "##rible": 5455,
      "cells": 5456,
      "type": 5457,
      "san": 5458,
      "weight": 5459,
      "imagine": 5460,
      "hat": 5461,
      "states": 5462,
      "ach": 5463,
      "prop": 5464,
      "##rit": 5465,
      "familiar": 5466,
      "deliver": 5467,
      "jumped": 5468,
      "oppos": 5469,
      "meaning": 5470,
      "##ences": 5471,
      "thus": 5472,
      "escape": 5473,
      "material": 5474,
      "sac": 5475,
      "older": 5476,
      "base": 5477,
      "sounded": 5478,
      "dust": 5479,
      "unf": 5480,
      "dressed": 5481,
      "whe": 5482,
      "teach": 5483,
      "##ez": 5484,
      "song": 5485,
      "30": 5486,
      "odd": 5487,
      "##ension": 5488,
      "blank": 5489,
      "##ils": 5490,
      "##hood": 5491,
      "lights": 5492,
      "tum": 5493,
      "powerful": 5494,
      "inh": 5495,
      "bird": 5496,
      "##ja": 5497,
      "honest": 5498,
      "carried": 5499,
      "desire": 5500,
      "army": 5501,
      "pair": 5502,
      "metal": 5503,
      "card": 5504,
      "vers": 5505,
      "lou": 5506,
      "kissed": 5507,
      "peter": 5508,
      "afternoon": 5509,
      "##urs": 5510,
      "christian": 5511,
      "insp": 5512,
      "board": 5513,
      "target": 5514,
      "lose": 5515,
      "choo": 5516,
      "joy": 5517,
      "##line": 5518,
      "psy": 5519,
      "cand": 5520,
      "##inct": 5521,
      "stick": 5522,
      "##icated": 5523,
      "west": 5524,
      "carefully": 5525,
      "##asion": 5526,
      "##isf": 5527,
      "wol": 5528,
      "##reme": 5529,
      "##rage": 5530,
      "silver": 5531,
      "##osh": 5532,
      "##erve": 5533,
      "aud": 5534,
      "##aling": 5535,
      "##zen": 5536,
      "buy": 5537,
      "##uss": 5538,
      "##rie": 5539,
      "counter": 5540,
      "appre": 5541,
      "forth": 5542,
      "##gar": 5543,
      "according": 5544,
      "mart": 5545,
      "thirty": 5546,
      "##cient": 5547,
      "##ky": 5548,
      "fool": 5549,
      "meth": 5550,
      "moments": 5551,
      "forever": 5552,
      "drug": 5553,
      "crazy": 5554,
      "ban": 5555,
      "american": 5556,
      "##gging": 5557,
      "research": 5558,
      "writing": 5559,
      "##rap": 5560,
      "correct": 5561,
      "snow": 5562,
      "chall": 5563,
      "##olute": 5564,
      "dry": 5565,
      "adam": 5566,
      "hoped": 5567,
      "dig": 5568,
      "prison": 5569,
      "link": 5570,
      "hesit": 5571,
      "##oned": 5572,
      "screen": 5573,
      "##ius": 5574,
      "married": 5575,
      "##str": 5576,
      "neigh": 5577,
      "understanding": 5578,
      "trip": 5579,
      "ears": 5580,
      "entr": 5581,
      "lower": 5582,
      "infl": 5583,
      "cheek": 5584,
      "firm": 5585,
      "whom": 5586,
      "##amb": 5587,
      "decl": 5588,
      "color": 5589,
      "##ially": 5590,
      "pressed": 5591,
      "hoping": 5592,
      "problems": 5593,
      "lock": 5594,
      "flesh": 5595,
      "mult": 5596,
      "obviously": 5597,
      "##set": 5598,
      "directly": 5599,
      "cust": 5600,
      "##usted": 5601,
      "neighb": 5602,
      "shoot": 5603,
      "tun": 5604,
      "##itude": 5605,
      "##ench": 5606,
      "store": 5607,
      "knees": 5608,
      "talked": 5609,
      "smiling": 5610,
      "numb": 5611,
      "gentle": 5612,
      "##wise": 5613,
      "##itary": 5614,
      "convin": 5615,
      "##ica": 5616,
      "shop": 5617,
      "term": 5618,
      "wip": 5619,
      "whose": 5620,
      "realize": 5621,
      "psych": 5622,
      "dut": 5623,
      "university": 5624,
      "bob": 5625,
      "bi": 5626,
      "##cles": 5627,
      "heat": 5628,
      "##ades": 5629,
      "##work": 5630,
      "busy": 5631,
      "shif": 5632,
      "block": 5633,
      "starting": 5634,
      "belong": 5635,
      "##raph": 5636,
      "involved": 5637,
      "##ability": 5638,
      "##ests": 5639,
      "mission": 5640,
      "##ipp": 5641,
      "pour": 5642,
      "bodies": 5643,
      "jan": 5644,
      "image": 5645,
      "bear": 5646,
      "apartment": 5647,
      "nod": 5648,
      "society": 5649,
      "wis": 5650,
      "##astic": 5651,
      "log": 5652,
      "hate": 5653,
      "doll": 5654,
      "sharp": 5655,
      "unto": 5656,
      "shaking": 5657,
      "mike": 5658,
      "hy": 5659,
      "##ilities": 5660,
      "ell": 5661,
      "capt": 5662,
      "##mer": 5663,
      "witness": 5664,
      "##bel": 5665,
      "definite": 5666,
      "camer": 5667,
      "##lin": 5668,
      "extra": 5669,
      "fal": 5670,
      "##gy": 5671,
      "##ival": 5672,
      "desper": 5673,
      "##ique": 5674,
      "officer": 5675,
      "##soci": 5676,
      "unless": 5677,
      "##riage": 5678,
      "touched": 5679,
      "stories": 5680,
      "growing": 5681,
      "##asing": 5682,
      "avail": 5683,
      "vamp": 5684,
      "opening": 5685,
      "imposs": 5686,
      "vision": 5687,
      "absolute": 5688,
      "fat": 5689,
      "satisf": 5690,
      "##umed": 5691,
      "ended": 5692,
      "21": 5693,
      "##ners": 5694,
      "remain": 5695,
      "flat": 5696,
      "finding": 5697,
      "matt": 5698,
      "decision": 5699,
      "##ature": 5700,
      "turns": 5701,
      "##iod": 5702,
      "understood": 5703,
      "lean": 5704,
      "wed": 5705,
      "write": 5706,
      "fold": 5707,
      "uncle": 5708,
      "murder": 5709,
      "une": 5710,
      "##cend": 5711,
      "queen": 5712,
      "prim": 5713,
      "necessary": 5714,
      "surface": 5715,
      "associ": 5716,
      "spiritual": 5717,
      "letter": 5718,
      "25": 5719,
      "fucking": 5720,
      "ice": 5721,
      "##ls": 5722,
      "events": 5723,
      "join": 5724,
      "fac": 5725,
      "charl": 5726,
      "ancient": 5727,
      "##acher": 5728,
      "##ipping": 5729,
      "refer": 5730,
      "ess": 5731,
      "##ients": 5732,
      "handle": 5733,
      "lunch": 5734,
      "gate": 5735,
      "besides": 5736,
      "engine": 5737,
      "fighting": 5738,
      "ya": 5739,
      "trad": 5740,
      "drove": 5741,
      "feed": 5742,
      "##ites": 5743,
      "wrapped": 5744,
      "blind": 5745,
      "male": 5746,
      "ty": 5747,
      "storm": 5748,
      "tongue": 5749,
      "putting": 5750,
      "##bit": 5751,
      "jon": 5752,
      "doc": 5753,
      "evidence": 5754,
      "date": 5755,
      "higher": 5756,
      "character": 5757,
      "##play": 5758,
      "stayed": 5759,
      "soldiers": 5760,
      "fully": 5761,
      "scient": 5762,
      "eth": 5763,
      "lack": 5764,
      "##yal": 5765,
      "##ested": 5766,
      "employ": 5767,
      "dragon": 5768,
      "island": 5769,
      "calling": 5770,
      "mere": 5771,
      "##ground": 5772,
      "miles": 5773,
      "introdu": 5774,
      "##ables": 5775,
      "asks": 5776,
      "##ec": 5777,
      "jake": 5778,
      "search": 5779,
      "received": 5780,
      "pred": 5781,
      "##riend": 5782,
      "concern": 5783,
      "missing": 5784,
      "push": 5785,
      "feelings": 5786,
      "built": 5787,
      "mov": 5788,
      "bother": 5789,
      "believed": 5790,
      "repres": 5791,
      "drop": 5792,
      "staff": 5793,
      "president": 5794,
      "##rael": 5795,
      "##anted": 5796,
      "various": 5797,
      "##aks": 5798,
      "##arily": 5799,
      "usual": 5800,
      "slid": 5801,
      "ride": 5802,
      "sell": 5803,
      "paid": 5804,
      "##ding": 5805,
      "caused": 5806,
      "##inking": 5807,
      "period": 5808,
      "##istic": 5809,
      "##lled": 5810,
      "##attered": 5811,
      "access": 5812,
      "willing": 5813,
      "pill": 5814,
      "science": 5815,
      "hidden": 5816,
      "train": 5817,
      "jac": 5818,
      "nick": 5819,
      "##inting": 5820,
      "bible": 5821,
      "skill": 5822,
      "##ument": 5823,
      "size": 5824,
      "investig": 5825,
      "meas": 5826,
      "locked": 5827,
      "gon": 5828,
      "smoke": 5829,
      "private": 5830,
      "hen": 5831,
      "bank": 5832,
      "benef": 5833,
      "beast": 5834,
      "pound": 5835,
      "nobody": 5836,
      "falling": 5837,
      "##ication": 5838,
      "host": 5839,
      "000": 5840,
      "##others": 5841,
      "spo": 5842,
      "guards": 5843,
      "##we": 5844,
      "approached": 5845,
      "stuck": 5846,
      "ry": 5847,
      "grass": 5848,
      "cried": 5849,
      "tu": 5850,
      "breast": 5851,
      "laughing": 5852,
      "ep": 5853,
      "##ively": 5854,
      "bound": 5855,
      "creature": 5856,
      "avoid": 5857,
      "##oint": 5858,
      "##ship": 5859,
      "wand": 5860,
      "happening": 5861,
      "attract": 5862,
      "hearing": 5863,
      "mic": 5864,
      "risk": 5865,
      "flash": 5866,
      "##nday": 5867,
      "##itor": 5868,
      "wash": 5869,
      "language": 5870,
      "##fast": 5871,
      "played": 5872,
      "fema": 5873,
      "##well": 5874,
      "veh": 5875,
      "thom": 5876,
      "tit": 5877,
      "daniel": 5878,
      "pleasure": 5879,
      "shock": 5880,
      "impossible": 5881,
      "kingdom": 5882,
      "civ": 5883,
      "aside": 5884,
      "female": 5885,
      "scar": 5886,
      "training": 5887,
      "crack": 5888,
      "yelled": 5889,
      "universe": 5890,
      "##hy": 5891,
      "22": 5892,
      "israel": 5893,
      "wore": 5894,
      "enemy": 5895,
      "laid": 5896,
      "lines": 5897,
      "##af": 5898,
      "scene": 5899,
      "shadow": 5900,
      "attend": 5901,
      "ability": 5902,
      "obvious": 5903,
      "fish": 5904,
      "definitely": 5905,
      "ray": 5906,
      "du": 5907,
      "william": 5908,
      "method": 5909,
      "disappeared": 5910,
      "init": 5911,
      "##ura": 5912,
      "freed": 5913,
      "##ston": 5914,
      "prepared": 5915,
      "##cho": 5916,
      "kat": 5917,
      "entrance": 5918,
      "##iah": 5919,
      "24": 5920,
      "wet": 5921,
      "opportunity": 5922,
      "stage": 5923,
      "swall": 5924,
      "nar": 5925,
      "gest": 5926,
      "bathroom": 5927,
      "sarah": 5928,
      "students": 5929,
      "rap": 5930,
      "military": 5931,
      "##inary": 5932,
      "crossed": 5933,
      "##ids": 5934,
      "quar": 5935,
      "slam": 5936,
      "##ounced": 5937,
      "mas": 5938,
      "##roud": 5939,
      "##omb": 5940,
      "journey": 5941,
      "apparently": 5942,
      "##alth": 5943,
      "slipped": 5944,
      "gab": 5945,
      "##ruction": 5946,
      "interrupt": 5947,
      "grinned": 5948,
      "summer": 5949,
      "gray": 5950,
      "unc": 5951,
      "luke": 5952,
      "vir": 5953,
      "crew": 5954,
      "toss": 5955,
      "##ole": 5956,
      "inj": 5957,
      "driver": 5958,
      "educ": 5959,
      "east": 5960,
      "copy": 5961,
      "wake": 5962,
      "hole": 5963,
      "village": 5964,
      "##icate": 5965,
      "##nel": 5966,
      "weapons": 5967,
      "##ores": 5968,
      "data": 5969,
      "shouldn": 5970,
      "estab": 5971,
      "wid": 5972,
      "missed": 5973,
      "tax": 5974,
      "dangerous": 5975,
      "manage": 5976,
      "market": 5977,
      "custom": 5978,
      "htt": 5979,
      "interesting": 5980,
      "##anna": 5981,
      "##leep": 5982,
      "199": 5983,
      "rand": 5984,
      "appreci": 5985,
      "disp": 5986,
      "create": 5987,
      "softly": 5988,
      "mort": 5989,
      "frowned": 5990,
      "##conom": 5991,
      "weapon": 5992,
      "finish": 5993,
      "sla": 5994,
      "asleep": 5995,
      "noise": 5996,
      "addition": 5997,
      "depend": 5998,
      "hotel": 5999,
      "##ashing": 6000,
      "uns": 6001,
      "clock": 6002,
      "##otten": 6003,
      "confused": 6004,
      "eric": 6005,
      "college": 6006,
      "dance": 6007,
      "suppose": 6008,
      "available": 6009,
      "tur": 6010,
      "##ancy": 6011,
      "gives": 6012,
      "occur": 6013,
      "product": 6014,
      "heads": 6015,
      "knife": 6016,
      "burst": 6017,
      "resist": 6018,
      "##book": 6019,
      "animal": 6020,
      "loss": 6021,
      "rout": 6022,
      "agree": 6023,
      "##ulf": 6024,
      "george": 6025,
      "beach": 6026,
      "ourselves": 6027,
      "##oses": 6028,
      "breathing": 6029,
      "##ker": 6030,
      "##aked": 6031,
      "faces": 6032,
      "signific": 6033,
      "scared": 6034,
      "windows": 6035,
      "gotten": 6036,
      "positive": 6037,
      "practice": 6038,
      "amb": 6039,
      "happens": 6040,
      "##ases": 6041,
      "movement": 6042,
      "bottle": 6043,
      "english": 6044,
      "##anda": 6045,
      "pin": 6046,
      "length": 6047,
      "##ndon": 6048,
      "econom": 6049,
      "display": 6050,
      "##cking": 6051,
      "ordered": 6052,
      "sen": 6053,
      "council": 6054,
      "##gu": 6055,
      "##arm": 6056,
      "club": 6057,
      "leader": 6058,
      "dreams": 6059,
      "fed": 6060,
      "spell": 6061,
      "boat": 6062,
      "##ading": 6063,
      "opposite": 6064,
      "##claim": 6065,
      "results": 6066,
      "animals": 6067,
      "wine": 6068,
      "text": 6069,
      "adj": 6070,
      "comment": 6071,
      "national": 6072,
      "surely": 6073,
      "etern": 6074,
      "gal": 6075,
      "##anged": 6076,
      "##orted": 6077,
      "occasion": 6078,
      "civil": 6079,
      "breakfast": 6080,
      "yellow": 6081,
      "source": 6082,
      "23": 6083,
      "eating": 6084,
      "der": 6085,
      "prayer": 6086,
      "sav": 6087,
      "relief": 6088,
      "crit": 6089,
      "assist": 6090,
      "garden": 6091,
      "concerned": 6092,
      "wondering": 6093,
      "##ological": 6094,
      "letting": 6095,
      "wonderful": 6096,
      "impro": 6097,
      "stream": 6098,
      "##iday": 6099,
      "joined": 6100,
      "ghost": 6101,
      "hanging": 6102,
      "plans": 6103,
      "eld": 6104,
      "struct": 6105,
      "ly": 6106,
      "pil": 6107,
      "mostly": 6108,
      "behav": 6109,
      "listening": 6110,
      "mirror": 6111,
      "sleeping": 6112,
      "welcome": 6113,
      "gonna": 6114,
      "bran": 6115,
      "##rated": 6116,
      "hers": 6117,
      "##lished": 6118,
      "tea": 6119,
      "##asm": 6120,
      "flight": 6121,
      "screamed": 6122,
      "leading": 6123,
      "##imin": 6124,
      "existence": 6125,
      "net": 6126,
      "##iron": 6127,
      "amount": 6128,
      "interested": 6129,
      "medical": 6130,
      "saved": 6131,
      "sweat": 6132,
      "judge": 6133,
      "throughout": 6134,
      "settled": 6135,
      "careful": 6136,
      "##elle": 6137,
      "##rel": 6138,
      "##ww": 6139,
      "##ki": 6140,
      "ken": 6141,
      "broad": 6142,
      "extreme": 6143,
      "prefer": 6144,
      "aim": 6145,
      "current": 6146,
      "million": 6147,
      "##eness": 6148,
      "##sequ": 6149,
      "saf": 6150,
      "leaves": 6151,
      "nervous": 6152,
      "robert": 6153,
      "concent": 6154,
      "tend": 6155,
      "confir": 6156,
      "grad": 6157,
      "##rid": 6158,
      "yours": 6159,
      "##stairs": 6160,
      "lin": 6161,
      "##tle": 6162,
      "moder": 6163,
      "##ev": 6164,
      "achie": 6165,
      "##key": 6166,
      "##cul": 6167,
      "unable": 6168,
      "sne": 6169,
      "hi": 6170,
      "por": 6171,
      "lif": 6172,
      "mentioned": 6173,
      "fro": 6174,
      "account": 6175,
      "terror": 6176,
      "flying": 6177,
      "lucky": 6178,
      "gift": 6179,
      "greet": 6180,
      "choose": 6181,
      "otherwise": 6182,
      "york": 6183,
      "mech": 6184,
      "snapped": 6185,
      "##ograph": 6186,
      "##unately": 6187,
      "forehead": 6188,
      "lip": 6189,
      "##ators": 6190,
      "##eral": 6191,
      "chin": 6192,
      "series": 6193,
      "##ping": 6194,
      "becoming": 6195,
      "possibly": 6196,
      "pra": 6197,
      "wooden": 6198,
      "fallen": 6199,
      "united": 6200,
      "smooth": 6201,
      "influ": 6202,
      "interv": 6203,
      "contr": 6204,
      "wear": 6205,
      "lat": 6206,
      "##otions": 6207,
      "eur": 6208,
      "##ta": 6209,
      "##aur": 6210,
      "##den": 6211,
      "##ague": 6212,
      "mix": 6213,
      "intellig": 6214,
      "##cise": 6215,
      "names": 6216,
      "removed": 6217,
      "##here": 6218,
      "##omed": 6219,
      "difference": 6220,
      "fund": 6221,
      "##iment": 6222,
      "proud": 6223,
      "pieces": 6224,
      "checked": 6225,
      "trick": 6226,
      "farm": 6227,
      "rough": 6228,
      "deg": 6229,
      "##athan": 6230,
      "spr": 6231,
      "belief": 6232,
      "numbers": 6233,
      "##board": 6234,
      "waved": 6235,
      "##iving": 6236,
      "driving": 6237,
      "role": 6238,
      "community": 6239,
      "##imate": 6240,
      "pure": 6241,
      "instruct": 6242,
      "condition": 6243,
      "##asons": 6244,
      "ens": 6245,
      "anywhere": 6246,
      "parts": 6247,
      "##yl": 6248,
      "details": 6249,
      "innoc": 6250,
      "cabin": 6251,
      "wheel": 6252,
      "memories": 6253,
      "comfortable": 6254,
      "figured": 6255,
      "repeated": 6256,
      "wave": 6257,
      "tent": 6258,
      "##ese": 6259,
      "emp": 6260,
      "anx": 6261,
      "throw": 6262,
      "page": 6263,
      "opt": 6264,
      "excited": 6265,
      "stars": 6266,
      "##roll": 6267,
      "##ca": 6268,
      "charge": 6269,
      "trail": 6270,
      "##ols": 6271,
      "encou": 6272,
      "sides": 6273,
      "josh": 6274,
      "tour": 6275,
      "joe": 6276,
      "reflect": 6277,
      "select": 6278,
      "##ram": 6279,
      "provide": 6280,
      "aust": 6281,
      "scan": 6282,
      "##bb": 6283,
      "extend": 6284,
      "feels": 6285,
      "hallway": 6286,
      "address": 6287,
      "##eks": 6288,
      "##ibility": 6289,
      "reply": 6290,
      "hous": 6291,
      "value": 6292,
      "emotions": 6293,
      "##ached": 6294,
      "development": 6295,
      "wrote": 6296,
      "freedom": 6297,
      "double": 6298,
      "asp": 6299,
      "nine": 6300,
      "##ka": 6301,
      "aunt": 6302,
      "frust": 6303,
      "glance": 6304,
      "##uing": 6305,
      "aid": 6306,
      "##lam": 6307,
      "recall": 6308,
      "##mas": 6309,
      "thomas": 6310,
      "chief": 6311,
      "##illed": 6312,
      "##aming": 6313,
      "machine": 6314,
      "##wor": 6315,
      "##itation": 6316,
      "##iot": 6317,
      "##iple": 6318,
      "wolf": 6319,
      "lung": 6320,
      "que": 6321,
      "blond": 6322,
      "complex": 6323,
      "discovered": 6324,
      "##icious": 6325,
      "buck": 6326,
      "##oted": 6327,
      "##ocking": 6328,
      "rum": 6329,
      "shower": 6330,
      "##uce": 6331,
      "scri": 6332,
      "lake": 6333,
      "boss": 6334,
      "pool": 6335,
      "tells": 6336,
      "circum": 6337,
      "cla": 6338,
      "cred": 6339,
      "nearby": 6340,
      "jason": 6341,
      "##ception": 6342,
      "hardly": 6343,
      "##rop": 6344,
      "reb": 6345,
      "echo": 6346,
      "environ": 6347,
      "distract": 6348,
      "##arrass": 6349,
      "ze": 6350,
      "actions": 6351,
      "religion": 6352,
      "bay": 6353,
      "funny": 6354,
      "bridge": 6355,
      "embarrass": 6356,
      "learning": 6357,
      "hors": 6358,
      "alright": 6359,
      "##ios": 6360,
      "ju": 6361,
      "##ims": 6362,
      "heading": 6363,
      "taught": 6364,
      "warri": 6365,
      "tan": 6366,
      "exh": 6367,
      "bless": 6368,
      "elev": 6369,
      "##han": 6370,
      "jam": 6371,
      "##under": 6372,
      "burning": 6373,
      "mental": 6374,
      "circle": 6375,
      "bud": 6376,
      "suggested": 6377,
      "prince": 6378,
      "##izz": 6379,
      "stare": 6380,
      "wanting": 6381,
      "showing": 6382,
      "grey": 6383,
      "exch": 6384,
      "conv": 6385,
      "##kn": 6386,
      "www": 6387,
      "unfort": 6388,
      "marriage": 6389,
      "previous": 6390,
      "decide": 6391,
      "prophet": 6392,
      "brothers": 6393,
      "foc": 6394,
      "hello": 6395,
      "##for": 6396,
      "gathered": 6397,
      "rise": 6398,
      "manner": 6399,
      "pit": 6400,
      "beauty": 6401,
      "##uses": 6402,
      "function": 6403,
      "##gen": 6404,
      "responded": 6405,
      "golden": 6406,
      "dirt": 6407,
      "react": 6408,
      "mac": 6409,
      "wisdom": 6410,
      "specific": 6411,
      "gras": 6412,
      "row": 6413,
      "##uted": 6414,
      "smart": 6415,
      "named": 6416,
      "naked": 6417,
      "iron": 6418,
      "magn": 6419,
      "compet": 6420,
      "mum": 6421,
      "##iter": 6422,
      "##atory": 6423,
      "dece": 6424,
      "promised": 6425,
      "maintain": 6426,
      "beer": 6427,
      "craw": 6428,
      "passing": 6429,
      "drift": 6430,
      "waist": 6431,
      "admit": 6432,
      "##umped": 6433,
      "shape": 6434,
      "ren": 6435,
      "killing": 6436,
      "pad": 6437,
      "consciousness": 6438,
      "##reek": 6439,
      "greater": 6440,
      "america": 6441,
      "##eds": 6442,
      "tv": 6443,
      "##othing": 6444,
      "flew": 6445,
      "##ucked": 6446,
      "section": 6447,
      "jess": 6448,
      "sher": 6449,
      "loose": 6450,
      "jaw": 6451,
      "totally": 6452,
      "required": 6453,
      "pretend": 6454,
      "narr": 6455,
      "##ament": 6456,
      "russ": 6457,
      "forgotten": 6458,
      "pale": 6459,
      "released": 6460,
      "##nds": 6461,
      "answers": 6462,
      "item": 6463,
      "couch": 6464,
      "ideas": 6465,
      "climbed": 6466,
      "cheeks": 6467,
      "teaching": 6468,
      "polic": 6469,
      "gods": 6470,
      "purch": 6471,
      "mechan": 6472,
      "cit": 6473,
      "progress": 6474,
      "shared": 6475,
      "##enge": 6476,
      "grim": 6477,
      "failed": 6478,
      "cele": 6479,
      "cham": 6480,
      "rare": 6481,
      "rang": 6482,
      "domin": 6483,
      "shoes": 6484,
      "plate": 6485,
      "potential": 6486,
      "crying": 6487,
      "accident": 6488,
      "nur": 6489,
      "pink": 6490,
      "liter": 6491,
      "##mp": 6492,
      "teacher": 6493,
      "safety": 6494,
      "blade": 6495,
      "helping": 6496,
      "kr": 6497,
      "cu": 6498,
      "emer": 6499,
      "jose": 6500,
      "##enger": 6501,
      "frey": 6502,
      "terrible": 6503,
      "##gs": 6504,
      "qur": 6505,
      "focused": 6506,
      "##nes": 6507,
      "##comfort": 6508,
      "total": 6509,
      "grip": 6510,
      "##ora": 6511,
      "hero": 6512,
      "stated": 6513,
      "reaching": 6514,
      "easier": 6515,
      "yester": 6516,
      "obl": 6517,
      "changes": 6518,
      "script": 6519,
      "leather": 6520,
      "carrying": 6521,
      "race": 6522,
      "rules": 6523,
      "bent": 6524,
      "creatures": 6525,
      "aver": 6526,
      "##illy": 6527,
      "##pan": 6528,
      "theory": 6529,
      "calls": 6530,
      "reminded": 6531,
      "seek": 6532,
      "yesterday": 6533,
      "recover": 6534,
      "##mar": 6535,
      "celebr": 6536,
      "##house": 6537,
      "cass": 6538,
      "transl": 6539,
      "taste": 6540,
      "leaders": 6541,
      "gigg": 6542,
      "oce": 6543,
      "blow": 6544,
      "wished": 6545,
      "evolution": 6546,
      "mc": 6547,
      "##asy": 6548,
      "##bi": 6549,
      "struck": 6550,
      "##iven": 6551,
      "charlie": 6552,
      "horses": 6553,
      "incred": 6554,
      "hiding": 6555,
      "listened": 6556,
      "tumor": 6557,
      "task": 6558,
      "shield": 6559,
      "feat": 6560,
      "##ech": 6561,
      "shake": 6562,
      "solid": 6563,
      "absolutely": 6564,
      "freyja": 6565,
      "temper": 6566,
      "##ada": 6567,
      "notes": 6568,
      "accepted": 6569,
      "radio": 6570,
      "plat": 6571,
      "bought": 6572,
      "thor": 6573,
      "setting": 6574,
      "bol": 6575,
      "ult": 6576,
      "environment": 6577,
      "wealth": 6578,
      "aband": 6579,
      "nic": 6580,
      "worst": 6581,
      "laughter": 6582,
      "mood": 6583,
      "##oying": 6584,
      "amazing": 6585,
      "cow": 6586,
      "twice": 6587,
      "pleased": 6588,
      "fault": 6589,
      "exha": 6590,
      "libr": 6591,
      "chuckled": 6592,
      "fran": 6593,
      "##aging": 6594,
      "shadows": 6595,
      "##lyn": 6596,
      "ron": 6597,
      "cook": 6598,
      "younger": 6599,
      "weird": 6600,
      "henry": 6601,
      "##reg": 6602,
      "member": 6603,
      "purs": 6604,
      "vide": 6605,
      "shel": 6606,
      "deck": 6607,
      "original": 6608,
      "wes": 6609,
      "model": 6610,
      "meal": 6611,
      "roof": 6612,
      "pointing": 6613,
      "ceiling": 6614,
      "26": 6615,
      "##ification": 6616,
      "sha": 6617,
      "modern": 6618,
      "media": 6619,
      "regular": 6620,
      "cock": 6621,
      "fright": 6622,
      "political": 6623,
      "##mon": 6624,
      "rushed": 6625,
      "express": 6626,
      "cryst": 6627,
      "##eter": 6628,
      "squeez": 6629,
      "##ita": 6630,
      "negative": 6631,
      "pul": 6632,
      "temple": 6633,
      "fought": 6634,
      "##ns": 6635,
      "seriously": 6636,
      "twel": 6637,
      "embr": 6638,
      "receive": 6639,
      "unlike": 6640,
      "##vey": 6641,
      "streets": 6642,
      "jacob": 6643,
      "##lies": 6644,
      "pushing": 6645,
      "acqu": 6646,
      "plant": 6647,
      "faced": 6648,
      "cave": 6649,
      "##osen": 6650,
      "everywhere": 6651,
      "emerg": 6652,
      "pier": 6653,
      "sacrif": 6654,
      "hated": 6655,
      "planned": 6656,
      "##isa": 6657,
      "signs": 6658,
      "profess": 6659,
      "knock": 6660,
      "issue": 6661,
      "reasons": 6662,
      "opin": 6663,
      "ms": 6664,
      "##onscious": 6665,
      "faster": 6666,
      "upset": 6667,
      "dise": 6668,
      "fifty": 6669,
      "##nie": 6670,
      "matth": 6671,
      "species": 6672,
      "198": 6673,
      "giant": 6674,
      "trave": 6675,
      "pressure": 6676,
      "lap": 6677,
      "former": 6678,
      "grown": 6679,
      "points": 6680,
      "27": 6681,
      "orders": 6682,
      "islam": 6683,
      "determined": 6684,
      "myst": 6685,
      "uh": 6686,
      "perfectly": 6687,
      "price": 6688,
      "tick": 6689,
      "prior": 6690,
      "symb": 6691,
      "coat": 6692,
      "##min": 6693,
      "victor": 6694,
      "cars": 6695,
      "woke": 6696,
      "colon": 6697,
      "##tering": 6698,
      "spring": 6699,
      "pants": 6700,
      "profession": 6701,
      "terms": 6702,
      "revealed": 6703,
      "bringing": 6704,
      "thinks": 6705,
      "religious": 6706,
      "match": 6707,
      "breaking": 6708,
      "serve": 6709,
      "false": 6710,
      "sev": 6711,
      "provided": 6712,
      "##acle": 6713,
      "##antic": 6714,
      "movie": 6715,
      "28": 6716,
      "witch": 6717,
      "impl": 6718,
      "enjoyed": 6719,
      "fant": 6720,
      "concept": 6721,
      "fol": 6722,
      "frame": 6723,
      "##gest": 6724,
      "frequ": 6725,
      "spin": 6726,
      "##pet": 6727,
      "##iety": 6728,
      "formed": 6729,
      "creation": 6730,
      "um": 6731,
      "weather": 6732,
      "ba": 6733,
      "causing": 6734,
      "vac": 6735,
      "button": 6736,
      "percent": 6737,
      "colour": 6738,
      "thy": 6739,
      "##wood": 6740,
      "treatment": 6741,
      "##antage": 6742,
      "till": 6743,
      "divine": 6744,
      "ack": 6745,
      "agent": 6746,
      "##ects": 6747,
      "technology": 6748,
      "http": 6749,
      "rights": 6750,
      "rule": 6751,
      "nav": 6752,
      "##rick": 6753,
      "powers": 6754,
      "hungry": 6755,
      "##ointed": 6756,
      "sof": 6757,
      "landed": 6758,
      "jacket": 6759,
      "square": 6760,
      "carl": 6761,
      "jane": 6762,
      "##off": 6763,
      "warning": 6764,
      "circumst": 6765,
      "favorite": 6766,
      "adult": 6767,
      "wise": 6768,
      "eliz": 6769,
      "novel": 6770,
      "duty": 6771,
      "doorway": 6772,
      "dish": 6773,
      "impact": 6774,
      "rush": 6775,
      "deeply": 6776,
      "##mission": 6777,
      "property": 6778,
      "##xic": 6779,
      "bloody": 6780,
      "soph": 6781,
      "rach": 6782,
      "massive": 6783,
      "patients": 6784,
      "excuse": 6785,
      "passion": 6786,
      "castle": 6787,
      "europe": 6788,
      "verse": 6789,
      "reaction": 6790,
      "##iance": 6791,
      "dawn": 6792,
      "twelve": 6793,
      "represent": 6794,
      "jay": 6795,
      "##aries": 6796,
      "##ulous": 6797,
      "revel": 6798,
      "woods": 6799,
      "##ira": 6800,
      "rever": 6801,
      "dirty": 6802,
      "forces": 6803,
      "waves": 6804,
      "ram": 6805,
      "##nal": 6806,
      "proceed": 6807,
      "brit": 6808,
      "##sing": 6809,
      "##now": 6810,
      "activity": 6811,
      "teen": 6812,
      "fifteen": 6813,
      "ignored": 6814,
      "##lessly": 6815,
      "resc": 6816,
      "##inging": 6817,
      "pattern": 6818,
      "narrow": 6819,
      "honor": 6820,
      "chem": 6821,
      "chris": 6822,
      "occup": 6823,
      "rising": 6824,
      "winter": 6825,
      "##ander": 6826,
      "christmas": 6827,
      "everybody": 6828,
      "review": 6829,
      "##iant": 6830,
      "##riel": 6831,
      "content": 6832,
      "laws": 6833,
      "groups": 6834,
      "entirely": 6835,
      "restaur": 6836,
      "##ifer": 6837,
      "cleared": 6838,
      "##ulated": 6839,
      "regret": 6840,
      "surrounded": 6841,
      "prove": 6842,
      "cart": 6843,
      "richard": 6844,
      "ow": 6845,
      "wil": 6846,
      "disci": 6847,
      "losing": 6848,
      "meat": 6849,
      "##ishment": 6850,
      "ocean": 6851,
      "cig": 6852,
      "matthew": 6853,
      "chosen": 6854,
      "##ocr": 6855,
      "bul": 6856,
      "dying": 6857,
      "eyed": 6858,
      "burned": 6859,
      "fruit": 6860,
      "twisted": 6861,
      "damage": 6862,
      "harder": 6863,
      "nut": 6864,
      "ay": 6865,
      "balance": 6866,
      "##ails": 6867,
      "##pe": 6868,
      "washing": 6869,
      "refused": 6870,
      "plane": 6871,
      "systems": 6872,
      "##ero": 6873,
      "becomes": 6874,
      "ast": 6875,
      "##hol": 6876,
      "##isters": 6877,
      "daily": 6878,
      "release": 6879,
      "wings": 6880,
      "50": 6881,
      "parking": 6882,
      "vall": 6883,
      "plenty": 6884,
      "searching": 6885,
      "##ule": 6886,
      "stretched": 6887,
      "whenever": 6888,
      "pictures": 6889,
      "drawn": 6890,
      "instantly": 6891,
      "rubbed": 6892,
      "kicked": 6893,
      "studied": 6894,
      "interp": 6895,
      "scrat": 6896,
      "##iana": 6897,
      "lowered": 6898,
      "analys": 6899,
      "descend": 6900,
      "honey": 6901,
      "##icing": 6902,
      "planning": 6903,
      "exer": 6904,
      "range": 6905,
      "hyp": 6906,
      "##cell": 6907,
      "##iles": 6908,
      "bree": 6909,
      "medic": 6910,
      "mi": 6911,
      "gut": 6912,
      "defend": 6913,
      "ros": 6914,
      "##icles": 6915,
      "clouds": 6916,
      "drinking": 6917,
      "leaning": 6918,
      "spoken": 6919,
      "iv": 6920,
      "mistake": 6921,
      "instit": 6922,
      "chick": 6923,
      "facing": 6924,
      "##claimed": 6925,
      "german": 6926,
      "glo": 6927,
      "plus": 6928,
      "pip": 6929,
      "dun": 6930,
      "particularly": 6931,
      "sus": 6932,
      "justice": 6933,
      "happiness": 6934,
      "musl": 6935,
      "consequ": 6936,
      "subst": 6937,
      "##ider": 6938,
      "beth": 6939,
      "##inger": 6940,
      "simon": 6941,
      "rapid": 6942,
      "inner": 6943,
      "unif": 6944,
      "##mber": 6945,
      "instinct": 6946,
      "thousands": 6947,
      "##mit": 6948,
      "ii": 6949,
      "##back": 6950,
      "transform": 6951,
      "larger": 6952,
      "fate": 6953,
      "gasped": 6954,
      "acknow": 6955,
      "##gment": 6956,
      "unkn": 6957,
      "click": 6958,
      "##yer": 6959,
      "resour": 6960,
      "knocked": 6961,
      "exec": 6962,
      "gall": 6963,
      "related": 6964,
      "##bled": 6965,
      "recognized": 6966,
      "map": 6967,
      "century": 6968,
      "interview": 6969,
      "relie": 6970,
      "00": 6971,
      "kick": 6972,
      "speech": 6973,
      "london": 6974,
      "mountains": 6975,
      "muttered": 6976,
      "anna": 6977,
      "##igned": 6978,
      "sending": 6979,
      "##rate": 6980,
      "shows": 6981,
      "vampire": 6982,
      "tradition": 6983,
      "strate": 6984,
      "##ua": 6985,
      "stun": 6986,
      "guide": 6987,
      "es": 6988,
      "loving": 6989,
      "authority": 6990,
      "kh": 6991,
      "oil": 6992,
      "steve": 6993,
      "tail": 6994,
      "blur": 6995,
      "department": 6996,
      "advent": 6997,
      "drip": 6998,
      "patient": 6999,
      "forty": 7000,
      "priest": 7001,
      "worship": 7002,
      "fred": 7003,
      "remains": 7004,
      "lies": 7005,
      "vehicle": 7006,
      "awake": 7007,
      "lor": 7008,
      "starts": 7009,
      "bush": 7010,
      "cigar": 7011,
      "lots": 7012,
      "growth": 7013,
      "somebody": 7014,
      "explan": 7015,
      "tied": 7016,
      "panic": 7017,
      "clut": 7018,
      "suffering": 7019,
      "197": 7020,
      "hurry": 7021,
      "cha": 7022,
      "concl": 7023,
      "wedding": 7024,
      "##eps": 7025,
      "famil": 7026,
      "fash": 7027,
      "location": 7028,
      "remaining": 7029,
      "bat": 7030,
      "##ses": 7031,
      "glory": 7032,
      "nation": 7033,
      "excit": 7034,
      "29": 7035,
      "anti": 7036,
      "screaming": 7037,
      "##asc": 7038,
      "holl": 7039,
      "connect": 7040,
      "survive": 7041,
      "##erson": 7042,
      "recently": 7043,
      "code": 7044,
      "scale": 7045,
      "contract": 7046,
      "citiz": 7047,
      "##ancing": 7048,
      "virt": 7049,
      "cro": 7050,
      "staying": 7051,
      "shiver": 7052,
      "devil": 7053,
      "merely": 7054,
      "statement": 7055,
      "encoun": 7056,
      "100": 7057,
      "marry": 7058,
      "##kin": 7059,
      "shifted": 7060,
      "french": 7061,
      "interrupted": 7062,
      "ate": 7063,
      "countries": 7064,
      "bread": 7065,
      "##athy": 7066,
      "chose": 7067,
      "minds": 7068,
      "levels": 7069,
      "##lection": 7070,
      "##abeth": 7071,
      "silently": 7072,
      "effective": 7073,
      "waste": 7074,
      "##ino": 7075,
      "egg": 7076,
      "therap": 7077,
      "brand": 7078,
      "student": 7079,
      "delight": 7080,
      "smaller": 7081,
      "slept": 7082,
      "instant": 7083,
      "salv": 7084,
      "##hr": 7085,
      "royal": 7086,
      "soldier": 7087,
      "uniform": 7088,
      "##eg": 7089,
      "##agon": 7090,
      "princ": 7091,
      "rear": 7092,
      "unfortunately": 7093,
      "palm": 7094,
      "eager": 7095,
      "connection": 7096,
      "fist": 7097,
      "tightly": 7098,
      "indust": 7099,
      "##eous": 7100,
      "ber": 7101,
      "changing": 7102,
      "sees": 7103,
      "excitement": 7104,
      "forms": 7105,
      "bast": 7106,
      "swung": 7107,
      "##istan": 7108,
      "rot": 7109,
      "nowhere": 7110,
      "shown": 7111,
      "hearts": 7112,
      "issues": 7113,
      "smir": 7114,
      "40": 7115,
      "fan": 7116,
      "##iently": 7117,
      "corrid": 7118,
      "particip": 7119,
      "danny": 7120,
      "steel": 7121,
      "require": 7122,
      "pm": 7123,
      "##isions": 7124,
      "experienced": 7125,
      "sunday": 7126,
      "##ille": 7127,
      "##oph": 7128,
      "weeke": 7129,
      "conc": 7130,
      "voices": 7131,
      "##aken": 7132,
      "fashion": 7133,
      "rooms": 7134,
      "games": 7135,
      "afric": 7136,
      "sexual": 7137,
      "rick": 7138,
      "cases": 7139,
      "##inese": 7140,
      "expecting": 7141,
      "faint": 7142,
      "shocked": 7143,
      "official": 7144,
      "flow": 7145,
      "blast": 7146,
      "jeff": 7147,
      "appearance": 7148,
      "bigger": 7149,
      "liqu": 7150,
      "collect": 7151,
      "##over": 7152,
      "hurried": 7153,
      "height": 7154,
      "clar": 7155,
      "stands": 7156,
      "##iring": 7157,
      "boots": 7158,
      "##ded": 7159,
      "apolog": 7160,
      "swim": 7161,
      "fellow": 7162,
      "drunk": 7163,
      "##cast": 7164,
      "quality": 7165,
      "accompl": 7166,
      "chinese": 7167,
      "partner": 7168,
      "camera": 7169,
      "liber": 7170,
      "##umbling": 7171,
      "closing": 7172,
      "education": 7173,
      "##oe": 7174,
      "##ibly": 7175,
      "distur": 7176,
      "fab": 7177,
      "matters": 7178,
      "transport": 7179,
      "##uries": 7180,
      "##iest": 7181,
      "stir": 7182,
      "library": 7183,
      "eve": 7184,
      "flood": 7185,
      "contents": 7186,
      "##ivity": 7187,
      "contain": 7188,
      "##uous": 7189,
      "uncomfort": 7190,
      "##uments": 7191,
      "beings": 7192,
      "hug": 7193,
      "challenge": 7194,
      "intense": 7195,
      "tossed": 7196,
      "deeper": 7197,
      "spark": 7198,
      "developed": 7199,
      "##ga": 7200,
      "plain": 7201,
      "curious": 7202,
      "slammed": 7203,
      "destroyed": 7204,
      "flowers": 7205,
      "bord": 7206,
      "foreign": 7207,
      "princess": 7208,
      "families": 7209,
      "unw": 7210,
      "grate": 7211,
      "##ym": 7212,
      "buildings": 7213,
      "bite": 7214,
      "org": 7215,
      "##what": 7216,
      "rh": 7217,
      "sport": 7218,
      "math": 7219,
      "rib": 7220,
      "##ado": 7221,
      "##rog": 7222,
      "fulf": 7223,
      "crime": 7224,
      "imagined": 7225,
      "clin": 7226,
      "cash": 7227,
      "butt": 7228,
      "tear": 7229,
      "compared": 7230,
      "##oma": 7231,
      "glow": 7232,
      "returning": 7233,
      "professor": 7234,
      "##eping": 7235,
      "andrew": 7236,
      "somewhat": 7237,
      "background": 7238,
      "wiped": 7239,
      "brad": 7240,
      "glasses": 7241,
      "swallowed": 7242,
      "advantage": 7243,
      "orange": 7244,
      "behavior": 7245,
      "vin": 7246,
      "##ubb": 7247,
      "##icip": 7248,
      "abc": 7249,
      "served": 7250,
      "kim": 7251,
      "mob": 7252,
      "international": 7253,
      "structure": 7254,
      "video": 7255,
      "coin": 7256,
      "responsible": 7257,
      "nin": 7258,
      "awk": 7259,
      "joseph": 7260,
      "style": 7261,
      "houses": 7262,
      "forgive": 7263,
      "neighbor": 7264,
      "autom": 7265,
      "awkward": 7266,
      "micro": 7267,
      "split": 7268,
      "apr": 7269,
      "goal": 7270,
      "ara": 7271,
      "unknown": 7272,
      "protection": 7273,
      "##bl": 7274,
      "##iation": 7275,
      "ax": 7276,
      "inqu": 7277,
      "helen": 7278,
      "huh": 7279,
      "season": 7280,
      "ryan": 7281,
      "terrif": 7282,
      "mercy": 7283,
      "##ulate": 7284,
      "ment": 7285,
      "elizabeth": 7286,
      "aug": 7287,
      "jeans": 7288,
      "commander": 7289,
      "##iber": 7290,
      "murm": 7291,
      "jap": 7292,
      "prevent": 7293,
      "labor": 7294,
      "demanded": 7295,
      "reject": 7296,
      "##ato": 7297,
      "extremely": 7298,
      "isa": 7299,
      "gain": 7300,
      "##case": 7301,
      "righteous": 7302,
      "knight": 7303,
      "31": 7304,
      "sink": 7305,
      "confusion": 7306,
      "##ford": 7307,
      "##vision": 7308,
      "appl": 7309,
      "smiles": 7310,
      "##org": 7311,
      "tip": 7312,
      "officers": 7313,
      "##issa": 7314,
      "flick": 7315,
      "finan": 7316,
      "papers": 7317,
      "greek": 7318,
      "hast": 7319,
      "features": 7320,
      "nik": 7321,
      "mate": 7322,
      "spun": 7323,
      "relative": 7324,
      "##hold": 7325,
      "##xp": 7326,
      "philos": 7327,
      "circumstances": 7328,
      "hal": 7329,
      "satur": 7330,
      "bon": 7331,
      "##illing": 7332,
      "disg": 7333,
      "##enched": 7334,
      "legal": 7335,
      "rail": 7336,
      "ox": 7337,
      "shr": 7338,
      "cru": 7339,
      "knee": 7340,
      "##ein": 7341,
      "tunnel": 7342,
      "agreement": 7343,
      "rod": 7344,
      "ain": 7345,
      "billy": 7346,
      "##erves": 7347,
      "alien": 7348,
      "##phone": 7349,
      "doct": 7350,
      "##sec": 7351,
      "puzz": 7352,
      "tony": 7353,
      "struggled": 7354,
      "intent": 7355,
      "central": 7356,
      "##esis": 7357,
      "##ella": 7358,
      "bitch": 7359,
      "buried": 7360,
      "##uced": 7361,
      "##epend": 7362,
      "rocks": 7363,
      "stronger": 7364,
      "passage": 7365,
      "stock": 7366,
      "paint": 7367,
      "site": 7368,
      "upper": 7369,
      "##icient": 7370,
      "settle": 7371,
      "stranger": 7372,
      "##def": 7373,
      "bones": 7374,
      "yard": 7375,
      "ali": 7376,
      "stan": 7377,
      "possess": 7378,
      "rolling": 7379,
      "wrist": 7380,
      "breathe": 7381,
      "tort": 7382,
      "recognize": 7383,
      "restaurant": 7384,
      "march": 7385,
      "lovely": 7386,
      "highly": 7387,
      "traff": 7388,
      "dozen": 7389,
      "increased": 7390,
      "poured": 7391,
      "blame": 7392,
      "file": 7393,
      "##whel": 7394,
      "services": 7395,
      "##zed": 7396,
      "conce": 7397,
      "##eline": 7398,
      "muscles": 7399,
      "fired": 7400,
      "##ris": 7401,
      "##fl": 7402,
      "areas": 7403,
      "wow": 7404,
      "thir": 7405,
      "##mo": 7406,
      "shift": 7407,
      "emotional": 7408,
      "scott": 7409,
      "greatest": 7410,
      "##iveness": 7411,
      "##atives": 7412,
      "plastic": 7413,
      "annoy": 7414,
      "##mos": 7415,
      "##tha": 7416,
      "godd": 7417,
      "distant": 7418,
      "chase": 7419,
      "letters": 7420,
      "dragged": 7421,
      "connected": 7422,
      "kate": 7423,
      "overwhel": 7424,
      "charles": 7425,
      "##wal": 7426,
      "claw": 7427,
      "innocent": 7428,
      "pace": 7429,
      "trade": 7430,
      "acts": 7431,
      "kell": 7432,
      "corpor": 7433,
      "nurse": 7434,
      "angels": 7435,
      "amy": 7436,
      "raise": 7437,
      "pride": 7438,
      "actual": 7439,
      "satan": 7440,
      "chamber": 7441,
      "##lling": 7442,
      "##omm": 7443,
      "drawing": 7444,
      "beck": 7445,
      "harry": 7446,
      "normally": 7447,
      "steady": 7448,
      "skills": 7449,
      "##time": 7450,
      "abcdef": 7451,
      "hundreds": 7452,
      "tremb": 7453,
      "abcdefgh": 7454,
      "analysis": 7455,
      "dogs": 7456,
      "scen": 7457,
      "clothing": 7458,
      "explos": 7459,
      "ward": 7460,
      "les": 7461,
      "##bey": 7462,
      "status": 7463,
      "birds": 7464,
      "dave": 7465,
      "##vert": 7466,
      "confidence": 7467,
      "crystal": 7468,
      "##aper": 7469,
      "friendly": 7470,
      "population": 7471,
      "rate": 7472,
      "equip": 7473,
      "admitted": 7474,
      "sons": 7475,
      "horror": 7476,
      "##bow": 7477,
      "belt": 7478,
      "ships": 7479,
      "chain": 7480,
      "recent": 7481,
      "rif": 7482,
      "##cr": 7483,
      "valley": 7484,
      "japan": 7485,
      "flu": 7486,
      "thumb": 7487,
      "dare": 7488,
      "mud": 7489,
      "alco": 7490,
      "request": 7491,
      "separate": 7492,
      "intended": 7493,
      "martin": 7494,
      "excell": 7495,
      "stiff": 7496,
      "bone": 7497,
      "challeng": 7498,
      "surrounding": 7499,
      "insisted": 7500,
      "marcus": 7501,
      "loudly": 7502,
      "brow": 7503,
      "##ggie": 7504,
      "effects": 7505,
      "shame": 7506,
      "fixed": 7507,
      "##vis": 7508,
      "convinced": 7509,
      "influence": 7510,
      "souls": 7511,
      "constant": 7512,
      "jere": 7513,
      "glob": 7514,
      "thrust": 7515,
      "successful": 7516,
      "birthday": 7517,
      "keys": 7518,
      "##raft": 7519,
      "ari": 7520,
      "##rier": 7521,
      "capable": 7522,
      "##isible": 7523,
      "images": 7524,
      "opinion": 7525,
      "considering": 7526,
      "##win": 7527,
      "##acks": 7528,
      "smith": 7529,
      "syn": 7530,
      "cycle": 7531,
      "stress": 7532,
      "youth": 7533,
      "tempt": 7534,
      "independ": 7535,
      "sake": 7536,
      "culture": 7537,
      "electric": 7538,
      "assumed": 7539,
      "rachel": 7540,
      "tough": 7541,
      "chat": 7542,
      "##ales": 7543,
      "##olic": 7544,
      "advice": 7545,
      "anticip": 7546,
      "tower": 7547,
      "##lor": 7548,
      "##istry": 7549,
      "version": 7550,
      "rage": 7551,
      "judgment": 7552,
      "parked": 7553,
      "whoever": 7554,
      "begins": 7555,
      "blanket": 7556,
      "monster": 7557,
      "pile": 7558,
      "bitter": 7559,
      "##inda": 7560,
      "cous": 7561,
      "inhib": 7562,
      "eternal": 7563,
      "admin": 7564,
      "achieve": 7565,
      "##inated": 7566,
      "thrown": 7567,
      "thigh": 7568,
      "diss": 7569,
      "greg": 7570,
      "throwing": 7571,
      "##bur": 7572,
      "detective": 7573,
      "heavily": 7574,
      "ethan": 7575,
      "journal": 7576,
      "dollars": 7577,
      "##inked": 7578,
      "owner": 7579,
      "gle": 7580,
      "trib": 7581,
      "##mother": 7582,
      "described": 7583,
      "##oms": 7584,
      "treated": 7585,
      "##atically": 7586,
      "hasn": 7587,
      "etc": 7588,
      "disease": 7589,
      "##ari": 7590,
      "scent": 7591,
      "pregn": 7592,
      "altern": 7593,
      "##inn": 7594,
      "##eled": 7595,
      "piss": 7596,
      "fer": 7597,
      "rat": 7598,
      "##otic": 7599,
      "##uary": 7600,
      "##father": 7601,
      "title": 7602,
      "serge": 7603,
      "##ords": 7604,
      "cott": 7605,
      "humanity": 7606,
      "associated": 7607,
      "appears": 7608,
      "equipment": 7609,
      "persp": 7610,
      "television": 7611,
      "oct": 7612,
      "observed": 7613,
      "increase": 7614,
      "lone": 7615,
      "faded": 7616,
      "guilt": 7617,
      "accompan": 7618,
      "vent": 7619,
      "##pri": 7620,
      "explanation": 7621,
      "vib": 7622,
      "##ads": 7623,
      "announced": 7624,
      "contem": 7625,
      "##unted": 7626,
      "acting": 7627,
      "qual": 7628,
      "measure": 7629,
      "fiction": 7630,
      "guil": 7631,
      "christians": 7632,
      "##ache": 7633,
      "contrib": 7634,
      "troo": 7635,
      "furn": 7636,
      "firmly": 7637,
      "landing": 7638,
      "##rey": 7639,
      "##hh": 7640,
      "included": 7641,
      "gang": 7642,
      "196": 7643,
      "##rant": 7644,
      "##ault": 7645,
      "loves": 7646,
      "##alous": 7647,
      "squeezed": 7648,
      "jun": 7649,
      "enth": 7650,
      "entertain": 7651,
      "cath": 7652,
      "bang": 7653,
      "hips": 7654,
      "haw": 7655,
      "demonstr": 7656,
      "sem": 7657,
      "dancing": 7658,
      "tam": 7659,
      "weekend": 7660,
      "popular": 7661,
      "##ctions": 7662,
      "basic": 7663,
      "useful": 7664,
      "ps": 7665,
      "##da": 7666,
      "credit": 7667,
      "rested": 7668,
      "revelation": 7669,
      "##agger": 7670,
      "unus": 7671,
      "emma": 7672,
      "##ocol": 7673,
      "drugs": 7674,
      "##aron": 7675,
      "blinked": 7676,
      "alice": 7677,
      "spotted": 7678,
      "items": 7679,
      "##hen": 7680,
      "##ode": 7681,
      "##imately": 7682,
      "relaxed": 7683,
      "ven": 7684,
      "thunder": 7685,
      "dread": 7686,
      "##ani": 7687,
      "avo": 7688,
      "desperate": 7689,
      "##jo": 7690,
      "betray": 7691,
      "career": 7692,
      "sched": 7693,
      "##ounce": 7694,
      "##pse": 7695,
      "##rain": 7696,
      "swear": 7697,
      "retrie": 7698,
      "##itched": 7699,
      "clo": 7700,
      "chann": 7701,
      "glor": 7702,
      "sequ": 7703,
      "sole": 7704,
      "intelligence": 7705,
      "ignore": 7706,
      "extended": 7707,
      "reluct": 7708,
      "emily": 7709,
      "ladies": 7710,
      "appreciate": 7711,
      "bry": 7712,
      "ou": 7713,
      "responsibility": 7714,
      "elevator": 7715,
      "guns": 7716,
      "studies": 7717,
      "limited": 7718,
      "blessed": 7719,
      "coast": 7720,
      "##any": 7721,
      "pause": 7722,
      "proof": 7723,
      "til": 7724,
      "##cks": 7725,
      "continues": 7726,
      "diver": 7727,
      "##ointment": 7728,
      "spirits": 7729,
      "treas": 7730,
      "dw": 7731,
      "##agged": 7732,
      "flashed": 7733,
      "walks": 7734,
      "forgot": 7735,
      "disbel": 7736,
      "stopping": 7737,
      "##arian": 7738,
      "flames": 7739,
      "healing": 7740,
      "unconscious": 7741,
      "paying": 7742,
      "folded": 7743,
      "western": 7744,
      "traffic": 7745,
      "warmth": 7746,
      "ease": 7747,
      "afford": 7748,
      "unit": 7749,
      "arrange": 7750,
      "bond": 7751,
      "vast": 7752,
      "utter": 7753,
      "gabriel": 7754,
      "degree": 7755,
      "##umps": 7756,
      "rab": 7757,
      "strike": 7758,
      "bags": 7759,
      "hoo": 7760,
      "possibility": 7761,
      "relieved": 7762,
      "defense": 7763,
      "33": 7764,
      "capital": 7765,
      "exclaimed": 7766,
      "brian": 7767,
      "reported": 7768,
      "##elled": 7769,
      "activities": 7770,
      "##aly": 7771,
      "gif": 7772,
      "allowing": 7773,
      "horiz": 7774,
      "conditions": 7775,
      "##ен": 7776,
      "##ket": 7777,
      "survival": 7778,
      "ug": 7779,
      "senses": 7780,
      "standard": 7781,
      "sed": 7782,
      "bowl": 7783,
      "saturday": 7784,
      "shell": 7785,
      "glared": 7786,
      "manif": 7787,
      "significant": 7788,
      "thee": 7789,
      "##ints": 7790,
      "stair": 7791,
      "appropri": 7792,
      "##friend": 7793,
      "offering": 7794,
      "spect": 7795,
      "briefly": 7796,
      "lucy": 7797,
      "picking": 7798,
      "##lict": 7799,
      "chairs": 7800,
      "daddy": 7801,
      "lee": 7802,
      "habit": 7803,
      "colored": 7804,
      "##ware": 7805,
      "surre": 7806,
      "glim": 7807,
      "hugged": 7808,
      "corridor": 7809,
      "##urance": 7810,
      "closely": 7811,
      "sob": 7812,
      "lic": 7813,
      "occurred": 7814,
      "resources": 7815,
      "region": 7816,
      "exit": 7817,
      "cough": 7818,
      "##inal": 7819,
      "cris": 7820,
      "ends": 7821,
      "guilty": 7822,
      "gosp": 7823,
      "pages": 7824,
      "ded": 7825,
      "attached": 7826,
      "joke": 7827,
      "screw": 7828,
      "##ila": 7829,
      "confident": 7830,
      "cream": 7831,
      "uncomfortable": 7832,
      "##reh": 7833,
      "##field": 7834,
      "friday": 7835,
      "32": 7836,
      "device": 7837,
      "yan": 7838,
      "##aping": 7839,
      "applic": 7840,
      "##athers": 7841,
      "internet": 7842,
      "hamm": 7843,
      "option": 7844,
      "##brows": 7845,
      "cliff": 7846,
      "johnny": 7847,
      "crimin": 7848,
      "centre": 7849,
      "approaching": 7850,
      "frag": 7851,
      "audience": 7852,
      "suffer": 7853,
      "##ij": 7854,
      "sisters": 7855,
      "las": 7856,
      "grave": 7857,
      "courage": 7858,
      "grateful": 7859,
      "##eding": 7860,
      "35": 7861,
      "slip": 7862,
      "hunter": 7863,
      "eyebrows": 7864,
      "reass": 7865,
      "##neath": 7866,
      "elder": 7867,
      "indic": 7868,
      "realised": 7869,
      "ham": 7870,
      "underneath": 7871,
      "hood": 7872,
      "##urally": 7873,
      "carol": 7874,
      "remove": 7875,
      "ves": 7876,
      "##can": 7877,
      "creating": 7878,
      "##lfriend": 7879,
      "stab": 7880,
      "##iley": 7881,
      "enjoying": 7882,
      "efforts": 7883,
      "breeze": 7884,
      "girlfriend": 7885,
      "upstairs": 7886,
      "##met": 7887,
      "precious": 7888,
      "attacked": 7889,
      "alcohol": 7890,
      "china": 7891,
      "constantly": 7892,
      "wing": 7893,
      "financial": 7894,
      "nights": 7895,
      "intention": 7896,
      "gear": 7897,
      "badly": 7898,
      "dart": 7899,
      "craft": 7900,
      "##enth": 7901,
      "collaps": 7902,
      "##ays": 7903,
      "cheer": 7904,
      "surprising": 7905,
      "swift": 7906,
      "keeps": 7907,
      "##ona": 7908,
      "reward": 7909,
      "cere": 7910,
      "visible": 7911,
      "goodby": 7912,
      "informed": 7913,
      "depth": 7914,
      "grant": 7915,
      "##agg": 7916,
      "secure": 7917,
      "enemies": 7918,
      "warned": 7919,
      "ted": 7920,
      "blonde": 7921,
      "ske": 7922,
      "replaced": 7923,
      "cos": 7924,
      "ridic": 7925,
      "random": 7926,
      "platform": 7927,
      "##uk": 7928,
      "az": 7929,
      "pleasant": 7930,
      "touching": 7931,
      "skull": 7932,
      "discussion": 7933,
      "##ucle": 7934,
      "grandmother": 7935,
      "benefit": 7936,
      "##agn": 7937,
      "inher": 7938,
      "histor": 7939,
      "core": 7940,
      "bench": 7941,
      "claire": 7942,
      "##utions": 7943,
      "newsp": 7944,
      "myster": 7945,
      "unb": 7946,
      "tables": 7947,
      "covering": 7948,
      "##nda": 7949,
      "ped": 7950,
      "analy": 7951,
      "unique": 7952,
      "web": 7953,
      "##ан": 7954,
      "consum": 7955,
      "torn": 7956,
      "grav": 7957,
      "reveal": 7958,
      "belly": 7959,
      "abrupt": 7960,
      "fourth": 7961,
      "##gger": 7962,
      "bru": 7963,
      "retreat": 7964,
      "article": 7965,
      "commit": 7966,
      "curtain": 7967,
      "##olved": 7968,
      "rope": 7969,
      "climb": 7970,
      "leads": 7971,
      "satisfied": 7972,
      "py": 7973,
      "include": 7974,
      "inch": 7975,
      "grandfather": 7976,
      "struggle": 7977,
      "roman": 7978,
      "adop": 7979,
      "anybody": 7980,
      "assume": 7981,
      "##iated": 7982,
      "slee": 7983,
      "##stand": 7984,
      "impress": 7985,
      "designed": 7986,
      "##bie": 7987,
      "##zing": 7988,
      "sust": 7989,
      "##rian": 7990,
      "jimmy": 7991,
      "boyfriend": 7992,
      "purple": 7993,
      "milk": 7994,
      "professional": 7995,
      "alt": 7996,
      "horrible": 7997,
      "dismiss": 7998,
      "##erence": 7999,
      "worn": 8000,
      "asse": 8001,
      "lesson": 8002,
      "stal": 8003,
      "shoved": 8004,
      "envelop": 8005,
      "brush": 8006,
      "##oles": 8007,
      "brushed": 8008,
      "invited": 8009,
      "egy": 8010,
      "##itable": 8011,
      "interpret": 8012,
      "encoura": 8013,
      "arrive": 8014,
      "moves": 8015,
      "##ody": 8016,
      "healthy": 8017,
      "element": 8018,
      "imper": 8019,
      "conduct": 8020,
      "##col": 8021,
      "ak": 8022,
      "assum": 8023,
      "improve": 8024,
      "violence": 8025,
      "backed": 8026,
      "sara": 8027,
      "nations": 8028,
      "wiz": 8029,
      "poison": 8030,
      "scientific": 8031,
      "wicked": 8032,
      "palace": 8033,
      "assured": 8034,
      "ec": 8035,
      "ian": 8036,
      "##enn": 8037,
      "blew": 8038,
      "attitude": 8039,
      "hesitated": 8040,
      "##izes": 8041,
      "compass": 8042,
      "servant": 8043,
      "egypt": 8044,
      "##alu": 8045,
      "warrior": 8046,
      "##coming": 8047,
      "prepare": 8048,
      "lan": 8049,
      "fields": 8050,
      "inches": 8051,
      "solution": 8052,
      "brick": 8053,
      "tempor": 8054,
      "plants": 8055,
      "jenny": 8056,
      "hay": 8057,
      "silly": 8058,
      "irrit": 8059,
      "desert": 8060,
      "##usi": 8061,
      "strang": 8062,
      "stones": 8063,
      "45": 8064,
      "saving": 8065,
      "excellent": 8066,
      "liquid": 8067,
      "##phere": 8068,
      "types": 8069,
      "breathed": 8070,
      "##rete": 8071,
      "appe": 8072,
      "##pers": 8073,
      "##cies": 8074,
      "transfer": 8075,
      "##iqu": 8076,
      "frozen": 8077,
      "brill": 8078,
      "cooper": 8079,
      "ignor": 8080,
      "smash": 8081,
      "emph": 8082,
      "##ission": 8083,
      "unp": 8084,
      "ling": 8085,
      "pow": 8086,
      "##rin": 8087,
      "##amm": 8088,
      "##oh": 8089,
      "dick": 8090,
      "##va": 8091,
      "sniff": 8092,
      "british": 8093,
      "imagination": 8094,
      "sergeant": 8095,
      "cd": 8096,
      "amongst": 8097,
      "##ula": 8098,
      "succeed": 8099,
      "kyle": 8100,
      "##oll": 8101,
      "pant": 8102,
      "##li": 8103,
      "regarding": 8104,
      "##fall": 8105,
      "nucle": 8106,
      "marsh": 8107,
      "##arsh": 8108,
      "searched": 8109,
      "checking": 8110,
      "washed": 8111,
      "painful": 8112,
      "noted": 8113,
      "quant": 8114,
      "suspic": 8115,
      "sheep": 8116,
      "butter": 8117,
      "economic": 8118,
      "throne": 8119,
      "global": 8120,
      "demons": 8121,
      "seth": 8122,
      "salvation": 8123,
      "jealous": 8124,
      "begun": 8125,
      "groaned": 8126,
      "cher": 8127,
      "brings": 8128,
      "tay": 8129,
      "handsome": 8130,
      "recomm": 8131,
      "destruction": 8132,
      "liz": 8133,
      "resting": 8134,
      "exchange": 8135,
      "holds": 8136,
      "buzz": 8137,
      "dna": 8138,
      "workers": 8139,
      "nathan": 8140,
      "trained": 8141,
      "##certain": 8142,
      "##place": 8143,
      "##uine": 8144,
      "decor": 8145,
      "supply": 8146,
      "lam": 8147,
      "kissing": 8148,
      "mystery": 8149,
      "##adem": 8150,
      "stern": 8151,
      "established": 8152,
      "unexp": 8153,
      "seated": 8154,
      "escaped": 8155,
      "ath": 8156,
      "bor": 8157,
      "##ok": 8158,
      "football": 8159,
      "tang": 8160,
      "riding": 8161,
      "porch": 8162,
      "jews": 8163,
      "august": 8164,
      "experiences": 8165,
      "bunch": 8166,
      "##ayed": 8167,
      "exhausted": 8168,
      "abandoned": 8169,
      "ib": 8170,
      "rust": 8171,
      "magaz": 8172,
      "tie": 8173,
      "span": 8174,
      "##ran": 8175,
      "##aud": 8176,
      "inte": 8177,
      "dining": 8178,
      "likes": 8179,
      "india": 8180,
      "victim": 8181,
      "hopefully": 8182,
      "servants": 8183,
      "switch": 8184,
      "cale": 8185,
      "famous": 8186,
      "aaron": 8187,
      "##cher": 8188,
      "incident": 8189,
      "twist": 8190,
      "alarm": 8191,
      "##ops": 8192,
      "budd": 8193,
      "waters": 8194,
      "ank": 8195,
      "permission": 8196,
      "unexpected": 8197,
      "startled": 8198,
      "prec": 8199,
      "seeking": 8200,
      "resem": 8201,
      "stumbled": 8202,
      "##mn": 8203,
      "##ida": 8204,
      "##sey": 8205,
      "##acles": 8206,
      "mask": 8207,
      "gradu": 8208,
      "##orter": 8209,
      "##uten": 8210,
      "##sion": 8211,
      "jean": 8212,
      "##abor": 8213,
      "rode": 8214,
      "swir": 8215,
      "trem": 8216,
      "##ox": 8217,
      "franc": 8218,
      "armed": 8219,
      "driven": 8220,
      "sins": 8221,
      "murd": 8222,
      "limit": 8223,
      "genuine": 8224,
      "argument": 8225,
      "##ban": 8226,
      "##ounts": 8227,
      "admir": 8228,
      "conflict": 8229,
      "constit": 8230,
      "citizens": 8231,
      "gospel": 8232,
      "emerged": 8233,
      "produced": 8234,
      "shooting": 8235,
      "published": 8236,
      "guests": 8237,
      "susan": 8238,
      "beam": 8239,
      "packed": 8240,
      "rome": 8241,
      "production": 8242,
      "barn": 8243,
      "embrace": 8244,
      "coach": 8245,
      "medicine": 8246,
      "establish": 8247,
      "failure": 8248,
      "spending": 8249,
      "##lement": 8250,
      "growled": 8251,
      "louis": 8252,
      "##annah": 8253,
      "disgust": 8254,
      "observ": 8255,
      "bullet": 8256,
      "dumb": 8257,
      "##asha": 8258,
      "exposed": 8259,
      "hover": 8260,
      "bowed": 8261,
      "sentence": 8262,
      "suspect": 8263,
      "clearing": 8264,
      "polite": 8265,
      "produce": 8266,
      "pist": 8267,
      "nap": 8268,
      "mail": 8269,
      "##che": 8270,
      "##bby": 8271,
      "lightly": 8272,
      "accur": 8273,
      "academ": 8274,
      "menu": 8275,
      "intellect": 8276,
      "##ront": 8277,
      "rein": 8278,
      "generally": 8279,
      "##ulted": 8280,
      "earn": 8281,
      "breasts": 8282,
      "tex": 8283,
      "ky": 8284,
      "enthusi": 8285,
      "mole": 8286,
      "ka": 8287,
      "confirmed": 8288,
      "##rict": 8289,
      "##ulations": 8290,
      "multiple": 8291,
      "drinks": 8292,
      "currently": 8293,
      "basis": 8294,
      "##resp": 8295,
      "sean": 8296,
      "##lar": 8297,
      "introduced": 8298,
      "lieuten": 8299,
      "dang": 8300,
      "purchase": 8301,
      "management": 8302,
      "##ст": 8303,
      "symp": 8304,
      "desperately": 8305,
      "virgin": 8306,
      "champ": 8307,
      "sacrifice": 8308,
      "pitch": 8309,
      "##aker": 8310,
      "falls": 8311,
      "enorm": 8312,
      "rescue": 8313,
      "gazed": 8314,
      "chew": 8315,
      "fence": 8316,
      "##uf": 8317,
      "quarter": 8318,
      "##arch": 8319,
      "dwell": 8320,
      "vessel": 8321,
      "tab": 8322,
      "obey": 8323,
      "##ige": 8324,
      "operation": 8325,
      "36": 8326,
      "##mad": 8327,
      "##utes": 8328,
      "runs": 8329,
      "invisible": 8330,
      "bio": 8331,
      "nan": 8332,
      "blaz": 8333,
      "peered": 8334,
      "unusual": 8335,
      "cared": 8336,
      "arth": 8337,
      "fasc": 8338,
      "swept": 8339,
      "corrupt": 8340,
      "conclusion": 8341,
      "##inity": 8342,
      "sadd": 8343,
      "moral": 8344,
      "jobs": 8345,
      "ine": 8346,
      "average": 8347,
      "##iy": 8348,
      "frustration": 8349,
      "integr": 8350,
      "directions": 8351,
      "kinds": 8352,
      "advanced": 8353,
      "tap": 8354,
      "communication": 8355,
      "cards": 8356,
      "april": 8357,
      "exercise": 8358,
      "raising": 8359,
      "pilot": 8360,
      "##iable": 8361,
      "washington": 8362,
      "grabbing": 8363,
      "decisions": 8364,
      "dor": 8365,
      "manager": 8366,
      "##ums": 8367,
      "union": 8368,
      "located": 8369,
      "individuals": 8370,
      "veget": 8371,
      "##idents": 8372,
      "lisa": 8373,
      "goodbye": 8374,
      "lev": 8375,
      "##osis": 8376,
      "bun": 8377,
      "maria": 8378,
      "garage": 8379,
      "route": 8380,
      "resistance": 8381,
      "34": 8382,
      "protest": 8383,
      "##11": 8384,
      "convince": 8385,
      "literally": 8386,
      "shade": 8387,
      "reven": 8388,
      "moses": 8389,
      "##erous": 8390,
      "expensive": 8391,
      "harsh": 8392,
      "victory": 8393,
      "lyn": 8394,
      "killer": 8395,
      "##rom": 8396,
      "incl": 8397,
      "obtain": 8398,
      "struggling": 8399,
      "adjust": 8400,
      "il": 8401,
      "hind": 8402,
      "lined": 8403,
      "##ih": 8404,
      "merc": 8405,
      "democr": 8406,
      "rig": 8407,
      "contained": 8408,
      "##ppy": 8409,
      "sooner": 8410,
      "dug": 8411,
      "emergency": 8412,
      "loyal": 8413,
      "diam": 8414,
      "fi": 8415,
      "anne": 8416,
      "signal": 8417,
      "eu": 8418,
      "##idding": 8419,
      "##thy": 8420,
      "volume": 8421,
      "bomb": 8422,
      "trapped": 8423,
      "##oul": 8424,
      "od": 8425,
      "##eling": 8426,
      "online": 8427,
      "minor": 8428,
      "##raw": 8429,
      "appropriate": 8430,
      "##elia": 8431,
      "branches": 8432,
      "consist": 8433,
      "shortly": 8434,
      "policy": 8435,
      "methods": 8436,
      "yards": 8437,
      "##lock": 8438,
      "##rection": 8439,
      "mixed": 8440,
      "mand": 8441,
      "dealing": 8442,
      "stepping": 8443,
      "properly": 8444,
      "conclud": 8445,
      "hint": 8446,
      "realm": 8447,
      "cutting": 8448,
      "tension": 8449,
      "dial": 8450,
      "##osure": 8451,
      "generation": 8452,
      "studying": 8453,
      "unh": 8454,
      "holiday": 8455,
      "sept": 8456,
      "lightning": 8457,
      "honestly": 8458,
      "##rating": 8459,
      "guest": 8460,
      "##kind": 8461,
      "austral": 8462,
      "email": 8463,
      "apply": 8464,
      "minim": 8465,
      "assemb": 8466,
      "bart": 8467,
      "favour": 8468,
      "crash": 8469,
      "equal": 8470,
      "seb": 8471,
      "naturally": 8472,
      "grasp": 8473,
      "kevin": 8474,
      "vul": 8475,
      "hills": 8476,
      "barb": 8477,
      "via": 8478,
      "##bor": 8479,
      "entry": 8480,
      "##pless": 8481,
      "explod": 8482,
      "##sters": 8483,
      "foolish": 8484,
      "glowing": 8485,
      "backwards": 8486,
      "flor": 8487,
      "gathering": 8488,
      "rhy": 8489,
      "calif": 8490,
      "awa": 8491,
      "reports": 8492,
      "punishment": 8493,
      "photo": 8494,
      "presented": 8495,
      "ugly": 8496,
      "beating": 8497,
      "perman": 8498,
      "importance": 8499,
      "affect": 8500,
      "believers": 8501,
      "england": 8502,
      "june": 8503,
      "laur": 8504,
      "sel": 8505,
      "lungs": 8506,
      "##craft": 8507,
      "tender": 8508,
      "airport": 8509,
      "##za": 8510,
      "##rol": 8511,
      "caut": 8512,
      "crown": 8513,
      "secrets": 8514,
      "precise": 8515,
      "singing": 8516,
      "homes": 8517,
      "tank": 8518,
      "goo": 8519,
      "##erted": 8520,
      "rapidly": 8521,
      "bastard": 8522,
      "administ": 8523,
      "2013": 8524,
      "arrival": 8525,
      "intr": 8526,
      "fabric": 8527,
      "identity": 8528,
      "collection": 8529,
      "shopping": 8530,
      "additional": 8531,
      "##ante": 8532,
      "idiot": 8533,
      "julia": 8534,
      "downstairs": 8535,
      "##umn": 8536,
      "footst": 8537,
      "tucked": 8538,
      "withd": 8539,
      "dropping": 8540,
      "##ola": 8541,
      "awful": 8542,
      "ensure": 8543,
      "sofa": 8544,
      "gates": 8545,
      "rit": 8546,
      "##50": 8547,
      "californ": 8548,
      "facts": 8549,
      "describe": 8550,
      "hitting": 8551,
      "jar": 8552,
      "primary": 8553,
      "lieutenant": 8554,
      "##ications": 8555,
      "expand": 8556,
      "shed": 8557,
      "painted": 8558,
      "pulls": 8559,
      "delivered": 8560,
      "instructions": 8561,
      "engage": 8562,
      "spar": 8563,
      "compreh": 8564,
      "##uits": 8565,
      "motor": 8566,
      "sid": 8567,
      "##aph": 8568,
      "##usive": 8569,
      "southern": 8570,
      "kay": 8571,
      "curse": 8572,
      "seed": 8573,
      "cigarette": 8574,
      "entering": 8575,
      "concrete": 8576,
      "chocol": 8577,
      "spare": 8578,
      "teachers": 8579,
      "bind": 8580,
      "ripped": 8581,
      "greeted": 8582,
      "minister": 8583,
      "mile": 8584,
      "snat": 8585,
      "sharing": 8586,
      "dod": 8587,
      "stall": 8588,
      "absor": 8589,
      "##gl": 8590,
      "ignoring": 8591,
      "shaped": 8592,
      "holly": 8593,
      "elements": 8594,
      "alley": 8595,
      "##load": 8596,
      "biggest": 8597,
      "amanda": 8598,
      "trial": 8599,
      "chill": 8600,
      "##ucing": 8601,
      "ordinary": 8602,
      "##cca": 8603,
      "##irts": 8604,
      "fel": 8605,
      "##wich": 8606,
      "defin": 8607,
      "anth": 8608,
      "ga": 8609,
      "stops": 8610,
      "curled": 8611,
      "pup": 8612,
      "mama": 8613,
      "##ulty": 8614,
      "upright": 8615,
      "sip": 8616,
      "personally": 8617,
      "uncertain": 8618,
      "cracked": 8619,
      "tristan": 8620,
      "sliding": 8621,
      "active": 8622,
      "stunned": 8623,
      "slave": 8624,
      "manip": 8625,
      "##nat": 8626,
      "2012": 8627,
      "placing": 8628,
      "bored": 8629,
      "disappointed": 8630,
      "spine": 8631,
      "heels": 8632,
      "sensed": 8633,
      "##bon": 8634,
      "remark": 8635,
      "##alt": 8636,
      "magical": 8637,
      "files": 8638,
      "charged": 8639,
      "lily": 8640,
      "curios": 8641,
      "maggie": 8642,
      "deserve": 8643,
      "##ifying": 8644,
      "declared": 8645,
      "closet": 8646,
      "expert": 8647,
      "##aine": 8648,
      "monday": 8649,
      "cities": 8650,
      "scattered": 8651,
      "filling": 8652,
      "foundation": 8653,
      "distinct": 8654,
      "flame": 8655,
      "performance": 8656,
      "bend": 8657,
      "##acity": 8658,
      "classes": 8659,
      "dull": 8660,
      "supplies": 8661,
      "superior": 8662,
      "cousin": 8663,
      "combination": 8664,
      "colonel": 8665,
      "webs": 8666,
      "mexic": 8667,
      "morgan": 8668,
      "california": 8669,
      "photograph": 8670,
      "cole": 8671,
      "catching": 8672,
      "compar": 8673,
      "embarrassed": 8674,
      "urg": 8675,
      "attempted": 8676,
      "vampires": 8677,
      "##ini": 8678,
      "perce": 8679,
      "##bles": 8680,
      "illum": 8681,
      "seats": 8682,
      "guid": 8683,
      "initial": 8684,
      "mos": 8685,
      "crap": 8686,
      "millions": 8687,
      "cruel": 8688,
      "gripped": 8689,
      "urge": 8690,
      "sheriff": 8691,
      "armor": 8692,
      "tools": 8693,
      "claimed": 8694,
      "popped": 8695,
      "spear": 8696,
      "##lla": 8697,
      "jenn": 8698,
      "##20": 8699,
      "fairy": 8700,
      "lands": 8701,
      "##olve": 8702,
      "gem": 8703,
      "neat": 8704,
      "##brow": 8705,
      "drank": 8706,
      "emphas": 8707,
      "instr": 8708,
      "evalu": 8709,
      "kings": 8710,
      "tale": 8711,
      "completed": 8712,
      "ego": 8713,
      "highest": 8714,
      "cub": 8715,
      "##words": 8716,
      "brave": 8717,
      "drown": 8718,
      "##vest": 8719,
      "francis": 8720,
      "##mosphere": 8721,
      "perspective": 8722,
      "hunting": 8723,
      "tracks": 8724,
      "prompt": 8725,
      "director": 8726,
      "clenched": 8727,
      "empire": 8728,
      "horizon": 8729,
      "mumbled": 8730,
      "sought": 8731,
      "tiss": 8732,
      "##itors": 8733,
      "##atherine": 8734,
      "raced": 8735,
      "performed": 8736,
      "basket": 8737,
      "whist": 8738,
      "fairly": 8739,
      "tub": 8740,
      "motioned": 8741,
      "sup": 8742,
      "lur": 8743,
      "assess": 8744,
      "existed": 8745,
      "prod": 8746,
      "chicken": 8747,
      "arab": 8748,
      "jail": 8749,
      "pear": 8750,
      "encourage": 8751,
      "sheet": 8752,
      "records": 8753,
      "friendship": 8754,
      "organization": 8755,
      "film": 8756,
      "rifle": 8757,
      "fuel": 8758,
      "beard": 8759,
      "eyebrow": 8760,
      "curiosity": 8761,
      "##pa": 8762,
      "shore": 8763,
      "##areness": 8764,
      "drifted": 8765,
      "scow": 8766,
      "nervously": 8767,
      "atmosphere": 8768,
      "##enced": 8769,
      "##unte": 8770,
      "pregnant": 8771,
      "childhood": 8772,
      "os": 8773,
      "hmm": 8774,
      "##och": 8775,
      "coinc": 8776,
      "glancing": 8777,
      "abruptly": 8778,
      "causes": 8779,
      "##outs": 8780,
      "alan": 8781,
      "suspected": 8782,
      "ending": 8783,
      "branch": 8784,
      "##sect": 8785,
      "senior": 8786,
      "enormous": 8787,
      "footsteps": 8788,
      "scanned": 8789,
      "sunlight": 8790,
      "directed": 8791,
      "lust": 8792,
      "fears": 8793,
      "gene": 8794,
      "commer": 8795,
      "figures": 8796,
      "praise": 8797,
      "desires": 8798,
      "impat": 8799,
      "##char": 8800,
      "symbol": 8801,
      "frightened": 8802,
      "endless": 8803,
      "##otted": 8804,
      "intens": 8805,
      "tapped": 8806,
      "##erable": 8807,
      "zach": 8808,
      "murmured": 8809,
      "gifts": 8810,
      "hid": 8811,
      "compassion": 8812,
      "echoed": 8813,
      "sits": 8814,
      "contempl": 8815,
      "sensation": 8816,
      "nich": 8817,
      "##kins": 8818,
      "narrowed": 8819,
      "impression": 8820,
      "sant": 8821,
      "hunt": 8822,
      "volunte": 8823,
      "practically": 8824,
      "##rous": 8825,
      "##asty": 8826,
      "previously": 8827,
      "ruth": 8828,
      "arrow": 8829,
      "impressed": 8830,
      "passenger": 8831,
      "38": 8832,
      "jill": 8833,
      "tommy": 8834,
      "##ugg": 8835,
      "liam": 8836,
      "awareness": 8837,
      "distrib": 8838,
      "trap": 8839,
      "##umber": 8840,
      "kal": 8841,
      "committed": 8842,
      "slowed": 8843,
      "majority": 8844,
      "collapsed": 8845,
      "dur": 8846,
      "forb": 8847,
      "identify": 8848,
      "##lan": 8849,
      "chaos": 8850,
      "##ros": 8851,
      "raven": 8852,
      "questioned": 8853,
      "inspect": 8854,
      "severe": 8855,
      "electron": 8856,
      "agents": 8857,
      "oblig": 8858,
      "messenger": 8859,
      "vit": 8860,
      "##gue": 8861,
      "routine": 8862,
      "abra": 8863,
      "##cular": 8864,
      "##osition": 8865,
      "estate": 8866,
      "pig": 8867,
      "internal": 8868,
      "##otes": 8869,
      "fet": 8870,
      "nove": 8871,
      "immort": 8872,
      "snar": 8873,
      "immediate": 8874,
      "feared": 8875,
      "philosop": 8876,
      "rebe": 8877,
      "flower": 8878,
      "mall": 8879,
      "##pass": 8880,
      "motiv": 8881,
      "pressing": 8882,
      "eaten": 8883,
      "rubbing": 8884,
      "flipped": 8885,
      "smelled": 8886,
      "muse": 8887,
      "laura": 8888,
      "speaks": 8889,
      "reflection": 8890,
      "##ndered": 8891,
      "##mitted": 8892,
      "manifest": 8893,
      "dism": 8894,
      "threatened": 8895,
      "finds": 8896,
      "pod": 8897,
      "options": 8898,
      "cops": 8899,
      "copyright": 8900,
      "guessed": 8901,
      "##stone": 8902,
      "pete": 8903,
      "shuff": 8904,
      "suffered": 8905,
      "territ": 8906,
      "lance": 8907,
      "##attering": 8908,
      "##agers": 8909,
      "sally": 8910,
      "gotta": 8911,
      "whir": 8912,
      "numerous": 8913,
      "disciples": 8914,
      "##oning": 8915,
      "37": 8916,
      "##do": 8917,
      "##put": 8918,
      "glare": 8919,
      "gesture": 8920,
      "incom": 8921,
      "floating": 8922,
      "calcul": 8923,
      "##pled": 8924,
      "bin": 8925,
      "cute": 8926,
      "remar": 8927,
      "visited": 8928,
      "investigation": 8929,
      "construct": 8930,
      "sway": 8931,
      "remote": 8932,
      "remembering": 8933,
      "essential": 8934,
      "adventure": 8935,
      "si": 8936,
      "boxes": 8937,
      "##while": 8938,
      "prime": 8939,
      "argue": 8940,
      "prol": 8941,
      "puts": 8942,
      "##osing": 8943,
      "chocolate": 8944,
      "alph": 8945,
      "sugar": 8946,
      "jerked": 8947,
      "parent": 8948,
      "tyler": 8949,
      "eleven": 8950,
      "##ggy": 8951,
      "##entially": 8952,
      "jeremy": 8953,
      "detect": 8954,
      "colors": 8955,
      "louder": 8956,
      "patience": 8957,
      "vanished": 8958,
      "thorough": 8959,
      "sales": 8960,
      "boun": 8961,
      "border": 8962,
      "bars": 8963,
      "essence": 8964,
      "nurs": 8965,
      "##ties": 8966,
      "consequences": 8967,
      "slide": 8968,
      "insist": 8969,
      "fake": 8970,
      "##greg": 8971,
      "ridiculous": 8972,
      "resur": 8973,
      "##ae": 8974,
      "pillow": 8975,
      "fleet": 8976,
      "##isher": 8977,
      "reck": 8978,
      "amber": 8979,
      "proved": 8980,
      "psal": 8981,
      "dram": 8982,
      "##isc": 8983,
      "fists": 8984,
      "trusted": 8985,
      "pir": 8986,
      "##vant": 8987,
      "nuclear": 8988,
      "shakes": 8989,
      "nest": 8990,
      "stol": 8991,
      "relationships": 8992,
      "##hole": 8993,
      "lun": 8994,
      "noble": 8995,
      "##hi": 8996,
      "gran": 8997,
      "brilliant": 8998,
      "deny": 8999,
      "slapped": 9000,
      "roger": 9001,
      "inev": 9002,
      "worlds": 9003,
      "isol": 9004,
      "warn": 9005,
      "realizing": 9006,
      "##iture": 9007,
      "determine": 9008,
      "##oot": 9009,
      "reference": 9010,
      "purse": 9011,
      "sail": 9012,
      "heb": 9013,
      "##erie": 9014,
      "regardless": 9015,
      "kil": 9016,
      "mighty": 9017,
      "identified": 9018,
      "cursed": 9019,
      "mig": 9020,
      "##iate": 9021,
      "shouting": 9022,
      "shy": 9023,
      "##itter": 9024,
      "tray": 9025,
      "##unched": 9026,
      "conver": 9027,
      "folks": 9028,
      "russian": 9029,
      "critical": 9030,
      "pee": 9031,
      "violent": 9032,
      "disbelief": 9033,
      "revolution": 9034,
      "apost": 9035,
      "##amped": 9036,
      "##irm": 9037,
      "lonely": 9038,
      "tore": 9039,
      "sank": 9040,
      "gul": 9041,
      "assass": 9042,
      "##alem": 9043,
      "july": 9044,
      "raw": 9045,
      "movements": 9046,
      "traditional": 9047,
      "##ago": 9048,
      "##inks": 9049,
      "deliber": 9050,
      "##ika": 9051,
      "fier": 9052,
      "painting": 9053,
      "marked": 9054,
      "characters": 9055,
      "towel": 9056,
      "writer": 9057,
      "joshua": 9058,
      "coven": 9059,
      "stead": 9060,
      "pd": 9061,
      "highway": 9062,
      "dere": 9063,
      "player": 9064,
      "flowing": 9065,
      "ting": 9066,
      "##ias": 9067,
      "widened": 9068,
      "tas": 9069,
      "intim": 9070,
      "poet": 9071,
      "personality": 9072,
      "anxious": 9073,
      "terrified": 9074,
      "advance": 9075,
      "lifting": 9076,
      "crou": 9077,
      "arthur": 9078,
      "occasionally": 9079,
      "sandwich": 9080,
      "scripture": 9081,
      "##uled": 9082,
      "zomb": 9083,
      "clay": 9084,
      "apple": 9085,
      "vic": 9086,
      "cleaning": 9087,
      "abilities": 9088,
      "##aa": 9089,
      "##icted": 9090,
      "##gun": 9091,
      "centuries": 9092,
      "salt": 9093,
      "##roph": 9094,
      "damned": 9095,
      "##ulating": 9096,
      "froze": 9097,
      "parties": 9098,
      "grief": 9099,
      "schol": 9100,
      "sounding": 9101,
      "nods": 9102,
      "combat": 9103,
      "trace": 9104,
      "document": 9105,
      "swing": 9106,
      "messages": 9107,
      "viv": 9108,
      "boot": 9109,
      "corn": 9110,
      "divor": 9111,
      "physically": 9112,
      "warriors": 9113,
      "uses": 9114,
      "jamie": 9115,
      "recon": 9116,
      "diet": 9117,
      "companion": 9118,
      "values": 9119,
      "toile": 9120,
      "helpless": 9121,
      "kelly": 9122,
      "jackson": 9123,
      "indian": 9124,
      "myth": 9125,
      "conference": 9126,
      "puff": 9127,
      "annie": 9128,
      "vel": 9129,
      "lucas": 9130,
      "sets": 9131,
      "latest": 9132,
      "##mond": 9133,
      "abraham": 9134,
      "companies": 9135,
      "network": 9136,
      "waving": 9137,
      "lawyer": 9138,
      "lege": 9139,
      "lifet": 9140,
      "proced": 9141,
      "quarters": 9142,
      "##ville": 9143,
      "continuing": 9144,
      "knocking": 9145,
      "suic": 9146,
      "separated": 9147,
      "pistol": 9148,
      "##elling": 9149,
      "prepar": 9150,
      "##asper": 9151,
      "##ал": 9152,
      "sale": 9153,
      "outer": 9154,
      "jonathan": 9155,
      "dried": 9156,
      "##andra": 9157,
      "goddess": 9158,
      "194": 9159,
      "vague": 9160,
      "overcome": 9161,
      "destiny": 9162,
      "arranged": 9163,
      "##uge": 9164,
      "phen": 9165,
      "fox": 9166,
      "follows": 9167,
      "trembling": 9168,
      "ratt": 9169,
      "fu": 9170,
      "steal": 9171,
      "income": 9172,
      "soil": 9173,
      "rarely": 9174,
      "survived": 9175,
      "exception": 9176,
      "prayed": 9177,
      "wounds": 9178,
      "load": 9179,
      "opens": 9180,
      "assign": 9181,
      "muscle": 9182,
      "bike": 9183,
      "hook": 9184,
      "hissed": 9185,
      "##ba": 9186,
      "carpet": 9187,
      "gur": 9188,
      "incredible": 9189,
      "valu": 9190,
      "string": 9191,
      "##force": 9192,
      "leon": 9193,
      "index": 9194,
      "quit": 9195,
      "stretch": 9196,
      "casual": 9197,
      "##enses": 9198,
      "bern": 9199,
      "wounded": 9200,
      "scientists": 9201,
      "serving": 9202,
      "overl": 9203,
      "karen": 9204,
      "eh": 9205,
      "cord": 9206,
      "##ii": 9207,
      "forcing": 9208,
      "september": 9209,
      "revealing": 9210,
      "majest": 9211,
      "logic": 9212,
      "edward": 9213,
      "##usions": 9214,
      "smashwords": 9215,
      "confirm": 9216,
      "halfway": 9217,
      "60": 9218,
      "damp": 9219,
      "reception": 9220,
      "grade": 9221,
      "injured": 9222,
      "conte": 9223,
      "applied": 9224,
      "nearest": 9225,
      "tool": 9226,
      "patted": 9227,
      "repair": 9228,
      "believing": 9229,
      "##mark": 9230,
      "##nic": 9231,
      "diamond": 9232,
      "mason": 9233,
      "marks": 9234,
      "spinning": 9235,
      "##illa": 9236,
      "sucked": 9237,
      "trunk": 9238,
      "africa": 9239,
      "blocks": 9240,
      "eggs": 9241,
      "##alled": 9242,
      "##umping": 9243,
      "wherever": 9244,
      "jessica": 9245,
      "##rees": 9246,
      "publ": 9247,
      "preparing": 9248,
      "weakness": 9249,
      "anc": 9250,
      "companions": 9251,
      "##acon": 9252,
      "lover": 9253,
      "rebecca": 9254,
      "bobby": 9255,
      "##omy": 9256,
      "wre": 9257,
      "gestured": 9258,
      "owned": 9259,
      "controlled": 9260,
      "sports": 9261,
      "sensitive": 9262,
      "signed": 9263,
      "useless": 9264,
      "customers": 9265,
      "jewish": 9266,
      "bapt": 9267,
      "patrick": 9268,
      "captured": 9269,
      "midnight": 9270,
      "discussed": 9271,
      "han": 9272,
      "snake": 9273,
      "gw": 9274,
      "anxiety": 9275,
      "helps": 9276,
      "##walk": 9277,
      "infinite": 9278,
      "commanded": 9279,
      "collar": 9280,
      "distracted": 9281,
      "bothered": 9282,
      "mes": 9283,
      "acknowled": 9284,
      "toler": 9285,
      "loaded": 9286,
      "##isms": 9287,
      "marie": 9288,
      "newspaper": 9289,
      "neighborhood": 9290,
      "##fire": 9291,
      "muslim": 9292,
      "##ober": 9293,
      "##azz": 9294,
      "tries": 9295,
      "ing": 9296,
      "testament": 9297,
      "safely": 9298,
      "##hammad": 9299,
      "##unate": 9300,
      "##mes": 9301,
      "##10": 9302,
      "trev": 9303,
      "blake": 9304,
      "accent": 9305,
      "photos": 9306,
      "jerus": 9307,
      "seemingly": 9308,
      "margar": 9309,
      "pounding": 9310,
      "annoyed": 9311,
      "ritual": 9312,
      "wizard": 9313,
      "indicated": 9314,
      "##rily": 9315,
      "giggled": 9316,
      "gorge": 9317,
      "beats": 9318,
      "goodness": 9319,
      "driveway": 9320,
      "##ala": 9321,
      "october": 9322,
      "holes": 9323,
      "##onation": 9324,
      "andre": 9325,
      "ras": 9326,
      "peaceful": 9327,
      "rip": 9328,
      "jerusalem": 9329,
      "equally": 9330,
      "products": 9331,
      "clue": 9332,
      "bleeding": 9333,
      "au": 9334,
      "cheap": 9335,
      "spat": 9336,
      "loun": 9337,
      "tact": 9338,
      "movies": 9339,
      "candid": 9340,
      "alert": 9341,
      "writ": 9342,
      "beloved": 9343,
      "federal": 9344,
      "##cere": 9345,
      "##ela": 9346,
      "austin": 9347,
      "rhyth": 9348,
      "flag": 9349,
      "nodding": 9350,
      "kit": 9351,
      "hopes": 9352,
      "edition": 9353,
      "illeg": 9354,
      "cooking": 9355,
      "choices": 9356,
      "shining": 9357,
      "fishing": 9358,
      "stor": 9359,
      "##uish": 9360,
      "conqu": 9361,
      "memor": 9362,
      "edd": 9363,
      "parad": 9364,
      "punch": 9365,
      "cad": 9366,
      "panel": 9367,
      "defeat": 9368,
      "creator": 9369,
      "december": 9370,
      "##ordan": 9371,
      "##iour": 9372,
      "shelter": 9373,
      "screams": 9374,
      "troops": 9375,
      "kisses": 9376,
      "strategy": 9377,
      "squad": 9378,
      "sorrow": 9379,
      "##nis": 9380,
      "lied": 9381,
      "kir": 9382,
      "repeat": 9383,
      "repub": 9384,
      "mah": 9385,
      "##ibl": 9386,
      "##onent": 9387,
      "selfish": 9388,
      "42": 9389,
      "##rison": 9390,
      "sadness": 9391,
      "outl": 9392,
      "vig": 9393,
      "apparent": 9394,
      "selling": 9395,
      "##ria": 9396,
      "closest": 9397,
      "traveling": 9398,
      "attractive": 9399,
      "lion": 9400,
      "blessing": 9401,
      "stolen": 9402,
      "independent": 9403,
      "connor": 9404,
      "noah": 9405,
      "happily": 9406,
      "unbel": 9407,
      "##inkled": 9408,
      "phr": 9409,
      "sneak": 9410,
      "haz": 9411,
      "##isy": 9412,
      "americans": 9413,
      "wandered": 9414,
      "bold": 9415,
      "context": 9416,
      "heavens": 9417,
      "samples": 9418,
      "granted": 9419,
      "collected": 9420,
      "grandma": 9421,
      "nu": 9422,
      "sacred": 9423,
      "criminal": 9424,
      "fog": 9425,
      "paris": 9426,
      "##amin": 9427,
      "objects": 9428,
      "encounter": 9429,
      "pockets": 9430,
      "georg": 9431,
      "prosp": 9432,
      "stephen": 9433,
      "##ilst": 9434,
      "creative": 9435,
      "lux": 9436,
      "##engers": 9437,
      "ages": 9438,
      "guar": 9439,
      "owners": 9440,
      "lessons": 9441,
      "fancy": 9442,
      "lane": 9443,
      "worthy": 9444,
      "yah": 9445,
      "verses": 9446,
      "erupt": 9447,
      "jones": 9448,
      "crossing": 9449,
      "aston": 9450,
      "mysterious": 9451,
      "maid": 9452,
      "balls": 9453,
      "protected": 9454,
      "covers": 9455,
      "scramb": 9456,
      "compound": 9457,
      "kne": 9458,
      "engaged": 9459,
      "39": 9460,
      "collective": 9461,
      "2014": 9462,
      "republic": 9463,
      "sadly": 9464,
      "sanct": 9465,
      "weigh": 9466,
      "taylor": 9467,
      "##arn": 9468,
      "drops": 9469,
      "gn": 9470,
      "haired": 9471,
      "reaches": 9472,
      "eternity": 9473,
      "beliefs": 9474,
      "prost": 9475,
      "##rial": 9476,
      "creep": 9477,
      "sheets": 9478,
      "##ooked": 9479,
      "##ulting": 9480,
      "landsc": 9481,
      "melan": 9482,
      "fierce": 9483,
      "dwar": 9484,
      "luci": 9485,
      "##mare": 9486,
      "##ensed": 9487,
      "spray": 9488,
      "industry": 9489,
      "persons": 9490,
      "vincent": 9491,
      "january": 9492,
      "calmly": 9493,
      "debt": 9494,
      "##rors": 9495,
      "##istics": 9496,
      "blo": 9497,
      "prayers": 9498,
      "##oting": 9499,
      "examined": 9500,
      "fantasy": 9501,
      "pastor": 9502,
      "faithful": 9503,
      "tatt": 9504,
      "doctors": 9505,
      "cel": 9506,
      "sang": 9507,
      "furniture": 9508,
      "anton": 9509,
      "instance": 9510,
      "knelt": 9511,
      "krist": 9512,
      "##ending": 9513,
      "pity": 9514,
      "muslims": 9515,
      "ct": 9516,
      "bust": 9517,
      "greed": 9518,
      "absence": 9519,
      "##mic": 9520,
      "threatening": 9521,
      "wagon": 9522,
      "palms": 9523,
      "samuel": 9524,
      "rent": 9525,
      "##iger": 9526,
      "##isha": 9527,
      "recip": 9528,
      "strip": 9529,
      "november": 9530,
      "cage": 9531,
      "ministry": 9532,
      "acknowledge": 9533,
      "##ifically": 9534,
      "insane": 9535,
      "shots": 9536,
      "interact": 9537,
      "zero": 9538,
      "adding": 9539,
      "##iments": 9540,
      "mankind": 9541,
      "exists": 9542,
      "gradually": 9543,
      "sexy": 9544,
      "##но": 9545,
      "backp": 9546,
      "vulner": 9547,
      "destination": 9548,
      "##ffin": 9549,
      "##down": 9550,
      "##essa": 9551,
      "contrast": 9552,
      "ought": 9553,
      "climbing": 9554,
      "##bre": 9555,
      "44": 9556,
      "norther": 9557,
      "##die": 9558,
      "strateg": 9559,
      "nasty": 9560,
      "sized": 9561,
      "mobile": 9562,
      "##point": 9563,
      "whilst": 9564,
      "subtle": 9565,
      "decent": 9566,
      "nightmare": 9567,
      "upd": 9568,
      "commission": 9569,
      "humor": 9570,
      "basement": 9571,
      "bom": 9572,
      "chances": 9573,
      "refuse": 9574,
      "reflected": 9575,
      "protein": 9576,
      "overhead": 9577,
      "mont": 9578,
      "hut": 9579,
      "swords": 9580,
      "thread": 9581,
      "mitch": 9582,
      "diana": 9583,
      "##zer": 9584,
      "julie": 9585,
      "flee": 9586,
      "benefits": 9587,
      "pulse": 9588,
      "gym": 9589,
      "mount": 9590,
      "experiment": 9591,
      "valid": 9592,
      "pac": 9593,
      "jet": 9594,
      "belonged": 9595,
      "corin": 9596,
      "##the": 9597,
      "magazine": 9598,
      "skirt": 9599,
      "fled": 9600,
      "discipl": 9601,
      "cake": 9602,
      "nerves": 9603,
      "surg": 9604,
      "construction": 9605,
      "praying": 9606,
      "subjects": 9607,
      "ira": 9608,
      "##ар": 9609,
      "katie": 9610,
      "obst": 9611,
      "##anor": 9612,
      "elbow": 9613,
      "attacks": 9614,
      "players": 9615,
      "##iev": 9616,
      "mentally": 9617,
      "todd": 9618,
      "##gression": 9619,
      "rushing": 9620,
      "aimed": 9621,
      "tightened": 9622,
      "affection": 9623,
      "cate": 9624,
      "racing": 9625,
      "answering": 9626,
      "predict": 9627,
      "temperature": 9628,
      "despair": 9629,
      "jumping": 9630,
      "##encies": 9631,
      "##ogue": 9632,
      "negot": 9633,
      "assistant": 9634,
      "twin": 9635,
      "ic": 9636,
      "clan": 9637,
      "wire": 9638,
      "##rence": 9639,
      "fortune": 9640,
      "hip": 9641,
      "##rah": 9642,
      "sincere": 9643,
      "crawled": 9644,
      "2011": 9645,
      "overall": 9646,
      "hunger": 9647,
      "robe": 9648,
      "traveled": 9649,
      "toes": 9650,
      "spite": 9651,
      "partners": 9652,
      "claims": 9653,
      "puzzled": 9654,
      "testing": 9655,
      "enh": 9656,
      "zone": 9657,
      "jesse": 9658,
      "explosion": 9659,
      "##cers": 9660,
      "intelligent": 9661,
      "valuable": 9662,
      "aven": 9663,
      "lifetime": 9664,
      "underground": 9665,
      "assault": 9666,
      "eag": 9667,
      "hence": 9668,
      "revenge": 9669,
      "increasing": 9670,
      "dyn": 9671,
      "##oop": 9672,
      "mia": 9673,
      "##imm": 9674,
      "retire": 9675,
      "hebrew": 9676,
      "county": 9677,
      "cheese": 9678,
      "troll": 9679,
      "mortal": 9680,
      "description": 9681,
      "##0s": 9682,
      "variety": 9683,
      "tape": 9684,
      "practical": 9685,
      "cind": 9686,
      "possessed": 9687,
      "boring": 9688,
      "scra": 9689,
      "laughs": 9690,
      "straw": 9691,
      "##ares": 9692,
      "leapt": 9693,
      "conven": 9694,
      "toilet": 9695,
      "topic": 9696,
      "crept": 9697,
      "alternative": 9698,
      "##iolet": 9699,
      "dimension": 9700,
      "secretary": 9701,
      "maxim": 9702,
      "france": 9703,
      "client": 9704,
      "funeral": 9705,
      "##aning": 9706,
      "interf": 9707,
      "unsure": 9708,
      "involve": 9709,
      "handful": 9710,
      "recru": 9711,
      "politics": 9712,
      "##olas": 9713,
      "horrif": 9714,
      "##inent": 9715,
      "sandy": 9716,
      "dies": 9717,
      "gap": 9718,
      "##ooped": 9719,
      "##utation": 9720,
      "exhaust": 9721,
      "alongside": 9722,
      "snorted": 9723,
      "atl": 9724,
      "ancest": 9725,
      "circles": 9726,
      "suck": 9727,
      "mouse": 9728,
      "darwin": 9729,
      "session": 9730,
      "insect": 9731,
      "lately": 9732,
      "unre": 9733,
      "website": 9734,
      "##of": 9735,
      "43": 9736,
      "steam": 9737,
      "patch": 9738,
      "channel": 9739,
      "therapy": 9740,
      "instructed": 9741,
      "gav": 9742,
      "complicated": 9743,
      "campa": 9744,
      "steven": 9745,
      "chemical": 9746,
      "flut": 9747,
      "smoking": 9748,
      "gown": 9749,
      "interpretation": 9750,
      "acted": 9751,
      "##ylan": 9752,
      "extent": 9753,
      "grat": 9754,
      "principle": 9755,
      "capacity": 9756,
      "oak": 9757,
      "decre": 9758,
      "aged": 9759,
      "typical": 9760,
      "decades": 9761,
      "sorts": 9762,
[...]
