{
  "version": "1.0",
  "truncation": null,
  "padding": null,
  "added_tokens": [
    {
      "id": 0,
      "content": "[PAD]",
      "single_word": false,
      "lstrip": false,
      "rstrip": false,
      "normalized": false,
      "special": true
    },
    {
      "id": 1,
      "content": "[UNK]",
      "single_word": false,
      "lstrip": false,
      "rstrip": false,
      "normalized": false,
      "special": true
    },
    {
      "id": 2,
      "content": "[CLS]",
      "single_word": false,
      "lstrip": false,
      "rstrip": false,
      "normalized": false,
      "special": true
    },
    {
      "id": 3,
      "content": "[SEP]",
      "single_word": false,
      "lstrip": false,
      "rstrip": false,
      "normalized": false,
      "special": true
    },
    {
      "id": 4,
      "content": "[MASK]",
      "single_word": false,
      "lstrip": false,
      "rstrip": false,
      "normalized": false,
      "special": true
    }
  ],
  "normalizer": {
    "type": "BertNormalizer",
    "clean_text": true,
    "handle_chinese_chars": true,
    "strip_accents": null,
    "lowercase": true
  },
  "pre_tokenizer": {
    "type": "BertPreTokenizer"
  },
  "post_processor": {
    "type": "TemplateProcessing",
    "single": [
      {
        "SpecialToken": {
          "id": "[CLS]",
          "type_id": 0
        }
      },
      {
        "Sequence": {
          "id": "A",
          "type_id": 0
        }
      },
      {
        "SpecialToken": {
          "id": "[SEP]",
          "type_id": 0
        }
      }
    ],
    "pair": [
      {
        "SpecialToken": {
          "id": "[CLS]",
          "type_id": 0
        }
      },
      {
        "Sequence": {
          "id": "A",
          "type_id": 0
        }
      },
      {
        "SpecialToken": {
          "id": "[SEP]",
          "type_id": 0
        }
      },
      {
        "Sequence": {
          "id": "B",
          "type_id": 1
        }
      },
      {
        "SpecialToken": {
          "id": "[SEP]",
          "type_id": 1
        }
      }
    ],
    "special_tokens": {
      "[CLS]": {
        "id": "[CLS]",
        "ids": [
          2
        ],
        "tokens": [
          "[CLS]"
        ]
      },
      "[SEP]": {
        "id": "[SEP]",
        "ids": [
          3
        ],
        "tokens": [
          "[SEP]"
        ]
      }
    }
  },
  "decoder": {
    "type": "WordPiece",
    "prefix": "##",
    "cleanup": true
  },
  "model": {
    "type": "WordPiece",
    "unk_token": "[UNK]",
    "continuing_subword_prefix": "##",
    "max_input_chars_per_word": 100,
    "vocab": {
      "[PAD]": 0,
      "[UNK]": 1,
      "[CLS]": 2,
      "[SEP]": 3,
      "[MASK]": 4,
      "!": 5,
      "\"": 6,
      "#": 7,
      "$": 8,
      "%": 9,
      "&": 10,
      "'": 11,
      "(": 12,
      ")": 13,
      "*": 14,
      "+": 15,
      ",": 16,
      "-": 17,
      ".": 18,
      "/": 19,
      "0": 20,
      "1": 21,
      "2": 22,
      "3": 23,
      "4": 24,
      "5": 25,
      "6": 26,
      "7": 27,
      "8": 28,
      "9": 29,
      ":": 30,
      ";": 31,
      "<": 32,
      "=": 33,
      ">": 34,
      "?": 35,
      "@": 36,
      "[": 37,
      "\\": 38,
      "]": 39,
      "^": 40,
      "_": 41,
      "`": 42,
      "a": 43,
      "b": 44,
      "c": 45,
      "d": 46,
      "e": 47,
      "f": 48,
      "g": 49,
      "h": 50,
      "i": 51,
      "j": 52,
      "k": 53,
      "l": 54,
      "m": 55,
      "n": 56,
      "o": 57,
      "p": 58,
      "q": 59,
      "r": 60,
      "s": 61,
      "t": 62,
      "u": 63,
      "v": 64,
      "w": 65,
      "x": 66,
      "y": 67,
      "z": 68,
      "{": 69,
      "|": 70,
      "}": 71,
      "~": 72,
      "¡": 73,
      "¢": 74,
      "£": 75,
      "¤": 76,
      "¥": 77,
      "¦": 78,
      "§": 79,
      "¨": 80,
      "©": 81,
      "ª": 82,
      "«": 83,
      "¬": 84,
      "®": 85,
      "¯": 86,
      "°": 87,
      "±": 88,
      "²": 89,
      "³": 90,
      "´": 91,
      "µ": 92,
      "¶": 93,
      "·": 94,
      "¸": 95,
      "¹": 96,
      "º": 97,
      "»": 98,
      "¼": 99,
      "½": 100,
      "¾": 101,
      "¿": 102,
      "×": 103,
      "ß": 104,
      "æ": 105,
      "ð": 106,
      "÷": 107,
      "ø": 108,
      "þ": 109,
      "đ": 110,
      "ħ": 111,
      "ı": 112,
      "ĸ": 113,
      "ł": 114,
      "ŋ": 115,
      "œ": 116,
      "ŧ": 117,
      "ſ": 118,
      "ƃ": 119,
      "ƈ": 120,
      "ƒ": 121,
      "ƙ": 122,
      "ƚ": 123,
      "ƴ": 124,
      "ƶ": 125,
      "ƿ": 126,
      "ǁ": 127,
      "ǝ": 128,
      "ǥ": 129,
      "ȝ": 130,
      "ȼ": 131,
      "ɂ": 132,
      "ɏ": 133,
      "ɐ": 134,
      "ɑ": 135,
      "ɓ": 136,
      "ɔ": 137,
      "ɖ": 138,
      "ə": 139,
      "ɛ": 140,
      "ɟ": 141,
      "ɡ": 142,
      "ɣ": 143,
      "ɤ": 144,
      "ɥ": 145,
      "ɨ": 146,
      "ɩ": 147,
      "ɪ": 148,
      "ɮ": 149,
      "ɯ": 150,
      "ɱ": 151,
      "ɲ": 152,
      "ɳ": 153,
      "ɵ": 154,
      "ɸ": 155,
      "ɹ": 156,
      "ɻ": 157,
      "ɽ": 158,
      "ʃ": 159,
      "ʊ": 160,
      "ʌ": 161,
      "ʎ": 162,
      "ʑ": 163,
      "ʒ": 164,
      "ʔ": 165,
      "ʕ": 166,
      "ʘ": 167,
      "ʤ": 168,
      "ʧ": 169,
      "ʲ": 170,
      "ʷ": 171,
      "ʹ": 172,
      "ʺ": 173,
      "ʻ": 174,
      "ʽ": 175,
      "ʾ": 176,
      "ʿ": 177,
      "ˀ": 178,
      "˂": 179,
      "˃": 180,
      "˄": 181,
      "˅": 182,
      "ˆ": 183,
      "ˇ": 184,
      "ˈ": 185,
      "ˉ": 186,
      "ˋ": 187,
      "ˌ": 188,
      "ː": 189,
      "˗": 190,
      "˘": 191,
      "˙": 192,
      "˚": 193,
      "˜": 194,
      "˝": 195,
      "ˤ": 196,
      "ˮ": 197,
      "˴": 198,
      "ͻ": 199,
      "΄": 200,
      "α": 201,
      "β": 202,
      "γ": 203,
      "δ": 204,
      "ε": 205,
      "ζ": 206,
      "η": 207,
      "θ": 208,
      "ι": 209,
      "κ": 210,
      "λ": 211,
      "μ": 212,
      "ν": 213,
      "ξ": 214,
      "ο": 215,
      "π": 216,
      "ρ": 217,
      "ς": 218,
      "σ": 219,
      "τ": 220,
      "υ": 221,
      "φ": 222,
      "χ": 223,
      "ψ": 224,
      "ω": 225,
      "ϒ": 226,
      "ϕ": 227,
      "ϙ": 228,
      "ϛ": 229,
      "ϝ": 230,
      "ϟ": 231,
      "ϵ": 232,
      "ϸ": 233,
      "а": 234,
      "б": 235,
      "в": 236,
      "г": 237,
      "д": 238,
      "е": 239,
      "ж": 240,
      "з": 241,
      "и": 242,
      "к": 243,
      "л": 244,
      "м": 245,
      "н": 246,
      "о": 247,
      "п": 248,
      "р": 249,
      "с": 250,
      "т": 251,
      "у": 252,
      "ф": 253,
      "х": 254,
      "ц": 255,
      "ч": 256,
      "ш": 257,
      "щ": 258,
      "ъ": 259,
      "ы": 260,
      "ь": 261,
      "э": 262,
      "ю": 263,
      "я": 264,
      "ђ": 265,
      "є": 266,
      "ѕ": 267,
      "і": 268,
      "ј": 269,
      "љ": 270,
      "њ": 271,
      "ћ": 272,
      "џ": 273,
      "ѵ": 274,
      "ѻ": 275,
      "҉": 276,
      "ґ": 277,
      "ғ": 278,
      "қ": 279,
      "ҡ": 280,
      "ң": 281,
      "ҫ": 282,
      "ү": 283,
      "ұ": 284,
      "ҳ": 285,
      "һ": 286,
      "ӈ": 287,
      "ӏ": 288,
      "ә": 289,
      "ө": 290,
      "ԑ": 291,
      "ԛ": 292,
      "֎": 293,
      "־": 294,
      "׀": 295,
      "׃": 296,
      "א": 297,
      "ב": 298,
      "ג": 299,
      "ד": 300,
      "ה": 301,
      "ו": 302,
      "ז": 303,
      "ח": 304,
      "ט": 305,
      "י": 306,
      "ך": 307,
      "כ": 308,
      "ל": 309,
      "ם": 310,
      "מ": 311,
      "ן": 312,
      "נ": 313,
      "ס": 314,
      "ע": 315,
      "ף": 316,
      "פ": 317,
      "ץ": 318,
      "צ": 319,
      "ק": 320,
      "ר": 321,
      "ש": 322,
      "ת": 323,
      "ײ": 324,
      "׳": 325,
      "״": 326,
      "،": 327,
      "؛": 328,
      "؟": 329,
      "ء": 330,
      "ا": 331,
      "ب": 332,
      "ة": 333,
      "ت": 334,
      "ث": 335,
      "ج": 336,
      "ح": 337,
      "خ": 338,
      "د": 339,
      "ذ": 340,
      "ر": 341,
      "ز": 342,
      "س": 343,
      "ش": 344,
      "ص": 345,
      "ض": 346,
      "ط": 347,
      "ظ": 348,
      "ع": 349,
      "غ": 350,
      "ـ": 351,
      "ف": 352,
      "ق": 353,
      "ك": 354,
      "ل": 355,
      "م": 356,
      "ن": 357,
      "ه": 358,
      "و": 359,
      "ى": 360,
      "ي": 361,
      "٠": 362,
      "١": 363,
      "٢": 364,
      "٣": 365,
      "٤": 366,
      "٥": 367,
      "٦": 368,
      "٧": 369,
      "٨": 370,
      "٩": 371,
      "٪": 372,
      "٬": 373,
      "ٱ": 374,
      "ٳ": 375,
      "ٴ": 376,
      "پ": 377,
      "ځ": 378,
      "څ": 379,
      "چ": 380,
      "ڏ": 381,
      "ڔ": 382,
      "ڕ": 383,
      "ژ": 384,
      "ڛ": 385,
      "ک": 386,
      "گ": 387,
      "ڰ": 388,
      "ڳ": 389,
      "ڷ": 390,
      "ھ": 391,
      "ڿ": 392,
      "ہ": 393,
      "ۃ": 394,
      "ۇ": 395,
      "ۈ": 396,
      "ی": 397,
      "ۍ": 398,
      "ۏ": 399,
      "۔": 400,
      "ە": 401,
      "۞": 402,
      "ۥ": 403,
      "ۦ": 404,
      "۩": 405,
      "۰": 406,
      "۱": 407,
      "۲": 408,
      "۳": 409,
      "۴": 410,
      "۵": 411,
      "۶": 412,
      "۷": 413,
      "۸": 414,
      "۹": 415,
      "ः": 416,
      "अ": 417,
      "आ": 418,
      "इ": 419,
      "ई": 420,
      "उ": 421,
      "ऊ": 422,
      "ऋ": 423,
      "ए": 424,
      "ऐ": 425,
      "ओ": 426,
      "औ": 427,
      "क": 428,
      "ख": 429,
      "ग": 430,
      "घ": 431,
      "ङ": 432,
      "च": 433,
      "छ": 434,
      "ज": 435,
      "झ": 436,
      "ञ": 437,
      "ट": 438,
      "ठ": 439,
      "ड": 440,
      "ढ": 441,
      "ण": 442,
      "त": 443,
      "थ": 444,
      "द": 445,
      "ध": 446,
      "न": 447,
      "प": 448,
      "फ": 449,
      "ब": 450,
      "भ": 451,
      "म": 452,
      "य": 453,
      "र": 454,
      "ल": 455,
      "व": 456,
      "श": 457,
      "ष": 458,
      "स": 459,
      "ह": 460,
      "ऽ": 461,
      "ा": 462,
      "ि": 463,
      "ी": 464,
      "ो": 465,
      "ौ": 466,
      "ॐ": 467,
      "ॠ": 468,
      "।": 469,
      "॥": 470,
      "०": 471,
      "१": 472,
      "२": 473,
      "३": 474,
      "४": 475,
      "५": 476,
      "६": 477,
      "७": 478,
      "८": 479,
      "९": 480,
      "ং": 481,
      "ঃ": 482,
      "অ": 483,
      "আ": 484,
      "ই": 485,
      "ঈ": 486,
      "উ": 487,
      "ঋ": 488,
      "এ": 489,
      "ঐ": 490,
      "ও": 491,
      "ঔ": 492,
      "ক": 493,
      "খ": 494,
      "গ": 495,
      "ঘ": 496,
      "ঙ": 497,
      "চ": 498,
      "ছ": 499,
      "জ": 500,
      "ঝ": 501,
      "ঞ": 502,
      "ট": 503,
      "ঠ": 504,
      "ড": 505,
      "ঢ": 506,
      "ণ": 507,
      "ত": 508,
      "থ": 509,
      "দ": 510,
      "ধ": 511,
      "ন": 512,
      "প": 513,
      "ফ": 514,
      "ব": 515,
      "ভ": 516,
      "ম": 517,
      "য": 518,
      "র": 519,
      "ল": 520,
      "শ": 521,
      "ষ": 522,
      "স": 523,
      "হ": 524,
      "া": 525,
      "ি": 526,
      "ী": 527,
      "ে": 528,
      "ৈ": 529,
      "ৎ": 530,
      "ৗ": 531,
      "০": 532,
      "১": 533,
      "২": 534,
      "৩": 535,
      "৪": 536,
      "৫": 537,
      "৬": 538,
      "৭": 539,
      "৮": 540,
      "৯": 541,
      "ਅ": 542,
      "ਈ": 543,
      "ਉ": 544,
      "ਕ": 545,
      "ਖ": 546,
      "ਗ": 547,
      "ਚ": 548,
      "ਜ": 549,
      "ਤ": 550,
      "ਥ": 551,
      "ਦ": 552,
      "ਧ": 553,
      "ਨ": 554,
      "ਪ": 555,
      "ਬ": 556,
      "ਭ": 557,
      "ਮ": 558,
      "ਰ": 559,
      "ਲ": 560,
      "ਸ": 561,
      "ਹ": 562,
      "ਾ": 563,
      "ਿ": 564,
      "ੀ": 565,
      "੧": 566,
      "੩": 567,
      "ஃ": 568,
      "அ": 569,
      "ஆ": 570,
      "இ": 571,
      "ஈ": 572,
      "உ": 573,
      "ஊ": 574,
      "எ": 575,
      "ஏ": 576,
      "ஐ": 577,
      "ஒ": 578,
      "ஓ": 579,
      "க": 580,
      "ங": 581,
      "ச": 582,
      "ஜ": 583,
      "ஞ": 584,
      "ட": 585,
      "ண": 586,
      "த": 587,
      "ந": 588,
      "ன": 589,
      "ப": 590,
      "ம": 591,
      "ய": 592,
      "ர": 593,
      "ற": 594,
      "ல": 595,
      "ள": 596,
      "ழ": 597,
      "வ": 598,
      "ஷ": 599,
      "ஸ": 600,
      "ா": 601,
      "ி": 602,
      "ு": 603,
      "ூ": 604,
      "ெ": 605,
      "ே": 606,
      "ை": 607,
      "ௗ": 608,
      "๛": 609,
      "༻": 610,
      "ခ": 611,
      "င": 612,
      "ဆ": 613,
      "န": 614,
      "ပ": 615,
      "သ": 616,
      "ါ": 617,
      "ာ": 618,
      "ေ": 619,
      "း": 620,
      "ᄃ": 621,
      "ᅠ": 622,
      "ᐯ": 623,
      "ᑌ": 624,
      "ᑎ": 625,
      "ᑕ": 626,
      "ᑭ": 627,
      "ᒍ": 628,
      "ᒪ": 629,
      "ᖴ": 630,
      "ᗩ": 631,
      "ᗪ": 632,
      "ᗰ": 633,
      "ᗷ": 634,
      "ᴼ": 635,
      "ᵒ": 636,
      "ᵛ": 637,
      "ᵦ": 638,
      "ᶜ": 639,
      "᾽": 640,
      "῾": 641,
      "‐": 642,
      "‑": 643,
      "‒": 644,
      "–": 645,
      "—": 646,
      "―": 647,
      "‖": 648,
      "‗": 649,
      "†": 650,
      "‡": 651,
      "•": 652,
      "‧": 653,
      "‰": 654,
      "‱": 655,
      "′": 656,
      "″": 657,
      "‴": 658,
      "‶": 659,
      "‹": 660,
      "›": 661,
      "※": 662,
      "‼": 663,
      "‽": 664,
      "‿": 665,
      "⁀": 666,
      "⁃": 667,
      "⁄": 668,
      "⁉": 669,
      "⁰": 670,
      "⁴": 671,
      "⁵": 672,
      "⁶": 673,
      "⁷": 674,
      "⁸": 675,
      "⁹": 676,
      "⁺": 677,
      "₀": 678,
      "₁": 679,
      "₂": 680,
      "₃": 681,
      "₄": 682,
      "₅": 683,
      "₆": 684,
      "₇": 685,
      "₉": 686,
      "₡": 687,
      "₣": 688,
      "₤": 689,
      "₦": 690,
      "₧": 691,
      "₪": 692,
      "€": 693,
      "₰": 694,
      "₱": 695,
      "₹": 696,
      "℃": 697,
      "℉": 698,
      "ℌ": 699,
      "ℎ": 700,
      "ℏ": 701,
      "ℓ": 702,
      "№": 703,
      "ℝ": 704,
      "™": 705,
      "⅓": 706,
      "⅔": 707,
      "⅖": 708,
      "⅘": 709,
      "⅛": 710,
      "⅞": 711,
      "ⅱ": 712,
      "ⅵ": 713,
      "ↄ": 714,
      "←": 715,
      "↑": 716,
      "→": 717,
      "↓": 718,
      "↔": 719,
      "↩": 720,
      "↵": 721,
      "⇐": 722,
      "⇒": 723,
      "⇓": 724,
      "⇔": 725,
      "⇝": 726,
      "⇧": 727,
      "⇪": 728,
      "∂": 729,
      "∅": 730,
      "∆": 731,
      "∈": 732,
      "∎": 733,
      "∏": 734,
      "∑": 735,
      "−": 736,
      "∓": 737,
      "∕": 738,
      "∗": 739,
      "∘": 740,
      "∙": 741,
      "√": 742,
      "∛": 743,
      "∝": 744,
      "∞": 745,
      "∟": 746,
      "∣": 747,
      "∧": 748,
      "∨": 749,
      "∩": 750,
      "∫": 751,
      "∴": 752,
      "∶": 753,
      "∼": 754,
      "≅": 755,
      "≈": 756,
      "≋": 757,
      "≎": 758,
      "≒": 759,
      "≡": 760,
      "≤": 761,
      "≥": 762,
      "≦": 763,
      "≧": 764,
      "≳": 765,
      "⊂": 766,
      "⊆": 767,
      "⊕": 768,
      "⊘": 769,
      "⊙": 770,
      "⊢": 771,
      "⊣": 772,
      "⋆": 773,
      "⋯": 774,
      "⌂": 775,
      "⌈": 776,
      "⌉": 777,
      "⌘": 778,
      "⍟": 779,
      "⍺": 780,
      "⎛": 781,
      "⎢": 782,
      "⎯": 783,
      "⏰": 784,
      "⏱": 785,
      "⏲": 786,
      "①": 787,
      "②": 788,
      "③": 789,
      "④": 790,
      "⑤": 791,
      "⑥": 792,
      "⑦": 793,
      "ⓐ": 794,
      "ⓒ": 795,
      "─": 796,
      "│": 797,
      "└": 798,
      "├": 799,
      "┥": 800,
      "┼": 801,
      "═": 802,
      "║": 803,
      "╖": 804,
      "╜": 805,
      "╟": 806,
      "╠": 807,
      "╣": 808,
      "╥": 809,
      "╦": 810,
      "╨": 811,
      "█": 812,
      "▌": 813,
      "■": 814,
      "□": 815,
      "▪": 816,
      "▫": 817,
      "▲": 818,
      "△": 819,
      "▶": 820,
      "▸": 821,
      "►": 822,
      "▻": 823,
      "▼": 824,
      "▽": 825,
      "◄": 826,
      "◅": 827,
      "◆": 828,
      "◇": 829,
      "◉": 830,
      "◊": 831,
      "○": 832,
      "◍": 833,
      "●": 834,
      "◐": 835,
      "◑": 836,
      "◙": 837,
      "◡": 838,
      "◦": 839,
      "☀": 840,
      "★": 841,
      "☆": 842,
      "☇": 843,
      "☉": 844,
      "☎": 845,
      "☐": 846,
      "☑": 847,
      "☔": 848,
      "☜": 849,
      "☝": 850,
      "☞": 851,
      "☠": 852,
      "☢": 853,
      "☣": 854,
      "☥": 855,
      "☪": 856,
      "☮": 857,
      "☯": 858,
      "☸": 859,
      "☹": 860,
      "☺": 861,
      "☻": 862,
      "☼": 863,
      "☽": 864,
      "☾": 865,
      "☿": 866,
      "♀": 867,
      "♂": 868,
      "♃": 869,
      "♄": 870,
      "♆": 871,
      "♈": 872,
      "♍": 873,
      "♏": 874,
      "♐": 875,
      "♑": 876,
      "♒": 877,
      "♔": 878,
      "♕": 879,
      "♚": 880,
      "♛": 881,
      "♜": 882,
      "♝": 883,
      "♞": 884,
      "♟": 885,
      "♠": 886,
      "♡": 887,
      "♣": 888,
      "♥": 889,
      "♦": 890,
      "♩": 891,
      "♪": 892,
      "♫": 893,
      "♬": 894,
      "⚛": 895,
      "⚜": 896,
      "⚡": 897,
      "⚧": 898,
      "⚾": 899,
      "⛄": 900,
      "⛴": 901,
      "✅": 902,
      "✈": 903,
      "✋": 904,
      "✍": 905,
      "✓": 906,
      "✔": 907,
      "✗": 908,
      "✘": 909,
      "✝": 910,
      "✞": 911,
      "✠": 912,
      "✡": 913,
      "✦": 914,
      "✧": 915,
      "✨": 916,
      "✩": 917,
      "✯": 918,
      "✰": 919,
      "❀": 920,
      "❁": 921,
      "❃": 922,
      "❄": 923,
      "❌": 924,
      "❎": 925,
      "❏": 926,
      "❑": 927,
      "❖": 928,
      "❛": 929,
      "❜": 930,
      "❝": 931,
      "❞": 932,
      "❤": 933,
      "❥": 934,
      "❦": 935,
      "➔": 936,
      "➜": 937,
      "➡": 938,
      "➢": 939,
      "➤": 940,
      "➳": 941,
      "➹": 942,
      "⟞": 943,
      "⧳": 944,
      "⩾": 945,
      "⭐": 946,
      "ⱥ": 947,
      "ⲅ": 948,
      "⸮": 949,
      "⺄": 950,
      "⺈": 951,
      "⺊": 952,
      "⺌": 953,
      "⺍": 954,
      "⺕": 955,
      "⺧": 956,
      "⺶": 957,
      "⺷": 958,
      "⺻": 959,
      "⺼": 960,
      "⻊": 961,
      "⻏": 962,
      "⻖": 963,
      "、": 964,
      "。": 965,
      "〈": 966,
      "〉": 967,
      "《": 968,
      "》": 969,
      "「": 970,
      "」": 971,
      "『": 972,
      "』": 973,
      "〜": 974,
      "〡": 975,
      "・": 976,
      "ヽ": 977,
      "ㄅ": 978,
      "㇀": 979,
      "㇂": 980,
      "㋛": 981,
      "㐂": 982,
      "㐆": 983,
      "㐫": 984,
      "㐬": 985,
      "㐭": 986,
      "㐮": 987,
      "㐱": 988,
      "㐴": 989,
      "㑄": 990,
      "㑅": 991,
      "㑒": 992,
      "㑦": 993,
      "㑨": 994,
      "㑪": 995,
      "㑹": 996,
      "㒒": 997,
      "㒼": 998,
      "㓁": 999,
      "㓇": 1000,
      "㓛": 1001,
      "㔟": 1002,
      "㔪": 1003,
      "㔬": 1004,
      "㔺": 1005,
      "㔾": 1006,
      "㕍": 1007,
      "㕚": 1008,
      "㕛": 1009,
      "㕜": 1010,
      "㕝": 1011,
      "㕞": 1012,
      "㕡": 1013,
      "㕣": 1014,
      "㕮": 1015,
      "㖦": 1016,
      "㖨": 1017,
      "㖾": 1018,
      "㗅": 1019,
      "㗈": 1020,
      "㗊": 1021,
      "㗋": 1022,
      "㗙": 1023,
      "㗚": 1024,
      "㗴": 1025,
      "㗿": 1026,
      "㘅": 1027,
      "㘩": 1028,
      "㘴": 1029,
      "㙊": 1030,
      "㙓": 1031,
      "㙕": 1032,
      "㙵": 1033,
      "㙹": 1034,
      "㚅": 1035,
      "㚇": 1036,
      "㚊": 1037,
      "㚍": 1038,
      "㚏": 1039,
      "㚑": 1040,
      "㚒": 1041,
      "㚔": 1042,
      "㚖": 1043,
      "㚘": 1044,
      "㚙": 1045,
      "㚢": 1046,
      "㚣": 1047,
      "㚥": 1048,
      "㚦": 1049,
      "㚳": 1050,
      "㚶": 1051,
      "㚷": 1052,
      "㚻": 1053,
      "㚼": 1054,
      "㛂": 1055,
      "㛍": 1056,
      "㛏": 1057,
      "㛑": 1058,
      "㛒": 1059,
      "㛕": 1060,
      "㛙": 1061,
      "㛚": 1062,
      "㛺": 1063,
      "㛻": 1064,
      "㛼": 1065,
      "㛾": 1066,
      "㝉": 1067,
      "㝊": 1068,
      "㝡": 1069,
      "㝢": 1070,
      "㝫": 1071,
      "㝬": 1072,
      "㝵": 1073,
      "㝶": 1074,
      "㝻": 1075,
      "㞁": 1076,
      "㞋": 1077,
      "㞍": 1078,
      "㞐": 1079,
      "㞑": 1080,
      "㞒": 1081,
      "㞓": 1082,
      "㞚": 1083,
      "㞞": 1084,
      "㞠": 1085,
      "㞡": 1086,
      "㞢": 1087,
      "㞧": 1088,
      "㞬": 1089,
      "㞵": 1090,
      "㞺": 1091,
      "㟁": 1092,
      "㟢": 1093,
      "㟨": 1094,
      "㟴": 1095,
      "㟽": 1096,
      "㠀": 1097,
      "㠪": 1098,
      "㠭": 1099,
      "㠮": 1100,
      "㠯": 1101,
      "㠱": 1102,
      "㠲": 1103,
      "㠶": 1104,
      "㠻": 1105,
      "㠾": 1106,
      "㡀": 1107,
      "㡜": 1108,
      "㡡": 1109,
      "㡣": 1110,
      "㡯": 1111,
      "㡰": 1112,
      "㡿": 1113,
      "㢂": 1114,
      "㢄": 1115,
      "㢟": 1116,
      "㢽": 1117,
      "㣉": 1118,
      "㣍": 1119,
      "㣏": 1120,
      "㣔": 1121,
      "㣯": 1122,
      "㣺": 1123,
      "㤗": 1124,
      "㤚": 1125,
      "㤟": 1126,
      "㤨": 1127,
      "㤻": 1128,
      "㤽": 1129,
      "㤿": 1130,
      "㥃": 1131,
      "㥆": 1132,
      "㥐": 1133,
      "㥡": 1134,
      "㥣": 1135,
      "㥯": 1136,
      "㥰": 1137,
      "㥾": 1138,
      "㦉": 1139,
      "㦊": 1140,
      "㦖": 1141,
      "㦤": 1142,
      "㦰": 1143,
      "㧈": 1144,
      "㧖": 1145,
      "㧗": 1146,
      "㨢": 1147,
      "㩇": 1148,
      "㩮": 1149,
      "㩳": 1150,
      "㪁": 1151,
      "㪅": 1152,
      "㫃": 1153,
      "㫕": 1154,
      "㫖": 1155,
      "㫗": 1156,
      "㫪": 1157,
      "㫷": 1158,
      "㫸": 1159,
      "㫺": 1160,
      "㬎": 1161,
      "㬚": 1162,
      "㬜": 1163,
      "㬝": 1164,
      "㬟": 1165,
      "㬢": 1166,
      "㬮": 1167,
      "㬵": 1168,
      "㬶": 1169,
      "㬸": 1170,
      "㭟": 1171,
      "㭭": 1172,
      "㭷": 1173,
      "㮇": 1174,
      "㮈": 1175,
      "㮍": 1176,
      "㮤": 1177,
      "㮶": 1178,
      "㯃": 1179,
      "㯍": 1180,
      "㯎": 1181,
      "㯰": 1182,
      "㰏": 1183,
      "㰦": 1184,
      "㱀": 1185,
      "㱒": 1186,
      "㱜": 1187,
      "㱸": 1188,
      "㱿": 1189,
      "㲂": 1190,
      "㲃": 1191,
      "㲇": 1192,
      "㲋": 1193,
      "㲺": 1194,
      "㳃": 1195,
      "㳒": 1196,
      "㳔": 1197,
      "㳙": 1198,
      "㴑": 1199,
      "㴞": 1200,
      "㵙": 1201,
      "㵤": 1202,
      "㷀": 1203,
      "㷔": 1204,
      "㸅": 1205,
      "㸿": 1206,
      "㹠": 1207,
      "㹦": 1208,
      "㹨": 1209,
      "㺃": 1210,
      "㺔": 1211,
      "㽗": 1212,
      "㽲": 1213,
      "㽵": 1214,
      "㽷": 1215,
      "㾏": 1216,
      "㾮": 1217,
      "㾯": 1218,
      "㿉": 1219,
      "㿗": 1220,
      "㿻": 1221,
      "䀎": 1222,
      "䀣": 1223,
      "䀹": 1224,
      "䁘": 1225,
      "䁧": 1226,
      "䁹": 1227,
      "䂐": 1228,
      "䂑": 1229,
      "䂓": 1230,
      "䄅": 1231,
      "䅈": 1232,
      "䅏": 1233,
      "䅣": 1234,
      "䆓": 1235,
      "䆴": 1236,
      "䆿": 1237,
      "䇂": 1238,
      "䇏": 1239,
      "䇦": 1240,
      "䇮": 1241,
      "䇳": 1242,
      "䈇": 1243,
      "䈎": 1244,
      "䉤": 1245,
      "䊵": 1246,
      "䋆": 1247,
      "䋎": 1248,
      "䋖": 1249,
      "䋝": 1250,
      "䋡": 1251,
      "䌂": 1252,
      "䌕": 1253,
      "䌟": 1254,
      "䌫": 1255,
      "䍃": 1256,
      "䍗": 1257,
      "䍧": 1258,
      "䍬": 1259,
      "䍰": 1260,
      "䍳": 1261,
      "䍷": 1262,
      "䍻": 1263,
      "䎹": 1264,
      "䏌": 1265,
      "䏍": 1266,
      "䏎": 1267,
      "䏏": 1268,
      "䏐": 1269,
      "䏠": 1270,
      "䏤": 1271,
      "䏮": 1272,
      "䏰": 1273,
      "䏶": 1274,
      "䏺": 1275,
      "䐃": 1276,
      "䐅": 1277,
      "䐇": 1278,
      "䐈": 1279,
      "䐉": 1280,
      "䐋": 1281,
      "䐌": 1282,
      "䐍": 1283,
      "䐖": 1284,
      "䐗": 1285,
      "䐜": 1286,
      "䐡": 1287,
      "䐢": 1288,
      "䐤": 1289,
      "䐥": 1290,
      "䐨": 1291,
      "䐩": 1292,
      "䐭": 1293,
      "䐵": 1294,
      "䑀": 1295,
      "䑉": 1296,
      "䑊": 1297,
      "䑓": 1298,
      "䑛": 1299,
      "䑲": 1300,
      "䑶": 1301,
      "䑺": 1302,
      "䒋": 1303,
      "䒍": 1304,
      "䒏": 1305,
      "䒐": 1306,
      "䒑": 1307,
      "䒭": 1308,
      "䒳": 1309,
      "䒶": 1310,
      "䒾": 1311,
      "䓔": 1312,
      "䔈": 1313,
      "䔍": 1314,
      "䔥": 1315,
      "䔬": 1316,
      "䕃": 1317,
      "䖝": 1318,
      "䖤": 1319,
      "䖧": 1320,
      "䖫": 1321,
      "䖵": 1322,
      "䖸": 1323,
      "䗖": 1324,
      "䗥": 1325,
      "䗪": 1326,
      "䘏": 1327,
      "䘒": 1328,
      "䘕": 1329,
      "䘮": 1330,
      "䘸": 1331,
      "䙁": 1332,
      "䙆": 1333,
      "䙒": 1334,
      "䙝": 1335,
      "䙥": 1336,
      "䙦": 1337,
      "䙮": 1338,
      "䙴": 1339,
      "䙵": 1340,
      "䚏": 1341,
      "䚗": 1342,
      "䚡": 1343,
      "䚯": 1344,
      "䚰": 1345,
      "䚼": 1346,
      "䛄": 1347,
      "䛇": 1348,
      "䛎": 1349,
      "䛏": 1350,
      "䛑": 1351,
      "䛙": 1352,
      "䛠": 1353,
      "䛷": 1354,
      "䛿": 1355,
      "䜋": 1356,
      "䜌": 1357,
      "䜞": 1358,
      "䜡": 1359,
      "䜭": 1360,
      "䜴": 1361,
      "䜵": 1362,
      "䜷": 1363,
      "䜸": 1364,
      "䜻": 1365,
      "䝂": 1366,
      "䝆": 1367,
      "䝇": 1368,
      "䝐": 1369,
      "䝤": 1370,
      "䝪": 1371,
      "䝿": 1372,
      "䞑": 1373,
      "䞙": 1374,
      "䟽": 1375,
      "䠑": 1376,
      "䠖": 1377,
      "䡀": 1378,
      "䡄": 1379,
      "䡎": 1380,
      "䢵": 1381,
      "䣊": 1382,
      "䤫": 1383,
      "䦌": 1384,
      "䦥": 1385,
      "䦫": 1386,
      "䦬": 1387,
      "䦯": 1388,
      "䦰": 1389,
      "䧧": 1390,
      "䧺": 1391,
      "䨄": 1392,
      "䨩": 1393,
      "䪏": 1394,
      "䪼": 1395,
      "䬻": 1396,
      "䭇": 1397,
      "䯂": 1398,
      "䯆": 1399,
      "䯊": 1400,
      "䯒": 1401,
      "䯛": 1402,
      "䯨": 1403,
      "䰗": 1404,
      "䰠": 1405,
      "䳄": 1406,
      "䳑": 1407,
      "䴇": 1408,
      "䵷": 1409,
      "ꜣ": 1410,
      "ꝩ": 1411,
      "ꞵ": 1412,
      "ꟷ": 1413,
      "﨏": 1414,
      "﨑": 1415,
      "﨓": 1416,
      "﨔": 1417,
      "﨟": 1418,
      "﨡": 1419,
      "﨤": 1420,
      "ﬠ": 1421,
      "ﭏ": 1422,
      "ﭘ": 1423,
      "ﭼ": 1424,
      "ﮔ": 1425,
      "ﮕ": 1426,
      "﴾": 1427,
      "﴿": 1428,
      "﷓": 1429,
      "ﷺ": 1430,
      "﹘": 1431,
      "ﺋ": 1432,
      "ﺎ": 1433,
      "ﺐ": 1434,
      "ﺑ": 1435,
      "ﺒ": 1436,
      "ﺖ": 1437,
      "ﺗ": 1438,
      "ﺘ": 1439,
      "ﺙ": 1440,
      "ﺛ": 1441,
      "ﺜ": 1442,
      "ﺟ": 1443,
      "ﺠ": 1444,
      "ﺢ": 1445,
      "ﺣ": 1446,
      "ﺤ": 1447,
      "ﺧ": 1448,
      "ﺨ": 1449,
      "ﺪ": 1450,
      "ﺬ": 1451,
      "ﺮ": 1452,
      "ﺰ": 1453,
      "ﺲ": 1454,
      "ﺳ": 1455,
      "ﺴ": 1456,
      "ﺶ": 1457,
      "ﺷ": 1458,
      "ﺸ": 1459,
      "ﺻ": 1460,
      "ﺼ": 1461,
      "ﺿ": 1462,
      "ﻀ": 1463,
      "ﻃ": 1464,
      "ﻄ": 1465,
      "ﻈ": 1466,
      "ﻊ": 1467,
      "ﻋ": 1468,
      "ﻌ": 1469,
      "ﻐ": 1470,
      "ﻓ": 1471,
      "ﻔ": 1472,
      "ﻖ": 1473,
      "ﻗ": 1474,
      "ﻘ": 1475,
      "ﻚ": 1476,
      "ﻛ": 1477,
      "ﻜ": 1478,
      "ﻞ": 1479,
      "ﻟ": 1480,
      "ﻠ": 1481,
      "ﻢ": 1482,
      "ﻣ": 1483,
      "ﻤ": 1484,
      "ﻦ": 1485,
      "ﻧ": 1486,
      "ﻨ": 1487,
      "ﻪ": 1488,
      "ﻫ": 1489,
      "ﻬ": 1490,
      "ﻮ": 1491,
      "ﻲ": 1492,
      "ﻳ": 1493,
      "ﻴ": 1494,
      "ﻻ": 1495,
      "ﻼ": 1496,
      "𐇲": 1497,
      "𝐻": 1498,
      "𝐿": 1499,
      "𝑃": 1500,
      "𝑓": 1501,
      "𝑔": 1502,
      "𝑖": 1503,
      "𝑧": 1504,
      "𝛑": 1505,
      "𝛼": 1506,
      "𝛾": 1507,
      "𝛿": 1508,
      "𝜶": 1509,
      "🃏": 1510,
      "🎁": 1511,
      "👇": 1512,
      "👊": 1513,
      "👦": 1514,
      "👧": 1515,
      "👨": 1516,
      "👩": 1517,
      "👰": 1518,
      "💍": 1519,
      "💜": 1520,
      "📚": 1521,
      "📮": 1522,
      "🔥": 1523,
      "😁": 1524,
      "😂": 1525,
      "😃": 1526,
      "😅": 1527,
      "😆": 1528,
      "😉": 1529,
      "😊": 1530,
      "😍": 1531,
      "😐": 1532,
      "😒": 1533,
      "😘": 1534,
      "😚": 1535,
      "😜": 1536,
      "😞": 1537,
      "😠": 1538,
      "😢": 1539,
      "😥": 1540,
      "😫": 1541,
      "😬": 1542,
      "😱": 1543,
      "😲": 1544,
      "😳": 1545,
      "🙁": 1546,
      "🙂": 1547,
      "🙃": 1548,
      "🙏": 1549,
      "🤵": 1550,
      "𠂉": 1551,
      "𠂢": 1552,
      "𠂤": 1553,
      "𠆢": 1554,
      "𠌫": 1555,
      "𠍱": 1556,
      "𠎁": 1557,
      "𠏹": 1558,
      "𠑊": 1559,
      "𠔉": 1560,
      "𠗖": 1561,
      "𠘨": 1562,
      "𠝏": 1563,
      "𠠇": 1564,
      "𠠺": 1565,
      "𠢹": 1566,
      "𠥼": 1567,
      "𠦝": 1568,
      "𠫓": 1569,
      "𠫔": 1570,
      "𠬝": 1571,
      "𠮟": 1572,
      "𠵅": 1573,
      "𠷡": 1574,
      "𠹤": 1575,
      "𠹭": 1576,
      "𠺕": 1577,
      "𠽟": 1578,
      "𡈁": 1579,
      "𡈽": 1580,
      "𡉕": 1581,
      "𡉴": 1582,
      "𡉻": 1583,
      "𡋗": 1584,
      "𡋤": 1585,
      "𡋽": 1586,
      "𡌛": 1587,
      "𡌶": 1588,
      "𡍄": 1589,
      "𡏄": 1590,
      "𡑭": 1591,
      "𡑮": 1592,
      "𡗗": 1593,
      "𡙇": 1594,
      "𡚴": 1595,
      "𡜆": 1596,
      "𡝂": 1597,
      "𡢽": 1598,
      "𡧃": 1599,
      "𡱖": 1600,
      "𡴭": 1601,
      "𡵅": 1602,
      "𡵢": 1603,
      "𡵸": 1604,
      "𡶒": 1605,
      "𡶜": 1606,
      "𡶡": 1607,
      "𡶷": 1608,
      "𡷠": 1609,
      "𡸳": 1610,
      "𡸴": 1611,
      "𡼞": 1612,
      "𡽶": 1613,
      "𡿺": 1614,
      "𢅻": 1615,
      "𢌞": 1616,
      "𢎭": 1617,
      "𢛳": 1618,
      "𢡛": 1619,
      "𢢫": 1620,
      "𢦏": 1621,
      "𢪸": 1622,
      "𢭆": 1623,
      "𢭏": 1624,
      "𢭐": 1625,
      "𢮦": 1626,
      "𢰝": 1627,
      "𢰤": 1628,
      "𢷡": 1629,
      "𣆶": 1630,
      "𣇃": 1631,
      "𣇄": 1632,
      "𣇵": 1633,
      "𣍲": 1634,
      "𣏐": 1635,
      "𣏒": 1636,
      "𣏓": 1637,
      "𣏕": 1638,
      "𣏚": 1639,
      "𣏟": 1640,
      "𣏤": 1641,
      "𣑊": 1642,
      "𣑋": 1643,
      "𣑑": 1644,
      "𣑥": 1645,
      "𣓤": 1646,
      "𣕚": 1647,
      "𣖔": 1648,
      "𣗄": 1649,
      "𣘸": 1650,
      "𣘹": 1651,
      "𣘺": 1652,
      "𣙇": 1653,
      "𣜌": 1654,
      "𣜜": 1655,
      "𣜿": 1656,
      "𣝣": 1657,
      "𣝤": 1658,
      "𣟧": 1659,
      "𣟿": 1660,
      "𣠤": 1661,
      "𣪘": 1662,
      "𣱿": 1663,
      "𣳾": 1664,
      "𣴀": 1665,
      "𣴎": 1666,
      "𣵀": 1667,
      "𣷓": 1668,
      "𣷹": 1669,
      "𣷺": 1670,
      "𣽾": 1671,
      "𤂖": 1672,
      "𤄃": 1673,
      "𤇆": 1674,
      "𤇾": 1675,
      "𤎼": 1676,
      "𤘩": 1677,
      "𤚥": 1678,
      "𤟱": 1679,
      "𤢖": 1680,
      "𤩍": 1681,
      "𤭖": 1682,
      "𤭯": 1683,
      "𤰖": 1684,
      "𤴔": 1685,
      "𤸎": 1686,
      "𤸷": 1687,
      "𤹪": 1688,
      "𤺋": 1689,
      "𥁊": 1690,
      "𥁕": 1691,
      "𥄢": 1692,
      "𥆩": 1693,
      "𥇍": 1694,
      "𥇥": 1695,
      "𥈞": 1696,
      "𥉌": 1697,
      "𥐮": 1698,
      "𥒎": 1699,
      "𥓙": 1700,
      "𥔎": 1701,
      "𥖧": 1702,
      "𥝱": 1703,
      "𥞩": 1704,
      "𥞴": 1705,
      "𥧄": 1706,
      "𥧔": 1707,
      "𥫣": 1708,
      "𥫤": 1709,
      "𥫱": 1710,
      "𥮲": 1711,
      "𥱋": 1712,
      "𥱤": 1713,
      "𥶡": 1714,
      "𥸮": 1715,
      "𥹖": 1716,
      "𥹢": 1717,
      "𥹥": 1718,
      "𥻂": 1719,
      "𥻘": 1720,
      "𥻨": 1721,
      "𥼣": 1722,
      "𥽜": 1723,
      "𥿔": 1724,
      "𥿠": 1725,
      "𥿻": 1726,
      "𦀌": 1727,
      "𦀗": 1728,
      "𦁠": 1729,
      "𦃭": 1730,
      "𦉰": 1731,
      "𦊆": 1732,
      "𦍌": 1733,
      "𦐂": 1734,
      "𦙾": 1735,
      "𦚰": 1736,
      "𦜝": 1737,
      "𦣝": 1738,
      "𦣪": 1739,
      "𦥑": 1740,
      "𦥯": 1741,
      "𦧝": 1742,
      "𦨞": 1743,
      "𦩘": 1744,
      "𦪌": 1745,
      "𦪷": 1746,
      "𦫿": 1747,
      "𦰩": 1748,
      "𦱳": 1749,
      "𦳝": 1750,
      "𦹀": 1751,
      "𦹥": 1752,
      "𦾔": 1753,
      "𦿶": 1754,
      "𦿷": 1755,
      "𦿸": 1756,
      "𧃴": 1757,
      "𧄍": 1758,
      "𧄹": 1759,
      "𧏚": 1760,
      "𧏛": 1761,
      "𧏾": 1762,
      "𧐐": 1763,
      "𧑉": 1764,
      "𧘔": 1765,
      "𧘕": 1766,
      "𧘱": 1767,
      "𧚄": 1768,
      "𧚓": 1769,
      "𧜎": 1770,
      "𧜣": 1771,
      "𧝒": 1772,
      "𧦅": 1773,
      "𧪄": 1774,
      "𧮳": 1775,
      "𧮾": 1776,
      "𧯇": 1777,
      "𧲸": 1778,
      "𧶠": 1779,
      "𧸐": 1780,
      "𧾷": 1781,
      "𨂊": 1782,
      "𨂻": 1783,
      "𨉷": 1784,
      "𨊂": 1785,
      "𨋳": 1786,
      "𨏍": 1787,
      "𨐌": 1788,
      "𨑕": 1789,
      "𨕫": 1790,
      "𨗈": 1791,
      "𨗉": 1792,
      "𨛗": 1793,
      "𨛺": 1794,
      "𨥆": 1795,
      "𨥉": 1796,
      "𨥫": 1797,
      "𨦇": 1798,
      "𨦈": 1799,
      "𨦺": 1800,
      "𨦻": 1801,
      "𨨞": 1802,
      "𨨩": 1803,
      "𨩃": 1804,
      "𨩱": 1805,
      "𨪙": 1806,
      "𨫍": 1807,
      "𨫝": 1808,
      "𨫤": 1809,
      "𨯁": 1810,
      "𨯯": 1811,
      "𨴐": 1812,
      "𨵱": 1813,
      "𨷻": 1814,
      "𨸟": 1815,
      "𨸶": 1816,
      "𨺉": 1817,
      "𨻫": 1818,
      "𨼲": 1819,
      "𨿸": 1820,
      "𩊠": 1821,
      "𩊱": 1822,
      "𩒐": 1823,
      "𩗏": 1824,
      "𩙿": 1825,
      "𩛰": 1826,
      "𩜙": 1827,
      "𩝐": 1828,
      "𩣆": 1829,
      "𩩲": 1830,
      "𩷛": 1831,
      "𩸕": 1832,
      "𩸽": 1833,
      "𩹉": 1834,
      "𩺊": 1835,
      "𩻄": 1836,
      "𩻛": 1837,
      "𩻩": 1838,
      "𩿎": 1839,
      "𪀚": 1840,
      "𪀯": 1841,
      "𪂂": 1842,
      "𪃹": 1843,
      "𪆐": 1844,
      "𪎌": 1845,
      "𪐷": 1846,
      "𪗱": 1847,
      "𪘂": 1848,
      "𪘚": 1849,
      "𪚲": 1850,
      "##a": 1851,
      "##l": 1852,
      "##e": 1853,
      "##c": 1854,
      "##t": 1855,
      "##s": 1856,
      "##w": 1857,
      "##r": 1858,
      "##i": 1859,
      "##n": 1860,
      "##o": 1861,
      "##f": 1862,
      "##j": 1863,
      "##5": 1864,
      "##0": 1865,
      "##2": 1866,
      "##h": 1867,
      "##9": 1868,
      "##4": 1869,
      "##u": 1870,
      "##m": 1871,
      "##d": 1872,
      "##y": 1873,
      "##k": 1874,
      "##g": 1875,
      "##v": 1876,
      "##ı": 1877,
      "##b": 1878,
      "##p": 1879,
      "##z": 1880,
      "##q": 1881,
      "##р": 1882,
      "##о": 1883,
      "##д": 1884,
      "##е": 1885,
      "##л": 1886,
      "##а": 1887,
      "##и": 1888,
      "##3": 1889,
      "##ا": 1890,
      "##م": 1891,
      "##ه": 1892,
      "##6": 1893,
      "##7": 1894,
      "##x": 1895,
      "##п": 1896,
      "##т": 1897,
      "##ண": 1898,
      "##ட": 1899,
      "##ா": 1900,
      "##க": 1901,
      "##ி": 1902,
      "##ய": 1903,
      "##வ": 1904,
      "##ர": 1905,
      "##ம": 1906,
      "##य": 1907,
      "##ा": 1908,
      "##प": 1909,
      "##क": 1910,
      "##र": 1911,
      "##у": 1912,
      "##з": 1913,
      "##1": 1914,
      "##ை": 1915,
      "##ன": 1916,
      "##ে": 1917,
      "##ল": 1918,
      "##ள": 1919,
      "##ற": 1920,
      "##ு": 1921,
      "##м": 1922,
      "##த": 1923,
      "##8": 1924,
      "##н": 1925,
      "##с": 1926,
      "##ч": 1927,
      "##ы": 1928,
      "##х": 1929,
      "##і": 1930,
      "##к": 1931,
      "##ع": 1932,
      "##ت": 1933,
      "##ى": 1934,
      "##ү": 1935,
      "##ң": 1936,
      "##δ": 1937,
      "##ω": 1938,
      "##σ": 1939,
      "##ε": 1940,
      "##ல": 1941,
      "##ł": 1942,
      "##α": 1943,
      "##ס": 1944,
      "##ק": 1945,
      "##°": 1946,
      "##β": 1947,
      "##г": 1948,
      "##ө": 1949,
      "##μ": 1950,
      "##ә": 1951,
      "##ш": 1952,
      "##б": 1953,
      "##в": 1954,
      "##ь": 1955,
      "##ப": 1956,
      "##ə": 1957,
      "##ұ": 1958,
      "##ғ": 1959,
      "##ж": 1960,
      "##ο": 1961,
      "##ν": 1962,
      "##τ": 1963,
      "##ι": 1964,
      "##υ": 1965,
      "##ψ": 1966,
      "##λ": 1967,
      "##η": 1968,
      "##γ": 1969,
      "##چ": 1970,
      "##ش": 1971,
      "##ی": 1972,
      "##د": 1973,
      "##ن": 1974,
      "##ф": 1975,
      "##њ": 1976,
      "##´": 1977,
      "##ъ": 1978,
      "##я": 1979,
      "##श": 1980,
      "##ी": 1981,
      "##त": 1982,
      "##ि": 1983,
      "##च": 1984,
      "##व": 1985,
      "##স": 1986,
      "##ি": 1987,
      "##ক": 1988,
      "##া": 1989,
      "##đ": 1990,
      "##ب": 1991,
      "##ٱ": 1992,
      "##ل": 1993,
      "##ر": 1994,
      "##ص": 1995,
      "##ي": 1996,
      "##س": 1997,
      "##غ": 1998,
      "##ف": 1999,
      "##و": 2000,
      "##ρ": 2001,
      "##ς": 2002,
      "##қ": 2003,
      "##ك": 2004,
      "##ـ": 2005,
      "##ত": 2006,
      "##র": 2007,
      "##ங": 2008,
      "##ю": 2009,
      "##১": 2010,
      "##ெ": 2011,
      "##ة": 2012,
      "##π": 2013,
      "##گ": 2014,
      "##ɡ": 2015,
      "##ق": 2016,
      "##ே": 2017,
      "##ழ": 2018,
      "##न": 2019,
      "##ħ": 2020,
      "##ح": 2021,
      "##ذ": 2022,
      "##ந": 2023,
      "##ز": 2024,
      "##ک": 2025,
      "##ج": 2026,
      "##ध": 2027,
      "##ग": 2028,
      "##म": 2029,
      "##स": 2030,
      "##ण": 2031,
      "##ß": 2032,
      "##щ": 2033,
      "##±": 2034,
      "##י": 2035,
      "##מ": 2036,
      "##ל": 2037,
      "##κ": 2038,
      "##خ": 2039,
      "##©": 2040,
      "##ҳ": 2041,
      "##ন": 2042,
      "##ष": 2043,
      "##ो": 2044,
      "##ע": 2045,
      "##ו": 2046,
      "##ط": 2047,
      "##۳": 2048,
      "##۹": 2049,
      "##۶": 2050,
      "##ξ": 2051,
      "##ल": 2052,
      "##ও": 2053,
      "##ठ": 2054,
      "##æ": 2055,
      "##ض": 2056,
      "##জ": 2057,
      "##ச": 2058,
      "##ц": 2059,
      "##¬": 2060,
      "##ѕ": 2061,
      "##¹": 2062,
      "##€": 2063,
      "##﷓": 2064,
      "##ء": 2065,
      "##œ": 2066,
      "##ই": 2067,
      "##®": 2068,
      "##ह": 2069,
      "##ר": 2070,
      "##ח": 2071,
      "##ब": 2072,
      "##भ": 2073,
      "##א": 2074,
      "##ת": 2075,
      "##э": 2076,
      "##ם": 2077,
      "##≥": 2078,
      "##द": 2079,
      "##ऽ": 2080,
      "##φ": 2081,
      "##ב": 2082,
      "##þ": 2083,
      "##ூ": 2084,
      "##ϸ": 2085,
      "##♥": 2086,
      "##ה": 2087,
      "##ম": 2088,
      "##চ": 2089,
      "##দ": 2090,
      "##খ": 2091,
      "##ז": 2092,
      "##ث": 2093,
      "##ञ": 2094,
      "##ः": 2095,
      "##ζ": 2096,
      "##গ": 2097,
      "##ট": 2098,
      "##×": 2099,
      "##फ": 2100,
      "##™": 2101,
      "##פ": 2102,
      "##ধ": 2103,
      "##য": 2104,
      "##ষ": 2105,
      "##χ": 2106,
      "##அ": 2107,
      "##θ": 2108,
      "##ظ": 2109,
      "##ज": 2110,
      "##−": 2111,
      "##হ": 2112,
      "##ব": 2113,
      "##ী": 2114,
      "##ﺎ": 2115,
      "##ﻣ": 2116,
      "##ﻨ": 2117,
      "##ﺪ": 2118,
      "##כ": 2119,
      "##ौ": 2120,
      "##∆": 2121,
      "##ङ": 2122,
      "##ט": 2123,
      "##ן": 2124,
      "##ड": 2125,
      "##ø": 2126,
      "##נ": 2127,
      "##˚": 2128,
      "##শ": 2129,
      "##প": 2130,
      "##ד": 2131,
      "##צ": 2132,
      "##ﻮ": 2133,
      "##ۥ": 2134,
      "##ש": 2135,
      "##ۦ": 2136,
      "##᾽": 2137,
      "##ঠ": 2138,
      "##є": 2139,
      "##ভ": 2140,
      "##ছ": 2141,
      "##ஞ": 2142,
      "##ख": 2143,
      "##இ": 2144,
      "##²": 2145,
      "##ণ": 2146,
      "##१": 2147,
      "##→": 2148,
      "##थ": 2149,
      "##ৗ": 2150,
      "##ড": 2151,
      "##ट": 2152,
      "##ð": 2153,
      "##আ": 2154,
      "##ג": 2155,
      "##ˈ": 2156,
      "##ˌ": 2157,
      "##ஃ": 2158,
      "##¯": 2159,
      "##ː": 2160,
      "##¨": 2161,
      "##⁄": 2162,
      "##ʹ": 2163,
      "##پ": 2164,
      "##¥": 2165,
      "##உ": 2166,
      "##থ": 2167,
      "##µ": 2168,
      "##һ": 2169,
      "##─": 2170,
      "##ঞ": 2171,
      "##आ": 2172,
      "##№": 2173,
      "##ফ": 2174,
      "##٠": 2175,
      "##١": 2176,
      "##٨": 2177,
      "##৫": 2178,
      "##ژ": 2179,
      "##○": 2180,
      "##ং": 2181,
      "##½": 2182,
      "##𝑃": 2183,
      "##ף": 2184,
      "##ﺮ": 2185,
      "##ﺳ": 2186,
      "##►": 2187,
      "##ھ": 2188,
      "##¤": 2189,
      "##≤": 2190,
      "##छ": 2191,
      "##۵": 2192,
      "##۷": 2193,
      "##ஈ": 2194,
      "##º": 2195,
      "##ª": 2196,
      "##ஒ": 2197,
      "##◄": 2198,
      "##ґ": 2199,
      "##७": 2200,
      "##¸": 2201,
      "##£": 2202,
      "##ך": 2203,
      "##ৈ": 2204,
      "##۰": 2205,
      "##✝": 2206,
      "##△": 2207,
      "##ஜ": 2208,
      "##◊": 2209,
      "##³": 2210,
      "##⁴": 2211,
      "##😒": 2212,
      "##😠": 2213,
      "##ﻼ": 2214,
      "##ﻳ": 2215,
      "##ﻢ": 2216,
      "##ﻄ": 2217,
      "##ﺑ": 2218,
      "##ﻖ": 2219,
      "##ʃ": 2220,
      "##ɛ": 2221,
      "##ʊ": 2222,
      "##◦": 2223,
      "##ﻧ": 2224,
      "##ﻲ": 2225,
      "##ە": 2226,
      "##ﺢ": 2227,
      "##∂": 2228,
      "##ʿ": 2229,
      "##¾": 2230,
      "##ᵒ": 2231,
      "##०": 2232,
      "##घ": 2233,
      "##⎯": 2234,
      "##٤": 2235,
      "##ȝ": 2236,
      "##ј": 2237,
      "##█": 2238,
      "##ˆ": 2239,
      "##≈": 2240,
      "##ǝ": 2241,
      "##ओ": 2242,
      "##۱": 2243,
      "##۲": 2244,
      "##☺": 2245,
      "##⁵": 2246,
      "##ढ": 2247,
      "##⁹": 2248,
      "##ᖴ": 2249,
      "##۴": 2250,
      "##ஆ": 2251,
      "##★": 2252,
      "##✨": 2253,
      "##எ": 2254,
      "##℃": 2255,
      "##ঙ": 2256,
      "##¢": 2257,
      "##ڷ": 2258,
      "##ڔ": 2259,
      "##ڳ": 2260,
      "##⎛": 2261,
      "##ſ": 2262,
      "##ए": 2263,
      "##ϝ": 2264,
      "##⁰": 2265,
      "##ٳ": 2266,
      "##÷": 2267,
      "##ई": 2268,
      "##ﻤ": 2269,
      "##ڏ": 2270,
      "##৯": 2271,
      "##☹": 2272,
      "##৮": 2273,
      "##৭": 2274,
      "##০": 2275,
      "##ஏ": 2276,
      "##ץ": 2277,
      "##উ": 2278,
      "##ԛ": 2279,
      "##ﺤ": 2280,
      "##ﻘ": 2281,
      "##ﻴ": 2282,
      "##ﺴ": 2283,
      "##ﺘ": 2284,
      "##ﻞ": 2285,
      "##₦": 2286,
      "##₡": 2287,
      "##┼": 2288,
      "##љ": 2289,
      "##ঃ": 2290,
      "##₪": 2291,
      "##ɮ": 2292,
      "##٩": 2293,
      "##٢": 2294,
      "##¼": 2295,
      "##२": 2296,
      "##⅔": 2297,
      "##ɸ": 2298,
      "##५": 2299,
      "##ۃ": 2300,
      "##☠": 2301,
      "##ہ": 2302,
      "##င": 2303,
      "##း": 2304,
      "##ပ": 2305,
      "##န": 2306,
      "##९": 2307,
      "##↓": 2308,
      "##♫": 2309,
      "##८": 2310,
      "##ٴ": 2311,
      "##ƒ": 2312,
      "##□": 2313,
      "##ʌ": 2314,
      "##ɪ": 2315,
      "##←": 2316,
      "##৪": 2317,
      "##∞": 2318,
      "##ௗ": 2319,
      "##ঘ": 2320,
      "##ஸ": 2321,
      "##ﺒ": 2322,
      "##ﻊ": 2323,
      "##ʻ": 2324,
      "##⋯": 2325,
      "##ɣ": 2326,
      "##ﻓ": 2327,
      "##ﺗ": 2328,
      "##৬": 2329,
      "##ɔ": 2330,
      "##ʤ": 2331,
      "##΄": 2332,
      "##╥": 2333,
      "##৩": 2334,
      "##ʾ": 2335,
      "##ﺣ": 2336,
      "##ﻜ": 2337,
      "##ਹ": 2338,
      "##ਾ": 2339,
      "##ਉ": 2340,
      "##∫": 2341,
      "##ɨ": 2342,
      "##ஐ": 2343,
      "##ʒ": 2344,
      "##⁶": 2345,
      "##ৎ": 2346,
      "##ǁ": 2347,
      "##😱": 2348,
      "##🔥": 2349,
      "##ᴼ": 2350,
      "##ﻈ": 2351,
      "##♐": 2352,
      "##ℓ": 2353,
      "##ਖ": 2354,
      "##ਨ": 2355,
      "##∓": 2356,
      "##˝": 2357,
      "##३": 2358,
      "##ਤ": 2359,
      "##ਿ": 2360,
      "##ਗ": 2361,
      "##ਰ": 2362,
      "##۩": 2363,
      "##ɂ": 2364,
      "##♒": 2365,
      "##˙": 2366,
      "##ꝩ": 2367,
      "##𝜶": 2368,
      "##☆": 2369,
      "##ﻻ": 2370,
      "##●": 2371,
      "##₧": 2372,
      "##ᗰ": 2373,
      "##ᗩ": 2374,
      "##ﻪ": 2375,
      "##🤵": 2376,
      "##💍": 2377,
      "##ਪ": 2378,
      "##ਦ": 2379,
      "##ਸ": 2380,
      "##ਮ": 2381,
      "##६": 2382,
      "##⅓": 2383,
      "##ঝ": 2384,
      "##∈": 2385,
      "##⭐": 2386,
      "##˴": 2387,
      "##♣": 2388,
      "##♂": 2389,
      "##👩": 2390,
      "##👧": 2391,
      "##👦": 2392,
      "##②": 2393,
      "##ꟷ": 2394,
      "##₃": 2395,
      "##۸": 2396,
      "##✔": 2397,
      "##झ": 2398,
      "##ﺼ": 2399,
      "##ﺖ": 2400,
      "##❤": 2401,
      "##═": 2402,
      "##╦": 2403,
      "##⁷": 2404,
      "##ﺠ": 2405,
      "##¦": 2406,
      "##①": 2407,
      "##│": 2408,
      "##ʎ": 2409,
      "##ɟ": 2410,
      "##ɯ": 2411,
      "##٧": 2412,
      "##ऊ": 2413,
      "##џ": 2414,
      "##∗": 2415,
      "##٦": 2416,
      "##ϕ": 2417,
      "##ﻀ": 2418,
      "##ﺋ": 2419,
      "##ᵦ": 2420,
      "##ﺟ": 2421,
      "##↑": 2422,
      "##⊢": 2423,
      "##⅛": 2424,
      "##♠": 2425,
      "##₂": 2426,
      "##ﻌ": 2427,
      "##♪": 2428,
      "##₅": 2429,
      "##₀": 2430,
      "##■": 2431,
      "##ɳ": 2432,
      "##ﻗ": 2433,
      "##₄": 2434,
      "##⁸": 2435,
      "##≧": 2436,
      "##♀": 2437,
      "##∣": 2438,
      "##ஓ": 2439,
      "##⁺": 2440,
      "##ਬ": 2441,
      "##४": 2442,
      "##ɓ": 2443,
      "##ﺸ": 2444,
      "##ﮕ": 2445,
      "##ɵ": 2446,
      "##ƴ": 2447,
      "##ĸ": 2448,
      "##ﺨ": 2449,
      "##ੀ": 2450,
      "##ஷ": 2451,
      "##ᒪ": 2452,
      "##ᑕ": 2453,
      "##ᒍ": 2454,
      "##ᑭ": 2455,
      "##ᗪ": 2456,
      "##ᐯ": 2457,
      "##√": 2458,
      "##₤": 2459,
      "##҉": 2460,
      "##˜": 2461,
      "##♏": 2462,
      "##ਈ": 2463,
      "##▼": 2464,
      "##ᑎ": 2465,
      "##ˉ": 2466,
      "##♦": 2467,
      "##ћ": 2468,
      "##ﻬ": 2469,
      "##ɑ": 2470,
      "##♔": 2471,
      "##ஊ": 2472,
      "##ᵛ": 2473,
      "##٥": 2474,
      "##☼": 2475,
      "##ҫ": 2476,
      "##इ": 2477,
      "##⛴": 2478,
      "##ڿ": 2479,
      "##ڰ": 2480,
      "##ﮔ": 2481,
      "##ﻫ": 2482,
      "##ﺷ": 2483,
      "##২": 2484,
      "##❀": 2485,
      "##ਕ": 2486,
      "##◅": 2487,
      "##⊙": 2488,
      "##▻": 2489,
      "##ŧ": 2490,
      "##▽": 2491,
      "##℉": 2492,
      "##♍": 2493,
      "##ﻛ": 2494,
      "##ﺰ": 2495,
      "##ϒ": 2496,
      "##∩": 2497,
      "##٣": 2498,
      "##║": 2499,
      "##▌": 2500,
      "##۞": 2501,
      "##ђ": 2502,
      "##ﻋ": 2503,
      "##ﻦ": 2504,
      "##ਧ": 2505,
      "##ﻠ": 2506,
      "##ﺐ": 2507,
      "##⊘": 2508,
      "##▲": 2509,
      "##╜": 2510,
      "##₱": 2511,
      "##𝐻": 2512,
      "##𝑧": 2513,
      "##ѵ": 2514,
      "##ɹ": 2515,
      "##𝐿": 2516,
      "##✯": 2517,
      "##∕": 2518,
      "##☣": 2519,
      "##ˀ": 2520,
      "##ϛ": 2521,
      "##ਥ": 2522,
      "##ŋ": 2523,
      "##ﻐ": 2524,
      "##ۈ": 2525,
      "##ﺬ": 2526,
      "##ȼ": 2527,
      "##∙": 2528,
      "##≋": 2529,
      "##❃": 2530,
      "##∘": 2531,
      "##ﻟ": 2532,
      "##এ": 2533,
      "##╖": 2534,
      "##ℏ": 2535,
      "##ﺧ": 2536,
      "##ﺻ": 2537,
      "##ਜ": 2538,
      "##⇒": 2539,
      "##ﺛ": 2540,
      "##ﻔ": 2541,
      "##ۍ": 2542,
      "##ڕ": 2543,
      "##अ": 2544,
      "##₇": 2545,
      "##₉": 2546,
      "##₆": 2547,
      "##₁": 2548,
      "##♑": 2549,
      "##ɩ": 2550,
      "##📚": 2551,
      "##ʧ": 2552,
      "##ﺙ": 2553,
      "##☞": 2554,
      "##☜": 2555,
      "##˂": 2556,
      "##ᶜ": 2557,
      "##ɐ": 2558,
      "##ɥ": 2559,
      "##ځ": 2560,
      "##ﺜ": 2561,
      "##⍺": 2562,
      "##ﭏ": 2563,
      "##😂": 2564,
      "##❖": 2565,
      "##🙁": 2566,
      "##ɽ": 2567,
      "##ʲ": 2568,
      "##✩": 2569,
      "##ਭ": 2570,
      "##ﻚ": 2571,
      "##ⅱ": 2572,
      "##ေ": 2573,
      "##ါ": 2574,
      "##ဆ": 2575,
      "##ာ": 2576,
      "##သ": 2577,
      "##∼": 2578,
      "##ʔ": 2579,
      "##⟞": 2580,
      "##ۇ": 2581,
      "##औ": 2582,
      "##🙂": 2583,
      "##˃": 2584,
      "##☢": 2585,
      "##ӈ": 2586,
      "##④": 2587,
      "##څ": 2588,
      "##ਲ": 2589,
      "##ƶ": 2590,
      "##ⱥ": 2591,
      "##ɏ": 2592,
      "##✧": 2593,
      "##⋆": 2594,
      "##😐": 2595,
      "##ﺶ": 2596,
      "##उ": 2597,
      "##ʷ": 2598,
      "##ˤ": 2599,
      "##ਚ": 2600,
      "##ƚ": 2601,
      "##ƈ": 2602,
      "##└": 2603,
      "##≒": 2604,
      "##ʽ": 2605,
      "##ˇ": 2606,
      "##ﺲ": 2607,
      "##⌂": 2608,
      "th": 2609,
      "the": 2610,
      "##er": 2611,
      "##in": 2612,
      "##ed": 2613,
      "##nd": 2614,
      "##ou": 2615,
      "##at": 2616,
      "##ing": 2617,
      "to": 2618,
      "##en": 2619,
      "##or": 2620,
      "##on": 2621,
      "##es": 2622,
      "and": 2623,
      "##ar": 2624,
      "##is": 2625,
      "##an": 2626,
      "##ll": 2627,
      "##as": 2628,
      "of": 2629,
      "##it": 2630,
      "in": 2631,
      "##re": 2632,
      "he": 2633,
      "##om": 2634,
      "be": 2635,
      "you": 2636,
      "sh": 2637,
      "ha": 2638,
      "##ow": 2639,
      "##le": 2640,
      "wh": 2641,
      "##ut": 2642,
      "##ot": 2643,
      "##id": 2644,
      "##ic": 2645,
      "it": 2646,
      "##et": 2647,
      "##ac": 2648,
      "##ld": 2649,
      "was": 2650,
      "on": 2651,
      "##al": 2652,
      "##gh": 2653,
      "##ve": 2654,
      "that": 2655,
      "st": 2656,
      "##ly": 2657,
      "her": 2658,
      "##st": 2659,
      "##ay": 2660,
      "re": 2661,
      "##im": 2662,
      "##ion": 2663,
      "##ent": 2664,
      "##se": 2665,
      "as": 2666,
      "for": 2667,
      "##ur": 2668,
      "his": 2669,
      "##ir": 2670,
      "she": 2671,
      "##ith": 2672,
      "##ad": 2673,
      "##ver": 2674,
      "with": 2675,
      "##oo": 2676,
      "an": 2677,
      "##ght": 2678,
      "we": 2679,
      "##am": 2680,
      "is": 2681,
      "##ould": 2682,
      "##ch": 2683,
      "me": 2684,
      "at": 2685,
      "li": 2686,
      "fr": 2687,
      "##ke": 2688,
      "se": 2689,
      "##ter": 2690,
      "##all": 2691,
      "##th": 2692,
      "my": 2693,
      "##ro": 2694,
      "had": 2695,
      "##ce": 2696,
      "not": 2697,
      "ch": 2698,
      "but": 2699,
      "##ill": 2700,
      "do": 2701,
      "##il": 2702,
      "##ct": 2703,
      "##ess": 2704,
      "ne": 2705,
      "##pp": 2706,
      "##ain": 2707,
      "##ere": 2708,
      "they": 2709,
      "so": 2710,
      "##ri": 2711,
      "sa": 2712,
      "him": 2713,
      "##el": 2714,
      "this": 2715,
      "##ight": 2716,
      "##ked": 2717,
      "##ome": 2718,
      "su": 2719,
      "##ant": 2720,
      "have": 2721,
      "##est": 2722,
      "de": 2723,
      "##ack": 2724,
      "from": 2725,
      "go": 2726,
      "##ore": 2727,
      "##us": 2728,
      "##ust": 2729,
      "all": 2730,
      "what": 2731,
      "up": 2732,
      "out": 2733,
      "##rou": 2734,
      "con": 2735,
      "al": 2736,
      "##ers": 2737,
      "kn": 2738,
      "ab": 2739,
      "##ie": 2740,
      "##ge": 2741,
      "##ra": 2742,
      "##ard": 2743,
      "##ation": 2744,
      "le": 2745,
      "no": 2746,
      "##ul": 2747,
      "##out": 2748,
      "##her": 2749,
      "##un": 2750,
      "or": 2751,
      "ex": 2752,
      "are": 2753,
      "##op": 2754,
      "sp": 2755,
      "##ind": 2756,
      "##king": 2757,
      "##one": 2758,
      "wor": 2759,
      "would": 2760,
      "said": 2761,
      "int": 2762,
      "##um": 2763,
      "##ab": 2764,
      "were": 2765,
      "##os": 2766,
      "one": 2767,
      "there": 2768,
      "##ist": 2769,
      "fe": 2770,
      "##art": 2771,
      "if": 2772,
      "##ol": 2773,
      "##and": 2774,
      "com": 2775,
      "tr": 2776,
      "loo": 2777,
      "can": 2778,
      "##ate": 2779,
      "did": 2780,
      "##ood": 2781,
      "un": 2782,
      "your": 2783,
      "could": 2784,
      "##em": 2785,
      "them": 2786,
      "by": 2787,
      "##ast": 2788,
      "##own": 2789,
      "cl": 2790,
      "en": 2791,
      "like": 2792,
      "##ally": 2793,
      "back": 2794,
      "##ap": 2795,
      "when": 2796,
      "##if": 2797,
      "pl": 2798,
      "pr": 2799,
      "about": 2800,
      "tim": 2801,
      "into": 2802,
      "##ven": 2803,
      "man": 2804,
      "##ace": 2805,
      "just": 2806,
      "##ig": 2807,
      "pro": 2808,
      "##ong": 2809,
      "ma": 2810,
      "##ide": 2811,
      "##ck": 2812,
      "their": 2813,
      "##ive": 2814,
      "ag": 2815,
      "ro": 2816,
      "will": 2817,
      "who": 2818,
      "##ep": 2819,
      "know": 2820,
      "any": 2821,
      "##hing": 2822,
      "mo": 2823,
      "##ous": 2824,
      "##ect": 2825,
      "some": 2826,
      "##ame": 2827,
      "##au": 2828,
      "then": 2829,
      "te": 2830,
      "bl": 2831,
      "us": 2832,
      "##way": 2833,
      "##lf": 2834,
      "over": 2835,
      "lo": 2836,
      "ar": 2837,
      "##ort": 2838,
      "get": 2839,
      "##ity": 2840,
      "time": 2841,
      "ever": 2842,
      "co": 2843,
      "been": 2844,
      "sm": 2845,
      "qu": 2846,
      "how": 2847,
      "##our": 2848,
      "##ice": 2849,
      "##ach": 2850,
      "##urn": 2851,
      "down": 2852,
      "off": 2853,
      "ta": 2854,
      "hand": 2855,
      "more": 2856,
      "##ine": 2857,
      "bo": 2858,
      "##ry": 2859,
      "now": 2860,
      "too": 2861,
      "want": 2862,
      "af": 2863,
      "oth": 2864,
      "##round": 2865,
      "##ies": 2866,
      "see": 2867,
      "tw": 2868,
      "##ment": 2869,
      "thou": 2870,
      "##ich": 2871,
      "fl": 2872,
      "don": 2873,
      "##nder": 2874,
      "##ag": 2875,
      "sc": 2876,
      "##reat": 2877,
      "##ink": 2878,
      "pe": 2879,
      "br": 2880,
      "##ved": 2881,
      "##ick": 2882,
      "##ound": 2883,
      "##ear": 2884,
      "##pt": 2885,
      "##pl": 2886,
      "car": 2887,
      "##ure": 2888,
      "am": 2889,
      "again": 2890,
      "than": 2891,
      "##ile": 2892,
      "ey": 2893,
      "##ass": 2894,
      "our": 2895,
      "##fore": 2896,
      "##ving": 2897,
      "##ull": 2898,
      "##other": 2899,
      "im": 2900,
      "bec": 2901,
      "##itt": 2902,
      "##ud": 2903,
      "##ip": 2904,
      "##ose": 2905,
      "every": 2906,
      "way": 2907,
      "##ue": 2908,
      "##self": 2909,
      "##act": 2910,
      "only": 2911,
      "even": 2912,
      "##fe": 2913,
      "before": 2914,
      "##ish": 2915,
      "other": 2916,
      "ad": 2917,
      "sl": 2918,
      "say": 2919,
      "##ft": 2920,
      "##ence": 2921,
      "head": 2922,
      "gr": 2923,
      "##ings": 2924,
      "didn": 2925,
      "##ble": 2926,
      "after": 2927,
      "##ire": 2928,
      "cont": 2929,
      "##ated": 2930,
      "##ite": 2931,
      "ac": 2932,
      "##per": 2933,
      "##led": 2934,
      "##rough": 2935,
      "dis": 2936,
      "##able": 2937,
      "##ade": 2938,
      "##ance": 2939,
      "##ks": 2940,
      "##iz": 2941,
      "through": 2942,
      "##ber": 2943,
      "here": 2944,
      "##pped": 2945,
      "need": 2946,
      "po": 2947,
      "right": 2948,
      "##ree": 2949,
      "which": 2950,
      "##age": 2951,
      "##ans": 2952,
      "##omet": 2953,
      "around": 2954,
      "eyes": 2955,
      "res": 2956,
      "##ci": 2957,
      "##ell": 2958,
      "day": 2959,
      "##ward": 2960,
      "##ang": 2961,
      "somet": 2962,
      "has": 2963,
      "##ath": 2964,
      "peop": 2965,
      "fir": 2966,
      "two": 2967,
      "mar": 2968,
      "fo": 2969,
      "people": 2970,
      "turn": 2971,
      "where": 2972,
      "##wn": 2973,
      "##ff": 2974,
      "##ves": 2975,
      "good": 2976,
      "##ak": 2977,
      "think": 2978,
      "going": 2979,
      "##oun": 2980,
      "well": 2981,
      "gu": 2982,
      "should": 2983,
      "let": 2984,
      "##ions": 2985,
      "##qu": 2986,
      "##ause": 2987,
      "mu": 2988,
      "gl": 2989,
      "looked": 2990,
      "thought": 2991,
      "jo": 2992,
      "ll": 2993,
      "wat": 2994,
      "comp": 2995,
      "app": 2996,
      "per": 2997,
      "long": 2998,
      "##oth": 2999,
      "rem": 3000,
      "still": 3001,
      "str": 3002,
      "under": 3003,
      "##ery": 3004,
      "god": 3005,
      "em": 3006,
      "ve": 3007,
      "##ord": 3008,
      "##co": 3009,
      "bet": 3010,
      "wa": 3011,
      "may": 3012,
      "##ia": 3013,
      "##ather": 3014,
      "##ew": 3015,
      "##thing": 3016,
      "##ild": 3017,
      "##iss": 3018,
      "cr": 3019,
      "##ting": 3020,
      "sw": 3021,
      "something": 3022,
      "first": 3023,
      "##ase": 3024,
      "away": 3025,
      "pre": 3026,
      "##ning": 3027,
      "##ious": 3028,
      "##ied": 3029,
      "##dy": 3030,
      "never": 3031,
      "door": 3032,
      "##ress": 3033,
      "asked": 3034,
      "##ted": 3035,
      "new": 3036,
      "life": 3037,
      "got": 3038,
      "much": 3039,
      "made": 3040,
      "des": 3041,
      "##ave": 3042,
      "ho": 3043,
      "because": 3044,
      "make": 3045,
      "part": 3046,
      "feel": 3047,
      "##ened": 3048,
      "call": 3049,
      "face": 3050,
      "spe": 3051,
      "##ens": 3052,
      "hel": 3053,
      "##ough": 3054,
      "come": 3055,
      "op": 3056,
      "ke": 3057,
      "##igh": 3058,
      "##gg": 3059,
      "bel": 3060,
      "##ah": 3061,
      "why": 3062,
      "##te": 3063,
      "take": 3064,
      "happ": 3065,
      "##orm": 3066,
      "##ady": 3067,
      "wal": 3068,
      "##ered": 3069,
      "look": 3070,
      "##are": 3071,
      "##ittle": 3072,
      "year": 3073,
      "##iv": 3074,
      "little": 3075,
      "room": 3076,
      "act": 3077,
      "ph": 3078,
      "##air": 3079,
      "##ched": 3080,
      "tell": 3081,
      "##so": 3082,
      "##ise": 3083,
      "##ily": 3084,
      "ear": 3085,
      "very": 3086,
      "##ss": 3087,
      "start": 3088,
      "##ents": 3089,
      "##ty": 3090,
      "sur": 3091,
      "arm": 3092,
      "while": 3093,
      "##ying": 3094,
      "##av": 3095,
      "being": 3096,
      "att": 3097,
      "##ried": 3098,
      "mom": 3099,
      "##ful": 3100,
      "##ary": 3101,
      "its": 3102,
      "wr": 3103,
      "##ark": 3104,
      "real": 3105,
      "##be": 3106,
      "##dd": 3107,
      "inter": 3108,
      "##ook": 3109,
      "##ory": 3110,
      "el": 3111,
      "##side": 3112,
      "those": 3113,
      "these": 3114,
      "help": 3115,
      "##iff": 3116,
      "##uck": 3117,
      "own": 3118,
      "took": 3119,
      "##ness": 3120,
      "find": 3121,
      "rel": 3122,
      "seem": 3123,
      "tal": 3124,
      "##ical": 3125,
      "knew": 3126,
      "most": 3127,
      "##ced": 3128,
      "fin": 3129,
      "another": 3130,
      "dr": 3131,
      "##ub": 3132,
      "##elt": 3133,
      "##ph": 3134,
      "mat": 3135,
      "##tain": 3136,
      "imp": 3137,
      "sure": 3138,
      "left": 3139,
      "##cl": 3140,
      "few": 3141,
      "##xt": 3142,
      "##ign": 3143,
      "ser": 3144,
      "came": 3145,
      "##ian": 3146,
      "beg": 3147,
      "##ations": 3148,
      "exp": 3149,
      "word": 3150,
      "ev": 3151,
      "old": 3152,
      "work": 3153,
      "end": 3154,
      "really": 3155,
      "##oss": 3156,
      "things": 3157,
      "put": 3158,
      "wom": 3159,
      "##ons": 3160,
      "beh": 3161,
      "also": 3162,
      "turned": 3163,
      "##ared": 3164,
      "does": 3165,
      "##ult": 3166,
      "##get": 3167,
      "felt": 3168,
      "night": 3169,
      "##owed": 3170,
      "comm": 3171,
      "mind": 3172,
      "world": 3173,
      "unt": 3174,
      "##ever": 3175,
      "##vel": 3176,
      "war": 3177,
      "many": 3178,
      "vo": 3179,
      "pers": 3180,
      "light": 3181,
      "last": 3182,
      "##int": 3183,
      "la": 3184,
      "##ouse": 3185,
      "love": 3186,
      "sk": 3187,
      "gra": 3188,
      "##ail": 3189,
      "min": 3190,
      "bu": 3191,
      "##ush": 3192,
      "##ys": 3193,
      "sin": 3194,
      "wasn": 3195,
      "##ool": 3196,
      "##ower": 3197,
      "told": 3198,
      "cle": 3199,
      "##ps": 3200,
      "side": 3201,
      "went": 3202,
      "each": 3203,
      "ind": 3204,
      "ret": 3205,
      "##ors": 3206,
      "##ru": 3207,
      "set": 3208,
      "##een": 3209,
      "##ways": 3210,
      "##ont": 3211,
      "##iend": 3212,
      "##ross": 3213,
      "rep": 3214,
      "##ne": 3215,
      "ob": 3216,
      "id": 3217,
      "##ible": 3218,
      "found": 3219,
      "friend": 3220,
      "##les": 3221,
      "keep": 3222,
      "hum": 3223,
      "place": 3224,
      "wait": 3225,
      "both": 3226,
      "##ating": 3227,
      "toward": 3228,
      "cons": 3229,
      "belie": 3230,
      "hands": 3231,
      "##ash": 3232,
      "must": 3233,
      "pull": 3234,
      "##og": 3235,
      "might": 3236,
      "nothing": 3237,
      "##ition": 3238,
      "##ict": 3239,
      "inst": 3240,
      "##cess": 3241,
      "next": 3242,
      "##ual": 3243,
      "par": 3244,
      "home": 3245,
      "same": 3246,
      "yes": 3247,
      "dec": 3248,
      "sat": 3249,
      "##ple": 3250,
      "##ib": 3251,
      "great": 3252,
      "diff": 3253,
      "##ually": 3254,
      "##ling": 3255,
      "cor": 3256,
      "years": 3257,
      "body": 3258,
      "che": 3259,
      "against": 3260,
      "anything": 3261,
      "saw": 3262,
      "ste": 3263,
      "far": 3264,
      "foll": 3265,
      "ass": 3266,
      "wanted": 3267,
      "without": 3268,
      "##ange": 3269,
      "##iver": 3270,
      "##ost": 3271,
      "enough": 3272,
      "##ial": 3273,
      "hard": 3274,
      "thing": 3275,
      "##ream": 3276,
      "once": 3277,
      "though": 3278,
      "pass": 3279,
      "##ned": 3280,
      "always": 3281,
      "##ner": 3282,
      "behind": 3283,
      "fam": 3284,
      "until": 3285,
      "men": 3286,
      "##sp": 3287,
      "such": 3288,
      "person": 3289,
      "##ces": 3290,
      "house": 3291,
      "high": 3292,
      "gi": 3293,
      "##ction": 3294,
      "##na": 3295,
      "looking": 3296,
      "##az": 3297,
      "small": 3298,
      "open": 3299,
      "gir": 3300,
      "three": 3301,
      "bre": 3302,
      "##ently": 3303,
      "voice": 3304,
      "inf": 3305,
      "coun": 3306,
      "ple": 3307,
      "child": 3308,
      "##oc": 3309,
      "rest": 3310,
      "##red": 3311,
      "##cept": 3312,
      "##ised": 3313,
      "gre": 3314,
      "##aring": 3315,
      "couldn": 3316,
      "dark": 3317,
      "##owing": 3318,
      "met": 3319,
      "hop": 3320,
      "##ars": 3321,
      "himself": 3322,
      "wo": 3323,
      "sound": 3324,
      "acc": 3325,
      "##ng": 3326,
      "##ead": 3327,
      "run": 3328,
      "stand": 3329,
      "##uc": 3330,
      "sim": 3331,
      "father": 3332,
      "hu": 3333,
      "##aught": 3334,
      "moment": 3335,
      "##der": 3336,
      "conf": 3337,
      "mor": 3338,
      "inv": 3339,
      "heart": 3340,
      "cour": 3341,
      "clos": 3342,
      "bed": 3343,
      "ang": 3344,
      "supp": 3345,
      "pa": 3346,
      "tra": 3347,
      "give": 3348,
      "girl": 3349,
      "##uth": 3350,
      "cur": 3351,
      "underst": 3352,
      "##med": 3353,
      "dri": 3354,
      "gen": 3355,
      "##sw": 3356,
      "##bed": 3357,
      "front": 3358,
      "contin": 3359,
      "better": 3360,
      "mon": 3361,
      "##ching": 3362,
      "##outh": 3363,
      "##less": 3364,
      "resp": 3365,
      "##ken": 3366,
      "##ows": 3367,
      "##day": 3368,
      "##ix": 3369,
      "mean": 3370,
      "smil": 3371,
      "##cond": 3372,
      "betw": 3373,
      "between": 3374,
      "sy": 3375,
      "plan": 3376,
      "quest": 3377,
      "sil": 3378,
      "chr": 3379,
      "care": 3380,
      "char": 3381,
      "woman": 3382,
      "20": 3383,
      "dra": 3384,
      "##gn": 3385,
      "everything": 3386,
      "quick": 3387,
      "maybe": 3388,
      "second": 3389,
      "##ier": 3390,
      "pres": 3391,
      "answ": 3392,
      "##ater": 3393,
      "kill": 3394,
      "##ank": 3395,
      "ed": 3396,
      "##end": 3397,
      "expl": 3398,
      "rec": 3399,
      "someone": 3400,
      "mother": 3401,
      "heard": 3402,
      "wind": 3403,
      "ter": 3404,
      "hold": 3405,
      "##ember": 3406,
      "since": 3407,
      "##ense": 3408,
      "water": 3409,
      "read": 3410,
      "air": 3411,
      "differ": 3412,
      "reg": 3413,
      "play": 3414,
      "breat": 3415,
      "##cer": 3416,
      "##ung": 3417,
      "##ason": 3418,
      "##ret": 3419,
      "##used": 3420,
      "big": 3421,
      "flo": 3422,
      "##ained": 3423,
      "bit": 3424,
      "dist": 3425,
      "##ond": 3426,
      "lau": 3427,
      "ra": 3428,
      "oh": 3429,
      "inside": 3430,
      "##ject": 3431,
      "alm": 3432,
      "started": 3433,
      "near": 3434,
      "##ably": 3435,
      "seemed": 3436,
      "bar": 3437,
      "miss": 3438,
      "##ock": 3439,
      "black": 3440,
      "ref": 3441,
      "yet": 3442,
      "##ention": 3443,
      "use": 3444,
      "##ished": 3445,
      "pat": 3446,
      "add": 3447,
      "red": 3448,
      "sch": 3449,
      "remember": 3450,
      "chap": 3451,
      "##tered": 3452,
      "hair": 3453,
      "return": 3454,
      "##ready": 3455,
      "kind": 3456,
      "already": 3457,
      "##ized": 3458,
      "stood": 3459,
      "lar": 3460,
      "trying": 3461,
      "ent": 3462,
      "inc": 3463,
      "called": 3464,
      "lot": 3465,
      "##bo": 3466,
      "ca": 3467,
      "sle": 3468,
      "##ully": 3469,
      "poss": 3470,
      "wall": 3471,
      "laugh": 3472,
      "name": 3473,
      "power": 3474,
      "cap": 3475,
      "walked": 3476,
      "pol": 3477,
      "reach": 3478,
      "aw": 3479,
      "##ates": 3480,
      "doing": 3481,
      "done": 3482,
      "gave": 3483,
      "##kes": 3484,
      "began": 3485,
      "understand": 3486,
      "##gether": 3487,
      "sub": 3488,
      "ok": 3489,
      "pain": 3490,
      "stay": 3491,
      "deep": 3492,
      "words": 3493,
      "else": 3494,
      "##ren": 3495,
      "best": 3496,
      "chapter": 3497,
      "across": 3498,
      "form": 3499,
      "##iet": 3500,
      "##rew": 3501,
      "blood": 3502,
      "almost": 3503,
      "##amp": 3504,
      "used": 3505,
      "##ott": 3506,
      "19": 3507,
      "mr": 3508,
      "##ny": 3509,
      "dire": 3510,
      "wonder": 3511,
      "young": 3512,
      "det": 3513,
      "sn": 3514,
      "col": 3515,
      "##up": 3516,
      "##ately": 3517,
      "ide": 3518,
      "minut": 3519,
      "soon": 3520,
      "together": 3521,
      "vis": 3522,
      "##ided": 3523,
      "seen": 3524,
      "says": 3525,
      "##od": 3526,
      "##pr": 3527,
      "christ": 3528,
      "##ined": 3529,
      "##ump": 3530,
      "hour": 3531,
      "bus": 3532,
      "##pping": 3533,
      "stop": 3534,
      "believe": 3535,
      "##als": 3536,
      "fact": 3537,
      "##its": 3538,
      "human": 3539,
      "##wh": 3540,
      "eas": 3541,
      "sto": 3542,
      "tried": 3543,
      "family": 3544,
      "comple": 3545,
      "along": 3546,
      "point": 3547,
      "##umb": 3548,
      "##ene": 3549,
      "##ited": 3550,
      "##ither": 3551,
      "##ts": 3552,
      "breath": 3553,
      "sec": 3554,
      "pur": 3555,
      "dro": 3556,
      "repl": 3557,
      "move": 3558,
      "##ake": 3559,
      "past": 3560,
      "sign": 3561,
      "##row": 3562,
      "pulled": 3563,
      "stud": 3564,
      "close": 3565,
      "coll": 3566,
      "list": 3567,
      "tri": 3568,
      "##ters": 3569,
      "##eng": 3570,
      "leave": 3571,
      "later": 3572,
      "table": 3573,
      "wee": 3574,
      "##iness": 3575,
      "##aced": 3576,
      "##itch": 3577,
      "days": 3578,
      "mem": 3579,
      "##ased": 3580,
      "bri": 3581,
      "##ected": 3582,
      "creat": 3583,
      "hear": 3584,
      "##hip": 3585,
      "ele": 3586,
      "feet": 3587,
      "##ured": 3588,
      "##ued": 3589,
      "lead": 3590,
      "##ures": 3591,
      "slow": 3592,
      "myself": 3593,
      "others": 3594,
      "##ically": 3595,
      "thin": 3596,
      "meet": 3597,
      "ye": 3598,
      "smile": 3599,
      "leg": 3600,
      "course": 3601,
      "smiled": 3602,
      "tre": 3603,
      "everyone": 3604,
      "sit": 3605,
      "##sel": 3606,
      "##cy": 3607,
      "getting": 3608,
      "##man": 3609,
      "fing": 3610,
      "perf": 3611,
      "##uring": 3612,
      "##oy": 3613,
      "##ins": 3614,
      "nodd": 3615,
      "bad": 3616,
      "land": 3617,
      "##ering": 3618,
      "dem": 3619,
      "bro": 3620,
      "four": 3621,
      "book": 3622,
      "##ular": 3623,
      "spir": 3624,
      "able": 3625,
      "step": 3626,
      "har": 3627,
      "prot": 3628,
      "fall": 3629,
      "trans": 3630,
      "cou": 3631,
      "coming": 3632,
      "##ets": 3633,
      "appear": 3634,
      "different": 3635,
      "hur": 3636,
      "##olog": 3637,
      "##idd": 3638,
      "##ric": 3639,
      "held": 3640,
      "mouth": 3641,
      "ap": 3642,
      "floor": 3643,
      "nat": 3644,
      "##to": 3645,
      "eff": 3646,
      "having": 3647,
      "lord": 3648,
      "##oke": 3649,
      "del": 3650,
      "##ities": 3651,
      "talk": 3652,
      "##ility": 3653,
      "least": 3654,
      "##vers": 3655,
      "arms": 3656,
      "sor": 3657,
      "ground": 3658,
      "##oney": 3659,
      "dead": 3660,
      "##aps": 3661,
      "half": 3662,
      "##ience": 3663,
      "dep": 3664,
      "exper": 3665,
      "loc": 3666,
      "white": 3667,
      "##cc": 3668,
      "school": 3669,
      "##ize": 3670,
      "##icked": 3671,
      "needed": 3672,
      "fire": 3673,
      "hor": 3674,
      "##cial": 3675,
      "med": 3676,
      "def": 3677,
      "clear": 3678,
      "wouldn": 3679,
      "prob": 3680,
      "morning": 3681,
      "cent": 3682,
      "nodded": 3683,
      "finally": 3684,
      "quickly": 3685,
      "dan": 3686,
      "##cus": 3687,
      "free": 3688,
      "##ged": 3689,
      "##aking": 3690,
      "top": 3691,
      "sun": 3692,
      "ask": 3693,
      "times": 3694,
      "##sc": 3695,
      "herself": 3696,
      "cer": 3697,
      "death": 3698,
      "##iew": 3699,
      "tom": 3700,
      "##ten": 3701,
      "full": 3702,
      "##ushed": 3703,
      "large": 3704,
      "making": 3705,
      "question": 3706,
      "##br": 3707,
      "towards": 3708,
      "##du": 3709,
      "lear": 3710,
      "cal": 3711,
      "##hn": 3712,
      "##ific": 3713,
      "##ept": 3714,
      "build": 3715,
      "##itting": 3716,
      "jes": 3717,
      "happened": 3718,
      "hell": 3719,
      "ran": 3720,
      "##ms": 3721,
      "##ines": 3722,
      "earth": 3723,
      "##fully": 3724,
      "cat": 3725,
      "eng": 3726,
      "##dden": 3727,
      "sever": 3728,
      "##io": 3729,
      "okay": 3730,
      "mus": 3731,
      "##ments": 3732,
      "##uff": 3733,
      "short": 3734,
      "##ug": 3735,
      "boy": 3736,
      "appro": 3737,
      "upon": 3738,
      "doesn": 3739,
      "##by": 3740,
      "sudden": 3741,
      "fa": 3742,
      "sleep": 3743,
      "won": 3744,
      "##ired": 3745,
      "reason": 3746,
      "fur": 3747,
      "gone": 3748,
      "king": 3749,
      "anyone": 3750,
      "##ames": 3751,
      "##ma": 3752,
      "try": 3753,
      "eye": 3754,
      "probably": 3755,
      "friends": 3756,
      "##ening": 3757,
      "john": 3758,
      "##ield": 3759,
      "less": 3760,
      "contro": 3761,
      "prom": 3762,
      "##oud": 3763,
      "feeling": 3764,
      "##ird": 3765,
      "within": 3766,
      "##ative": 3767,
      "##irt": 3768,
      "idea": 3769,
      "cover": 3770,
      "fre": 3771,
      "##ove": 3772,
      "pri": 3773,
      "hope": 3774,
      "stopped": 3775,
      "##ife": 3776,
      "fun": 3777,
      "##eth": 3778,
      "fight": 3779,
      "taking": 3780,
      "please": 3781,
      "stra": 3782,
      "##fort": 3783,
      "tou": 3784,
      "cra": 3785,
      "opened": 3786,
      "##gged": 3787,
      "##iously": 3788,
      "gener": 3789,
      "fell": 3790,
      "spirit": 3791,
      "surpr": 3792,
      "mess": 3793,
      "##ants": 3794,
      "however": 3795,
      "whole": 3796,
      "outside": 3797,
      "children": 3798,
      "##ane": 3799,
      "certain": 3800,
      "grab": 3801,
      "proble": 3802,
      "##aut": 3803,
      "grou": 3804,
      "##ient": 3805,
      "moved": 3806,
      "##ton": 3807,
      "money": 3808,
      "jesus": 3809,
      "nor": 3810,
      "##selves": 3811,
      "dam": 3812,
      "adv": 3813,
      "show": 3814,
      "cell": 3815,
      "son": 3816,
      "##yp": 3817,
      "lea": 3818,
      "cut": 3819,
      "matter": 3820,
      "##orn": 3821,
      "av": 3822,
      "num": 3823,
      "kiss": 3824,
      "ready": 3825,
      "dou": 3826,
      "ins": 3827,
      "sho": 3828,
      "true": 3829,
      "##tern": 3830,
      "reached": 3831,
      "pos": 3832,
      "dad": 3833,
      "stre": 3834,
      "five": 3835,
      "##ides": 3836,
      "today": 3837,
      "sorry": 3838,
      "count": 3839,
      "become": 3840,
      "sam": 3841,
      "##head": 3842,
      "actually": 3843,
      "consid": 3844,
      "##ister": 3845,
      "bring": 3846,
      "minutes": 3847,
      "fig": 3848,
      "##att": 3849,
      "forward": 3850,
      "interest": 3851,
      "law": 3852,
      "##aw": 3853,
      "thinking": 3854,
      "inform": 3855,
      "alone": 3856,
      "##ards": 3857,
      "truth": 3858,
      "onto": 3859,
      "either": 3860,
      "wrong": 3861,
      "living": 3862,
      "sou": 3863,
      "##ident": 3864,
      "live": 3865,
      "complete": 3866,
      "lost": 3867,
      "swe": 3868,
      "food": 3869,
      "kept": 3870,
      "fill": 3871,
      "imag": 3872,
      "state": 3873,
      "ext": 3874,
      "mil": 3875,
      "##app": 3876,
      "sent": 3877,
      "##inted": 3878,
      "##erg": 3879,
      "jack": 3880,
      "several": 3881,
      "##mm": 3882,
      "hadn": 3883,
      "continued": 3884,
      "city": 3885,
      "import": 3886,
      "replied": 3887,
      "beaut": 3888,
      "##00": 3889,
      "phone": 3890,
      "##ches": 3891,
      "##esh": 3892,
      "slowly": 3893,
      "thank": 3894,
      "##que": 3895,
      "job": 3896,
      "##rought": 3897,
      "yeah": 3898,
      "whis": 3899,
      "change": 3900,
      "##ipped": 3901,
      "shook": 3902,
      "chang": 3903,
      "given": 3904,
      "##where": 3905,
      "dream": 3906,
      "quite": 3907,
      "##gr": 3908,
      "shall": 3909,
      "dev": 3910,
      "opp": 3911,
      "press": 3912,
      "mag": 3913,
      "##room": 3914,
      "kid": 3915,
      "sing": 3916,
      "direct": 3917,
      "walk": 3918,
      "fear": 3919,
      "case": 3920,
      "##aster": 3921,
      "cre": 3922,
      "##ists": 3923,
      "thr": 3924,
      "##ract": 3925,
      "taken": 3926,
      "##land": 3927,
      "##airs": 3928,
      "hot": 3929,
      "##osed": 3930,
      "quiet": 3931,
      "ann": 3932,
      "##ina": 3933,
      "##aces": 3934,
      "##ution": 3935,
      "##ther": 3936,
      "brought": 3937,
      "##ression": 3938,
      "story": 3939,
      "mark": 3940,
      "during": 3941,
      "bes": 3942,
      "##clud": 3943,
      "##els": 3944,
      "##ored": 3945,
      "##lic": 3946,
      "##gan": 3947,
      "watched": 3948,
      "ir": 3949,
      "control": 3950,
      "##otion": 3951,
      "talking": 3952,
      "##ues": 3953,
      "soft": 3954,
      "##ison": 3955,
      "##cle": 3956,
      "##ik": 3957,
      "strong": 3958,
      "break": 3959,
      "bur": 3960,
      "adm": 3961,
      "sense": 3962,
      "foot": 3963,
      "##ics": 3964,
      "dress": 3965,
      "dest": 3966,
      "je": 3967,
      "##ien": 3968,
      "women": 3969,
      "number": 3970,
      "##ime": 3971,
      "month": 3972,
      "hall": 3973,
      "##ger": 3974,
      "lay": 3975,
      "art": 3976,
      "arri": 3977,
      "road": 3978,
      "##stem": 3979,
      "##enty": 3980,
      "main": 3981,
      "saying": 3982,
      "win": 3983,
      "instead": 3984,
      "tem": 3985,
      "##ices": 3986,
      "cir": 3987,
      "suddenly": 3988,
      "##iced": 3989,
      "roll": 3990,
      "answer": 3991,
      "##ape": 3992,
      "guess": 3993,
      "occ": 3994,
      "##ike": 3995,
      "##ism": 3996,
      "ten": 3997,
      "order": 3998,
      "##aned": 3999,
      "blue": 4000,
      "sol": 4001,
      "standing": 4002,
      "pet": 4003,
      "low": 4004,
      "##aining": 4005,
      "pub": 4006,
      "business": 4007,
      "ago": 4008,
      "above": 4009,
      "reco": 4010,
      "line": 4011,
      "followed": 4012,
      "six": 4013,
      "system": 4014,
      "cold": 4015,
      "self": 4016,
      "##haps": 4017,
      "perhaps": 4018,
      "pay": 4019,
      "bab": 4020,
      "##ute": 4021,
      "speak": 4022,
      "lips": 4023,
      "begin": 4024,
      "serv": 4025,
      "waiting": 4026,
      "group": 4027,
      "sal": 4028,
      "heal": 4029,
      "pret": 4030,
      "brother": 4031,
      "val": 4032,
      "##iding": 4033,
      "##body": 4034,
      "prov": 4035,
      "##ots": 4036,
      "grand": 4037,
      "wood": 4038,
      "exc": 4039,
      "ge": 4040,
      "town": 4041,
      "##ze": 4042,
      "##iting": 4043,
      "decided": 4044,
      "isn": 4045,
      "##velop": 4046,
      "closed": 4047,
      "##cing": 4048,
      "looks": 4049,
      "glass": 4050,
      "chest": 4051,
      "compan": 4052,
      "perfect": 4053,
      "important": 4054,
      "hours": 4055,
      "shoulder": 4056,
      "class": 4057,
      "fine": 4058,
      "skin": 4059,
      "cross": 4060,
      "##sh": 4061,
      "##ians": 4062,
      "happy": 4063,
      "##cious": 4064,
      "hit": 4065,
      "pap": 4066,
      "gun": 4067,
      "##tend": 4068,
      "rather": 4069,
      "deal": 4070,
      "longer": 4071,
      "attention": 4072,
      "spoke": 4073,
      "jud": 4074,
      "prof": 4075,
      "working": 4076,
      "##anger": 4077,
      "10": 4078,
      "da": 4079,
      "entire": 4080,
      "window": 4081,
      "known": 4082,
      "aff": 4083,
      "##aughter": 4084,
      "disapp": 4085,
      "suc": 4086,
      "##iful": 4087,
      "sigh": 4088,
      "ship": 4089,
      "whatever": 4090,
      "bra": 4091,
      "requ": 4092,
      "whisper": 4093,
      "watch": 4094,
      "laughed": 4095,
      "sitting": 4096,
      "possible": 4097,
      "guy": 4098,
      "became": 4099,
      "##anced": 4100,
      "office": 4101,
      "cry": 4102,
      "##ising": 4103,
      "pretty": 4104,
      "bas": 4105,
      "yell": 4106,
      "sens": 4107,
      "##ror": 4108,
      "exact": 4109,
      "##aged": 4110,
      "##not": 4111,
      "couple": 4112,
      "cond": 4113,
      "201": 4114,
      "##ony": 4115,
      "seat": 4116,
      "soul": 4117,
      "mer": 4118,
      "##ational": 4119,
      "##imes": 4120,
      "caught": 4121,
      "hon": 4122,
      "exam": 4123,
      "const": 4124,
      "##ories": 4125,
      "neck": 4126,
      "##ital": 4127,
      "partic": 4128,
      "path": 4129,
      "##vern": 4130,
      "##acked": 4131,
      "pray": 4132,
      "univer": 4133,
      "cho": 4134,
      "##ief": 4135,
      "##ective": 4136,
      "pie": 4137,
      "warm": 4138,
      "##aim": 4139,
      "mur": 4140,
      "passed": 4141,
      "commun": 4142,
      "enj": 4143,
      "fingers": 4144,
      "running": 4145,
      "##ength": 4146,
      "##erv": 4147,
      "##antly": 4148,
      "squ": 4149,
      "bott": 4150,
      "##ped": 4151,
      "est": 4152,
      "view": 4153,
      "chair": 4154,
      "trust": 4155,
      "chur": 4156,
      "test": 4157,
      "burn": 4158,
      "tight": 4159,
      "esc": 4160,
      "yourself": 4161,
      "forg": 4162,
      "prin": 4163,
      "includ": 4164,
      "rock": 4165,
      "sir": 4166,
      "scream": 4167,
      "##ior": 4168,
      "##eric": 4169,
      "straight": 4170,
      "lift": 4171,
      "command": 4172,
      "offic": 4173,
      "##medi": 4174,
      "##ob": 4175,
      "##rupt": 4176,
      "##ages": 4177,
      "##zy": 4178,
      "wife": 4179,
      "ver": 4180,
      "##ef": 4181,
      "chance": 4182,
      "##read": 4183,
      "##ision": 4184,
      "often": 4185,
      "##son": 4186,
      "mir": 4187,
      "stru": 4188,
      "accept": 4189,
      "conn": 4190,
      "stared": 4191,
      "din": 4192,
      "information": 4193,
      "##cent": 4194,
      "concer": 4195,
      "nice": 4196,
      "##ural": 4197,
      "building": 4198,
      "problem": 4199,
      "##ection": 4200,
      "green": 4201,
      "parents": 4202,
      "##de": 4203,
      "bill": 4204,
      "means": 4205,
      "ale": 4206,
      "hund": 4207,
      "##res": 4208,
      "gaz": 4209,
      "##night": 4210,
      "##ination": 4211,
      "rece": 4212,
      "typ": 4213,
      "hundred": 4214,
      "bag": 4215,
      "ce": 4216,
      "er": 4217,
      "auth": 4218,
      "tor": 4219,
      "immedi": 4220,
      "week": 4221,
      "bene": 4222,
      "lim": 4223,
      "##ara": 4224,
      "boo": 4225,
      "##ale": 4226,
      "abs": 4227,
      "beautiful": 4228,
      "eat": 4229,
      "norm": 4230,
      "space": 4231,
      "alth": 4232,
      "die": 4233,
      "cop": 4234,
      "##ator": 4235,
      "##ply": 4236,
      "further": 4237,
      "##unch": 4238,
      "##ount": 4239,
      "cloth": 4240,
      "level": 4241,
      "grow": 4242,
      "thoughts": 4243,
      "produ": 4244,
      "area": 4245,
      "themselves": 4246,
      "although": 4247,
      "pop": 4248,
      "meant": 4249,
      "safe": 4250,
      "secret": 4251,
      "ign": 4252,
      "heav": 4253,
      "stepped": 4254,
      "sort": 4255,
      "##ax": 4256,
      "##com": 4257,
      "ben": 4258,
      "shot": 4259,
      "holding": 4260,
      "slight": 4261,
      "street": 4262,
      "##ains": 4263,
      "trou": 4264,
      "follow": 4265,
      "pract": 4266,
      "##ler": 4267,
      "watching": 4268,
      "develop": 4269,
      "sex": 4270,
      "gri": 4271,
      "exist": 4272,
      "##arr": 4273,
      "##old": 4274,
      "americ": 4275,
      "shut": 4276,
      "hurt": 4277,
      "##ster": 4278,
      "present": 4279,
      "ord": 4280,
      "apart": 4281,
      "spec": 4282,
      "cannot": 4283,
      "##ones": 4284,
      "doub": 4285,
      "makes": 4286,
      "var": 4287,
      "fast": 4288,
      "ill": 4289,
      "prev": 4290,
      "##ctor": 4291,
      "returned": 4292,
      "cam": 4293,
      "##bing": 4294,
      "lu": 4295,
      "##aching": 4296,
      "church": 4297,
      "ant": 4298,
      "among": 4299,
      "##ork": 4300,
      "guard": 4301,
      "jump": 4302,
      "##unt": 4303,
      "grin": 4304,
      "prep": 4305,
      "##ety": 4306,
      "drink": 4307,
      "##ement": 4308,
      "##ift": 4309,
      "mad": 4310,
      "using": 4311,
      "hung": 4312,
      "fut": 4313,
      "late": 4314,
      "sold": 4315,
      "sear": 4316,
      "leaving": 4317,
      "##cri": 4318,
      "mill": 4319,
      "##ote": 4320,
      "##empt": 4321,
      "pal": 4322,
      "situ": 4323,
      "noticed": 4324,
      "seeing": 4325,
      "expect": 4326,
      "event": 4327,
      "sad": 4328,
      "grabbed": 4329,
      "##ming": 4330,
      "exactly": 4331,
      "moving": 4332,
      "sometimes": 4333,
      "walking": 4334,
      "##ances": 4335,
      "filled": 4336,
      "equ": 4337,
      "closer": 4338,
      "##vin": 4339,
      "kitch": 4340,
      "team": 4341,
      "shout": 4342,
      "sky": 4343,
      "super": 4344,
      "div": 4345,
      "led": 4346,
      "happen": 4347,
      "govern": 4348,
      "early": 4349,
      "##iny": 4350,
      "treat": 4351,
      "faith": 4352,
      "##me": 4353,
      "obv": 4354,
      "energ": 4355,
      "except": 4356,
      "gold": 4357,
      "##iddle": 4358,
      "##ude": 4359,
      "dav": 4360,
      "pan": 4361,
      "legs": 4362,
      "attack": 4363,
      "##ilt": 4364,
      "##ili": 4365,
      "12": 4366,
      "dog": 4367,
      "##ert": 4368,
      "##ee": 4369,
      "##ived": 4370,
      "shad": 4371,
      "suff": 4372,
      "lit": 4373,
      "kitchen": 4374,
      "bare": 4375,
      "##my": 4376,
      "send": 4377,
      "agre": 4378,
      "twenty": 4379,
      "process": 4380,
      "phys": 4381,
      "hist": 4382,
      "appeared": 4383,
      "anim": 4384,
      "lives": 4385,
      "##ether": 4386,
      "sister": 4387,
      "##oon": 4388,
      "##lect": 4389,
      "##mb": 4390,
      "news": 4391,
      "mich": 4392,
      "##cially": 4393,
      "completely": 4394,
      "convers": 4395,
      "raised": 4396,
      "##ats": 4397,
      "anyway": 4398,
      "##ledge": 4399,
      "sight": 4400,
      "simply": 4401,
      "pict": 4402,
      "##ley": 4403,
      "##ann": 4404,
      "esp": 4405,
      "report": 4406,
      "##acing": 4407,
      "rose": 4408,
      "##itive": 4409,
      "approach": 4410,
      "comes": 4411,
      "empt": 4412,
      "desp": 4413,
      "age": 4414,
      "##idence": 4415,
      "author": 4416,
      "thro": 4417,
      "box": 4418,
      "baby": 4419,
      "crow": 4420,
      "11": 4421,
      "force": 4422,
      "##use": 4423,
      "##ha": 4424,
      "sugg": 4425,
      "suggest": 4426,
      "##ives": 4427,
      "middle": 4428,
      "immediately": 4429,
      "tech": 4430,
      "loud": 4431,
      "pot": 4432,
      "strange": 4433,
      "mine": 4434,
      "wish": 4435,
      "tears": 4436,
      "rele": 4437,
      "fail": 4438,
      "##gin": 4439,
      "##dom": 4440,
      "personal": 4441,
      "answered": 4442,
      "rub": 4443,
      "realized": 4444,
      "fle": 4445,
      "hea": 4446,
      "rev": 4447,
      "bright": 4448,
      "rich": 4449,
      "cast": 4450,
      "easy": 4451,
      "enter": 4452,
      "##sy": 4453,
      "clim": 4454,
      "following": 4455,
      "##ey": 4456,
      "worry": 4457,
      "comfort": 4458,
      "##light": 4459,
      "maj": 4460,
      "##ek": 4461,
      "sand": 4462,
      "star": 4463,
      "killed": 4464,
      "##ney": 4465,
      "stuff": 4466,
      "##lly": 4467,
      "arr": 4468,
      "check": 4469,
      "##bs": 4470,
      "smell": 4471,
      "result": 4472,
      "wide": 4473,
      "enjoy": 4474,
      "future": 4475,
      "mist": 4476,
      "##ified": 4477,
      "pushed": 4478,
      "##cover": 4479,
      "expression": 4480,
      "##erm": 4481,
      "##aled": 4482,
      "den": 4483,
      "knows": 4484,
      "moun": 4485,
      "knowing": 4486,
      "giving": 4487,
      "energy": 4488,
      "worked": 4489,
      "##amed": 4490,
      "shar": 4491,
      "tree": 4492,
      "thanks": 4493,
      "corner": 4494,
      "##unk": 4495,
      "##right": 4496,
      "silence": 4497,
      "paul": 4498,
      "di": 4499,
      "##ael": 4500,
      "recogn": 4501,
      "support": 4502,
      "picked": 4503,
      "tar": 4504,
      "peace": 4505,
      "police": 4506,
      "stri": 4507,
      "##ring": 4508,
      "batt": 4509,
      "single": 4510,
      "weap": 4511,
      "relations": 4512,
      "lady": 4513,
      "imm": 4514,
      "alex": 4515,
      "itself": 4516,
      "##ffe": 4517,
      "pen": 4518,
      "whether": 4519,
      "spot": 4520,
      "vi": 4521,
      "figure": 4522,
      "gas": 4523,
      "position": 4524,
      "seems": 4525,
      "girls": 4526,
      "pleas": 4527,
      "##zz": 4528,
      "round": 4529,
      "hang": 4530,
      "18": 4531,
      "field": 4532,
      "fair": 4533,
      "proper": 4534,
      "experience": 4535,
      "susp": 4536,
      "loved": 4537,
      "vict": 4538,
      "mass": 4539,
      "questions": 4540,
      "##ology": 4541,
      "bey": 4542,
      "stone": 4543,
      "##ashed": 4544,
      "clean": 4545,
      "mel": 4546,
      "##ern": 4547,
      "espe": 4548,
      "months": 4549,
      "ones": 4550,
      "rad": 4551,
      "touch": 4552,
      "hus": 4553,
      "enc": 4554,
      "##fer": 4555,
      "##acy": 4556,
      "##ries": 4557,
      "ru": 4558,
      "danger": 4559,
      "luck": 4560,
      "beside": 4561,
      "crowd": 4562,
      "mut": 4563,
      "gar": 4564,
      "beyond": 4565,
      "special": 4566,
      "country": 4567,
      "especially": 4568,
      "##ocked": 4569,
      "draw": 4570,
      "attempt": 4571,
      "##irty": 4572,
      "fav": 4573,
      "drive": 4574,
      "##band": 4575,
      "##ging": 4576,
      "whispered": 4577,
      "##ope": 4578,
      "learn": 4579,
      "obs": 4580,
      "##par": 4581,
      "fly": 4582,
      "pick": 4583,
      "died": 4584,
      "ahead": 4585,
      "surv": 4586,
      "south": 4587,
      "cy": 4588,
      "invol": 4589,
      "camp": 4590,
      "##und": 4591,
      "##cuss": 4592,
      "pointed": 4593,
      "cas": 4594,
      "diffic": 4595,
      "dropped": 4596,
      "ori": 4597,
      "sett": 4598,
      "sword": 4599,
      "ball": 4600,
      "allah": 4601,
      "placed": 4602,
      "direction": 4603,
      "clothes": 4604,
      "leaned": 4605,
      "non": 4606,
      "##bers": 4607,
      "ur": 4608,
      "changed": 4609,
      "game": 4610,
      "mis": 4611,
      "glanced": 4612,
      "finished": 4613,
      "##aded": 4614,
      "##isted": 4615,
      "books": 4616,
      "##ousand": 4617,
      "thousand": 4618,
      "##con": 4619,
      "ris": 4620,
      "rob": 4621,
      "eight": 4622,
      "fil": 4623,
      "jer": 4624,
      "heaven": 4625,
      "##itted": 4626,
      "##ana": 4627,
      "paper": 4628,
      "turning": 4629,
      "##rib": 4630,
      "guys": 4631,
      "lab": 4632,
      "na": 4633,
      "edge": 4634,
      "incre": 4635,
      "situation": 4636,
      "##ously": 4637,
      "company": 4638,
      "wra": 4639,
      "added": 4640,
      "coffe": 4641,
      "drag": 4642,
      "mod": 4643,
      "techn": 4644,
      "waited": 4645,
      "sar": 4646,
      "mention": 4647,
      "none": 4648,
      "covered": 4649,
      "wondered": 4650,
      "15": 4651,
      "summ": 4652,
      "telling": 4653,
      "knowledge": 4654,
      "disappear": 4655,
      "port": 4656,
      "haven": 4657,
      "public": 4658,
      "captain": 4659,
      "empty": 4660,
      "save": 4661,
      "desk": 4662,
      "fore": 4663,
      "nearly": 4664,
      "daughter": 4665,
      "van": 4666,
      "carry": 4667,
      "relig": 4668,
      "angel": 4669,
      "tonight": 4670,
      "respond": 4671,
      "##oid": 4672,
      "supposed": 4673,
      "##orrow": 4674,
      "bir": 4675,
      "arrived": 4676,
      "##rif": 4677,
      "magic": 4678,
      "reve": 4679,
      "coffee": 4680,
      "invest": 4681,
      "##raid": 4682,
      "trees": 4683,
      "tall": 4684,
      "success": 4685,
      "fif": 4686,
      "david": 4687,
      "discover": 4688,
      "relationship": 4689,
      "spent": 4690,
      "shirt": 4691,
      "stom": 4692,
      "elect": 4693,
      "throat": 4694,
      "master": 4695,
      "visit": 4696,
      "inde": 4697,
      "earl": 4698,
      "organ": 4699,
      "afraid": 4700,
      "evil": 4701,
      "particular": 4702,
      "priv": 4703,
      "sighed": 4704,
      "activ": 4705,
      "tot": 4706,
      "##ishing": 4707,
      "ident": 4708,
      "##uly": 4709,
      "##eren": 4710,
      "effect": 4711,
      "meeting": 4712,
      "husband": 4713,
      "shru": 4714,
      "##ips": 4715,
      "##port": 4716,
      "gather": 4717,
      "##more": 4718,
      "discuss": 4719,
      "##atic": 4720,
      "##usion": 4721,
      "kids": 4722,
      "##osp": 4723,
      "bal": 4724,
      "general": 4725,
      "arg": 4726,
      "pack": 4727,
      "shoulders": 4728,
      "minute": 4729,
      "dar": 4730,
      "##eless": 4731,
      "##let": 4732,
      "##ena": 4733,
      "wants": 4734,
      "surprised": 4735,
      "bath": 4736,
      "river": 4737,
      "oper": 4738,
      "hey": 4739,
      "worth": 4740,
      "remind": 4741,
      "##go": 4742,
      "und": 4743,
      "jour": 4744,
      "threat": 4745,
      "nature": 4746,
      "conversation": 4747,
      "compl": 4748,
      "##ental": 4749,
      "heavy": 4750,
      "200": 4751,
      "shit": 4752,
      "##ees": 4753,
      "needs": 4754,
      "brown": 4755,
      "surround": 4756,
      "doctor": 4757,
      "calm": 4758,
      "scr": 4759,
      "purp": 4760,
      "##ruct": 4761,
      "mountain": 4762,
      "party": 4763,
      "gaze": 4764,
      "record": 4765,
      "comput": 4766,
      "headed": 4767,
      "poor": 4768,
      "evening": 4769,
      "##ivid": 4770,
      "doubt": 4771,
      "##lish": 4772,
      "##ration": 4773,
      "sounds": 4774,
      "frown": 4775,
      "rid": 4776,
      "cause": 4777,
      "iss": 4778,
      "james": 4779,
      "alive": 4780,
      "tomorrow": 4781,
      "music": 4782,
      "intern": 4783,
      "listen": 4784,
      "brain": 4785,
      "lie": 4786,
      "weeks": 4787,
      "##cked": 4788,
      "possib": 4789,
      "##ency": 4790,
      "##urity": 4791,
      "vol": 4792,
      "##ining": 4793,
      "circ": 4794,
      "descri": 4795,
      "spend": 4796,
      "darkness": 4797,
      "strength": 4798,
      "##oring": 4799,
      "note": 4800,
      "##ressed": 4801,
      "pock": 4802,
      "steps": 4803,
      "16": 4804,
      "13": 4805,
      "##ron": 4806,
      "staring": 4807,
      "hosp": 4808,
      "wild": 4809,
      "post": 4810,
      "##ples": 4811,
      "##wards": 4812,
      "distance": 4813,
      "##itten": 4814,
      "government": 4815,
      "weak": 4816,
      "##yn": 4817,
      "##oof": 4818,
      "univers": 4819,
      "protect": 4820,
      "detail": 4821,
      "##come": 4822,
      "trouble": 4823,
      "third": 4824,
      "holy": 4825,
      "difficult": 4826,
      "consider": 4827,
      "sweet": 4828,
      "##roy": 4829,
      "##ov": 4830,
      "pun": 4831,
      "mid": 4832,
      "strugg": 4833,
      "huge": 4834,
      "##ral": 4835,
      "subject": 4836,
      "##ought": 4837,
      "claim": 4838,
      "gro": 4839,
      "lived": 4840,
      "mal": 4841,
      "proph": 4842,
      "finger": 4843,
      "necess": 4844,
      "major": 4845,
      "entered": 4846,
      "simple": 4847,
      "showed": 4848,
      "##icking": 4849,
      "fuck": 4850,
      "thick": 4851,
      "##ushing": 4852,
      "##ury": 4853,
      "becom": 4854,
      "##iel": 4855,
      "dinner": 4856,
      "##ires": 4857,
      "object": 4858,
      "cool": 4859,
      "below": 4860,
      "inn": 4861,
      "michael": 4862,
      "rom": 4863,
      "##ume": 4864,
      "health": 4865,
      "##iling": 4866,
      "history": 4867,
      "##iam": 4868,
      "battle": 4869,
      "vill": 4870,
      "rain": 4871,
      "reading": 4872,
      "14": 4873,
      "ash": 4874,
      "key": 4875,
      "normal": 4876,
      "##ask": 4877,
      "##how": 4878,
      "##une": 4879,
      "##ilar": 4880,
      "##ises": 4881,
      "forget": 4882,
      "##ession": 4883,
      "beginning": 4884,
      "slightly": 4885,
      "travel": 4886,
      "##rect": 4887,
      "##inite": 4888,
      "##lo": 4889,
      "dom": 4890,
      "takes": 4891,
      "center": 4892,
      "effort": 4893,
      "contact": 4894,
      "smo": 4895,
      "tow": 4896,
      "mot": 4897,
      "et": 4898,
      "##uel": 4899,
      "piece": 4900,
      "accord": 4901,
      "ah": 4902,
      "##umbled": 4903,
      "certainly": 4904,
      "broken": 4905,
      "enem": 4906,
      "somewhere": 4907,
      "usually": 4908,
      "forest": 4909,
      "sick": 4910,
      "ways": 4911,
      "##action": 4912,
      "determ": 4913,
      "##ham": 4914,
      "##gram": 4915,
      "ble": 4916,
      "sna": 4917,
      "glad": 4918,
      "##udd": 4919,
      "perform": 4920,
      "brief": 4921,
      "design": 4922,
      "mrs": 4923,
      "sea": 4924,
      "sour": 4925,
      "##ingly": 4926,
      "##iled": 4927,
      "beat": 4928,
      "walls": 4929,
      "##aff": 4930,
      "doors": 4931,
      "choice": 4932,
      "neg": 4933,
      "despite": 4934,
      "nose": 4935,
      "bull": 4936,
      "stomach": 4937,
      "horse": 4938,
      "respons": 4939,
      "gent": 4940,
      "seven": 4941,
      "managed": 4942,
      "##essed": 4943,
      "barely": 4944,
      "damn": 4945,
      "sque": 4946,
      "suit": 4947,
      "stup": 4948,
      "spl": 4949,
      "allowed": 4950,
      "appar": 4951,
      "individ": 4952,
      "born": 4953,
      "amaz": 4954,
      "##bert": 4955,
      "catch": 4956,
      "rolled": 4957,
      "cab": 4958,
      "serious": 4959,
      "wearing": 4960,
      "ut": 4961,
      "ring": 4962,
      "viol": 4963,
      "clearly": 4964,
      "##ett": 4965,
      "boys": 4966,
      "hill": 4967,
      "project": 4968,
      "##teen": 4969,
      "common": 4970,
      "scre": 4971,
      "worse": 4972,
      "polit": 4973,
      "charac": 4974,
      "soci": 4975,
      "##ager": 4976,
      "security": 4977,
      "curr": 4978,
      "notice": 4979,
      "spread": 4980,
      "north": 4981,
      "surprise": 4982,
      "expected": 4983,
      "##ges": 4984,
      "hospital": 4985,
      "##yle": 4986,
      "goes": 4987,
      "##ai": 4988,
      "##ential": 4989,
      "##akes": 4990,
      "##ald": 4991,
      "##onse": 4992,
      "therefore": 4993,
      "focus": 4994,
      "aren": 4995,
      "luc": 4996,
      "surf": 4997,
      "cancer": 4998,
      "earlier": 4999,
      "somehow": 5000,
      "##ality": 5001,
      "origin": 5002,
      "bow": 5003,
      "hun": 5004,
      "fort": 5005,
      "wound": 5006,
      "wel": 5007,
      "lifted": 5008,
      "##ented": 5009,
      "repe": 5010,
      "##por": 5011,
      "stro": 5012,
      "ol": 5013,
      "chuck": 5014,
      "explain": 5015,
      "agreed": 5016,
      "program": 5017,
      "max": 5018,
      "demand": 5019,
      "jen": 5020,
      "cloud": 5021,
      "weren": 5022,
      "##iliar": 5023,
      "planet": 5024,
      "##owers": 5025,
      "bod": 5026,
      "continue": 5027,
      "anger": 5028,
      "17": 5029,
      "conscious": 5030,
      "##ulation": 5031,
      "mary": 5032,
      "social": 5033,
      "mach": 5034,
      "##pper": 5035,
      "demon": 5036,
      "##atter": 5037,
      "jul": 5038,
      "##using": 5039,
      "created": 5040,
      "teeth": 5041,
      "dear": 5042,
      "comb": 5043,
      "##idden": 5044,
      "explained": 5045,
      "reality": 5046,
      "lang": 5047,
      "message": 5048,
      "##ption": 5049,
      "##ization": 5050,
      "share": 5051,
      "##itions": 5052,
      "eventually": 5053,
      "response": 5054,
      "regard": 5055,
      "hol": 5056,
      "##aint": 5057,
      "tone": 5058,
      "birth": 5059,
      "dim": 5060,
      "purpose": 5061,
      "individual": 5062,
      "stupid": 5063,
      "playing": 5064,
      "jew": 5065,
      "##uct": 5066,
      "remembered": 5067,
      "##apt": 5068,
      "seconds": 5069,
      "##la": 5070,
      "##sed": 5071,
      "easily": 5072,
      "track": 5073,
      "##iers": 5074,
      "helped": 5075,
      "accom": 5076,
      "stret": 5077,
      "local": 5078,
      "##gress": 5079,
      "##rodu": 5080,
      "##orge": 5081,
      "anymore": 5082,
      "##ium": 5083,
      "cost": 5084,
      "##igg": 5085,
      "allow": 5086,
      "jim": 5087,
      "speed": 5088,
      "phot": 5089,
      "neither": 5090,
      "broke": 5091,
      "presence": 5092,
      "stat": 5093,
      "kar": 5094,
      "emotion": 5095,
      "likely": 5096,
      "lad": 5097,
      "##izing": 5098,
      "fuc": 5099,
      "aut": 5100,
      "anal": 5101,
      "defe": 5102,
      "silent": 5103,
      "station": 5104,
      "##idge": 5105,
      "tired": 5106,
      "##ceed": 5107,
      "fresh": 5108,
      "deb": 5109,
      "park": 5110,
      "rul": 5111,
      "final": 5112,
      "##miss": 5113,
      "##iction": 5114,
      "similar": 5115,
      "##ball": 5116,
      "offered": 5117,
      "angry": 5118,
      "##aped": 5119,
      "offer": 5120,
      "emb": 5121,
      "##uit": 5122,
      "hide": 5123,
      "destroy": 5124,
      "coo": 5125,
      "remained": 5126,
      "works": 5127,
      "##ama": 5128,
      "intell": 5129,
      "tele": 5130,
      "##ata": 5131,
      "gets": 5132,
      "##form": 5133,
      "shrugged": 5134,
      "court": 5135,
      "unl": 5136,
      "##he": 5137,
      "grace": 5138,
      "##cil": 5139,
      "including": 5140,
      "threw": 5141,
      "##ya": 5142,
      "learned": 5143,
      "colle": 5144,
      "##ploy": 5145,
      "nerv": 5146,
      "##olution": 5147,
      "bedroom": 5148,
      "beneath": 5149,
      "moon": 5150,
      "service": 5151,
      "##oved": 5152,
      "##etic": 5153,
      "action": 5154,
      "stairs": 5155,
      "forced": 5156,
      "frank": 5157,
      "asking": 5158,
      "truck": 5159,
      "computer": 5160,
      "speaking": 5161,
      "fit": 5162,
      "study": 5163,
      "los": 5164,
      "tong": 5165,
      "truly": 5166,
      "separ": 5167,
      "humans": 5168,
      "##ensive": 5169,
      "indeed": 5170,
      "considered": 5171,
      "natural": 5172,
      "liked": 5173,
      "opport": 5174,
      "##erial": 5175,
      "tast": 5176,
      "tiny": 5177,
      "bottom": 5178,
      "grew": 5179,
      "promise": 5180,
      "worried": 5181,
      "members": 5182,
      "written": 5183,
      "depart": 5184,
      "motion": 5185,
      "handed": 5186,
      "wit": 5187,
      "band": 5188,
      "shouted": 5189,
      "resear": 5190,
      "gently": 5191,
      "bell": 5192,
      "phil": 5193,
      "picture": 5194,
      "places": 5195,
      "opportun": 5196,
      "##men": 5197,
      "lying": 5198,
      "##erved": 5199,
      "harm": 5200,
      "gh": 5201,
      "arch": 5202,
      "drew": 5203,
      "##lt": 5204,
      "due": 5205,
      "##ify": 5206,
      "favor": 5207,
      "##val": 5208,
      "cult": 5209,
      "##ette": 5210,
      "experien": 5211,
      "pocket": 5212,
      "memory": 5213,
      "paused": 5214,
      "respect": 5215,
      "keeping": 5216,
      "aware": 5217,
      "cup": 5218,
      "pulling": 5219,
      "disc": 5220,
      "relax": 5221,
      "aftern": 5222,
      "based": 5223,
      "hes": 5224,
      "gard": 5225,
      "physical": 5226,
      "##ended": 5227,
      "hom": 5228,
      "##ray": 5229,
      "quietly": 5230,
      "langu": 5231,
      "fix": 5232,
      "cells": 5233,
      "##rible": 5234,
      "env": 5235,
      "type": 5236,
      "example": 5237,
      "##icle": 5238,
      "weight": 5239,
      "imagine": 5240,
      "states": 5241,
      "ger": 5242,
      "hat": 5243,
      "san": 5244,
      "prop": 5245,
      "ach": 5246,
      "familiar": 5247,
      "jumped": 5248,
      "deliver": 5249,
      "oppos": 5250,
      "thus": 5251,
      "##ences": 5252,
      "##rit": 5253,
      "escape": 5254,
      "older": 5255,
      "material": 5256,
      "meaning": 5257,
      "sounded": 5258,
      "base": 5259,
      "sac": 5260,
      "dust": 5261,
      "dressed": 5262,
      "unf": 5263,
      "teach": 5264,
      "whe": 5265,
      "##ez": 5266,
      "song": 5267,
      "odd": 5268,
      "##ension": 5269,
      "blank": 5270,
      "##ils": 5271,
      "##hood": 5272,
      "lights": 5273,
      "powerful": 5274,
      "bird": 5275,
      "inh": 5276,
      "##ja": 5277,
      "carried": 5278,
      "desire": 5279,
      "army": 5280,
      "honest": 5281,
      "pair": 5282,
      "tum": 5283,
      "metal": 5284,
      "vers": 5285,
      "kissed": 5286,
      "afternoon": 5287,
      "card": 5288,
      "peter": 5289,
      "lou": 5290,
      "board": 5291,
      "christian": 5292,
      "target": 5293,
      "insp": 5294,
      "lose": 5295,
      "##urs": 5296,
      "choo": 5297,
      "joy": 5298,
      "30": 5299,
      "##inct": 5300,
      "cand": 5301,
      "psy": 5302,
      "stick": 5303,
      "##line": 5304,
      "##icated": 5305,
      "carefully": 5306,
      "west": 5307,
      "##asion": 5308,
      "##isf": 5309,
      "wol": 5310,
      "##reme": 5311,
      "##rage": 5312,
      "silver": 5313,
      "##erve": 5314,
      "##aling": 5315,
      "##zen": 5316,
      "aud": 5317,
      "buy": 5318,
      "##osh": 5319,
      "counter": 5320,
      "appre": 5321,
      "according": 5322,
      "forth": 5323,
      "##rie": 5324,
      "##uss": 5325,
      "##cient": 5326,
      "##gar": 5327,
      "mart": 5328,
      "moments": 5329,
      "fool": 5330,
      "##ky": 5331,
      "drug": 5332,
      "crazy": 5333,
      "forever": 5334,
      "american": 5335,
      "##gging": 5336,
      "ban": 5337,
      "writing": 5338,
      "chall": 5339,
      "bi": 5340,
      "snow": 5341,
      "research": 5342,
      "dry": 5343,
      "hoped": 5344,
      "##rap": 5345,
      "thirty": 5346,
      "adam": 5347,
      "prison": 5348,
      "hesit": 5349,
      "dig": 5350,
      "screen": 5351,
      "##oned": 5352,
      "link": 5353,
      "correct": 5354,
      "neigh": 5355,
      "married": 5356,
      "understanding": 5357,
      "meth": 5358,
      "ears": 5359,
      "##str": 5360,
      "##olute": 5361,
      "##ius": 5362,
      "entr": 5363,
      "lower": 5364,
      "cheek": 5365,
      "infl": 5366,
      "firm": 5367,
      "whom": 5368,
      "pressed": 5369,
      "decl": 5370,
      "trip": 5371,
      "hoping": 5372,
      "color": 5373,
      "##ially": 5374,
      "##amb": 5375,
      "problems": 5376,
      "lock": 5377,
      "flesh": 5378,
      "mult": 5379,
      "directly": 5380,
      "##set": 5381,
      "obviously": 5382,
      "cust": 5383,
      "neighb": 5384,
      "##usted": 5385,
      "tun": 5386,
      "knees": 5387,
      "##ench": 5388,
      "##itude": 5389,
      "store": 5390,
      "talked": 5391,
      "shoot": 5392,
      "smiling": 5393,
      "convin": 5394,
      "gentle": 5395,
      "##itary": 5396,
      "numb": 5397,
      "##wise": 5398,
      "shop": 5399,
      "wip": 5400,
      "whose": 5401,
      "term": 5402,
      "realize": 5403,
      "dut": 5404,
      "##ica": 5405,
      "university": 5406,
      "psych": 5407,
      "##cles": 5408,
      "bob": 5409,
      "heat": 5410,
      "shif": 5411,
      "starting": 5412,
      "##ades": 5413,
      "busy": 5414,
      "belong": 5415,
      "block": 5416,
      "##work": 5417,
      "involved": 5418,
      "##ability": 5419,
      "##ests": 5420,
      "mission": 5421,
      "pour": 5422,
      "bodies": 5423,
      "##ipp": 5424,
      "apartment": 5425,
      "bear": 5426,
      "##raph": 5427,
      "image": 5428,
      "society": 5429,
      "hate": 5430,
      "nod": 5431,
      "wis": 5432,
      "doll": 5433,
      "##astic": 5434,
      "jan": 5435,
      "unto": 5436,
      "sharp": 5437,
      "shaking": 5438,
      "log": 5439,
      "##ilities": 5440,
      "witness": 5441,
      "##mer": 5442,
      "ell": 5443,
      "##bel": 5444,
      "hy": 5445,
      "capt": 5446,
      "camer": 5447,
      "mike": 5448,
      "extra": 5449,
      "definite": 5450,
      "desper": 5451,
      "##lin": 5452,
      "##ival": 5453,
      "##gy": 5454,
      "fal": 5455,
      "officer": 5456,
      "##soci": 5457,
      "touched": 5458,
      "##ique": 5459,
      "unless": 5460,
      "##riage": 5461,
      "growing": 5462,
      "stories": 5463,
      "##asing": 5464,
      "avail": 5465,
      "opening": 5466,
      "vamp": 5467,
      "vision": 5468,
      "imposs": 5469,
      "satisf": 5470,
      "##umed": 5471,
      "ended": 5472,
      "fat": 5473,
      "##ners": 5474,
      "remain": 5475,
      "flat": 5476,
      "finding": 5477,
      "decision": 5478,
      "absolute": 5479,
      "turns": 5480,
      "##ature": 5481,
      "lean": 5482,
      "fold": 5483,
      "matt": 5484,
      "write": 5485,
      "uncle": 5486,
      "une": 5487,
      "queen": 5488,
      "##cend": 5489,
      "necessary": 5490,
      "murder": 5491,
      "prim": 5492,
      "understood": 5493,
      "wed": 5494,
      "surface": 5495,
      "associ": 5496,
      "spiritual": 5497,
      "letter": 5498,
      "fucking": 5499,
      "ice": 5500,
      "join": 5501,
      "events": 5502,
      "##ls": 5503,
      "fac": 5504,
      "ancient": 5505,
      "pu": 5506,
      "peri": 5507,
      "##ipping": 5508,
      "##acher": 5509,
      "handle": 5510,
      "besides": 5511,
      "gate": 5512,
      "charl": 5513,
      "refer": 5514,
      "engine": 5515,
      "lunch": 5516,
      "fighting": 5517,
      "ess": 5518,
      "drove": 5519,
      "trad": 5520,
      "wrapped": 5521,
      "feed": 5522,
      "ya": 5523,
      "##bit": 5524,
      "blind": 5525,
      "male": 5526,
      "putting": 5527,
      "tongue": 5528,
      "storm": 5529,
      "##ites": 5530,
      "##ients": 5531,
      "evidence": 5532,
      "higher": 5533,
      "stayed": 5534,
      "date": 5535,
      "character": 5536,
      "##play": 5537,
      "ty": 5538,
      "soldiers": 5539,
      "fully": 5540,
      "scient": 5541,
      "jon": 5542,
      "lack": 5543,
      "doc": 5544,
      "##yal": 5545,
      "##ested": 5546,
      "employ": 5547,
      "dragon": 5548,
      "calling": 5549,
      "island": 5550,
      "eth": 5551,
      "mere": 5552,
      "miles": 5553,
      "asks": 5554,
      "##ables": 5555,
      "received": 5556,
      "pred": 5557,
      "concern": 5558,
      "##ec": 5559,
      "jake": 5560,
      "push": 5561,
      "missing": 5562,
      "feelings": 5563,
      "##riend": 5564,
      "21": 5565,
      "built": 5566,
      "search": 5567,
      "bother": 5568,
      "believed": 5569,
      "mov": 5570,
      "repres": 5571,
      "drop": 5572,
      "staff": 5573,
      "##ground": 5574,
      "president": 5575,
      "various": 5576,
      "##rael": 5577,
      "##arily": 5578,
      "##anted": 5579,
      "usual": 5580,
      "##aks": 5581,
      "slid": 5582,
      "##tt": 5583,
      "ride": 5584,
      "paid": 5585,
      "sell": 5586,
      "period": 5587,
      "##ding": 5588,
      "25": 5589,
      "caused": 5590,
      "##inking": 5591,
      "##lled": 5592,
      "##attered": 5593,
      "willing": 5594,
      "pill": 5595,
      "access": 5596,
      "##istic": 5597,
      "hidden": 5598,
      "train": 5599,
      "science": 5600,
      "jac": 5601,
      "##inting": 5602,
      "skill": 5603,
      "nick": 5604,
      "size": 5605,
      "bible": 5606,
      "investig": 5607,
      "##ument": 5608,
      "meas": 5609,
      "locked": 5610,
      "gon": 5611,
      "smoke": 5612,
      "private": 5613,
      "##af": 5614,
      "bank": 5615,
      "benef": 5616,
      "beast": 5617,
      "hen": 5618,
      "pound": 5619,
      "falling": 5620,
      "nobody": 5621,
      "guards": 5622,
      "approached": 5623,
      "##others": 5624,
      "host": 5625,
      "stuck": 5626,
      "spo": 5627,
      "grass": 5628,
      "cried": 5629,
      "breast": 5630,
      "##we": 5631,
      "ry": 5632,
      "##ively": 5633,
      "creature": 5634,
      "avoid": 5635,
      "laughing": 5636,
      "bound": 5637,
      "wand": 5638,
      "##oint": 5639,
      "##ship": 5640,
      "happening": 5641,
      "introdu": 5642,
      "hearing": 5643,
      "attract": 5644,
      "risk": 5645,
      "mic": 5646,
      "wash": 5647,
      "played": 5648,
      "language": 5649,
      "##itor": 5650,
      "flash": 5651,
      "fema": 5652,
      "veh": 5653,
      "##fast": 5654,
      "communic": 5655,
      "##nday": 5656,
      "pleasure": 5657,
      "shock": 5658,
      "thom": 5659,
      "##well": 5660,
      "kingdom": 5661,
      "aside": 5662,
      "tit": 5663,
      "daniel": 5664,
      "civ": 5665,
      "impossible": 5666,
      "female": 5667,
      "yelled": 5668,
      "scar": 5669,
      "training": 5670,
      "universe": 5671,
      "wore": 5672,
      "israel": 5673,
      "laid": 5674,
      "enemy": 5675,
      "000": 5676,
      "lines": 5677,
      "##hy": 5678,
      "crack": 5679,
      "ability": 5680,
      "attend": 5681,
      "obvious": 5682,
      "scene": 5683,
      "fish": 5684,
      "shadow": 5685,
      "disappeared": 5686,
      "du": 5687,
      "definitely": 5688,
      "ray": 5689,
      "william": 5690,
      "init": 5691,
      "prepared": 5692,
      "entrance": 5693,
      "##ston": 5694,
      "##ura": 5695,
      "freed": 5696,
      "wet": 5697,
      "opportunity": 5698,
      "stage": 5699,
      "tu": 5700,
      "##iah": 5701,
      "kat": 5702,
      "swall": 5703,
      "gest": 5704,
      "bathroom": 5705,
      "method": 5706,
      "students": 5707,
      "ep": 5708,
      "nar": 5709,
      "crossed": 5710,
      "military": 5711,
      "rap": 5712,
      "##inary": 5713,
      "sarah": 5714,
      "##ounced": 5715,
      "quar": 5716,
      "slam": 5717,
      "##ids": 5718,
      "##roud": 5719,
      "mas": 5720,
      "journey": 5721,
      "slipped": 5722,
      "##alth": 5723,
      "apparently": 5724,
      "##cho": 5725,
      "##omb": 5726,
      "##ruction": 5727,
      "interrupt": 5728,
      "grinned": 5729,
      "gab": 5730,
      "summer": 5731,
      "gray": 5732,
      "unc": 5733,
      "crew": 5734,
      "toss": 5735,
      "inj": 5736,
      "driver": 5737,
      "vir": 5738,
      "wake": 5739,
      "village": 5740,
      "hole": 5741,
      "east": 5742,
      "educ": 5743,
      "##ole": 5744,
      "weapons": 5745,
      "##nel": 5746,
      "shouldn": 5747,
      "estab": 5748,
      "##ores": 5749,
      "data": 5750,
      "wid": 5751,
      "missed": 5752,
      "tax": 5753,
      "dangerous": 5754,
      "manage": 5755,
      "custom": 5756,
      "market": 5757,
      "luke": 5758,
      "##leep": 5759,
      "appreci": 5760,
      "rand": 5761,
      "copy": 5762,
      "disp": 5763,
      "22": 5764,
      "softly": 5765,
      "interesting": 5766,
      "create": 5767,
      "##anna": 5768,
      "frowned": 5769,
      "weapon": 5770,
      "finish": 5771,
      "mort": 5772,
      "##conom": 5773,
      "asleep": 5774,
      "sla": 5775,
      "noise": 5776,
      "addition": 5777,
      "hotel": 5778,
      "##ashing": 5779,
      "depend": 5780,
      "uns": 5781,
      "clock": 5782,
      "##otten": 5783,
      "confused": 5784,
      "dance": 5785,
      "college": 5786,
      "suppose": 5787,
      "eric": 5788,
      "gives": 5789,
      "available": 5790,
      "24": 5791,
      "occur": 5792,
      "heads": 5793,
      "knife": 5794,
      "burst": 5795,
      "##ancy": 5796,
      "resist": 5797,
      "199": 5798,
      "animal": 5799,
      "tur": 5800,
      "agree": 5801,
      "product": 5802,
      "rout": 5803,
      "loss": 5804,
      "##ulf": 5805,
      "beach": 5806,
      "ourselves": 5807,
      "##aked": 5808,
      "breathing": 5809,
      "##oses": 5810,
      "george": 5811,
      "faces": 5812,
      "signific": 5813,
      "##ker": 5814,
      "scared": 5815,
      "windows": 5816,
      "gotten": 5817,
      "happens": 5818,
      "bottle": 5819,
      "practice": 5820,
      "movement": 5821,
      "##ases": 5822,
      "amb": 5823,
      "positive": 5824,
      "length": 5825,
      "english": 5826,
      "##anda": 5827,
      "ordered": 5828,
      "pin": 5829,
      "display": 5830,
      "econom": 5831,
      "council": 5832,
      "##cking": 5833,
      "leader": 5834,
      "club": 5835,
      "sen": 5836,
      "##arm": 5837,
      "dreams": 5838,
      "fed": 5839,
      "boat": 5840,
      "##ndon": 5841,
      "spell": 5842,
      "##ading": 5843,
      "##gu": 5844,
      "opposite": 5845,
      "wine": 5846,
      "animals": 5847,
      "adj": 5848,
      "text": 5849,
      "surely": 5850,
      "##claim": 5851,
      "etern": 5852,
      "##anged": 5853,
      "national": 5854,
      "##orted": 5855,
      "occasion": 5856,
      "civil": 5857,
      "breakfast": 5858,
      "yellow": 5859,
      "gal": 5860,
      "eating": 5861,
      "source": 5862,
      "##book": 5863,
      "der": 5864,
      "relief": 5865,
      "comment": 5866,
      "assist": 5867,
      "sav": 5868,
      "results": 5869,
      "concerned": 5870,
      "wondering": 5871,
      "garden": 5872,
      "letting": 5873,
      "crit": 5874,
      "##ological": 5875,
      "impro": 5876,
      "prayer": 5877,
      "wonderful": 5878,
      "stream": 5879,
      "joined": 5880,
      "hanging": 5881,
      "eld": 5882,
      "plans": 5883,
      "struct": 5884,
      "ghost": 5885,
      "##iday": 5886,
      "pil": 5887,
      "behav": 5888,
      "mostly": 5889,
      "listening": 5890,
      "mirror": 5891,
      "sleeping": 5892,
      "gonna": 5893,
      "welcome": 5894,
      "ly": 5895,
      "bran": 5896,
      "##rated": 5897,
      "hers": 5898,
      "##lished": 5899,
      "tea": 5900,
      "flight": 5901,
      "screamed": 5902,
      "leading": 5903,
      "##asm": 5904,
      "##imin": 5905,
      "amount": 5906,
      "existence": 5907,
      "interested": 5908,
      "medical": 5909,
      "saved": 5910,
      "##iron": 5911,
      "sweat": 5912,
      "throughout": 5913,
      "judge": 5914,
      "settled": 5915,
      "careful": 5916,
      "##rel": 5917,
      "broad": 5918,
      "extreme": 5919,
      "prefer": 5920,
      "aim": 5921,
      "current": 5922,
      "##elle": 5923,
      "million": 5924,
      "##sequ": 5925,
      "##eness": 5926,
      "##ki": 5927,
      "net": 5928,
      "ken": 5929,
      "saf": 5930,
      "nervous": 5931,
      "tend": 5932,
      "leaves": 5933,
      "concent": 5934,
      "##rid": 5935,
      "confir": 5936,
      "grad": 5937,
      "robert": 5938,
      "##stairs": 5939,
      "##tle": 5940,
      "lin": 5941,
      "achie": 5942,
      "yours": 5943,
      "23": 5944,
      "##ev": 5945,
      "unable": 5946,
      "sne": 5947,
      "por": 5948,
      "##cul": 5949,
      "mentioned": 5950,
      "##key": 5951,
      "lif": 5952,
      "account": 5953,
      "fro": 5954,
      "terror": 5955,
      "flying": 5956,
      "gift": 5957,
      "choose": 5958,
      "lucky": 5959,
      "greet": 5960,
      "otherwise": 5961,
      "moder": 5962,
      "york": 5963,
      "mech": 5964,
      "snapped": 5965,
      "forehead": 5966,
      "##unately": 5967,
      "lip": 5968,
      "chin": 5969,
      "hi": 5970,
      "series": 5971,
      "##eral": 5972,
      "##ators": 5973,
      "##ping": 5974,
      "becoming": 5975,
      "wooden": 5976,
      "pra": 5977,
      "fallen": 5978,
      "possibly": 5979,
      "united": 5980,
      "influ": 5981,
      "smooth": 5982,
      "wear": 5983,
      "contr": 5984,
      "interv": 5985,
      "##otions": 5986,
      "##ograph": 5987,
      "lat": 5988,
      "eur": 5989,
      "##aur": 5990,
      "##ague": 5991,
      "mix": 5992,
      "intellig": 5993,
      "##den": 5994,
      "##ta": 5995,
      "names": 5996,
      "removed": 5997,
      "##here": 5998,
      "difference": 5999,
      "##omed": 6000,
      "proud": 6001,
      "fund": 6002,
      "##iment": 6003,
      "##cise": 6004,
      "checked": 6005,
      "pieces": 6006,
      "farm": 6007,
      "trick": 6008,
      "rough": 6009,
      "deg": 6010,
      "spr": 6011,
      "belief": 6012,
      "waved": 6013,
      "##board": 6014,
      "driving": 6015,
      "numbers": 6016,
      "role": 6017,
      "##iving": 6018,
      "##athan": 6019,
      "community": 6020,
      "##imate": 6021,
      "pure": 6022,
      "condition": 6023,
      "##asons": 6024,
      "parts": 6025,
      "ens": 6026,
      "anywhere": 6027,
      "instruct": 6028,
      "cabin": 6029,
      "innoc": 6030,
      "details": 6031,
      "wheel": 6032,
      "figured": 6033,
      "comfortable": 6034,
      "repeated": 6035,
      "memories": 6036,
      "wave": 6037,
      "tent": 6038,
      "throw": 6039,
      "anx": 6040,
      "##yl": 6041,
      "##ese": 6042,
      "emp": 6043,
      "stars": 6044,
      "excited": 6045,
      "indic": 6046,
      "trail": 6047,
      "page": 6048,
      "charge": 6049,
      "##roll": 6050,
      "encou": 6051,
      "sides": 6052,
      "opt": 6053,
      "tour": 6054,
      "provide": 6055,
      "select": 6056,
      "reflect": 6057,
      "scan": 6058,
      "josh": 6059,
      "extend": 6060,
      "feels": 6061,
      "hallway": 6062,
      "##eks": 6063,
      "##ca": 6064,
      "##bled": 6065,
      "address": 6066,
      "##ibility": 6067,
      "##ols": 6068,
      "hous": 6069,
      "joe": 6070,
      "##ram": 6071,
      "reply": 6072,
      "emotions": 6073,
      "##ached": 6074,
      "wrote": 6075,
      "aust": 6076,
      "development": 6077,
      "value": 6078,
      "double": 6079,
      "aunt": 6080,
      "glance": 6081,
      "freedom": 6082,
      "frust": 6083,
      "##uing": 6084,
      "recall": 6085,
      "aid": 6086,
      "##illed": 6087,
      "chief": 6088,
      "asp": 6089,
      "##aming": 6090,
      "##mas": 6091,
      "thomas": 6092,
      "##lam": 6093,
      "machine": 6094,
      "##ka": 6095,
      "##iple": 6096,
      "nine": 6097,
      "wolf": 6098,
      "##iot": 6099,
      "##itation": 6100,
      "##wor": 6101,
      "que": 6102,
      "blond": 6103,
      "complex": 6104,
      "discovered": 6105,
      "##icious": 6106,
      "buck": 6107,
      "##oted": 6108,
      "shower": 6109,
      "##ocking": 6110,
      "lung": 6111,
      "lake": 6112,
      "rum": 6113,
      "tells": 6114,
      "pool": 6115,
      "##uce": 6116,
      "scri": 6117,
      "circum": 6118,
      "boss": 6119,
      "nearby": 6120,
      "reb": 6121,
      "cred": 6122,
      "cla": 6123,
      "hardly": 6124,
      "jason": 6125,
      "##ception": 6126,
      "##rop": 6127,
      "echo": 6128,
      "distract": 6129,
      "##arrass": 6130,
      "environ": 6131,
      "actions": 6132,
      "bay": 6133,
      "religion": 6134,
      "embarrass": 6135,
      "bridge": 6136,
      "ze": 6137,
      "funny": 6138,
      "hors": 6139,
      "learning": 6140,
      "heading": 6141,
      "taught": 6142,
      "##ims": 6143,
      "warri": 6144,
      "##ios": 6145,
      "tan": 6146,
      "exh": 6147,
      "bless": 6148,
      "elev": 6149,
      "alright": 6150,
      "burning": 6151,
      "mental": 6152,
      "suggested": 6153,
      "##under": 6154,
      "circle": 6155,
      "stare": 6156,
      "prince": 6157,
      "bud": 6158,
      "wanting": 6159,
      "showing": 6160,
      "##izz": 6161,
      "exch": 6162,
      "grey": 6163,
      "conv": 6164,
      "jam": 6165,
      "##han": 6166,
      "previous": 6167,
      "decide": 6168,
      "unfort": 6169,
      "prophet": 6170,
      "brothers": 6171,
      "marriage": 6172,
      "foc": 6173,
      "gathered": 6174,
      "manner": 6175,
      "rise": 6176,
      "pit": 6177,
      "beauty": 6178,
      "function": 6179,
      "##for": 6180,
      "##kn": 6181,
      "##uses": 6182,
      "responded": 6183,
      "golden": 6184,
      "dirt": 6185,
      "react": 6186,
      "##gen": 6187,
      "specific": 6188,
      "wisdom": 6189,
      "gras": 6190,
      "row": 6191,
      "##uted": 6192,
      "named": 6193,
      "ju": 6194,
      "naked": 6195,
      "iron": 6196,
      "mac": 6197,
      "compet": 6198,
      "##atory": 6199,
      "magn": 6200,
      "promised": 6201,
      "smart": 6202,
      "dece": 6203,
      "maintain": 6204,
      "craw": 6205,
      "beer": 6206,
      "mum": 6207,
      "passing": 6208,
      "drift": 6209,
      "waist": 6210,
      "admit": 6211,
      "##umped": 6212,
      "shape": 6213,
      "killing": 6214,
      "pad": 6215,
      "consciousness": 6216,
      "greater": 6217,
      "ren": 6218,
      "flew": 6219,
      "##ucked": 6220,
      "##othing": 6221,
      "america": 6222,
      "##eds": 6223,
      "##reek": 6224,
      "jaw": 6225,
      "loose": 6226,
      "pretend": 6227,
      "totally": 6228,
      "##ament": 6229,
      "required": 6230,
      "forgotten": 6231,
      "narr": 6232,
      "pale": 6233,
      "sher": 6234,
      "released": 6235,
      "jess": 6236,
      "couch": 6237,
      "climbed": 6238,
      "ideas": 6239,
      "cheeks": 6240,
      "##nds": 6241,
      "section": 6242,
      "teaching": 6243,
      "purch": 6244,
      "gods": 6245,
      "answers": 6246,
      "mechan": 6247,
      "shared": 6248,
      "russ": 6249,
      "polic": 6250,
      "cit": 6251,
      "grim": 6252,
      "progress": 6253,
      "##enge": 6254,
      "item": 6255,
      "failed": 6256,
      "medic": 6257,
      "cele": 6258,
      "cham": 6259,
      "##iter": 6260,
      "rare": 6261,
      "rang": 6262,
      "plate": 6263,
      "shoes": 6264,
      "potential": 6265,
      "crying": 6266,
      "domin": 6267,
      "accident": 6268,
      "pink": 6269,
      "nur": 6270,
      "blade": 6271,
      "teacher": 6272,
      "liter": 6273,
      "safety": 6274,
      "tv": 6275,
      "helping": 6276,
      "cu": 6277,
      "emer": 6278,
      "##mp": 6279,
      "jose": 6280,
      "##enger": 6281,
      "terrible": 6282,
      "qur": 6283,
      "focused": 6284,
      "frey": 6285,
      "##comfort": 6286,
      "##gs": 6287,
      "hello": 6288,
      "kr": 6289,
      "grip": 6290,
      "total": 6291,
      "stated": 6292,
      "reaching": 6293,
      "easier": 6294,
      "hero": 6295,
      "##ora": 6296,
      "leather": 6297,
      "##nes": 6298,
      "changes": 6299,
      "obl": 6300,
      "carrying": 6301,
      "yester": 6302,
      "race": 6303,
      "script": 6304,
      "bent": 6305,
      "rules": 6306,
      "##bi": 6307,
      "creatures": 6308,
      "aver": 6309,
      "##illy": 6310,
      "theory": 6311,
      "##pan": 6312,
      "calls": 6313,
      "reminded": 6314,
      "seek": 6315,
      "recover": 6316,
      "celebr": 6317,
      "yesterday": 6318,
      "taste": 6319,
      "##house": 6320,
      "wished": 6321,
      "gigg": 6322,
      "leaders": 6323,
      "##mar": 6324,
      "blow": 6325,
      "oce": 6326,
      "evolution": 6327,
      "struck": 6328,
      "horses": 6329,
      "cass": 6330,
      "mc": 6331,
      "##asy": 6332,
      "hiding": 6333,
      "incred": 6334,
      "##iven": 6335,
      "listened": 6336,
      "charlie": 6337,
      "tumor": 6338,
      "task": 6339,
      "shield": 6340,
      "shake": 6341,
      "solid": 6342,
      "feat": 6343,
      "##ech": 6344,
      "freyja": 6345,
      "accepted": 6346,
      "temper": 6347,
      "radio": 6348,
      "bought": 6349,
      "thor": 6350,
      "setting": 6351,
      "plat": 6352,
      "bol": 6353,
      "ult": 6354,
      "worst": 6355,
      "aband": 6356,
      "wealth": 6357,
      "mood": 6358,
      "##oying": 6359,
      "laughter": 6360,
      "pleased": 6361,
      "fault": 6362,
      "##ada": 6363,
      "environment": 6364,
      "nic": 6365,
      "twice": 6366,
      "amazing": 6367,
      "cow": 6368,
      "exha": 6369,
      "chuckled": 6370,
      "##aging": 6371,
      "libr": 6372,
      "shadows": 6373,
      "fran": 6374,
      "absolutely": 6375,
      "younger": 6376,
      "cook": 6377,
      "ron": 6378,
      "member": 6379,
      "purs": 6380,
      "##reg": 6381,
      "shel": 6382,
      "deck": 6383,
      "weird": 6384,
      "original": 6385,
      "notes": 6386,
      "wes": 6387,
      "vide": 6388,
      "henry": 6389,
      "model": 6390,
      "##lyn": 6391,
      "meal": 6392,
      "roof": 6393,
      "ceiling": 6394,
      "pointing": 6395,
      "modern": 6396,
      "regular": 6397,
      "##ification": 6398,
      "cock": 6399,
      "fright": 6400,
      "political": 6401,
      "sha": 6402,
      "rushed": 6403,
      "media": 6404,
      "express": 6405,
      "htt": 6406,
      "squeez": 6407,
      "##mon": 6408,
      "##eter": 6409,
      "temple": 6410,
      "cryst": 6411,
      "pul": 6412,
      "fought": 6413,
      "negative": 6414,
      "##ita": 6415,
      "receive": 6416,
      "embr": 6417,
      "##ns": 6418,
      "streets": 6419,
      "unlike": 6420,
      "##vey": 6421,
      "transl": 6422,
      "jacob": 6423,
      "##lies": 6424,
      "pushing": 6425,
      "acqu": 6426,
      "faced": 6427,
      "plant": 6428,
      "twel": 6429,
      "cave": 6430,
      "hated": 6431,
      "planned": 6432,
      "##osen": 6433,
      "emerg": 6434,
      "pier": 6435,
      "everywhere": 6436,
      "issue": 6437,
      "profess": 6438,
      "reasons": 6439,
      "sacrif": 6440,
      "signs": 6441,
      "knock": 6442,
      "##onscious": 6443,
      "seriously": 6444,
      "upset": 6445,
      "opin": 6446,
      "faster": 6447,
      "dise": 6448,
      "species": 6449,
      "giant": 6450,
      "trave": 6451,
      "grown": 6452,
      "##nie": 6453,
      "former": 6454,
      "lap": 6455,
      "pressure": 6456,
      "##isa": 6457,
      "points": 6458,
      "orders": 6459,
      "fifty": 6460,
      "ms": 6461,
      "determined": 6462,
      "matth": 6463,
      "myst": 6464,
      "perfectly": 6465,
      "islam": 6466,
      "price": 6467,
      "coat": 6468,
      "symb": 6469,
      "tick": 6470,
      "cars": 6471,
      "woke": 6472,
      "##min": 6473,
      "victor": 6474,
      "198": 6475,
      "##xic": 6476,
      "##tering": 6477,
      "colon": 6478,
      "pants": 6479,
      "profession": 6480,
      "spring": 6481,
      "terms": 6482,
      "revealed": 6483,
      "bringing": 6484,
      "thinks": 6485,
      "religious": 6486,
      "match": 6487,
      "serve": 6488,
      "prior": 6489,
      "breaking": 6490,
      "provided": 6491,
      "movie": 6492,
      "enjoyed": 6493,
      "false": 6494,
      "##antic": 6495,
      "##acle": 6496,
      "impl": 6497,
      "witch": 6498,
      "concept": 6499,
      "fol": 6500,
      "frame": 6501,
      "##gest": 6502,
      "frequ": 6503,
      "spin": 6504,
      "formed": 6505,
      "##iety": 6506,
      "fant": 6507,
      "sev": 6508,
      "weather": 6509,
      "causing": 6510,
      "creation": 6511,
      "percent": 6512,
      "##pet": 6513,
      "vac": 6514,
      "button": 6515,
      "colour": 6516,
      "thy": 6517,
      "##antage": 6518,
      "till": 6519,
      "divine": 6520,
      "agent": 6521,
      "ba": 6522,
      "##ects": 6523,
      "treatment": 6524,
      "rule": 6525,
      "26": 6526,
      "rights": 6527,
      "##wood": 6528,
      "technology": 6529,
      "powers": 6530,
      "nav": 6531,
      "landed": 6532,
      "##ointed": 6533,
      "sof": 6534,
      "uh": 6535,
      "hungry": 6536,
      "jacket": 6537,
      "##rick": 6538,
      "square": 6539,
      "circumst": 6540,
      "jane": 6541,
      "favorite": 6542,
      "carl": 6543,
      "wise": 6544,
      "adult": 6545,
      "duty": 6546,
      "warning": 6547,
      "##off": 6548,
      "doorway": 6549,
      "dish": 6550,
      "deeply": 6551,
      "novel": 6552,
      "rush": 6553,
      "property": 6554,
      "impact": 6555,
      "bloody": 6556,
      "##mission": 6557,
      "eliz": 6558,
      "massive": 6559,
      "patients": 6560,
      "soph": 6561,
      "excuse": 6562,
      "castle": 6563,
      "reaction": 6564,
      "verse": 6565,
      "passion": 6566,
      "dawn": 6567,
      "rach": 6568,
      "europe": 6569,
      "##iance": 6570,
      "represent": 6571,
      "woods": 6572,
      "##ulous": 6573,
      "##aries": 6574,
      "forces": 6575,
      "dirty": 6576,
      "waves": 6577,
      "revel": 6578,
      "rever": 6579,
      "jay": 6580,
      "twelve": 6581,
      "proceed": 6582,
      "ram": 6583,
      "##sing": 6584,
      "##ira": 6585,
      "ignored": 6586,
      "teen": 6587,
      "activity": 6588,
      "brit": 6589,
      "##lessly": 6590,
      "resc": 6591,
      "ow": 6592,
      "##inging": 6593,
      "narrow": 6594,
      "pattern": 6595,
      "##nal": 6596,
      "honor": 6597,
      "occup": 6598,
      "chem": 6599,
      "rising": 6600,
      "27": 6601,
      "christmas": 6602,
      "fifteen": 6603,
      "everybody": 6604,
      "winter": 6605,
      "entirely": 6606,
      "chris": 6607,
      "restaur": 6608,
      "cleared": 6609,
      "laws": 6610,
      "##ulated": 6611,
      "surrounded": 6612,
      "prove": 6613,
      "##ander": 6614,
      "regret": 6615,
      "##iant": 6616,
      "##riel": 6617,
      "groups": 6618,
      "cart": 6619,
      "review": 6620,
      "disci": 6621,
      "content": 6622,
      "losing": 6623,
      "##ifer": 6624,
      "meat": 6625,
      "ocean": 6626,
      "##ishment": 6627,
      "richard": 6628,
      "cig": 6629,
      "28": 6630,
      "wil": 6631,
      "chosen": 6632,
      "eyed": 6633,
      "bul": 6634,
      "dying": 6635,
      "##ocr": 6636,
      "burned": 6637,
      "twisted": 6638,
      "fruit": 6639,
      "damage": 6640,
      "harder": 6641,
      "matthew": 6642,
      "nut": 6643,
      "balance": 6644,
      "##ule": 6645,
      "##ails": 6646,
      "refused": 6647,
      "plane": 6648,
      "systems": 6649,
      "becomes": 6650,
      "washing": 6651,
      "##isters": 6652,
      "##ero": 6653,
      "ast": 6654,
      "##hol": 6655,
      "release": 6656,
      "wings": 6657,
      "daily": 6658,
      "parking": 6659,
      "vall": 6660,
      "ack": 6661,
      "plenty": 6662,
      "stretched": 6663,
      "searching": 6664,
      "whenever": 6665,
      "drawn": 6666,
      "rubbed": 6667,
      "##ww": 6668,
      "kicked": 6669,
      "pictures": 6670,
      "studied": 6671,
      "instantly": 6672,
      "lowered": 6673,
      "scrat": 6674,
      "interp": 6675,
      "descend": 6676,
      "##icing": 6677,
      "ay": 6678,
      "analys": 6679,
      "planning": 6680,
      "##iana": 6681,
      "range": 6682,
      "honey": 6683,
      "bree": 6684,
      "hyp": 6685,
      "defend": 6686,
      "##iles": 6687,
      "exer": 6688,
      "gut": 6689,
      "clouds": 6690,
      "leaning": 6691,
      "drinking": 6692,
      "spoken": 6693,
      "##mber": 6694,
      "mistake": 6695,
      "instit": 6696,
      "facing": 6697,
      "##claimed": 6698,
      "chick": 6699,
      "glo": 6700,
      "ros": 6701,
      "##cell": 6702,
      "plus": 6703,
      "particularly": 6704,
      "mi": 6705,
      "##icles": 6706,
      "german": 6707,
      "justice": 6708,
      "dun": 6709,
      "sus": 6710,
      "subst": 6711,
      "consequ": 6712,
      "happiness": 6713,
      "##inger": 6714,
      "rapid": 6715,
      "inner": 6716,
      "##ider": 6717,
      "unif": 6718,
      "iv": 6719,
      "instinct": 6720,
      "thousands": 6721,
      "musl": 6722,
      "larger": 6723,
      "transform": 6724,
      "fate": 6725,
      "gasped": 6726,
      "50": 6727,
      "beth": 6728,
      "knocked": 6729,
      "simon": 6730,
      "##yer": 6731,
      "##gment": 6732,
      "recognized": 6733,
      "related": 6734,
      "exec": 6735,
      "gall": 6736,
      "##mit": 6737,
      "century": 6738,
      "pip": 6739,
      "unkn": 6740,
      "##pe": 6741,
      "##back": 6742,
      "map": 6743,
      "um": 6744,
      "relie": 6745,
      "interview": 6746,
      "##now": 6747,
      "muttered": 6748,
      "kick": 6749,
      "resour": 6750,
      "sending": 6751,
      "mountains": 6752,
      "speech": 6753,
      "##igned": 6754,
      "shows": 6755,
      "##rate": 6756,
      "vampire": 6757,
      "tradition": 6758,
      "strate": 6759,
      "stun": 6760,
      "london": 6761,
      "guide": 6762,
      "anna": 6763,
      "loving": 6764,
      "click": 6765,
      "authority": 6766,
      "##ua": 6767,
      "tail": 6768,
      "department": 6769,
      "oil": 6770,
      "kh": 6771,
      "patient": 6772,
      "advent": 6773,
      "blur": 6774,
      "worship": 6775,
      "remains": 6776,
      "drip": 6777,
      "fred": 6778,
      "lies": 6779,
      "vehicle": 6780,
      "starts": 6781,
      "awake": 6782,
      "priest": 6783,
      "bush": 6784,
      "cigar": 6785,
      "somebody": 6786,
      "steve": 6787,
      "lots": 6788,
      "tied": 6789,
      "growth": 6790,
      "es": 6791,
      "panic": 6792,
      "clut": 6793,
      "lor": 6794,
      "forty": 6795,
      "##bb": 6796,
      "hurry": 6797,
      "ii": 6798,
      "cha": 6799,
      "suffering": 6800,
      "wedding": 6801,
      "fash": 6802,
      "famil": 6803,
      "##eps": 6804,
      "remaining": 6805,
      "bat": 6806,
      "glory": 6807,
      "excit": 6808,
      "##ses": 6809,
      "nation": 6810,
      "screaming": 6811,
      "holl": 6812,
      "survive": 6813,
      "anti": 6814,
      "recently": 6815,
      "scale": 6816,
      "contract": 6817,
      "location": 6818,
      "connect": 6819,
      "197": 6820,
      "citiz": 6821,
      "##ancing": 6822,
      "code": 6823,
      "virt": 6824,
      "staying": 6825,
      "shiver": 6826,
      "merely": 6827,
      "devil": 6828,
      "cro": 6829,
      "encoun": 6830,
      "marry": 6831,
      "##erson": 6832,
      "shifted": 6833,
      "interrupted": 6834,
      "statement": 6835,
      "##asc": 6836,
      "00": 6837,
      "french": 6838,
      "ate": 6839,
      "countries": 6840,
      "bread": 6841,
      "##kin": 6842,
      "chose": 6843,
      "levels": 6844,
      "minds": 6845,
      "cath": 6846,
      "##lection": 6847,
      "silently": 6848,
      "effective": 6849,
      "waste": 6850,
      "therap": 6851,
      "egg": 6852,
      "student": 6853,
      "delight": 6854,
      "smaller": 6855,
      "slept": 6856,
      "##ino": 6857,
      "brand": 6858,
      "##abeth": 6859,
      "explan": 6860,
      "instant": 6861,
      "royal": 6862,
      "uniform": 6863,
      "soldier": 6864,
      "rear": 6865,
      "salv": 6866,
      "palm": 6867,
      "##agon": 6868,
      "princ": 6869,
      "eager": 6870,
      "##hr": 6871,
      "##eg": 6872,
      "unfortunately": 6873,
      "fist": 6874,
      "tightly": 6875,
      "connection": 6876,
      "indust": 6877,
      "changing": 6878,
      "sees": 6879,
      "##eous": 6880,
      "100": 6881,
      "excitement": 6882,
      "swung": 6883,
      "forms": 6884,
      "ber": 6885,
      "rot": 6886,
      "shown": 6887,
      "nowhere": 6888,
      "smir": 6889,
      "hearts": 6890,
      "##istan": 6891,
      "issues": 6892,
      "corrid": 6893,
      "##iently": 6894,
      "bast": 6895,
      "steel": 6896,
      "require": 6897,
      "fan": 6898,
      "particip": 6899,
      "experienced": 6900,
      "pm": 6901,
      "##isions": 6902,
      "weeke": 6903,
      "conc": 6904,
      "rooms": 6905,
      "fashion": 6906,
      "danny": 6907,
      "voices": 6908,
      "##aken": 6909,
      "##ille": 6910,
      "acknow": 6911,
      "sunday": 6912,
      "games": 6913,
      "sexual": 6914,
      "cases": 6915,
      "##oph": 6916,
      "expecting": 6917,
      "##inese": 6918,
      "faint": 6919,
      "afric": 6920,
      "shocked": 6921,
      "official": 6922,
      "rick": 6923,
      "flow": 6924,
      "appearance": 6925,
      "blast": 6926,
      "bigger": 6927,
      "jeff": 6928,
      "liqu": 6929,
      "hurried": 6930,
      "collect": 6931,
      "height": 6932,
      "stands": 6933,
      "##over": 6934,
      "##iring": 6935,
      "boots": 6936,
      "clar": 6937,
      "fellow": 6938,
      "apolog": 6939,
      "swim": 6940,
      "drunk": 6941,
      "quality": 6942,
      "##ded": 6943,
      "chinese": 6944,
      "camera": 6945,
      "accompl": 6946,
      "partner": 6947,
      "##umbling": 6948,
      "liber": 6949,
      "closing": 6950,
      "##cast": 6951,
      "##ibly": 6952,
      "matters": 6953,
      "distur": 6954,
      "##uries": 6955,
      "fab": 6956,
      "##iest": 6957,
      "transport": 6958,
      "stir": 6959,
      "flood": 6960,
      "uncomfort": 6961,
      "concl": 6962,
      "contain": 6963,
      "##uous": 6964,
      "library": 6965,
      "education": 6966,
      "beings": 6967,
      "eve": 6968,
      "hug": 6969,
      "##oe": 6970,
      "##ivity": 6971,
      "intense": 6972,
      "challenge": 6973,
      "##uments": 6974,
      "tossed": 6975,
      "deeper": 6976,
      "developed": 6977,
      "spark": 6978,
      "plain": 6979,
      "slammed": 6980,
      "40": 6981,
      "curious": 6982,
      "destroyed": 6983,
      "flowers": 6984,
      "bord": 6985,
      "29": 6986,
      "##ga": 6987,
      "princess": 6988,
      "foreign": 6989,
      "families": 6990,
      "unw": 6991,
      "grate": 6992,
      "buildings": 6993,
      "bite": 6994,
      "##what": 6995,
      "sport": 6996,
      "fulf": 6997,
      "imagined": 6998,
      "clin": 6999,
      "##rog": 7000,
      "math": 7001,
      "crime": 7002,
      "butt": 7003,
      "cash": 7004,
      "rh": 7005,
      "compared": 7006,
      "##ado": 7007,
      "tear": 7008,
      "glow": 7009,
      "rib": 7010,
      "returning": 7011,
      "##oma": 7012,
      "##eping": 7013,
      "professor": 7014,
      "wiped": 7015,
      "somewhat": 7016,
      "andrew": 7017,
      "glasses": 7018,
      "swallowed": 7019,
      "advantage": 7020,
      "behavior": 7021,
      "orange": 7022,
      "##icip": 7023,
      "served": 7024,
      "##ubb": 7025,
      "structure": 7026,
      "responsible": 7027,
      "vin": 7028,
      "mob": 7029,
      "awk": 7030,
      "international": 7031,
      "video": 7032,
      "houses": 7033,
      "brad": 7034,
      "coin": 7035,
      "kim": 7036,
      "joseph": 7037,
      "forgive": 7038,
      "neighbor": 7039,
      "autom": 7040,
      "awkward": 7041,
      "style": 7042,
      "micro": 7043,
      "goal": 7044,
      "ara": 7045,
      "nin": 7046,
      "protection": 7047,
      "##iation": 7048,
      "apr": 7049,
      "background": 7050,
      "inqu": 7051,
      "season": 7052,
      "ax": 7053,
      "unknown": 7054,
      "##ulate": 7055,
      "helen": 7056,
      "jeans": 7057,
      "terrif": 7058,
      "www": 7059,
      "mercy": 7060,
      "murm": 7061,
      "ment": 7062,
      "ryan": 7063,
      "contents": 7064,
      "commander": 7065,
      "##iber": 7066,
      "prevent": 7067,
      "aug": 7068,
      "labor": 7069,
      "jap": 7070,
      "##bl": 7071,
      "demanded": 7072,
      "reject": 7073,
      "gain": 7074,
      "extremely": 7075,
      "##case": 7076,
      "isa": 7077,
      "righteous": 7078,
      "elizabeth": 7079,
      "knight": 7080,
      "sink": 7081,
      "confusion": 7082,
      "##ato": 7083,
      "appl": 7084,
      "##vision": 7085,
      "smiles": 7086,
      "officers": 7087,
      "papers": 7088,
      "spun": 7089,
      "hast": 7090,
      "relative": 7091,
      "tip": 7092,
      "##ford": 7093,
      "finan": 7094,
      "mate": 7095,
      "##issa": 7096,
      "flick": 7097,
      "greek": 7098,
      "##org": 7099,
      "##hold": 7100,
      "features": 7101,
      "circumstances": 7102,
      "philos": 7103,
      "nik": 7104,
      "split": 7105,
      "##enched": 7106,
      "##illing": 7107,
      "rail": 7108,
      "disg": 7109,
      "##xp": 7110,
      "legal": 7111,
      "hal": 7112,
      "bon": 7113,
      "knee": 7114,
      "satur": 7115,
      "shr": 7116,
      "cru": 7117,
      "tunnel": 7118,
      "agreement": 7119,
      "ox": 7120,
      "##ym": 7121,
      "ain": 7122,
      "##erves": 7123,
      "alien": 7124,
      "##ein": 7125,
      "doct": 7126,
      "puzz": 7127,
      "rod": 7128,
      "struggled": 7129,
      "billy": 7130,
      "intent": 7131,
      "##sec": 7132,
      "central": 7133,
      "##phone": 7134,
      "tony": 7135,
      "buried": 7136,
      "##uced": 7137,
      "rocks": 7138,
      "stronger": 7139,
      "passage": 7140,
      "##esis": 7141,
      "##epend": 7142,
      "upper": 7143,
      "paint": 7144,
      "##ella": 7145,
      "##icient": 7146,
      "stock": 7147,
      "bitch": 7148,
      "settle": 7149,
      "stranger": 7150,
      "yard": 7151,
      "site": 7152,
      "possess": 7153,
      "rolling": 7154,
      "wrist": 7155,
      "bones": 7156,
      "recognize": 7157,
      "restaurant": 7158,
      "ali": 7159,
      "tort": 7160,
      "highly": 7161,
      "dozen": 7162,
      "traff": 7163,
      "increased": 7164,
      "poured": 7165,
      "breathe": 7166,
      "lovely": 7167,
      "blame": 7168,
      "##whel": 7169,
      "muscles": 7170,
      "march": 7171,
      "conce": 7172,
      "##zed": 7173,
      "fired": 7174,
      "services": 7175,
      "areas": 7176,
      "greatest": 7177,
      "shift": 7178,
      "emotional": 7179,
      "stan": 7180,
      "plastic": 7181,
      "annoy": 7182,
      "file": 7183,
      "##atives": 7184,
      "##fl": 7185,
      "##eline": 7186,
      "##mos": 7187,
      "distant": 7188,
      "##iveness": 7189,
      "scott": 7190,
      "31": 7191,
      "godd": 7192,
      "explod": 7193,
      "dragged": 7194,
      "chase": 7195,
      "letters": 7196,
      "connected": 7197,
      "##tha": 7198,
      "overwhel": 7199,
      "##ris": 7200,
      "claw": 7201,
      "pace": 7202,
      "acts": 7203,
      "innocent": 7204,
      "trade": 7205,
      "charles": 7206,
      "##wal": 7207,
      "thir": 7208,
      "angels": 7209,
      "raise": 7210,
      "corpor": 7211,
      "nurse": 7212,
      "actual": 7213,
      "chamber": 7214,
      "kell": 7215,
      "##lling": 7216,
      "pride": 7217,
      "drawing": 7218,
      "satan": 7219,
      "normally": 7220,
      "steady": 7221,
      "##omm": 7222,
      "tremb": 7223,
      "amy": 7224,
      "skills": 7225,
      "hundreds": 7226,
      "beck": 7227,
      "kate": 7228,
      "dogs": 7229,
      "harry": 7230,
      "scen": 7231,
      "ward": 7232,
      "clothing": 7233,
      "explos": 7234,
      "analysis": 7235,
      "##bey": 7236,
      "##time": 7237,
      "birds": 7238,
      "status": 7239,
      "confidence": 7240,
      "rate": 7241,
      "friendly": 7242,
      "##vert": 7243,
      "les": 7244,
      "##aper": 7245,
      "equip": 7246,
      "wow": 7247,
      "population": 7248,
      "admitted": 7249,
      "sons": 7250,
      "crystal": 7251,
      "belt": 7252,
      "ships": 7253,
      "chain": 7254,
      "recent": 7255,
      "rif": 7256,
      "##bow": 7257,
      "dave": 7258,
      "valley": 7259,
      "horror": 7260,
      "japan": 7261,
      "dare": 7262,
      "thumb": 7263,
      "flu": 7264,
      "mud": 7265,
      "intended": 7266,
      "separate": 7267,
      "org": 7268,
      "request": 7269,
      "alco": 7270,
      "stiff": 7271,
      "bone": 7272,
      "martin": 7273,
      "insisted": 7274,
      "surrounding": 7275,
      "##cr": 7276,
      "challeng": 7277,
      "loudly": 7278,
      "brow": 7279,
      "effects": 7280,
      "convinced": 7281,
      "excell": 7282,
      "influence": 7283,
      "shame": 7284,
      "marcus": 7285,
      "souls": 7286,
      "constant": 7287,
      "thrust": 7288,
      "##ggie": 7289,
      "##vis": 7290,
      "fixed": 7291,
      "successful": 7292,
      "birthday": 7293,
      "keys": 7294,
      "capable": 7295,
      "##rier": 7296,
      "##raft": 7297,
      "considering": 7298,
      "##isible": 7299,
      "images": 7300,
      "opinion": 7301,
      "glob": 7302,
      "cycle": 7303,
      "##acks": 7304,
      "ari": 7305,
      "youth": 7306,
      "smith": 7307,
      "stress": 7308,
      "sake": 7309,
      "##cks": 7310,
      "assumed": 7311,
      "tempt": 7312,
      "independ": 7313,
      "electric": 7314,
      "tough": 7315,
      "culture": 7316,
      "chat": 7317,
      "huh": 7318,
      "##win": 7319,
      "anticip": 7320,
      "advice": 7321,
      "tower": 7322,
      "##ales": 7323,
      "rachel": 7324,
      "jere": 7325,
      "syn": 7326,
      "##olic": 7327,
      "##mo": 7328,
      "##istry": 7329,
      "parked": 7330,
      "whoever": 7331,
      "version": 7332,
      "judgment": 7333,
      "rage": 7334,
      "begins": 7335,
      "blanket": 7336,
      "##lor": 7337,
      "pile": 7338,
      "monster": 7339,
      "inhib": 7340,
      "bitter": 7341,
      "cous": 7342,
      "thrown": 7343,
      "achieve": 7344,
      "eternal": 7345,
      "##inated": 7346,
      "thigh": 7347,
      "diss": 7348,
      "throwing": 7349,
      "##inda": 7350,
      "admin": 7351,
      "heavily": 7352,
      "dollars": 7353,
      "##inked": 7354,
      "detective": 7355,
      "gle": 7356,
      "owner": 7357,
      "described": 7358,
      "##mother": 7359,
      "treated": 7360,
      "hasn": 7361,
      "greg": 7362,
      "##atically": 7363,
      "##bur": 7364,
      "ethan": 7365,
      "scent": 7366,
      "disease": 7367,
      "etc": 7368,
      "trib": 7369,
      "##oms": 7370,
      "##eled": 7371,
      "journal": 7372,
      "pregn": 7373,
      "altern": 7374,
      "piss": 7375,
      "##otic": 7376,
      "rat": 7377,
      "fer": 7378,
      "##father": 7379,
      "cott": 7380,
      "##ari": 7381,
      "appears": 7382,
      "serge": 7383,
      "humanity": 7384,
      "##inn": 7385,
      "associated": 7386,
      "equipment": 7387,
      "##uary": 7388,
      "television": 7389,
      "increase": 7390,
      "faded": 7391,
      "observed": 7392,
      "title": 7393,
      "persp": 7394,
      "lone": 7395,
      "accompan": 7396,
      "vent": 7397,
      "announced": 7398,
      "oct": 7399,
      "guilt": 7400,
      "vib": 7401,
      "acting": 7402,
      "##pri": 7403,
      "contem": 7404,
      "qual": 7405,
      "measure": 7406,
      "##unted": 7407,
      "http": 7408,
      "christians": 7409,
      "troo": 7410,
      "firmly": 7411,
      "furn": 7412,
      "guil": 7413,
      "landing": 7414,
      "included": 7415,
      "contrib": 7416,
      "##ads": 7417,
      "gang": 7418,
      "loves": 7419,
      "##rant": 7420,
      "squeezed": 7421,
      "##rey": 7422,
      "##alous": 7423,
      "enth": 7424,
      "jun": 7425,
      "fiction": 7426,
      "##ache": 7427,
      "hips": 7428,
      "demonstr": 7429,
      "entertain": 7430,
      "weekend": 7431,
      "dancing": 7432,
      "##ault": 7433,
      "##athy": 7434,
      "sem": 7435,
      "haw": 7436,
      "popular": 7437,
      "tam": 7438,
      "basic": 7439,
      "useful": 7440,
      "##ctions": 7441,
      "rested": 7442,
      "credit": 7443,
      "196": 7444,
      "revelation": 7445,
      "unus": 7446,
      "afford": 7447,
      "##agger": 7448,
      "blinked": 7449,
      "##ocol": 7450,
      "spotted": 7451,
      "ps": 7452,
      "drugs": 7453,
      "##imately": 7454,
      "relaxed": 7455,
      "emma": 7456,
      "##aron": 7457,
      "items": 7458,
      "dread": 7459,
      "thunder": 7460,
      "avo": 7461,
      "##da": 7462,
      "alice": 7463,
      "desperate": 7464,
      "sched": 7465,
      "bang": 7466,
      "##pse": 7467,
      "career": 7468,
      "##ounce": 7469,
      "##ani": 7470,
      "##hen": 7471,
      "retrie": 7472,
      "ven": 7473,
      "swear": 7474,
      "betray": 7475,
      "clo": 7476,
      "##itched": 7477,
      "sequ": 7478,
      "sole": 7479,
      "ignore": 7480,
      "glor": 7481,
      "extended": 7482,
      "##icate": 7483,
      "##jo": 7484,
      "intelligence": 7485,
      "reluct": 7486,
      "chann": 7487,
      "appreciate": 7488,
      "##rain": 7489,
      "ladies": 7490,
      "elevator": 7491,
      "limited": 7492,
      "guns": 7493,
      "responsibility": 7494,
      "studies": 7495,
      "coast": 7496,
      "blessed": 7497,
      "emily": 7498,
      "explanation": 7499,
      "til": 7500,
      "proof": 7501,
      "continues": 7502,
      "bry": 7503,
      "diver": 7504,
      "##ointment": 7505,
      "flashed": 7506,
      "spirits": 7507,
      "##agged": 7508,
      "walks": 7509,
      "treas": 7510,
      "forgot": 7511,
      "dw": 7512,
      "stopping": 7513,
      "disbel": 7514,
      "paying": 7515,
      "unconscious": 7516,
      "flames": 7517,
      "##any": 7518,
      "folded": 7519,
      "western": 7520,
      "warmth": 7521,
      "traffic": 7522,
      "healing": 7523,
      "ease": 7524,
      "unit": 7525,
      "##arian": 7526,
      "arrange": 7527,
      "vast": 7528,
      "bond": 7529,
      "utter": 7530,
      "degree": 7531,
      "##umps": 7532,
      "ou": 7533,
      "bags": 7534,
      "strike": 7535,
      "possibility": 7536,
      "rab": 7537,
      "relieved": 7538,
      "gabriel": 7539,
      "exclaimed": 7540,
      "defense": 7541,
      "capital": 7542,
      "reported": 7543,
      "hoo": 7544,
      "##word": 7545,
      "##elled": 7546,
      "allowing": 7547,
      "activities": 7548,
      "horiz": 7549,
      "conditions": 7550,
      "gif": 7551,
      "##ket": 7552,
      "senses": 7553,
      "##ен": 7554,
      "standard": 7555,
      "brian": 7556,
      "survival": 7557,
      "ug": 7558,
      "bowl": 7559,
      "sed": 7560,
      "glared": 7561,
      "##aly": 7562,
      "shell": 7563,
      "manif": 7564,
      "significant": 7565,
      "thee": 7566,
      "stair": 7567,
      "appropri": 7568,
      "offering": 7569,
      "briefly": 7570,
      "##ints": 7571,
      "spect": 7572,
      "##friend": 7573,
      "saturday": 7574,
      "picking": 7575,
      "colored": 7576,
      "##lict": 7577,
      "habit": 7578,
      "pause": 7579,
      "hugged": 7580,
      "corridor": 7581,
      "closely": 7582,
      "glim": 7583,
      "surre": 7584,
      "lucy": 7585,
      "sob": 7586,
      "occurred": 7587,
      "lee": 7588,
      "##urance": 7589,
      "##ware": 7590,
      "region": 7591,
      "lic": 7592,
      "chairs": 7593,
      "exit": 7594,
      "cough": 7595,
      "daddy": 7596,
      "ends": 7597,
      "cris": 7598,
      "gosp": 7599,
      "guilty": 7600,
      "attached": 7601,
      "screw": 7602,
      "resources": 7603,
      "uncomfortable": 7604,
      "cream": 7605,
      "pages": 7606,
      "confident": 7607,
      "##reh": 7608,
      "joke": 7609,
      "##ila": 7610,
      "device": 7611,
      "yan": 7612,
      "##aping": 7613,
      "##inal": 7614,
      "##athers": 7615,
      "hamm": 7616,
      "##field": 7617,
      "applic": 7618,
      "option": 7619,
      "cliff": 7620,
      "##brows": 7621,
      "centre": 7622,
      "approaching": 7623,
      "friday": 7624,
      "crimin": 7625,
      "internet": 7626,
      "suffer": 7627,
      "audience": 7628,
      "sisters": 7629,
      "grave": 7630,
      "las": 7631,
      "courage": 7632,
      "johnny": 7633,
      "grateful": 7634,
      "frag": 7635,
      "##eding": 7636,
      "slip": 7637,
      "eyebrows": 7638,
      "reass": 7639,
      "##neath": 7640,
      "elder": 7641,
      "realised": 7642,
      "##ij": 7643,
      "underneath": 7644,
      "hood": 7645,
      "hunter": 7646,
      "remove": 7647,
      "creating": 7648,
      "ves": 7649,
      "enjoying": 7650,
      "stab": 7651,
      "efforts": 7652,
      "carol": 7653,
      "##lfriend": 7654,
      "##urally": 7655,
      "breeze": 7656,
      "##met": 7657,
      "precious": 7658,
      "attacked": 7659,
      "upstairs": 7660,
      "girlfriend": 7661,
      "##can": 7662,
      "constantly": 7663,
      "##iley": 7664,
      "nights": 7665,
      "wing": 7666,
      "alcohol": 7667,
      "intention": 7668,
      "gear": 7669,
      "china": 7670,
      "badly": 7671,
      "33": 7672,
      "craft": 7673,
      "financial": 7674,
      "collaps": 7675,
      "dart": 7676,
      "##enth": 7677,
      "cheer": 7678,
      "surprising": 7679,
      "swift": 7680,
      "keeps": 7681,
      "reward": 7682,
      "informed": 7683,
      "visible": 7684,
      "##ays": 7685,
      "cere": 7686,
      "ham": 7687,
      "depth": 7688,
      "secure": 7689,
      "warned": 7690,
      "enemies": 7691,
      "blonde": 7692,
      "##agg": 7693,
      "replaced": 7694,
      "grant": 7695,
      "ske": 7696,
      "cos": 7697,
      "goodby": 7698,
      "random": 7699,
      "ridic": 7700,
      "platform": 7701,
      "##ona": 7702,
      "pleasant": 7703,
      "touching": 7704,
      "skull": 7705,
      "ted": 7706,
      "benefit": 7707,
      "grandmother": 7708,
      "##uk": 7709,
      "bench": 7710,
      "##hh": 7711,
      "histor": 7712,
      "az": 7713,
      "##ucle": 7714,
      "inher": 7715,
      "##agn": 7716,
      "newsp": 7717,
      "core": 7718,
      "myster": 7719,
      "tables": 7720,
      "32": 7721,
      "covering": 7722,
      "unb": 7723,
      "##utions": 7724,
      "unique": 7725,
      "discussion": 7726,
      "analy": 7727,
      "ped": 7728,
      "claire": 7729,
      "reveal": 7730,
      "torn": 7731,
      "##ан": 7732,
      "grav": 7733,
      "belly": 7734,
      "consum": 7735,
      "abrupt": 7736,
      "##nda": 7737,
      "ded": 7738,
      "fourth": 7739,
      "bru": 7740,
      "retreat": 7741,
      "commit": 7742,
      "##olved": 7743,
      "##gger": 7744,
      "rope": 7745,
      "35": 7746,
      "climb": 7747,
      "leads": 7748,
      "curtain": 7749,
      "satisfied": 7750,
      "inch": 7751,
      "struggle": 7752,
      "include": 7753,
      "grandfather": 7754,
      "assume": 7755,
      "slee": 7756,
      "##iated": 7757,
      "anybody": 7758,
      "adop": 7759,
      "designed": 7760,
      "roman": 7761,
      "##stand": 7762,
      "web": 7763,
      "impress": 7764,
      "##zing": 7765,
      "purple": 7766,
      "boyfriend": 7767,
      "##rian": 7768,
      "professional": 7769,
      "horrible": 7770,
      "milk": 7771,
      "worn": 7772,
      "jimmy": 7773,
      "sust": 7774,
      "##erence": 7775,
      "asse": 7776,
      "alt": 7777,
      "shoved": 7778,
      "dismiss": 7779,
      "envelop": 7780,
      "article": 7781,
      "brush": 7782,
      "brushed": 7783,
      "##bie": 7784,
      "invited": 7785,
      "stal": 7786,
      "arrive": 7787,
      "encoura": 7788,
      "##itable": 7789,
      "moves": 7790,
      "##oles": 7791,
      "egy": 7792,
      "interpret": 7793,
      "element": 7794,
      "healthy": 7795,
      "conduct": 7796,
      "imper": 7797,
      "##ody": 7798,
      "assum": 7799,
      "improve": 7800,
      "lesson": 7801,
      "backed": 7802,
      "violence": 7803,
      "nations": 7804,
      "wiz": 7805,
      "scientific": 7806,
      "palace": 7807,
      "wicked": 7808,
      "ak": 7809,
      "sara": 7810,
      "poison": 7811,
      "assured": 7812,
      "##col": 7813,
      "blew": 7814,
      "hesitated": 7815,
      "attitude": 7816,
      "##izes": 7817,
      "servant": 7818,
      "prepare": 7819,
      "egypt": 7820,
      "compass": 7821,
      "ian": 7822,
      "inches": 7823,
      "warrior": 7824,
      "##alu": 7825,
      "fields": 7826,
      "ec": 7827,
      "##enn": 7828,
      "lan": 7829,
      "brick": 7830,
      "##coming": 7831,
      "tempor": 7832,
      "solution": 7833,
      "silly": 7834,
      "plants": 7835,
      "irrit": 7836,
      "desert": 7837,
      "##usi": 7838,
      "stones": 7839,
      "strang": 7840,
      "saving": 7841,
      "jenny": 7842,
      "liquid": 7843,
      "hay": 7844,
      "##phere": 7845,
      "breathed": 7846,
      "##rete": 7847,
      "types": 7848,
      "appe": 7849,
      "frozen": 7850,
      "transfer": 7851,
      "##cies": 7852,
      "##pers": 7853,
      "##iqu": 7854,
      "emph": 7855,
      "cooper": 7856,
      "brill": 7857,
      "ignor": 7858,
      "ling": 7859,
      "excellent": 7860,
      "unp": 7861,
      "##ission": 7862,
      "##amm": 7863,
      "##rin": 7864,
      "pow": 7865,
      "sniff": 7866,
      "imagination": 7867,
      "british": 7868,
      "amongst": 7869,
      "sergeant": 7870,
      "succeed": 7871,
      "##do": 7872,
      "dick": 7873,
      "pant": 7874,
      "##ula": 7875,
      "kyle": 7876,
      "regarding": 7877,
      "##oh": 7878,
      "searched": 7879,
      "checking": 7880,
      "washed": 7881,
      "nucle": 7882,
      "##arsh": 7883,
      "marsh": 7884,
      "painful": 7885,
      "##fall": 7886,
      "quant": 7887,
      "noted": 7888,
      "suspic": 7889,
      "economic": 7890,
      "sheep": 7891,
      "throne": 7892,
      "butter": 7893,
      "begun": 7894,
      "groaned": 7895,
      "demons": 7896,
      "cd": 7897,
      "salvation": 7898,
      "brings": 7899,
      "jealous": 7900,
      "handsome": 7901,
      "cher": 7902,
      "resting": 7903,
      "exchange": 7904,
      "holds": 7905,
      "destruction": 7906,
      "##va": 7907,
      "global": 7908,
      "recomm": 7909,
      "tay": 7910,
      "workers": 7911,
      "dna": 7912,
      "buzz": 7913,
      "trained": 7914,
      "##certain": 7915,
      "##uine": 7916,
      "decor": 7917,
      "supply": 7918,
      "nathan": 7919,
      "kissing": 7920,
      "seth": 7921,
      "##place": 7922,
      "lam": 7923,
      "stern": 7924,
      "established": 7925,
      "mystery": 7926,
      "liz": 7927,
      "seated": 7928,
      "unexp": 7929,
      "il": 7930,
      "escaped": 7931,
      "riding": 7932,
      "porch": 7933,
      "45": 7934,
      "jews": 7935,
      "football": 7936,
      "bor": 7937,
      "tang": 7938,
      "bunch": 7939,
      "experiences": 7940,
      "##adem": 7941,
      "##ayed": 7942,
      "exhausted": 7943,
      "ath": 7944,
      "abandoned": 7945,
      "august": 7946,
      "##oll": 7947,
      "rust": 7948,
      "tie": 7949,
      "span": 7950,
      "likes": 7951,
      "magaz": 7952,
      "dining": 7953,
      "inte": 7954,
      "victim": 7955,
      "servants": 7956,
      "hopefully": 7957,
      "switch": 7958,
      "famous": 7959,
      "##ran": 7960,
      "incident": 7961,
      "alarm": 7962,
      "india": 7963,
      "twist": 7964,
      "smash": 7965,
      "##aud": 7966,
      "waters": 7967,
      "aaron": 7968,
      "ank": 7969,
      "##cher": 7970,
      "permission": 7971,
      "startled": 7972,
      "cale": 7973,
      "unexpected": 7974,
      "resem": 7975,
      "stumbled": 7976,
      "seeking": 7977,
      "budd": 7978,
      "prec": 7979,
      "mask": 7980,
      "##acles": 7981,
      "##orter": 7982,
      "##sion": 7983,
      "##sey": 7984,
      "##ida": 7985,
      "gradu": 7986,
      "rode": 7987,
      "swir": 7988,
      "trem": 7989,
      "##abor": 7990,
      "##uten": 7991,
      "armed": 7992,
      "sins": 7993,
      "driven": 7994,
      "##ban": 7995,
      "franc": 7996,
      "##mn": 7997,
      "genuine": 7998,
      "##ops": 7999,
      "jean": 8000,
      "limit": 8001,
      "##ounts": 8002,
      "argument": 8003,
      "admir": 8004,
      "constit": 8005,
      "conflict": 8006,
      "emerged": 8007,
      "gospel": 8008,
      "citizens": 8009,
      "produced": 8010,
      "##ok": 8011,
      "shooting": 8012,
      "beam": 8013,
      "guests": 8014,
      "packed": 8015,
      "published": 8016,
      "barn": 8017,
      "embrace": 8018,
      "ib": 8019,
      "production": 8020,
      "susan": 8021,
      "coach": 8022,
      "establish": 8023,
      "rome": 8024,
      "medicine": 8025,
      "spending": 8026,
      "growled": 8027,
      "failure": 8028,
      "disgust": 8029,
      "bullet": 8030,
      "observ": 8031,
      "exposed": 8032,
      "hover": 8033,
      "##lement": 8034,
      "bowed": 8035,
      "dumb": 8036,
      "louis": 8037,
      "sentence": 8038,
      "suspect": 8039,
      "clearing": 8040,
      "polite": 8041,
      "produce": 8042,
      "##annah": 8043,
      "pist": 8044,
      "##asha": 8045,
      "lightly": 8046,
      "nap": 8047,
      "##ige": 8048,
      "accur": 8049,
      "##bby": 8050,
      "intellect": 8051,
      "menu": 8052,
      "##ulted": 8053,
      "generally": 8054,
      "earn": 8055,
      "breasts": 8056,
      "academ": 8057,
      "rein": 8058,
      "##ront": 8059,
      "mail": 8060,
      "enthusi": 8061,
      "##che": 8062,
      "##rict": 8063,
      "mole": 8064,
      "multiple": 8065,
      "currently": 8066,
      "drinks": 8067,
      "tex": 8068,
      "basis": 8069,
      "confirmed": 8070,
      "ky": 8071,
      "##resp": 8072,
      "py": 8073,
      "##ulations": 8074,
      "introduced": 8075,
      "purchase": 8076,
      "desperately": 8077,
      "##ст": 8078,
      "symp": 8079,
      "dang": 8080,
      "management": 8081,
      "pitch": 8082,
      "champ": 8083,
      "ka": 8084,
      "enorm": 8085,
      "falls": 8086,
      "lieuten": 8087,
      "gazed": 8088,
      "virgin": 8089,
      "sean": 8090,
      "rescue": 8091,
      "fence": 8092,
      "sacrifice": 8093,
      "chew": 8094,
      "##aker": 8095,
      "quarter": 8096,
      "dwell": 8097,
      "vessel": 8098,
      "obey": 8099,
      "operation": 8100,
      "runs": 8101,
      "##gl": 8102,
      "peered": 8103,
      "##uf": 8104,
      "##iy": 8105,
      "##utes": 8106,
      "cared": 8107,
      "unusual": 8108,
      "invisible": 8109,
      "tab": 8110,
      "swept": 8111,
      "##mad": 8112,
      "##arch": 8113,
      "nan": 8114,
      "blaz": 8115,
      "corrupt": 8116,
      "murd": 8117,
      "##oul": 8118,
      "arth": 8119,
      "sadd": 8120,
      "fasc": 8121,
      "average": 8122,
      "moral": 8123,
      "jobs": 8124,
      "ine": 8125,
      "frustration": 8126,
      "##inity": 8127,
      "kinds": 8128,
      "integr": 8129,
      "advanced": 8130,
      "communication": 8131,
      "raising": 8132,
      "cards": 8133,
      "grabbing": 8134,
      "pilot": 8135,
      "##iable": 8136,
      "located": 8137,
      "manager": 8138,
      "individuals": 8139,
      "decisions": 8140,
      "union": 8141,
      "washington": 8142,
      "##ums": 8143,
      "exercise": 8144,
      "veget": 8145,
      "##idents": 8146,
      "bun": 8147,
      "garage": 8148,
      "dor": 8149,
      "route": 8150,
      "convince": 8151,
      "resistance": 8152,
      "protest": 8153,
      "lev": 8154,
      "##osis": 8155,
      "april": 8156,
      "shade": 8157,
      "tap": 8158,
      "lisa": 8159,
      "##erous": 8160,
      "moses": 8161,
      "expensive": 8162,
      "harsh": 8163,
      "maria": 8164,
      "literally": 8165,
      "killer": 8166,
      "obtain": 8167,
      "struggling": 8168,
      "incl": 8169,
      "reven": 8170,
      "victory": 8171,
      "goodbye": 8172,
      "adjust": 8173,
      "lined": 8174,
      "hind": 8175,
      "lyn": 8176,
      "contained": 8177,
      "##rom": 8178,
      "directions": 8179,
      "rig": 8180,
      "democr": 8181,
      "bio": 8182,
      "merc": 8183,
      "sooner": 8184,
      "dug": 8185,
      "##ppy": 8186,
      "emergency": 8187,
      "signal": 8188,
      "fi": 8189,
      "loyal": 8190,
      "##idding": 8191,
      "diam": 8192,
      "volume": 8193,
      "##thy": 8194,
      "bomb": 8195,
      "minor": 8196,
      "appropriate": 8197,
      "##eling": 8198,
      "##raw": 8199,
      "shortly": 8200,
      "branches": 8201,
      "consist": 8202,
      "yards": 8203,
      "anne": 8204,
      "eu": 8205,
      "trapped": 8206,
      "dealing": 8207,
      "mixed": 8208,
      "stepping": 8209,
      "online": 8210,
      "policy": 8211,
      "conclud": 8212,
      "properly": 8213,
      "realm": 8214,
      "##lock": 8215,
      "cutting": 8216,
      "hint": 8217,
      "tension": 8218,
      "##rection": 8219,
      "mand": 8220,
      "generation": 8221,
      "studying": 8222,
      "##elia": 8223,
      "unh": 8224,
      "##osure": 8225,
      "holiday": 8226,
      "lightning": 8227,
      "##rating": 8228,
      "guest": 8229,
      "##kind": 8230,
      "minim": 8231,
      "apply": 8232,
      "assemb": 8233,
      "dial": 8234,
      "favour": 8235,
      "honestly": 8236,
      "sept": 8237,
      "equal": 8238,
      "##ih": 8239,
      "grasp": 8240,
      "bart": 8241,
      "hills": 8242,
      "36": 8243,
      "vul": 8244,
      "od": 8245,
      "via": 8246,
      "seb": 8247,
      "naturally": 8248,
      "##pless": 8249,
      "entry": 8250,
      "backwards": 8251,
      "glowing": 8252,
      "foolish": 8253,
      "gathering": 8254,
      "rhy": 8255,
      "kevin": 8256,
      "##sters": 8257,
      "##bor": 8258,
      "crash": 8259,
      "barb": 8260,
      "awa": 8261,
      "flor": 8262,
      "presented": 8263,
      "calif": 8264,
      "reports": 8265,
      "sel": 8266,
      "punishment": 8267,
      "photo": 8268,
      "ugly": 8269,
      "beating": 8270,
      "perman": 8271,
      "affect": 8272,
      "importance": 8273,
      "believers": 8274,
      "methods": 8275,
      "lungs": 8276,
      "airport": 8277,
      "tender": 8278,
      "england": 8279,
      "caut": 8280,
      "crown": 8281,
      "##craft": 8282,
      "tank": 8283,
      "homes": 8284,
      "secrets": 8285,
      "june": 8286,
      "##rol": 8287,
      "singing": 8288,
      "rapidly": 8289,
      "austral": 8290,
      "##erted": 8291,
      "laur": 8292,
      "email": 8293,
      "##za": 8294,
      "34": 8295,
      "fabric": 8296,
      "administ": 8297,
      "arrival": 8298,
      "identity": 8299,
      "intr": 8300,
      "collection": 8301,
      "precise": 8302,
      "additional": 8303,
      "shopping": 8304,
      "bastard": 8305,
      "downstairs": 8306,
      "##ante": 8307,
      "tucked": 8308,
      "footst": 8309,
      "dropping": 8310,
      "withd": 8311,
      "idiot": 8312,
      "ensure": 8313,
      "sofa": 8314,
      "awful": 8315,
      "gates": 8316,
      "##umn": 8317,
      "hitting": 8318,
      "describe": 8319,
      "facts": 8320,
      "goo": 8321,
      "primary": 8322,
      "rit": 8323,
      "##ola": 8324,
      "jar": 8325,
      "californ": 8326,
      "expand": 8327,
      "lieutenant": 8328,
      "painted": 8329,
      "shed": 8330,
      "pulls": 8331,
      "2013": 8332,
      "delivered": 8333,
      "compreh": 8334,
      "spar": 8335,
      "southern": 8336,
      "##uits": 8337,
      "motor": 8338,
      "engage": 8339,
      "##usive": 8340,
      "julia": 8341,
      "curse": 8342,
      "entering": 8343,
      "concrete": 8344,
      "seed": 8345,
      "##aph": 8346,
      "conclusion": 8347,
      "cigarette": 8348,
      "sid": 8349,
      "spare": 8350,
      "instructions": 8351,
      "teachers": 8352,
      "chocol": 8353,
      "greeted": 8354,
      "ripped": 8355,
      "mile": 8356,
      "bind": 8357,
      "snat": 8358,
      "minister": 8359,
      "kay": 8360,
      "sharing": 8361,
      "ignoring": 8362,
      "absor": 8363,
      "shaped": 8364,
      "stall": 8365,
      "alley": 8366,
      "elements": 8367,
      "biggest": 8368,
      "chill": 8369,
      "trial": 8370,
      "##load": 8371,
      "ordinary": 8372,
      "##irts": 8373,
      "##wich": 8374,
      "holly": 8375,
      "##lar": 8376,
      "amanda": 8377,
      "curled": 8378,
      "stops": 8379,
      "##ucing": 8380,
      "upright": 8381,
      "##ulty": 8382,
      "personally": 8383,
      "cracked": 8384,
      "sliding": 8385,
      "fel": 8386,
      "uncertain": 8387,
      "stunned": 8388,
      "sip": 8389,
      "placing": 8390,
      "tristan": 8391,
      "##cca": 8392,
      "anth": 8393,
      "manip": 8394,
      "active": 8395,
      "slave": 8396,
      "mama": 8397,
      "##nat": 8398,
      "spine": 8399,
      "bored": 8400,
      "##ox": 8401,
      "disappointed": 8402,
      "heels": 8403,
      "sensed": 8404,
      "defin": 8405,
      "ga": 8406,
      "magical": 8407,
      "remark": 8408,
      "charged": 8409,
      "##bon": 8410,
      "##alt": 8411,
      "deserve": 8412,
      "curios": 8413,
      "declared": 8414,
      "##ifying": 8415,
      "closet": 8416,
      "expert": 8417,
      "files": 8418,
      "lily": 8419,
      "cities": 8420,
      "scattered": 8421,
      "filling": 8422,
      "flame": 8423,
      "distinct": 8424,
      "maggie": 8425,
      "foundation": 8426,
      "performance": 8427,
      "cord": 8428,
      "bend": 8429,
      "##acity": 8430,
      "##aine": 8431,
      "classes": 8432,
      "dull": 8433,
      "supplies": 8434,
      "superior": 8435,
      "combination": 8436,
      "cousin": 8437,
      "dod": 8438,
      "colonel": 8439,
      "catching": 8440,
      "mexic": 8441,
      "compar": 8442,
      "morgan": 8443,
      "embarrassed": 8444,
      "monday": 8445,
      "photograph": 8446,
      "urg": 8447,
      "attempted": 8448,
      "california": 8449,
      "2012": 8450,
      "vampires": 8451,
      "perce": 8452,
      "##bles": 8453,
      "cole": 8454,
      "seats": 8455,
      "illum": 8456,
      "initial": 8457,
      "gripped": 8458,
      "urge": 8459,
      "armor": 8460,
      "cruel": 8461,
      "millions": 8462,
      "guid": 8463,
      "claimed": 8464,
      "##ini": 8465,
      "popped": 8466,
      "spear": 8467,
      "sheriff": 8468,
      "lands": 8469,
      "##olve": 8470,
      "gem": 8471,
      "##0s": 8472,
      "fairy": 8473,
      "neat": 8474,
      "##li": 8475,
      "drank": 8476,
      "##brow": 8477,
      "emphas": 8478,
      "webs": 8479,
      "##lla": 8480,
      "instr": 8481,
      "kings": 8482,
      "evalu": 8483,
      "completed": 8484,
      "tale": 8485,
      "highest": 8486,
      "ego": 8487,
      "cub": 8488,
      "crap": 8489,
      "brave": 8490,
      "jenn": 8491,
      "##11": 8492,
      "tools": 8493,
      "clenched": 8494,
      "##mosphere": 8495,
      "tracks": 8496,
      "drown": 8497,
      "prompt": 8498,
      "perspective": 8499,
      "hunting": 8500,
      "francis": 8501,
      "mumbled": 8502,
      "horizon": 8503,
      "sought": 8504,
      "empire": 8505,
      "tiss": 8506,
      "##vest": 8507,
      "director": 8508,
      "raced": 8509,
      "performed": 8510,
      "basket": 8511,
      "fairly": 8512,
      "##itors": 8513,
      "whist": 8514,
      "tub": 8515,
      "mos": 8516,
      "motioned": 8517,
      "lur": 8518,
      "existed": 8519,
      "##atherine": 8520,
      "prod": 8521,
      "encourage": 8522,
      "arab": 8523,
      "chicken": 8524,
      "jail": 8525,
      "sheet": 8526,
      "records": 8527,
      "##ode": 8528,
      "pear": 8529,
      "assess": 8530,
      "rifle": 8531,
      "organization": 8532,
      "friendship": 8533,
      "film": 8534,
      "beard": 8535,
      "fuel": 8536,
      "eyebrow": 8537,
      "curiosity": 8538,
      "shore": 8539,
      "drifted": 8540,
      "scow": 8541,
      "##enced": 8542,
      "nervously": 8543,
      "atmosphere": 8544,
      "childhood": 8545,
      "##areness": 8546,
      "##unte": 8547,
      "##pa": 8548,
      "pregnant": 8549,
      "glancing": 8550,
      "abruptly": 8551,
      "causes": 8552,
      "sup": 8553,
      "suspected": 8554,
      "##outs": 8555,
      "ending": 8556,
      "branch": 8557,
      "enormous": 8558,
      "coinc": 8559,
      "scanned": 8560,
      "senior": 8561,
      "##sect": 8562,
      "directed": 8563,
      "sunlight": 8564,
      "footsteps": 8565,
      "fears": 8566,
      "alan": 8567,
      "lust": 8568,
      "commer": 8569,
      "gene": 8570,
      "praise": 8571,
      "desires": 8572,
      "frightened": 8573,
      "##otted": 8574,
      "tapped": 8575,
      "intens": 8576,
      "impat": 8577,
      "symbol": 8578,
      "endless": 8579,
      "##erable": 8580,
      "murmured": 8581,
      "echoed": 8582,
      "sits": 8583,
      "sensation": 8584,
      "gifts": 8585,
      "##char": 8586,
      "contempl": 8587,
      "narrowed": 8588,
      "zach": 8589,
      "figures": 8590,
      "compassion": 8591,
      "impression": 8592,
      "hid": 8593,
      "practically": 8594,
      "hunt": 8595,
      "volunte": 8596,
      "##rous": 8597,
      "nich": 8598,
      "previously": 8599,
      "passenger": 8600,
      "arrow": 8601,
      "impressed": 8602,
      "##asty": 8603,
      "sant": 8604,
      "##kins": 8605,
      "##ugg": 8606,
      "distrib": 8607,
      "trap": 8608,
      "awareness": 8609,
      "slowed": 8610,
      "majority": 8611,
      "##umber": 8612,
      "ruth": 8613,
      "jill": 8614,
      "collapsed": 8615,
      "committed": 8616,
      "liam": 8617,
      "identify": 8618,
      "dur": 8619,
      "questioned": 8620,
      "severe": 8621,
      "inspect": 8622,
      "##nic": 8623,
      "chaos": 8624,
      "forb": 8625,
      "agents": 8626,
      "electron": 8627,
      "oblig": 8628,
      "vit": 8629,
      "##cular": 8630,
      "estate": 8631,
      "routine": 8632,
      "messenger": 8633,
      "##ros": 8634,
      "kal": 8635,
      "##gue": 8636,
      "tommy": 8637,
      "abra": 8638,
      "internal": 8639,
      "##osition": 8640,
      "pig": 8641,
      "immediate": 8642,
      "snar": 8643,
      "feared": 8644,
      "fet": 8645,
      "##lan": 8646,
      "raven": 8647,
      "flower": 8648,
      "immort": 8649,
      "pressing": 8650,
      "philosop": 8651,
      "##pass": 8652,
      "motiv": 8653,
      "flipped": 8654,
      "rubbing": 8655,
      "eaten": 8656,
      "smelled": 8657,
      "speaks": 8658,
      "mall": 8659,
      "##otes": 8660,
      "muse": 8661,
      "##ndered": 8662,
      "##mitted": 8663,
      "threatened": 8664,
      "dism": 8665,
      "finds": 8666,
      "manifest": 8667,
      "nove": 8668,
      "laura": 8669,
      "rebe": 8670,
      "guessed": 8671,
      "os": 8672,
      "options": 8673,
      "reflection": 8674,
      "shuff": 8675,
      "suffered": 8676,
      "cops": 8677,
      "territ": 8678,
      "gotta": 8679,
      "##attering": 8680,
      "##agers": 8681,
      "pete": 8682,
      "##words": 8683,
      "numerous": 8684,
      "disciples": 8685,
      "pod": 8686,
      "lance": 8687,
      "glare": 8688,
      "whir": 8689,
      "gesture": 8690,
      "##stone": 8691,
      "##oning": 8692,
      "floating": 8693,
      "##pled": 8694,
      "incom": 8695,
      "sally": 8696,
      "visited": 8697,
      "calcul": 8698,
      "bin": 8699,
      "remar": 8700,
      "cute": 8701,
      "investigation": 8702,
      "sway": 8703,
      "construct": 8704,
      "remote": 8705,
      "remembering": 8706,
      "essential": 8707,
      "argue": 8708,
      "prime": 8709,
      "puts": 8710,
      "adventure": 8711,
      "boxes": 8712,
      "##osing": 8713,
      "##while": 8714,
      "##och": 8715,
      "jerked": 8716,
      "chocolate": 8717,
      "sugar": 8718,
      "##entially": 8719,
      "alph": 8720,
      "colors": 8721,
      "parent": 8722,
      "detect": 8723,
      "louder": 8724,
      "##ggy": 8725,
      "thorough": 8726,
      "vanished": 8727,
      "bars": 8728,
      "boun": 8729,
      "border": 8730,
      "patience": 8731,
      "nurs": 8732,
      "essence": 8733,
      "sales": 8734,
      "tyler": 8735,
      "slide": 8736,
      "insist": 8737,
      "##ties": 8738,
      "pillow": 8739,
      "fake": 8740,
      "consequences": 8741,
      "fleet": 8742,
      "##greg": 8743,
      "proved": 8744,
      "ridiculous": 8745,
      "dram": 8746,
      "reck": 8747,
      "fists": 8748,
      "resur": 8749,
      "trusted": 8750,
      "psal": 8751,
      "nest": 8752,
      "##vant": 8753,
      "shakes": 8754,
      "nuclear": 8755,
      "##isher": 8756,
      "##unched": 8757,
      "stol": 8758,
      "pir": 8759,
      "##isc": 8760,
      "relationships": 8761,
      "noble": 8762,
      "deny": 8763,
      "slapped": 8764,
      "copyright": 8765,
      "inev": 8766,
      "gran": 8767,
      "worlds": 8768,
      "realizing": 8769,
      "isol": 8770,
      "eleven": 8771,
      "brilliant": 8772,
      "heb": 8773,
      "warn": 8774,
      "##iture": 8775,
      "hmm": 8776,
      "determine": 8777,
      "##hole": 8778,
      "purse": 8779,
      "##hi": 8780,
      "sail": 8781,
      "jeremy": 8782,
      "38": 8783,
      "amber": 8784,
      "regardless": 8785,
      "mighty": 8786,
      "##oot": 8787,
      "kil": 8788,
      "identified": 8789,
      "##iate": 8790,
      "##ae": 8791,
      "##erie": 8792,
      "roger": 8793,
      "tray": 8794,
      "mig": 8795,
      "cursed": 8796,
      "shouting": 8797,
      "shy": 8798,
      "folks": 8799,
      "conver": 8800,
      "##ias": 8801,
      "critical": 8802,
      "reference": 8803,
      "russian": 8804,
      "pee": 8805,
      "violent": 8806,
      "lun": 8807,
      "disbelief": 8808,
      "##amped": 8809,
      "tore": 8810,
      "apost": 8811,
      "sank": 8812,
      "lonely": 8813,
      "revolution": 8814,
      "movements": 8815,
      "assass": 8816,
      "gul": 8817,
      "raw": 8818,
      "traditional": 8819,
      "deliber": 8820,
      "##alem": 8821,
      "fier": 8822,
      "##inks": 8823,
      "painting": 8824,
      "towel": 8825,
      "marked": 8826,
      "july": 8827,
      "quit": 8828,
      "stead": 8829,
      "coven": 8830,
      "highway": 8831,
      "##put": 8832,
      "writer": 8833,
      "flowing": 8834,
      "player": 8835,
      "joshua": 8836,
      "ting": 8837,
      "widened": 8838,
      "##ika": 8839,
      "intim": 8840,
      "tas": 8841,
      "dere": 8842,
      "##irm": 8843,
      "characters": 8844,
      "lifting": 8845,
      "anxious": 8846,
      "crou": 8847,
      "advance": 8848,
      "terrified": 8849,
      "occasionally": 8850,
      "personality": 8851,
      "sandwich": 8852,
      "37": 8853,
      "poet": 8854,
      "##uled": 8855,
      "cleaning": 8856,
      "scripture": 8857,
      "abilities": 8858,
      "arthur": 8859,
      "##icted": 8860,
      "vic": 8861,
      "centuries": 8862,
      "##ulating": 8863,
      "damned": 8864,
      "##gun": 8865,
      "froze": 8866,
      "zomb": 8867,
      "parties": 8868,
      "apple": 8869,
      "salt": 8870,
      "clay": 8871,
      "##ago": 8872,
      "sounding": 8873,
      "schol": 8874,
      "grief": 8875,
      "nods": 8876,
      "combat": 8877,
      "##roph": 8878,
      "swing": 8879,
      "trace": 8880,
      "messages": 8881,
      "warriors": 8882,
      "physically": 8883,
      "uses": 8884,
      "companion": 8885,
      "divor": 8886,
      "document": 8887,
      "diet": 8888,
      "viv": 8889,
      "boot": 8890,
      "toile": 8891,
      "values": 8892,
      "corn": 8893,
      "helpless": 8894,
      "recon": 8895,
      "puff": 8896,
      "conference": 8897,
      "jamie": 8898,
      "indian": 8899,
      "vel": 8900,
      "sets": 8901,
      "latest": 8902,
      "kelly": 8903,
      "waving": 8904,
      "jackson": 8905,
      "myth": 8906,
      "companies": 8907,
      "lifet": 8908,
      "quarters": 8909,
      "lawyer": 8910,
      "knocking": 8911,
      "network": 8912,
      "abraham": 8913,
      "pistol": 8914,
      "lucas": 8915,
      "continuing": 8916,
      "separated": 8917,
      "##ал": 8918,
      "##elling": 8919,
      "outer": 8920,
      "dried": 8921,
      "lege": 8922,
      "##asper": 8923,
      "##mond": 8924,
      "sale": 8925,
      "arranged": 8926,
      "overcome": 8927,
      "goddess": 8928,
      "annie": 8929,
      "##ville": 8930,
      "suic": 8931,
      "phen": 8932,
      "vague": 8933,
      "follows": 8934,
      "trembling": 8935,
      "prepar": 8936,
      "##uge": 8937,
      "ratt": 8938,
      "fox": 8939,
      "steal": 8940,
      "destiny": 8941,
      "##andra": 8942,
      "pd": 8943,
      "income": 8944,
      "jonathan": 8945,
      "rarely": 8946,
      "survived": 8947,
      "soil": 8948,
      "prayed": 8949,
      "exception": 8950,
      "wounds": 8951,
      "fu": 8952,
      "opens": 8953,
      "muscle": 8954,
      "assign": 8955,
      "bike": 8956,
      "hook": 8957,
      "load": 8958,
      "hissed": 8959,
      "carpet": 8960,
      "valu": 8961,
      "##ba": 8962,
      "proced": 8963,
      "gur": 8964,
      "string": 8965,
      "incredible": 8966,
      "##force": 8967,
      "stretch": 8968,
      "casual": 8969,
      "leon": 8970,
      "wounded": 8971,
      "scientists": 8972,
      "serving": 8973,
      "overl": 8974,
      "194": 8975,
      "##enses": 8976,
      "bern": 8977,
      "forcing": 8978,
      "##20": 8979,
      "karen": 8980,
      "revealing": 8981,
      "logic": 8982,
      "halfway": 8983,
      "confirm": 8984,
      "edward": 8985,
      "damp": 8986,
      "grade": 8987,
      "september": 8988,
      "injured": 8989,
      "majest": 8990,
      "##50": 8991,
      "nearest": 8992,
      "reception": 8993,
      "applied": 8994,
      "patted": 8995,
      "repair": 8996,
      "believing": 8997,
      "tool": 8998,
      "conte": 8999,
      "diamond": 9000,
      "spinning": 9001,
      "marks": 9002,
      "sucked": 9003,
      "##mark": 9004,
      "trunk": 9005,
      "mason": 9006,
      "blocks": 9007,
      "##umping": 9008,
      "wherever": 9009,
      "##illa": 9010,
      "##alled": 9011,
      "eggs": 9012,
      "eh": 9013,
      "##rees": 9014,
      "preparing": 9015,
      "anc": 9016,
      "companions": 9017,
      "weakness": 9018,
      "gestured": 9019,
      "africa": 9020,
      "lover": 9021,
      "owned": 9022,
      "controlled": 9023,
      "wre": 9024,
      "jessica": 9025,
      "##acon": 9026,
      "useless": 9027,
      "customers": 9028,
      "sensitive": 9029,
      "discussed": 9030,
      "jewish": 9031,
      "sports": 9032,
      "bobby": 9033,
      "captured": 9034,
      "bapt": 9035,
      "publ": 9036,
      "helps": 9037,
      "snake": 9038,
      "anxiety": 9039,
      "rebecca": 9040,
      "##omy": 9041,
      "midnight": 9042,
      "commanded": 9043,
      "##walk": 9044,
      "collar": 9045,
      "patrick": 9046,
      "infinite": 9047,
      "distracted": 9048,
      "bothered": 9049,
      "toler": 9050,
      "mes": 9051,
      "loaded": 9052,
      "neighborhood": 9053,
      "newspaper": 9054,
      "tries": 9055,
      "##isms": 9056,
      "gw": 9057,
      "testament": 9058,
      "safely": 9059,
      "##unate": 9060,
      "signed": 9061,
      "accent": 9062,
      "##azz": 9063,
      "seemingly": 9064,
      "han": 9065,
      "##ober": 9066,
      "##hammad": 9067,
      "##usions": 9068,
      "blake": 9069,
      "jerus": 9070,
      "##mes": 9071,
      "##fire": 9072,
      "marie": 9073,
      "trev": 9074,
      "pounding": 9075,
      "photos": 9076,
      "annoyed": 9077,
      "margar": 9078,
      "indicated": 9079,
      "wizard": 9080,
      "giggled": 9081,
      "beats": 9082,
      "##rily": 9083,
      "ritual": 9084,
      "muslim": 9085,
      "gorge": 9086,
      "driveway": 9087,
      "##itter": 9088,
      "##onation": 9089,
      "holes": 9090,
      "goodness": 9091,
      "peaceful": 9092,
      "##ala": 9093,
      "equally": 9094,
      "rip": 9095,
      "jerusalem": 9096,
      "october": 9097,
      "clue": 9098,
      "ras": 9099,
      "prol": 9100,
      "bleeding": 9101,
      "cheap": 9102,
      "spat": 9103,
      "products": 9104,
      "loun": 9105,
      "andre": 9106,
      "tact": 9107,
      "candid": 9108,
      "movies": 9109,
      "alert": 9110,
      "beloved": 9111,
      "federal": 9112,
      "rhyth": 9113,
      "hopes": 9114,
      "flag": 9115,
      "nodding": 9116,
      "austin": 9117,
      "cooking": 9118,
      "shining": 9119,
      "##uish": 9120,
      "stor": 9121,
      "conqu": 9122,
      "writ": 9123,
      "illeg": 9124,
      "kit": 9125,
      "edition": 9126,
      "choices": 9127,
      "fishing": 9128,
      "##ela": 9129,
      "punch": 9130,
      "memor": 9131,
      "panel": 9132,
      "defeat": 9133,
      "edd": 9134,
      "creator": 9135,
      "parad": 9136,
      "shelter": 9137,
      "##iour": 9138,
      "troops": 9139,
      "kisses": 9140,
      "squad": 9141,
      "screams": 9142,
      "sorrow": 9143,
      "strategy": 9144,
      "december": 9145,
      "lied": 9146,
      "##ordan": 9147,
      "cad": 9148,
      "au": 9149,
      "repeat": 9150,
      "repub": 9151,
      "kir": 9152,
      "sadness": 9153,
      "##ibl": 9154,
      "selfish": 9155,
      "##rison": 9156,
      "apparent": 9157,
      "vig": 9158,
      "mah": 9159,
      "closest": 9160,
      "selling": 9161,
      "outl": 9162,
      "traveling": 9163,
      "attractive": 9164,
      "ing": 9165,
      "##nis": 9166,
      "lion": 9167,
      "blessing": 9168,
      "smashwords": 9169,
      "##inkled": 9170,
      "stolen": 9171,
      "happily": 9172,
      "independent": 9173,
      "sneak": 9174,
      "phr": 9175,
      "##ria": 9176,
      "wandered": 9177,
      "americans": 9178,
      "bold": 9179,
      "heavens": 9180,
      "collected": 9181,
      "samples": 9182,
      "haz": 9183,
      "context": 9184,
      "sacred": 9185,
      "unbel": 9186,
      "criminal": 9187,
      "granted": 9188,
      "fog": 9189,
      "##isy": 9190,
      "objects": 9191,
      "pockets": 9192,
      "encounter": 9193,
      "##ilst": 9194,
      "nu": 9195,
      "##cere": 9196,
      "prosp": 9197,
      "##amin": 9198,
      "lux": 9199,
      "##engers": 9200,
      "ages": 9201,
      "guar": 9202,
      "noah": 9203,
      "fancy": 9204,
      "owners": 9205,
      "##onent": 9206,
      "lessons": 9207,
      "worthy": 9208,
      "erupt": 9209,
      "stephen": 9210,
      "lane": 9211,
      "crossing": 9212,
      "georg": 9213,
      "aston": 9214,
      "mysterious": 9215,
      "verses": 9216,
      "maid": 9217,
      "creative": 9218,
      "protected": 9219,
      "balls": 9220,
      "covers": 9221,
      "scramb": 9222,
      "jones": 9223,
      "kne": 9224,
      "paris": 9225,
      "engaged": 9226,
      "compound": 9227,
      "collective": 9228,
      "connor": 9229,
      "weigh": 9230,
      "republic": 9231,
      "sadly": 9232,
      "drops": 9233,
      "acknowled": 9234,
      "##ii": 9235,
      "haired": 9236,
      "reaches": 9237,
      "gn": 9238,
      "taylor": 9239,
      "sanct": 9240,
      "beliefs": 9241,
      "##rial": 9242,
      "eternity": 9243,
      "sheets": 9244,
      "prost": 9245,
      "fierce": 9246,
      "##ulting": 9247,
      "landsc": 9248,
      "dwar": 9249,
      "creep": 9250,
      "##ooked": 9251,
      "##ensed": 9252,
      "grandma": 9253,
      "spray": 9254,
      "persons": 9255,
      "##mare": 9256,
      "melan": 9257,
      "industry": 9258,
      "calmly": 9259,
      "debt": 9260,
      "##rors": 9261,
      "luci": 9262,
      "vincent": 9263,
      "january": 9264,
      "yah": 9265,
      "prayers": 9266,
      "##arn": 9267,
      "examined": 9268,
      "##oting": 9269,
      "faithful": 9270,
      "pastor": 9271,
      "blo": 9272,
      "doctors": 9273,
      "furniture": 9274,
      "sang": 9275,
      "tatt": 9276,
      "60": 9277,
      "knelt": 9278,
      "instance": 9279,
      "cel": 9280,
      "##ending": 9281,
      "fantasy": 9282,
      "2014": 9283,
      "anton": 9284,
      "muslims": 9285,
      "##istics": 9286,
      "bust": 9287,
      "pity": 9288,
      "absence": 9289,
      "threatening": 9290,
      "palms": 9291,
      "wagon": 9292,
      "##mic": 9293,
      "greed": 9294,
      "strip": 9295,
      "ministry": 9296,
      "cage": 9297,
      "rent": 9298,
      "samuel": 9299,
      "shots": 9300,
      "##ifically": 9301,
      "recip": 9302,
      "##iger": 9303,
      "insane": 9304,
      "adding": 9305,
      "interact": 9306,
      "exists": 9307,
      "gradually": 9308,
      "##iments": 9309,
      "ct": 9310,
      "mankind": 9311,
      "##isha": 9312,
      "##но": 9313,
      "backp": 9314,
      "november": 9315,
      "sexy": 9316,
      "vulner": 9317,
      "contrast": 9318,
      "ought": 9319,
      "climbing": 9320,
      "destination": 9321,
      "zero": 9322,
      "sized": 9323,
      "nasty": 9324,
      "norther": 9325,
      "##ffin": 9326,
      "whilst": 9327,
      "decent": 9328,
      "subtle": 9329,
      "strateg": 9330,
      "mobile": 9331,
      "##essa": 9332,
      "42": 9333,
      "nightmare": 9334,
      "basement": 9335,
      "##die": 9336,
      "##down": 9337,
      "chances": 9338,
      "commission": 9339,
      "humor": 9340,
      "##point": 9341,
      "bom": 9342,
      "refuse": 9343,
      "reflected": 9344,
      "krist": 9345,
      "overhead": 9346,
      "##bre": 9347,
      "protein": 9348,
      "hut": 9349,
      "swords": 9350,
      "thread": 9351,
      "diana": 9352,
      "mont": 9353,
      "flee": 9354,
      "pulse": 9355,
      "gym": 9356,
      "jet": 9357,
      "experiment": 9358,
      "##zer": 9359,
      "mount": 9360,
      "benefits": 9361,
      "belonged": 9362,
      "pac": 9363,
      "index": 9364,
      "skirt": 9365,
      "corin": 9366,
      "valid": 9367,
      "julie": 9368,
      "fled": 9369,
      "mitch": 9370,
      "magazine": 9371,
      "discipl": 9372,
      "nerves": 9373,
      "surg": 9374,
      "cake": 9375,
      "construction": 9376,
      "subjects": 9377,
      "##ар": 9378,
      "praying": 9379,
      "elbow": 9380,
      "players": 9381,
      "obst": 9382,
      "attacks": 9383,
      "mentally": 9384,
      "aimed": 9385,
      "tightened": 9386,
      "rushing": 9387,
      "##gression": 9388,
      "todd": 9389,
      "ira": 9390,
      "affection": 9391,
      "answering": 9392,
      "racing": 9393,
      "katie": 9394,
      "predict": 9395,
      "jumping": 9396,
      "temperature": 9397,
      "despair": 9398,
      "##the": 9399,
      "cate": 9400,
      "assistant": 9401,
      "negot": 9402,
      "##10": 9403,
      "clan": 9404,
      "twin": 9405,
      "##iev": 9406,
      "##encies": 9407,
      "wire": 9408,
      "crawled": 9409,
      "overall": 9410,
      "ic": 9411,
      "hip": 9412,
      "##rence": 9413,
      "fortune": 9414,
      "robe": 9415,
      "traveled": 9416,
      "hunger": 9417,
      "toes": 9418,
      "spite": 9419,
      "##anor": 9420,
      "puzzled": 9421,
      "zone": 9422,
      "enh": 9423,
      "testing": 9424,
      "claims": 9425,
      "valuable": 9426,
      "intelligent": 9427,
      "explosion": 9428,
      "aven": 9429,
      "partners": 9430,
      "##cers": 9431,
      "lifetime": 9432,
      "##rah": 9433,
      "39": 9434,
      "increasing": 9435,
      "underground": 9436,
      "eag": 9437,
      "assault": 9438,
      "county": 9439,
      "hence": 9440,
      "retire": 9441,
      "mortal": 9442,
      "tape": 9443,
      "variety": 9444,
      "dyn": 9445,
      "cheese": 9446,
      "hebrew": 9447,
      "troll": 9448,
      "possessed": 9449,
      "revenge": 9450,
      "practical": 9451,
      "##oop": 9452,
      "shim": 9453,
      "jesse": 9454,
      "scra": 9455,
      "leapt": 9456,
      "laughs": 9457,
      "boring": 9458,
      "mia": 9459,
      "##ares": 9460,
      "toilet": 9461,
      "straw": 9462,
      "cind": 9463,
      "conven": 9464,
      "crept": 9465,
      "alternative": 9466,
      "dimension": 9467,
      "funeral": 9468,
      "topic": 9469,
      "secretary": 9470,
      "description": 9471,
      "interf": 9472,
      "##aning": 9473,
      "unsure": 9474,
      "client": 9475,
      "involve": 9476,
      "maxim": 9477,
      "handful": 9478,
      "##iolet": 9479,
      "recru": 9480,
      "france": 9481,
      "horrif": 9482,
      "upd": 9483,
      "##inent": 9484,
      "##ooped": 9485,
      "gap": 9486,
      "dies": 9487,
      "exhaust": 9488,
      "##utation": 9489,
      "alongside": 9490,
      "##olas": 9491,
      "snorted": 9492,
      "ancest": 9493,
      "sandy": 9494,
      "circles": 9495,
      "lately": 9496,
      "mouse": 9497,
      "session": 9498,
      "suck": 9499,
      "atl": 9500,
      "politics": 9501,
      "unre": 9502,
      "insect": 9503,
      "steam": 9504,
      "therapy": 9505,
      "patch": 9506,
      "darwin": 9507,
      "instructed": 9508,
      "gown": 9509,
      "complicated": 9510,
      "flut": 9511,
      "acted": 9512,
      "smoking": 9513,
      "channel": 9514,
      "sincere": 9515,
      "chemical": 9516,
      "gav": 9517,
      "2011": 9518,
      "extent": 9519,
      "steven": 9520,
      "principle": 9521,
      "decre": 9522,
      "interpretation": 9523,
      "campa": 9524,
      "capacity": 9525,
      "oak": 9526,
      "aged": 9527,
      "decades": 9528,
      "sorts": 9529,
      "typical": 9530,
      "lod": 9531,
      "grat": 9532,
      "ker": 9533,
      "expressed": 9534,
      "northern": 9535,
      "cassie": 9536,
      "##ylan": 9537,
      "pissed": 9538,
      "formal": 9539,
      "schedule": 9540,
      "##inating": 9541,
      "burden": 9542,
      "arrog": 9543,
      "reader": 9544,
      "website": 9545,
      "basically": 9546,
      "aiden": 9547,
      "hath": 9548,
      "ultimate": 9549,
      "visual": 9550,
      "danced": 9551,
      "bald": 9552,
      "concerning": 9553,
      "44": 9554,
      "slaves": 9555,
      "cloak": 9556,
      "backs": 9557,
      "##othy": 9558,
      "##ashes": 9559,
      "##isation": 9560,
      "reduced": 9561,
      "brid": 9562,
      "lon": 9563,
      "nud": 9564,
      "blocked": 9565,
      "tin": 9566,
      "chic": 9567,
      "##cel": 9568,
      "trigger": 9569,
      "ebook": 9570,
      "tattoo": 9571,
      "goods": 9572,
      "genetic": 9573,
      "##aa": 9574,
      "hatred": 9575,
      "interests": 9576,
      "dat": 9577,
      "##cs": 9578,
      "attempts": 9579,
      "##eze": 9580,
      "models": 9581,
      "neverth": 9582,
      "satisfaction": 9583,
      "##boy": 9584,
      "insight": 9585,
      "treasure": 9586,
      "nevertheless": 9587,
      "kin": 9588,
      "##of": 9589,
      "miracle": 9590,
      "feb": 9591,
      "behold": 9592,
      "scrap": 9593,
      "lil": 9594,
      "dil": 9595,
      "persu": 9596,
      "exploded": 9597,
      "vehicles": 9598,
      "isaac": 9599,
      "larry": 9600,
      "ideal": 9601,
      "acknowledge": 9602,
      "eastern": 9603,
      "clinical": 9604,
      "##rent": 9605,
      "corners": 9606,
      "swimming": 9607,
      "buying": 9608,
      "occupied": 9609,
      "waking": 9610,
      "eddie": 9611,
      "##icial": 9612,
      "##eman": 9613,
      "aspects": 9614,
      "songs": 9615,
      "eyel": 9616,
      "lapt": 9617,
      "prophets": 9618,
      "##natural": 9619,
      "district": 9620,
      "hem": 9621,
      "requires": 9622,
      "outf": 9623,
      "pounds": 9624,
      "recommend": 9625,
      "tilted": 9626,
      "obsc": 9627,
      "wishes": 9628,
      "stu": 9629,
      "stable": 9630,
      "mild": 9631,
      "billion": 9632,
      "##xed": 9633,
      "##inate": 9634,
      "preferred": 9635,
      "prem": 9636,
      "##ours": 9637,
      "sie": 9638,
      "ais": 9639,
      "schem": 9640,
      "twins": 9641,
      "lect": 9642,
      "squir": 9643,
      "molly": 9644,
      "fest": 9645,
      "cleaned": 9646,
      "receiving": 9647,
      "obser": 9648,
      "silk": 9649,
      "##vet": 9650,
      "assigned": 9651,
      "multi": 9652,
      "##nam": 9653,
      "##itated": 9654,
      "buff": 9655,
      "rac": 9656,
      "rational": 9657,
      "##aneously": 9658,
      "plot": 9659,
      "justin": 9660,
      "##rod": 9661,
      "mins": 9662,
      "affected": 9663,
      "consp": 9664,
      "##acious": 9665,
      "mit": 9666,
      "arrest": 9667,
      "195": 9668,
      "wanna": 9669,
      "##ni": 9670,
      "intonation": 9671,
      "brut": 9672,
      "assistance": 9673,
      "forgiveness": 9674,
      "ny": 9675,
      "mane": 9676,
      "deadly": 9677,
      "##eem": 9678,
      "upwards": 9679,
      "fifth": 9680,
      "outs": 9681,
      "combined": 9682,
      "##berg": 9683,
      "attempting": 9684,
      "newly": 9685,
      "straightened": 9686,
      "##umph": 9687,
      "##ko": 9688,
      "yelling": 9689,
      "clever": 9690,
      "eighteen": 9691,
      "backpack": 9692,
      "princip": 9693,
      "nons": 9694,
      "suspicious": 9695,
      "tense": 9696,
      "##ов": 9697,
      "committ": 9698,
      "pros": 9699,
      "##ician": 9700,
      "mistakes": 9701,
      "nam": 9702,
      "tribe": 9703,
      "rude": 9704,
      "angle": 9705,
      "gained": 9706,
      "situations": 9707,
      "43": 9708,
      "princi": 9709,
      "envelope": 9710,
      "exciting": 9711,
      "##lying": 9712,
      "logan": 9713,
      "goals": 9714,
      "visiting": 9715,
      "afterwards": 9716,
      "bits": 9717,
      "attrib": 9718,
      "##itty": 9719,
      "##armed": 9720,
      "phase": 9721,
      "gay": 9722,
[...]
