[PAD]
[UNK]
[CLS]
[SEP]
[MASK]
!
"
#
$
%
&
'
(
)
*
+
,
-
.
/
0
1
2
3
4
5
6
7
8
9
:
;
<
=
>
?
@
[
\
]
^
_
`
a
b
c
d
e
f
g
h
i
j
k
l
m
n
o
p
q
r
s
t
u
v
w
x
y
z
{
|
}
~
¡
¢
£
¤
¥
¦
§
¨
©
ª
«
¬
®
¯
°
±
²
³
´
µ
¶
·
¸
¹
º
»
¼
½
¾
¿
×
ß
æ
ð
÷
ø
þ
đ
ħ
ı
ĸ
ł
ŋ
œ
ŧ
ſ
ƃ
ƈ
ƒ
ƙ
ƚ
ƴ
ƶ
ƿ
ǁ
ǝ
ǥ
ȝ
ȼ
ɂ
ɏ
ɐ
ɑ
ɓ
ɔ
ɖ
ə
ɛ
ɟ
ɡ
ɣ
ɤ
ɥ
ɨ
ɩ
ɪ
ɮ
ɯ
ɱ
ɲ
ɳ
ɵ
ɸ
ɹ
ɻ
ɽ
ʃ
ʊ
ʌ
ʎ
ʑ
ʒ
ʔ
ʕ
ʘ
ʤ
ʧ
ʲ
ʷ
ʹ
ʺ
ʻ
ʽ
ʾ
ʿ
ˀ
˂
˃
˄
˅
ˆ
ˇ
ˈ
ˉ
ˋ
ˌ
ː
˗
˘
˙
˚
˜
˝
ˤ
ˮ
˴
ͻ
΄
α
β
γ
δ
ε
ζ
η
θ
ι
κ
λ
μ
ν
ξ
ο
π
ρ
ς
σ
τ
υ
φ
χ
ψ
ω
ϒ
ϕ
ϙ
ϛ
ϝ
ϟ
ϵ
ϸ
а
б
в
г
д
е
ж
з
и
к
л
м
н
о
п
р
с
т
у
ф
х
ц
ч
ш
щ
ъ
ы
ь
э
ю
я
ђ
є
ѕ
і
ј
љ
њ
ћ
џ
ѵ
ѻ
҉
ґ
ғ
қ
ҡ
ң
ҫ
ү
ұ
ҳ
һ
ӈ
ӏ
ә
ө
ԑ
ԛ
֎
־
׀
׃
א
ב
ג
ד
ה
ו
ז
ח
ט
י
ך
כ
ל
ם
מ
ן
נ
ס
ע
ף
פ
ץ
צ
ק
ר
ש
ת
ײ
׳
״
،
؛
؟
ء
ا
ب
ة
ت
ث
ج
ح
خ
د
ذ
ر
ز
س
ش
ص
ض
ط
ظ
ع
غ
ـ
ف
ق
ك
ل
م
ن
ه
و
ى
ي
٠
١
٢
٣
٤
٥
٦
٧
٨
٩
٪
٬
ٱ
ٳ
ٴ
پ
ځ
څ
چ
ڏ
ڔ
ڕ
ژ
ڛ
ک
گ
ڰ
ڳ
ڷ
ھ
ڿ
ہ
ۃ
ۇ
ۈ
ی
ۍ
ۏ
۔
ە
۞
ۥ
ۦ
۩
۰
۱
۲
۳
۴
۵
۶
۷
۸
۹
ः
अ
आ
इ
ई
उ
ऊ
ऋ
ए
ऐ
ओ
औ
क
ख
ग
घ
ङ
च
छ
ज
झ
ञ
ट
ठ
ड
ढ
ण
त
थ
द
ध
न
प
फ
ब
भ
म
य
र
ल
व
श
ष
स
ह
ऽ
ा
ि
ी
ो
ौ
ॐ
ॠ
।
॥
०
१
२
३
४
५
६
७
८
९
ং
ঃ
অ
আ
ই
ঈ
উ
ঋ
এ
ঐ
ও
ঔ
ক
খ
গ
ঘ
ঙ
চ
ছ
জ
ঝ
ঞ
ট
ঠ
ড
ঢ
ণ
ত
থ
দ
ধ
ন
প
ফ
ব
ভ
ম
য
র
ল
শ
ষ
স
হ
া
ি
ী
ে
ৈ
ৎ
ৗ
০
১
২
৩
৪
৫
৬
৭
৮
৯
ਅ
ਈ
ਉ
ਕ
ਖ
ਗ
ਚ
ਜ
ਤ
ਥ
ਦ
ਧ
ਨ
ਪ
ਬ
ਭ
ਮ
ਰ
ਲ
ਸ
ਹ
ਾ
ਿ
ੀ
੧
੩
ஃ
அ
ஆ
இ
ஈ
உ
ஊ
எ
ஏ
ஐ
ஒ
ஓ
க
ங
ச
ஜ
ஞ
ட
ண
த
ந
ன
ப
ம
ய
ர
ற
ல
ள
ழ
வ
ஷ
ஸ
ா
ி
ு
ூ
ெ
ே
ை
ௗ
๛
༻
ခ
င
ဆ
န
ပ
သ
ါ
ာ
ေ
း
ᄃ
ᅠ
ᐯ
ᑌ
ᑎ
ᑕ
ᑭ
ᒍ
ᒪ
ᖴ
ᗩ
ᗪ
ᗰ
ᗷ
ᴼ
ᵒ
ᵛ
ᵦ
ᶜ
᾽
῾
‐
‑
‒
–
—
―
‖
‗
†
‡
•
‧
‰
‱
′
″
‴
‶
‹
›
※
‼
‽
‿
⁀
⁃
⁄
⁉
⁰
⁴
⁵
⁶
⁷
⁸
⁹
⁺
₀
₁
₂
₃
₄
₅
₆
₇
₉
₡
₣
₤
₦
₧
₪
€
₰
₱
₹
℃
℉
ℌ
ℎ
ℏ
ℓ
№
ℝ
™
⅓
⅔
⅖
⅘
⅛
⅞
ⅱ
ⅵ
ↄ
←
↑
→
↓
↔
↩
↵
⇐
⇒
⇓
⇔
⇝
⇧
⇪
∂
∅
∆
∈
∎
∏
∑
−
∓
∕
∗
∘
∙
√
∛
∝
∞
∟
∣
∧
∨
∩
∫
∴
∶
∼
≅
≈
≋
≎
≒
≡
≤
≥
≦
≧
≳
⊂
⊆
⊕
⊘
⊙
⊢
⊣
⋆
⋯
⌂
⌈
⌉
⌘
⍟
⍺
⎛
⎢
⎯
⏰
⏱
⏲
①
②
③
④
⑤
⑥
⑦
ⓐ
ⓒ
─
│
└
├
┥
┼
═
║
╖
╜
╟
╠
╣
╥
╦
╨
█
▌
■
□
▪
▫
▲
△
▶
▸
►
▻
▼
▽
◄
◅
◆
◇
◉
◊
○
◍
●
◐
◑
◙
◡
◦
☀
★
☆
☇
☉
☎
☐
☑
☔
☜
☝
☞
☠
☢
☣
☥
☪
☮
☯
☸
☹
☺
☻
☼
☽
☾
☿
♀
♂
♃
♄
♆
♈
♍
♏
♐
♑
♒
♔
♕
♚
♛
♜
♝
♞
♟
♠
♡
♣
♥
♦
♩
♪
♫
♬
⚛
⚜
⚡
⚧
⚾
⛄
⛴
✅
✈
✋
✍
✓
✔
✗
✘
✝
✞
✠
✡
✦
✧
✨
✩
✯
✰
❀
❁
❃
❄
❌
❎
❏
❑
❖
❛
❜
❝
❞
❤
❥
❦
➔
➜
➡
➢
➤
➳
➹
⟞
⧳
⩾
⭐
ⱥ
ⲅ
⸮
⺄
⺈
⺊
⺌
⺍
⺕
⺧
⺶
⺷
⺻
⺼
⻊
⻏
⻖
、
。
〈
〉
《
》
「
」
『
』
〜
〡
・
ヽ
ㄅ
㇀
㇂
㋛
㐂
㐆
㐫
㐬
㐭
㐮
㐱
㐴
㑄
㑅
㑒
㑦
㑨
㑪
㑹
㒒
㒼
㓁
㓇
㓛
㔟
㔪
㔬
㔺
㔾
㕍
㕚
㕛
㕜
㕝
㕞
㕡
㕣
㕮
㖦
㖨
㖾
㗅
㗈
㗊
㗋
㗙
㗚
㗴
㗿
㘅
㘩
㘴
㙊
㙓
㙕
㙵
㙹
㚅
㚇
㚊
㚍
㚏
㚑
㚒
㚔
㚖
㚘
㚙
㚢
㚣
㚥
㚦
㚳
㚶
㚷
㚻
㚼
㛂
㛍
㛏
㛑
㛒
㛕
㛙
㛚
㛺
㛻
㛼
㛾
㝉
㝊
㝡
㝢
㝫
㝬
㝵
㝶
㝻
㞁
㞋
㞍
㞐
㞑
㞒
㞓
㞚
㞞
㞠
㞡
㞢
㞧
㞬
㞵
㞺
㟁
㟢
㟨
㟴
㟽
㠀
㠪
㠭
㠮
㠯
㠱
㠲
㠶
㠻
㠾
㡀
㡜
㡡
㡣
㡯
㡰
㡿
㢂
㢄
㢟
㢽
㣉
㣍
㣏
㣔
㣯
㣺
㤗
㤚
㤟
㤨
㤻
㤽
㤿
㥃
㥆
㥐
㥡
㥣
㥯
㥰
㥾
㦉
㦊
㦖
㦤
㦰
㧈
㧖
㧗
㨢
㩇
㩮
㩳
㪁
㪅
㫃
㫕
㫖
㫗
㫪
㫷
㫸
㫺
㬎
㬚
㬜
㬝
㬟
㬢
㬮
㬵
㬶
㬸
㭟
㭭
㭷
㮇
㮈
㮍
㮤
㮶
㯃
㯍
㯎
㯰
㰏
㰦
㱀
㱒
㱜
㱸
㱿
㲂
㲃
㲇
㲋
㲺
㳃
㳒
㳔
㳙
㴑
㴞
㵙
㵤
㷀
㷔
㸅
㸿
㹠
㹦
㹨
㺃
㺔
㽗
㽲
㽵
㽷
㾏
㾮
㾯
㿉
㿗
㿻
䀎
䀣
䀹
䁘
䁧
䁹
䂐
䂑
䂓
䄅
䅈
䅏
䅣
䆓
䆴
䆿
䇂
䇏
䇦
䇮
䇳
䈇
䈎
䉤
䊵
䋆
䋎
䋖
䋝
䋡
䌂
䌕
䌟
䌫
䍃
䍗
䍧
䍬
䍰
䍳
䍷
䍻
䎹
䏌
䏍
䏎
䏏
䏐
䏠
䏤
䏮
䏰
䏶
䏺
䐃
䐅
䐇
䐈
䐉
䐋
䐌
䐍
䐖
䐗
䐜
䐡
䐢
䐤
䐥
䐨
䐩
䐭
䐵
䑀
䑉
䑊
䑓
䑛
䑲
䑶
䑺
䒋
䒍
䒏
䒐
䒑
䒭
䒳
䒶
䒾
䓔
䔈
䔍
䔥
䔬
䕃
䖝
䖤
䖧
䖫
䖵
䖸
䗖
䗥
䗪
䘏
䘒
䘕
䘮
䘸
䙁
䙆
䙒
䙝
䙥
䙦
䙮
䙴
䙵
䚏
䚗
䚡
䚯
䚰
䚼
䛄
䛇
䛎
䛏
䛑
䛙
䛠
䛷
䛿
䜋
䜌
䜞
䜡
䜭
䜴
䜵
䜷
䜸
䜻
䝂
䝆
䝇
䝐
䝤
䝪
䝿
䞑
䞙
䟽
䠑
䠖
䡀
䡄
䡎
䢵
䣊
䤫
䦌
䦥
䦫
䦬
䦯
䦰
䧧
䧺
䨄
䨩
䪏
䪼
䬻
䭇
䯂
䯆
䯊
䯒
䯛
䯨
䰗
䰠
䳄
䳑
䴇
䵷
ꜣ
ꝩ
ꞵ
ꟷ
﨏
﨑
﨓
﨔
﨟
﨡
﨤
ﬠ
ﭏ
ﭘ
ﭼ
ﮔ
ﮕ
﴾
﴿
﷓
ﷺ
﹘
ﺋ
ﺎ
ﺐ
ﺑ
ﺒ
ﺖ
ﺗ
ﺘ
ﺙ
ﺛ
ﺜ
ﺟ
ﺠ
ﺢ
ﺣ
ﺤ
ﺧ
ﺨ
ﺪ
ﺬ
ﺮ
ﺰ
ﺲ
ﺳ
ﺴ
ﺶ
ﺷ
ﺸ
ﺻ
ﺼ
ﺿ
ﻀ
ﻃ
ﻄ
ﻈ
ﻊ
ﻋ
ﻌ
ﻐ
ﻓ
ﻔ
ﻖ
ﻗ
ﻘ
ﻚ
ﻛ
ﻜ
ﻞ
ﻟ
ﻠ
ﻢ
ﻣ
ﻤ
ﻦ
ﻧ
ﻨ
ﻪ
ﻫ
ﻬ
ﻮ
ﻲ
ﻳ
ﻴ
ﻻ
ﻼ
𐇲
𝐻
𝐿
𝑃
𝑓
𝑔
𝑖
𝑧
𝛑
𝛼
𝛾
𝛿
𝜶
🃏
🎁
👇
👊
👦
👧
👨
👩
👰
💍
💜
📚
📮
🔥
😁
😂
😃
😅
😆
😉
😊
😍
😐
😒
😘
😚
😜
😞
😠
😢
😥
😫
😬
😱
😲
😳
🙁
🙂
🙃
🙏
🤵
𠂉
𠂢
𠂤
𠆢
𠌫
𠍱
𠎁
𠏹
𠑊
𠔉
𠗖
𠘨
𠝏
𠠇
𠠺
𠢹
𠥼
𠦝
𠫓
𠫔
𠬝
𠮟
𠵅
𠷡
𠹤
𠹭
𠺕
𠽟
𡈁
𡈽
𡉕
𡉴
𡉻
𡋗
𡋤
𡋽
𡌛
𡌶
𡍄
𡏄
𡑭
𡑮
𡗗
𡙇
𡚴
𡜆
𡝂
𡢽
𡧃
𡱖
𡴭
𡵅
𡵢
𡵸
𡶒
𡶜
𡶡
𡶷
𡷠
𡸳
𡸴
𡼞
𡽶
𡿺
𢅻
𢌞
𢎭
𢛳
𢡛
𢢫
𢦏
𢪸
𢭆
𢭏
𢭐
𢮦
𢰝
𢰤
𢷡
𣆶
𣇃
𣇄
𣇵
𣍲
𣏐
𣏒
𣏓
𣏕
𣏚
𣏟
𣏤
𣑊
𣑋
𣑑
𣑥
𣓤
𣕚
𣖔
𣗄
𣘸
𣘹
𣘺
𣙇
𣜌
𣜜
𣜿
𣝣
𣝤
𣟧
𣟿
𣠤
𣪘
𣱿
𣳾
𣴀
𣴎
𣵀
𣷓
𣷹
𣷺
𣽾
𤂖
𤄃
𤇆
𤇾
𤎼
𤘩
𤚥
𤟱
𤢖
𤩍
𤭖
𤭯
𤰖
𤴔
𤸎
𤸷
𤹪
𤺋
𥁊
𥁕
𥄢
𥆩
𥇍
𥇥
𥈞
𥉌
𥐮
𥒎
𥓙
𥔎
𥖧
𥝱
𥞩
𥞴
𥧄
𥧔
𥫣
𥫤
𥫱
𥮲
𥱋
𥱤
𥶡
𥸮
𥹖
𥹢
𥹥
𥻂
𥻘
𥻨
𥼣
𥽜
𥿔
𥿠
𥿻
𦀌
𦀗
𦁠
𦃭
𦉰
𦊆
𦍌
𦐂
𦙾
𦚰
𦜝
𦣝
𦣪
𦥑
𦥯
𦧝
𦨞
𦩘
𦪌
𦪷
𦫿
𦰩
𦱳
𦳝
𦹀
𦹥
𦾔
𦿶
𦿷
𦿸
𧃴
𧄍
𧄹
𧏚
𧏛
𧏾
𧐐
𧑉
𧘔
𧘕
𧘱
𧚄
𧚓
𧜎
𧜣
𧝒
𧦅
𧪄
𧮳
𧮾
𧯇
𧲸
𧶠
𧸐
𧾷
𨂊
𨂻
𨉷
𨊂
𨋳
𨏍
𨐌
𨑕
𨕫
𨗈
𨗉
𨛗
𨛺
𨥆
𨥉
𨥫
𨦇
𨦈
𨦺
𨦻
𨨞
𨨩
𨩃
𨩱
𨪙
𨫍
𨫝
𨫤
𨯁
𨯯
𨴐
𨵱
𨷻
𨸟
𨸶
𨺉
𨻫
𨼲
𨿸
𩊠
𩊱
𩒐
𩗏
𩙿
𩛰
𩜙
𩝐
𩣆
𩩲
𩷛
𩸕
𩸽
𩹉
𩺊
𩻄
𩻛
𩻩
𩿎
𪀚
𪀯
𪂂
𪃹
𪆐
𪎌
𪐷
𪗱
𪘂
𪘚
𪚲
##a
##l
##e
##c
##t
##s
##w
##r
##i
##n
##o
##f
##j
##5
##0
##2
##h
##9
##4
##u
##m
##d
##y
##k
##g
##v
##ı
##b
##p
##z
##q
##р
##о
##д
##е
##л
##а
##и
##3
##ا
##م
##ه
##6
##7
##x
##п
##т
##ண
##ட
##ா
##க
##ி
##ய
##வ
##ர
##ம
##य
##ा
##प
##क
##र
##у
##з
##1
##ை
##ன
##ে
##ল
##ள
##ற
##ு
##м
##த
##8
##н
##с
##ч
##ы
##х
##і
##к
##ع
##ت
##ى
##ү
##ң
##δ
##ω
##σ
##ε
##ல
##ł
##α
##ס
##ק
##°
##β
##г
##ө
##μ
##ә
##ш
##б
##в
##ь
##ப
##ə
##ұ
##ғ
##ж
##ο
##ν
##τ
##ι
##υ
##ψ
##λ
##η
##γ
##چ
##ش
##ی
##د
##ن
##ф
##њ
##´
##ъ
##я
##श
##ी
##त
##ि
##च
##व
##স
##ি
##ক
##া
##đ
##ب
##ٱ
##ل
##ر
##ص
##ي
##س
##غ
##ف
##و
##ρ
##ς
##қ
##ك
##ـ
##ত
##র
##ங
##ю
##১
##ெ
##ة
##π
##گ
##ɡ
##ق
##ே
##ழ
##न
##ħ
##ح
##ذ
##ந
##ز
##ک
##ج
##ध
##ग
##म
##स
##ण
##ß
##щ
##±
##י
##מ
##ל
##κ
##خ
##©
##ҳ
##ন
##ष
##ो
##ע
##ו
##ط
##۳
##۹
##۶
##ξ
##ल
##ও
##ठ
##æ
##ض
##জ
##ச
##ц
##¬
##ѕ
##¹
##€
##﷓
##ء
##œ
##ই
##®
##ह
##ר
##ח
##ब
##भ
##א
##ת
##э
##ם
##≥
##द
##ऽ
##φ
##ב
##þ
##ூ
##ϸ
##♥
##ה
##ম
##চ
##দ
##খ
##ז
##ث
##ञ
##ः
##ζ
##গ
##ট
##×
##फ
##™
##פ
##ধ
##য
##ষ
##χ
##அ
##θ
##ظ
##ज
##−
##হ
##ব
##ী
##ﺎ
##ﻣ
##ﻨ
##ﺪ
##כ
##ौ
##∆
##ङ
##ט
##ן
##ड
##ø
##נ
##˚
##শ
##প
##ד
##צ
##ﻮ
##ۥ
##ש
##ۦ
##᾽
##ঠ
##є
##ভ
##ছ
##ஞ
##ख
##இ
##²
##ণ
##१
##→
##थ
##ৗ
##ড
##ट
##ð
##আ
##ג
##ˈ
##ˌ
##ஃ
##¯
##ː
##¨
##⁄
##ʹ
##پ
##¥
##உ
##থ
##µ
##һ
##─
##ঞ
##आ
##№
##ফ
##٠
##١
##٨
##৫
##ژ
##○
##ং
##½
##𝑃
##ף
##ﺮ
##ﺳ
##►
##ھ
##¤
##≤
##छ
##۵
##۷
##ஈ
##º
##ª
##ஒ
##◄
##ґ
##७
##¸
##£
##ך
##ৈ
##۰
##✝
##△
##ஜ
##◊
##³
##⁴
##😒
##😠
##ﻼ
##ﻳ
##ﻢ
##ﻄ
##ﺑ
##ﻖ
##ʃ
##ɛ
##ʊ
##◦
##ﻧ
##ﻲ
##ە
##ﺢ
##∂
##ʿ
##¾
##ᵒ
##०
##घ
##⎯
##٤
##ȝ
##ј
##█
##ˆ
##≈
##ǝ
##ओ
##۱
##۲
##☺
##⁵
##ढ
##⁹
##ᖴ
##۴
##ஆ
##★
##✨
##எ
##℃
##ঙ
##¢
##ڷ
##ڔ
##ڳ
##⎛
##ſ
##ए
##ϝ
##⁰
##ٳ
##÷
##ई
##ﻤ
##ڏ
##৯
##☹
##৮
##৭
##০
##ஏ
##ץ
##উ
##ԛ
##ﺤ
##ﻘ
##ﻴ
##ﺴ
##ﺘ
##ﻞ
##₦
##₡
##┼
##љ
##ঃ
##₪
##ɮ
##٩
##٢
##¼
##२
##⅔
##ɸ
##५
##ۃ
##☠
##ہ
##င
##း
##ပ
##န
##९
##↓
##♫
##८
##ٴ
##ƒ
##□
##ʌ
##ɪ
##←
##৪
##∞
##ௗ
##ঘ
##ஸ
##ﺒ
##ﻊ
##ʻ
##⋯
##ɣ
##ﻓ
##ﺗ
##৬
##ɔ
##ʤ
##΄
##╥
##৩
##ʾ
##ﺣ
##ﻜ
##ਹ
##ਾ
##ਉ
##∫
##ɨ
##ஐ
##ʒ
##⁶
##ৎ
##ǁ
##😱
##🔥
##ᴼ
##ﻈ
##♐
##ℓ
##ਖ
##ਨ
##∓
##˝
##३
##ਤ
##ਿ
##ਗ
##ਰ
##۩
##ɂ
##♒
##˙
##ꝩ
##𝜶
##☆
##ﻻ
##●
##₧
##ᗰ
##ᗩ
##ﻪ
##🤵
##💍
##ਪ
##ਦ
##ਸ
##ਮ
##६
##⅓
##ঝ
##∈
##⭐
##˴
##♣
##♂
##👩
##👧
##👦
##②
##ꟷ
##₃
##۸
##✔
##झ
##ﺼ
##ﺖ
##❤
##═
##╦
##⁷
##ﺠ
##¦
##①
##│
##ʎ
##ɟ
##ɯ
##٧
##ऊ
##џ
##∗
##٦
##ϕ
##ﻀ
##ﺋ
##ᵦ
##ﺟ
##↑
##⊢
##⅛
##♠
##₂
##ﻌ
##♪
##₅
##₀
##■
##ɳ
##ﻗ
##₄
##⁸
##≧
##♀
##∣
##ஓ
##⁺
##ਬ
##४
##ɓ
##ﺸ
##ﮕ
##ɵ
##ƴ
##ĸ
##ﺨ
##ੀ
##ஷ
##ᒪ
##ᑕ
##ᒍ
##ᑭ
##ᗪ
##ᐯ
##√
##₤
##҉
##˜
##♏
##ਈ
##▼
##ᑎ
##ˉ
##♦
##ћ
##ﻬ
##ɑ
##♔
##ஊ
##ᵛ
##٥
##☼
##ҫ
##इ
##⛴
##ڿ
##ڰ
##ﮔ
##ﻫ
##ﺷ
##২
##❀
##ਕ
##◅
##⊙
##▻
##ŧ
##▽
##℉
##♍
##ﻛ
##ﺰ
##ϒ
##∩
##٣
##║
##▌
##۞
##ђ
##ﻋ
##ﻦ
##ਧ
##ﻠ
##ﺐ
##⊘
##▲
##╜
##₱
##𝐻
##𝑧
##ѵ
##ɹ
##𝐿
##✯
##∕
##☣
##ˀ
##ϛ
##ਥ
##ŋ
##ﻐ
##ۈ
##ﺬ
##ȼ
##∙
##≋
##❃
##∘
##ﻟ
##এ
##╖
##ℏ
##ﺧ
##ﺻ
##ਜ
##⇒
##ﺛ
##ﻔ
##ۍ
##ڕ
##अ
##₇
##₉
##₆
##₁
##♑
##ɩ
##📚
##ʧ
##ﺙ
##☞
##☜
##˂
##ᶜ
##ɐ
##ɥ
##ځ
##ﺜ
##⍺
##ﭏ
##😂
##❖
##🙁
##ɽ
##ʲ
##✩
##ਭ
##ﻚ
##ⅱ
##ေ
##ါ
##ဆ
##ာ
##သ
##∼
##ʔ
##⟞
##ۇ
##औ
##🙂
##˃
##☢
##ӈ
##④
##څ
##ਲ
##ƶ
##ⱥ
##ɏ
##✧
##⋆
##😐
##ﺶ
##उ
##ʷ
##ˤ
##ਚ
##ƚ
##ƈ
##└
##≒
##ʽ
##ˇ
##ﺲ
##⌂
th
the
##er
##in
##ed
##nd
##ou
##at
##ing
to
##en
##or
##on
##es
and
##ar
##is
##an
##ll
##as
of
##it
in
##re
he
##om
be
you
sh
ha
##ow
##le
wh
##ut
##ot
##id
##ic
it
##et
##ac
##ld
was
on
##al
##gh
##ve
that
st
##ly
her
##st
##ay
re
##im
##ion
##ent
##se
as
for
##ur
his
##ir
she
##ith
##ad
##ver
with
##oo
an
##ght
we
##am
is
##ould
##ch
me
at
li
fr
##ke
se
##ter
##all
##th
my
##ro
had
##ce
not
ch
but
##ill
do
##il
##ct
##ess
ne
##pp
##ain
##ere
they
so
##ri
sa
him
##el
this
##ight
##ked
##ome
su
##ant
have
##est
de
##ack
from
go
##ore
##us
##ust
all
what
up
out
##rou
con
al
##ers
kn
ab
##ie
##ge
##ra
##ard
##ation
le
no
##ul
##out
##her
##un
or
ex
are
##op
sp
##ind
##king
##one
wor
would
said
int
##um
##ab
were
##os
one
there
##ist
fe
##art
if
##ol
##and
com
tr
loo
can
##ate
did
##ood
un
your
could
##em
them
by
##ast
##own
cl
en
like
##ally
back
##ap
when
##if
pl
pr
about
tim
into
##ven
man
##ace
just
##ig
pro
##ong
ma
##ide
##ck
their
##ive
ag
ro
will
who
##ep
know
any
##hing
mo
##ous
##ect
some
##ame
##au
then
te
bl
us
##way
##lf
over
lo
ar
##ort
get
##ity
time
ever
co
been
sm
qu
how
##our
##ice
##ach
##urn
down
off
ta
hand
more
##ine
bo
##ry
now
too
want
af
oth
##round
##ies
see
tw
##ment
thou
##ich
fl
don
##nder
##ag
sc
##reat
##ink
pe
br
##ved
##ick
##ound
##ear
##pt
##pl
car
##ure
am
again
than
##ile
ey
##ass
our
##fore
##ving
##ull
##other
im
bec
##itt
##ud
##ip
##ose
every
way
##ue
##self
##act
only
even
##fe
before
##ish
other
ad
sl
say
##ft
##ence
head
gr
##ings
didn
##ble
after
##ire
cont
##ated
##ite
ac
##per
##led
##rough
dis
##able
##ade
##ance
##ks
##iz
through
##ber
here
##pped
need
po
right
##ree
which
##age
##ans
##omet
around
eyes
res
##ci
##ell
day
##ward
##ang
somet
has
##ath
peop
fir
two
mar
fo
people
turn
where
##wn
##ff
##ves
good
##ak
think
going
##oun
well
gu
should
let
##ions
##qu
##ause
mu
gl
looked
thought
jo
ll
wat
comp
app
per
long
##oth
rem
still
str
under
##ery
god
em
ve
##ord
##co
bet
wa
may
##ia
##ather
##ew
##thing
##ild
##iss
cr
##ting
sw
something
first
##ase
away
pre
##ning
##ious
##ied
##dy
never
door
##ress
asked
##ted
new
life
got
much
made
des
##ave
ho
because
make
part
feel
##ened
call
face
spe
##ens
hel
##ough
come
op
ke
##igh
##gg
bel
##ah
why
##te
take
happ
##orm
##ady
wal
##ered
look
##are
##ittle
year
##iv
little
room
act
ph
##air
##ched
tell
##so
##ise
##ily
ear
very
##ss
start
##ents
##ty
sur
arm
while
##ying
##av
being
att
##ried
mom
##ful
##ary
its
wr
##ark
real
##be
##dd
inter
##ook
##ory
el
##side
those
these
help
##iff
##uck
own
took
##ness
find
rel
seem
tal
##ical
knew
most
##ced
fin
another
dr
##ub
##elt
##ph
mat
##tain
imp
sure
left
##cl
few
##xt
##ign
ser
came
##ian
beg
##ations
exp
word
ev
old
work
end
really
##oss
things
put
wom
##ons
beh
also
turned
##ared
does
##ult
##get
felt
night
##owed
comm
mind
world
unt
##ever
##vel
war
many
vo
pers
light
last
##int
la
##ouse
love
sk
gra
##ail
min
bu
##ush
##ys
sin
wasn
##ool
##ower
told
cle
##ps
side
went
each
ind
ret
##ors
##ru
set
##een
##ways
##ont
##iend
##ross
rep
##ne
ob
id
##ible
found
friend
##les
keep
hum
place
wait
both
##ating
toward
cons
belie
hands
##ash
must
pull
##og
might
nothing
##ition
##ict
inst
##cess
next
##ual
par
home
same
yes
dec
sat
##ple
##ib
great
diff
##ually
##ling
cor
years
body
che
against
anything
saw
ste
far
foll
ass
wanted
without
##ange
##iver
##ost
enough
##ial
hard
thing
##ream
once
though
pass
##ned
always
##ner
behind
fam
until
men
##sp
such
person
##ces
house
high
gi
##ction
##na
looking
##az
small
open
gir
three
bre
##ently
voice
inf
coun
ple
child
##oc
rest
##red
##cept
##ised
gre
##aring
couldn
dark
##owing
met
hop
##ars
himself
wo
sound
acc
##ng
##ead
run
stand
##uc
sim
father
hu
##aught
moment
##der
conf
mor
inv
heart
cour
clos
bed
ang
supp
pa
tra
give
girl
##uth
cur
underst
##med
dri
gen
##sw
##bed
front
contin
better
mon
##ching
##outh
##less
resp
##ken
##ows
##day
##ix
mean
smil
##cond
betw
between
sy
plan
quest
sil
chr
care
char
woman
20
dra
##gn
everything
quick
maybe
second
##ier
pres
answ
##ater
kill
##ank
ed
##end
expl
rec
someone
mother
heard
wind
ter
hold
##ember
since
##ense
water
read
air
differ
reg
play
breat
##cer
##ung
##ason
##ret
##used
big
flo
##ained
bit
dist
##ond
lau
ra
oh
inside
##ject
alm
started
near
##ably
seemed
bar
miss
##ock
black
ref
yet
##ention
use
##ished
pat
add
red
sch
remember
chap
##tered
hair
return
##ready
kind
already
##ized
stood
lar
trying
ent
inc
called
lot
##bo
ca
sle
##ully
poss
wall
laugh
name
power
cap
walked
pol
reach
aw
##ates
doing
done
gave
##kes
began
understand
##gether
sub
ok
pain
stay
deep
words
else
##ren
best
chapter
across
form
##iet
##rew
blood
almost
##amp
used
##ott
19
mr
##ny
dire
wonder
young
det
sn
col
##up
##ately
ide
minut
soon
together
vis
##ided
seen
says
##od
##pr
christ
##ined
##ump
hour
bus
##pping
stop
believe
##als
fact
##its
human
##wh
eas
sto
tried
family
comple
along
point
##umb
##ene
##ited
##ither
##ts
breath
sec
pur
dro
repl
move
##ake
past
sign
##row
pulled
stud
close
coll
list
tri
##ters
##eng
leave
later
table
wee
##iness
##aced
##itch
days
mem
##ased
bri
##ected
creat
hear
##hip
ele
feet
##ured
##ued
lead
##ures
slow
myself
others
##ically
thin
meet
ye
smile
leg
course
smiled
tre
everyone
sit
##sel
##cy
getting
##man
fing
perf
##uring
##oy
##ins
nodd
bad
land
##ering
dem
bro
four
book
##ular
spir
able
step
har
prot
fall
trans
cou
coming
##ets
appear
different
hur
##olog
##idd
##ric
held
mouth
ap
floor
nat
##to
eff
having
lord
##oke
del
##ities
talk
##ility
least
##vers
arms
sor
ground
##oney
dead
##aps
half
##ience
dep
exper
loc
white
##cc
school
##ize
##icked
needed
fire
hor
##cial
med
def
clear
wouldn
prob
morning
cent
nodded
finally
quickly
dan
##cus
free
##ged
##aking
top
sun
ask
times
##sc
herself
cer
death
##iew
tom
##ten
full
##ushed
large
making
question
##br
towards
##du
lear
cal
##hn
##ific
##ept
build
##itting
jes
happened
hell
ran
##ms
##ines
earth
##fully
cat
eng
##dden
sever
##io
okay
mus
##ments
##uff
short
##ug
boy
appro
upon
doesn
##by
sudden
fa
sleep
won
##ired
reason
fur
gone
king
anyone
##ames
##ma
try
eye
probably
friends
##ening
john
##ield
less
contro
prom
##oud
feeling
##ird
within
##ative
##irt
idea
cover
fre
##ove
pri
hope
stopped
##ife
fun
##eth
fight
taking
please
stra
##fort
tou
cra
opened
##gged
##iously
gener
fell
spirit
surpr
mess
##ants
however
whole
outside
children
##ane
certain
grab
proble
##aut
grou
##ient
moved
##ton
money
jesus
nor
##selves
dam
adv
show
cell
son
##yp
lea
cut
matter
##orn
av
num
kiss
ready
dou
ins
sho
true
##tern
reached
pos
dad
stre
five
##ides
today
sorry
count
become
sam
##head
actually
consid
##ister
bring
minutes
fig
##att
forward
interest
law
##aw
thinking
inform
alone
##ards
truth
onto
either
wrong
living
sou
##ident
live
complete
lost
swe
food
kept
fill
imag
state
ext
mil
##app
sent
##inted
##erg
jack
several
##mm
hadn
continued
city
import
replied
beaut
##00
phone
##ches
##esh
slowly
thank
##que
job
##rought
yeah
whis
change
##ipped
shook
chang
given
##where
dream
quite
##gr
shall
dev
opp
press
mag
##room
kid
sing
direct
walk
fear
case
##aster
cre
##ists
thr
##ract
taken
##land
##airs
hot
##osed
quiet
ann
##ina
##aces
##ution
##ther
brought
##ression
story
mark
during
bes
##clud
##els
##ored
##lic
##gan
watched
ir
control
##otion
talking
##ues
soft
##ison
##cle
##ik
strong
break
bur
adm
sense
foot
##ics
dress
dest
je
##ien
women
number
##ime
month
hall
##ger
lay
art
arri
road
##stem
##enty
main
saying
win
instead
tem
##ices
cir
suddenly
##iced
roll
answer
##ape
guess
occ
##ike
##ism
ten
order
##aned
blue
sol
standing
pet
low
##aining
pub
business
ago
above
reco
line
followed
six
system
cold
self
##haps
perhaps
pay
bab
##ute
speak
lips
begin
serv
waiting
group
sal
heal
pret
brother
val
##iding
##body
prov
##ots
grand
wood
exc
ge
town
##ze
##iting
decided
isn
##velop
closed
##cing
looks
glass
chest
compan
perfect
important
hours
shoulder
class
fine
skin
cross
##sh
##ians
happy
##cious
hit
pap
gun
##tend
rather
deal
longer
attention
spoke
jud
prof
working
##anger
10
da
entire
window
known
aff
##aughter
disapp
suc
##iful
sigh
ship
whatever
bra
requ
whisper
watch
laughed
sitting
possible
guy
became
##anced
office
cry
##ising
pretty
bas
yell
sens
##ror
exact
##aged
##not
couple
cond
201
##ony
seat
soul
mer
##ational
##imes
caught
hon
exam
const
##ories
neck
##ital
partic
path
##vern
##acked
pray
univer
cho
##ief
##ective
pie
warm
##aim
mur
passed
commun
enj
fingers
running
##ength
##erv
##antly
squ
bott
##ped
est
view
chair
trust
chur
test
burn
tight
esc
yourself
forg
prin
includ
rock
sir
scream
##ior
##eric
straight
lift
command
offic
##medi
##ob
##rupt
##ages
##zy
wife
ver
##ef
chance
##read
##ision
often
##son
mir
stru
accept
conn
stared
din
information
##cent
concer
nice
##ural
building
problem
##ection
green
parents
##de
bill
means
ale
hund
##res
gaz
##night
##ination
rece
typ
hundred
bag
ce
er
auth
tor
immedi
week
bene
lim
##ara
boo
##ale
abs
beautiful
eat
norm
space
alth
die
cop
##ator
##ply
further
##unch
##ount
cloth
level
grow
thoughts
produ
area
themselves
although
pop
meant
safe
secret
ign
heav
stepped
sort
##ax
##com
ben
shot
holding
slight
street
##ains
trou
follow
pract
##ler
watching
develop
sex
gri
exist
##arr
##old
americ
shut
hurt
##ster
present
ord
apart
spec
cannot
##ones
doub
makes
var
fast
ill
prev
##ctor
returned
cam
##bing
lu
##aching
church
ant
among
##ork
guard
jump
##unt
grin
prep
##ety
drink
##ement
##ift
mad
using
hung
fut
late
sold
sear
leaving
##cri
mill
##ote
##empt
pal
situ
noticed
seeing
expect
event
sad
grabbed
##ming
exactly
moving
sometimes
walking
##ances
filled
equ
closer
##vin
kitch
team
shout
sky
super
div
led
happen
govern
early
##iny
treat
faith
##me
obv
energ
except
gold
##iddle
##ude
dav
pan
legs
attack
##ilt
##ili
12
dog
##ert
##ee
##ived
shad
suff
lit
kitchen
bare
##my
send
agre
twenty
process
phys
hist
appeared
anim
lives
##ether
sister
##oon
##lect
##mb
news
mich
##cially
completely
convers
raised
##ats
anyway
##ledge
sight
simply
pict
##ley
##ann
esp
report
##acing
rose
##itive
approach
comes
empt
desp
age
##idence
author
thro
box
baby
crow
11
force
##use
##ha
sugg
suggest
##ives
middle
immediately
tech
loud
pot
strange
mine
wish
tears
rele
fail
##gin
##dom
personal
answered
rub
realized
fle
hea
rev
bright
rich
cast
easy
enter
##sy
clim
following
##ey
worry
comfort
##light
maj
##ek
sand
star
killed
##ney
stuff
##lly
arr
check
##bs
smell
result
wide
enjoy
future
mist
##ified
pushed
##cover
expression
##erm
##aled
den
knows
moun
knowing
giving
energy
worked
##amed
shar
tree
thanks
corner
##unk
##right
silence
paul
di
##ael
recogn
support
picked
tar
peace
police
stri
##ring
batt
single
weap
relations
lady
imm
alex
itself
##ffe
pen
whether
spot
vi
figure
gas
position
seems
girls
pleas
##zz
round
hang
18
field
fair
proper
experience
susp
loved
vict
mass
questions
##ology
bey
stone
##ashed
clean
mel
##ern
espe
months
ones
rad
touch
hus
enc
##fer
##acy
##ries
ru
danger
luck
beside
crowd
mut
gar
beyond
special
country
especially
##ocked
draw
attempt
##irty
fav
drive
##band
##ging
whispered
##ope
learn
obs
##par
fly
pick
died
ahead
surv
south
cy
invol
camp
##und
##cuss
pointed
cas
diffic
dropped
ori
sett
sword
ball
allah
placed
direction
clothes
leaned
non
##bers
ur
changed
game
mis
glanced
finished
##aded
##isted
books
##ousand
thousand
##con
ris
rob
eight
fil
jer
heaven
##itted
##ana
paper
turning
##rib
guys
lab
na
edge
incre
situation
##ously
company
wra
added
coffe
drag
mod
techn
waited
sar
mention
none
covered
wondered
15
summ
telling
knowledge
disappear
port
haven
public
captain
empty
save
desk
fore
nearly
daughter
van
carry
relig
angel
tonight
respond
##oid
supposed
##orrow
bir
arrived
##rif
magic
reve
coffee
invest
##raid
trees
tall
success
fif
david
discover
relationship
spent
shirt
stom
elect
throat
master
visit
inde
earl
organ
afraid
evil
particular
priv
sighed
activ
tot
##ishing
ident
##uly
##eren
effect
meeting
husband
shru
##ips
##port
gather
##more
discuss
##atic
##usion
kids
##osp
bal
general
arg
pack
shoulders
minute
dar
##eless
##let
##ena
wants
surprised
bath
river
oper
hey
worth
remind
##go
und
jour
threat
nature
conversation
compl
##ental
heavy
200
shit
##ees
needs
brown
surround
doctor
calm
scr
purp
##ruct
mountain
party
gaze
record
comput
headed
poor
evening
##ivid
doubt
##lish
##ration
sounds
frown
rid
cause
iss
james
alive
tomorrow
music
intern
listen
brain
lie
weeks
##cked
possib
##ency
##urity
vol
##ining
circ
descri
spend
darkness
strength
##oring
note
##ressed
pock
steps
16
13
##ron
staring
hosp
wild
post
##ples
##wards
distance
##itten
government
weak
##yn
##oof
univers
protect
detail
##come
trouble
third
holy
difficult
consider
sweet
##roy
##ov
pun
mid
strugg
huge
##ral
subject
##ought
claim
gro
lived
mal
proph
finger
necess
major
entered
simple
showed
##icking
fuck
thick
##ushing
##ury
becom
##iel
dinner
##ires
object
cool
below
inn
michael
rom
##ume
health
##iling
history
##iam
battle
vill
rain
reading
14
ash
key
normal
##ask
##how
##une
##ilar
##ises
forget
##ession
beginning
slightly
travel
##rect
##inite
##lo
dom
takes
center
effort
contact
smo
tow
mot
et
##uel
piece
accord
ah
##umbled
certainly
broken
enem
somewhere
usually
forest
sick
ways
##action
determ
##ham
##gram
ble
sna
glad
##udd
perform
brief
design
mrs
sea
sour
##ingly
##iled
beat
walls
##aff
doors
choice
neg
despite
nose
bull
stomach
horse
respons
gent
seven
managed
##essed
barely
damn
sque
suit
stup
spl
allowed
appar
individ
born
amaz
##bert
catch
rolled
cab
serious
wearing
ut
ring
viol
clearly
##ett
boys
hill
project
##teen
common
scre
worse
polit
charac
soci
##ager
security
curr
notice
spread
north
surprise
expected
##ges
hospital
##yle
goes
##ai
##ential
##akes
##ald
##onse
therefore
focus
aren
luc
surf
cancer
earlier
somehow
##ality
origin
bow
hun
fort
wound
wel
lifted
##ented
repe
##por
stro
ol
chuck
explain
agreed
program
max
demand
jen
cloud
weren
##iliar
planet
##owers
bod
continue
anger
17
conscious
##ulation
mary
social
mach
##pper
demon
##atter
jul
##using
created
teeth
dear
comb
##idden
explained
reality
lang
message
##ption
##ization
share
##itions
eventually
response
regard
hol
##aint
tone
birth
dim
purpose
individual
stupid
playing
jew
##uct
remembered
##apt
seconds
##la
##sed
easily
track
##iers
helped
accom
stret
local
##gress
##rodu
##orge
anymore
##ium
cost
##igg
allow
jim
speed
phot
neither
broke
presence
stat
kar
emotion
likely
lad
##izing
fuc
aut
anal
defe
silent
station
##idge
tired
##ceed
fresh
deb
park
rul
final
##miss
##iction
similar
##ball
offered
angry
##aped
offer
emb
##uit
hide
destroy
coo
remained
works
##ama
intell
tele
##ata
gets
##form
shrugged
court
unl
##he
grace
##cil
including
threw
##ya
learned
colle
##ploy
nerv
##olution
bedroom
beneath
moon
service
##oved
##etic
action
stairs
forced
frank
asking
truck
computer
speaking
fit
study
los
tong
truly
separ
humans
##ensive
indeed
considered
natural
liked
opport
##erial
tast
tiny
bottom
grew
promise
worried
members
written
depart
motion
handed
wit
band
shouted
resear
gently
bell
phil
picture
places
opportun
##men
lying
##erved
harm
gh
arch
drew
##lt
due
##ify
favor
##val
cult
##ette
experien
pocket
memory
paused
respect
keeping
aware
cup
pulling
disc
relax
aftern
based
hes
gard
physical
##ended
hom
##ray
quietly
langu
fix
cells
##rible
env
type
example
##icle
weight
imagine
states
ger
hat
san
prop
ach
familiar
jumped
deliver
oppos
thus
##ences
##rit
escape
older
material
meaning
sounded
base
sac
dust
dressed
unf
teach
whe
##ez
song
odd
##ension
blank
##ils
##hood
lights
powerful
bird
inh
##ja
carried
desire
army
honest
pair
tum
metal
vers
kissed
afternoon
card
peter
lou
board
christian
target
insp
lose
##urs
choo
joy
30
##inct
cand
psy
stick
##line
##icated
carefully
west
##asion
##isf
wol
##reme
##rage
silver
##erve
##aling
##zen
aud
buy
##osh
counter
appre
according
forth
##rie
##uss
##cient
##gar
mart
moments
fool
##ky
drug
crazy
forever
american
##gging
ban
writing
chall
bi
snow
research
dry
hoped
##rap
thirty
adam
prison
hesit
dig
screen
##oned
link
correct
neigh
married
understanding
meth
ears
##str
##olute
##ius
entr
lower
cheek
infl
firm
whom
pressed
decl
trip
hoping
color
##ially
##amb
problems
lock
flesh
mult
directly
##set
obviously
cust
neighb
##usted
tun
knees
##ench
##itude
store
talked
shoot
smiling
convin
gentle
##itary
numb
##wise
shop
wip
whose
term
realize
dut
##ica
university
psych
##cles
bob
heat
shif
starting
##ades
busy
belong
block
##work
involved
##ability
##ests
mission
pour
bodies
##ipp
apartment
bear
##raph
image
society
hate
nod
wis
doll
##astic
jan
unto
sharp
shaking
log
##ilities
witness
##mer
ell
##bel
hy
capt
camer
mike
extra
definite
desper
##lin
##ival
##gy
fal
officer
##soci
touched
##ique
unless
##riage
growing
stories
##asing
avail
opening
vamp
vision
imposs
satisf
##umed
ended
fat
##ners
remain
flat
finding
decision
absolute
turns
##ature
lean
fold
matt
write
uncle
une
queen
##cend
necessary
murder
prim
understood
wed
surface
associ
spiritual
letter
fucking
ice
join
events
##ls
fac
ancient
pu
peri
##ipping
##acher
handle
besides
gate
charl
refer
engine
lunch
fighting
ess
drove
trad
wrapped
feed
ya
##bit
blind
male
putting
tongue
storm
##ites
##ients
evidence
higher
stayed
date
character
##play
ty
soldiers
fully
scient
jon
lack
doc
##yal
##ested
employ
dragon
calling
island
eth
mere
miles
asks
##ables
received
pred
concern
##ec
jake
push
missing
feelings
##riend
21
built
search
bother
believed
mov
repres
drop
staff
##ground
president
various
##rael
##arily
##anted
usual
##aks
slid
##tt
ride
paid
sell
period
##ding
25
caused
##inking
##lled
##attered
willing
pill
access
##istic
hidden
train
science
jac
##inting
skill
nick
size
bible
investig
##ument
meas
locked
gon
smoke
private
##af
bank
benef
beast
hen
pound
falling
nobody
guards
approached
##others
host
stuck
spo
grass
cried
breast
##we
ry
##ively
creature
avoid
laughing
bound
wand
##oint
##ship
happening
introdu
hearing
attract
risk
mic
wash
played
language
##itor
flash
fema
veh
##fast
communic
##nday
pleasure
shock
thom
##well
kingdom
aside
tit
daniel
civ
impossible
female
yelled
scar
training
universe
wore
israel
laid
enemy
000
lines
##hy
crack
ability
attend
obvious
scene
fish
shadow
disappeared
du
definitely
ray
william
init
prepared
entrance
##ston
##ura
freed
wet
opportunity
stage
tu
##iah
kat
swall
gest
bathroom
method
students
ep
nar
crossed
military
rap
##inary
sarah
##ounced
quar
slam
##ids
##roud
mas
journey
slipped
##alth
apparently
##cho
##omb
##ruction
interrupt
grinned
gab
summer
gray
unc
crew
toss
inj
driver
vir
wake
village
hole
east
educ
##ole
weapons
##nel
shouldn
estab
##ores
data
wid
missed
tax
dangerous
manage
custom
market
luke
##leep
appreci
rand
copy
disp
22
softly
interesting
create
##anna
frowned
weapon
finish
mort
##conom
asleep
sla
noise
addition
hotel
##ashing
depend
uns
clock
##otten
confused
dance
college
suppose
eric
gives
available
24
occur
heads
knife
burst
##ancy
resist
199
animal
tur
agree
product
rout
loss
##ulf
beach
ourselves
##aked
breathing
##oses
george
faces
signific
##ker
scared
windows
gotten
happens
bottle
practice
movement
##ases
amb
positive
length
english
##anda
ordered
pin
display
econom
council
##cking
leader
club
sen
##arm
dreams
fed
boat
##ndon
spell
##ading
##gu
opposite
wine
animals
adj
text
surely
##claim
etern
##anged
national
##orted
occasion
civil
breakfast
yellow
gal
eating
source
##book
der
relief
comment
assist
sav
results
concerned
wondering
garden
letting
crit
##ological
impro
prayer
wonderful
stream
joined
hanging
eld
plans
struct
ghost
##iday
pil
behav
mostly
listening
mirror
sleeping
gonna
welcome
ly
bran
##rated
hers
##lished
tea
flight
screamed
leading
##asm
##imin
amount
existence
interested
medical
saved
##iron
sweat
throughout
judge
settled
careful
##rel
broad
extreme
prefer
aim
current
##elle
million
##sequ
##eness
##ki
net
ken
saf
nervous
tend
leaves
concent
##rid
confir
grad
robert
##stairs
##tle
lin
achie
yours
23
##ev
unable
sne
por
##cul
mentioned
##key
lif
account
fro
terror
flying
gift
choose
lucky
greet
otherwise
moder
york
mech
snapped
forehead
##unately
lip
chin
hi
series
##eral
##ators
##ping
becoming
wooden
pra
fallen
possibly
united
influ
smooth
wear
contr
interv
##otions
##ograph
lat
eur
##aur
##ague
mix
intellig
##den
##ta
names
removed
##here
difference
##omed
proud
fund
##iment
##cise
checked
pieces
farm
trick
rough
deg
spr
belief
waved
##board
driving
numbers
role
##iving
##athan
community
##imate
pure
condition
##asons
parts
ens
anywhere
instruct
cabin
innoc
details
wheel
figured
comfortable
repeated
memories
wave
tent
throw
anx
##yl
##ese
emp
stars
excited
indic
trail
page
charge
##roll
encou
sides
opt
tour
provide
select
reflect
scan
josh
extend
feels
hallway
##eks
##ca
##bled
address
##ibility
##ols
hous
joe
##ram
reply
emotions
##ached
wrote
aust
development
value
double
aunt
glance
freedom
frust
##uing
recall
aid
##illed
chief
asp
##aming
##mas
thomas
##lam
machine
##ka
##iple
nine
wolf
##iot
##itation
##wor
que
blond
complex
discovered
##icious
buck
##oted
shower
##ocking
lung
lake
rum
tells
pool
##uce
scri
circum
boss
nearby
reb
cred
cla
hardly
jason
##ception
##rop
echo
distract
##arrass
environ
actions
bay
religion
embarrass
bridge
ze
funny
hors
learning
heading
taught
##ims
warri
##ios
tan
exh
bless
elev
alright
burning
mental
suggested
##under
circle
stare
prince
bud
wanting
showing
##izz
exch
grey
conv
jam
##han
previous
decide
unfort
prophet
brothers
marriage
foc
gathered
manner
rise
pit
beauty
function
##for
##kn
##uses
responded
golden
dirt
react
##gen
specific
wisdom
gras
row
##uted
named
ju
naked
iron
mac
compet
##atory
magn
promised
smart
dece
maintain
craw
beer
mum
passing
drift
waist
admit
##umped
shape
killing
pad
consciousness
greater
ren
flew
##ucked
##othing
america
##eds
##reek
jaw
loose
pretend
totally
##ament
required
forgotten
narr
pale
sher
released
jess
couch
climbed
ideas
cheeks
##nds
section
teaching
purch
gods
answers
mechan
shared
russ
polic
cit
grim
progress
##enge
item
failed
medic
cele
cham
##iter
rare
rang
plate
shoes
potential
crying
domin
accident
pink
nur
blade
teacher
liter
safety
tv
helping
cu
emer
##mp
jose
##enger
terrible
qur
focused
frey
##comfort
##gs
hello
kr
grip
total
stated
reaching
easier
hero
##ora
leather
##nes
changes
obl
carrying
yester
race
script
bent
rules
##bi
creatures
aver
##illy
theory
##pan
calls
reminded
seek
recover
celebr
yesterday
taste
##house
wished
gigg
leaders
##mar
blow
oce
evolution
struck
horses
cass
mc
##asy
hiding
incred
##iven
listened
charlie
tumor
task
shield
shake
solid
feat
##ech
freyja
accepted
temper
radio
bought
thor
setting
plat
bol
ult
worst
aband
wealth
mood
##oying
laughter
pleased
fault
##ada
environment
nic
twice
amazing
cow
exha
chuckled
##aging
libr
shadows
fran
absolutely
younger
cook
ron
member
purs
##reg
shel
deck
weird
original
notes
wes
vide
henry
model
##lyn
meal
roof
ceiling
pointing
modern
regular
##ification
cock
fright
political
sha
rushed
media
express
htt
squeez
##mon
##eter
temple
cryst
pul
fought
negative
##ita
receive
embr
##ns
streets
unlike
##vey
transl
jacob
##lies
pushing
acqu
faced
plant
twel
cave
hated
planned
##osen
emerg
pier
everywhere
issue
profess
reasons
sacrif
signs
knock
##onscious
seriously
upset
opin
faster
dise
species
giant
trave
grown
##nie
former
lap
pressure
##isa
points
orders
fifty
ms
determined
matth
myst
perfectly
islam
price
coat
symb
tick
cars
woke
##min
victor
198
##xic
##tering
colon
pants
profession
spring
terms
revealed
bringing
thinks
religious
match
serve
prior
breaking
provided
movie
enjoyed
false
##antic
##acle
impl
witch
concept
fol
frame
##gest
frequ
spin
formed
##iety
fant
sev
weather
causing
creation
percent
##pet
vac
button
colour
thy
##antage
till
divine
agent
ba
##ects
treatment
rule
26
rights
##wood
technology
powers
nav
landed
##ointed
sof
uh
hungry
jacket
##rick
square
circumst
jane
favorite
carl
wise
adult
duty
warning
##off
doorway
dish
deeply
novel
rush
property
impact
bloody
##mission
eliz
massive
patients
soph
excuse
castle
reaction
verse
passion
dawn
rach
europe
##iance
represent
woods
##ulous
##aries
forces
dirty
waves
revel
rever
jay
twelve
proceed
ram
##sing
##ira
ignored
teen
activity
brit
##lessly
resc
ow
##inging
narrow
pattern
##nal
honor
occup
chem
rising
27
christmas
fifteen
everybody
winter
entirely
chris
restaur
cleared
laws
##ulated
surrounded
prove
##ander
regret
##iant
##riel
groups
cart
review
disci
content
losing
##ifer
meat
ocean
##ishment
richard
cig
28
wil
chosen
eyed
bul
dying
##ocr
burned
twisted
fruit
damage
harder
matthew
nut
balance
##ule
##ails
refused
plane
systems
becomes
washing
##isters
##ero
ast
##hol
release
wings
daily
parking
vall
ack
plenty
stretched
searching
whenever
drawn
rubbed
##ww
kicked
pictures
studied
instantly
lowered
scrat
interp
descend
##icing
ay
analys
planning
##iana
range
honey
bree
hyp
defend
##iles
exer
gut
clouds
leaning
drinking
spoken
##mber
mistake
instit
facing
##claimed
chick
glo
ros
##cell
plus
particularly
mi
##icles
german
justice
dun
sus
subst
consequ
happiness
##inger
rapid
inner
##ider
unif
iv
instinct
thousands
musl
larger
transform
fate
gasped
50
beth
knocked
simon
##yer
##gment
recognized
related
exec
gall
##mit
century
pip
unkn
##pe
##back
map
um
relie
interview
##now
muttered
kick
resour
sending
mountains
speech
##igned
shows
##rate
vampire
tradition
strate
stun
london
guide
anna
loving
click
authority
##ua
tail
department
oil
kh
patient
advent
blur
worship
remains
drip
fred
lies
vehicle
starts
awake
priest
bush
cigar
somebody
steve
lots
tied
growth
es
panic
clut
lor
forty
##bb
hurry
ii
cha
suffering
wedding
fash
famil
##eps
remaining
bat
glory
excit
##ses
nation
screaming
holl
survive
anti
recently
scale
contract
location
connect
197
citiz
##ancing
code
virt
staying
shiver
merely
devil
cro
encoun
marry
##erson
shifted
interrupted
statement
##asc
00
french
ate
countries
bread
##kin
chose
levels
minds
cath
##lection
silently
effective
waste
therap
egg
student
delight
smaller
slept
##ino
brand
##abeth
explan
instant
royal
uniform
soldier
rear
salv
palm
##agon
princ
eager
##hr
##eg
unfortunately
fist
tightly
connection
indust
changing
sees
##eous
100
excitement
swung
forms
ber
rot
shown
nowhere
smir
hearts
##istan
issues
corrid
##iently
bast
steel
require
fan
particip
experienced
pm
##isions
weeke
conc
rooms
fashion
danny
voices
##aken
##ille
acknow
sunday
games
sexual
cases
##oph
expecting
##inese
faint
afric
shocked
official
rick
flow
appearance
blast
bigger
jeff
liqu
hurried
collect
height
stands
##over
##iring
boots
clar
fellow
apolog
swim
drunk
quality
##ded
chinese
camera
accompl
partner
##umbling
liber
closing
##cast
##ibly
matters
distur
##uries
fab
##iest
transport
stir
flood
uncomfort
concl
contain
##uous
library
education
beings
eve
hug
##oe
##ivity
intense
challenge
##uments
tossed
deeper
developed
spark
plain
slammed
40
curious
destroyed
flowers
bord
29
##ga
princess
foreign
families
unw
grate
buildings
bite
##what
sport
fulf
imagined
clin
##rog
math
crime
butt
cash
rh
compared
##ado
tear
glow
rib
returning
##oma
##eping
professor
wiped
somewhat
andrew
glasses
swallowed
advantage
behavior
orange
##icip
served
##ubb
structure
responsible
vin
mob
awk
international
video
houses
brad
coin
kim
joseph
forgive
neighbor
autom
awkward
style
micro
goal
ara
nin
protection
##iation
apr
background
inqu
season
ax
unknown
##ulate
helen
jeans
terrif
www
mercy
murm
ment
ryan
contents
commander
##iber
prevent
aug
labor
jap
##bl
demanded
reject
gain
extremely
##case
isa
righteous
elizabeth
knight
sink
confusion
##ato
appl
##vision
smiles
officers
papers
spun
hast
relative
tip
##ford
finan
mate
##issa
flick
greek
##org
##hold
features
circumstances
philos
nik
split
##enched
##illing
rail
disg
##xp
legal
hal
bon
knee
satur
shr
cru
tunnel
agreement
ox
##ym
ain
##erves
alien
##ein
doct
puzz
rod
struggled
billy
intent
##sec
central
##phone
tony
buried
##uced
rocks
stronger
passage
##esis
##epend
upper
paint
##ella
##icient
stock
bitch
settle
stranger
yard
site
possess
rolling
wrist
bones
recognize
restaurant
ali
tort
highly
dozen
traff
increased
poured
breathe
lovely
blame
##whel
muscles
march
conce
##zed
fired
services
areas
greatest
shift
emotional
stan
plastic
annoy
file
##atives
##fl
##eline
##mos
distant
##iveness
scott
31
godd
explod
dragged
chase
letters
connected
##tha
overwhel
##ris
claw
pace
acts
innocent
trade
charles
##wal
thir
angels
raise
corpor
nurse
actual
chamber
kell
##lling
pride
drawing
satan
normally
steady
##omm
tremb
amy
skills
hundreds
beck
kate
dogs
harry
scen
ward
clothing
explos
analysis
##bey
##time
birds
status
confidence
rate
friendly
##vert
les
##aper
equip
wow
population
admitted
sons
crystal
belt
ships
chain
recent
rif
##bow
dave
valley
horror
japan
dare
thumb
flu
mud
intended
separate
org
request
alco
stiff
bone
martin
insisted
surrounding
##cr
challeng
loudly
brow
effects
convinced
excell
influence
shame
marcus
souls
constant
thrust
##ggie
##vis
fixed
successful
birthday
keys
capable
##rier
##raft
considering
##isible
images
opinion
glob
cycle
##acks
ari
youth
smith
stress
sake
##cks
assumed
tempt
independ
electric
tough
culture
chat
huh
##win
anticip
advice
tower
##ales
rachel
jere
syn
##olic
##mo
##istry
parked
whoever
version
judgment
rage
begins
blanket
##lor
pile
monster
inhib
bitter
cous
thrown
achieve
eternal
##inated
thigh
diss
throwing
##inda
admin
heavily
dollars
##inked
detective
gle
owner
described
##mother
treated
hasn
greg
##atically
##bur
ethan
scent
disease
etc
trib
##oms
##eled
journal
pregn
altern
piss
##otic
rat
fer
##father
cott
##ari
appears
serge
humanity
##inn
associated
equipment
##uary
television
increase
faded
observed
title
persp
lone
accompan
vent
announced
oct
guilt
vib
acting
##pri
contem
qual
measure
##unted
http
christians
troo
firmly
furn
guil
landing
included
contrib
##ads
gang
loves
##rant
squeezed
##rey
##alous
enth
jun
fiction
##ache
hips
demonstr
entertain
weekend
dancing
##ault
##athy
sem
haw
popular
tam
basic
useful
##ctions
rested
credit
196
revelation
unus
afford
##agger
blinked
##ocol
spotted
ps
drugs
##imately
relaxed
emma
##aron
items
dread
thunder
avo
##da
alice
desperate
sched
bang
##pse
career
##ounce
##ani
##hen
retrie
ven
swear
betray
clo
##itched
sequ
sole
ignore
glor
extended
##icate
##jo
intelligence
reluct
chann
appreciate
##rain
ladies
elevator
limited
guns
responsibility
studies
coast
blessed
emily
explanation
til
proof
continues
bry
diver
##ointment
flashed
spirits
##agged
walks
treas
forgot
dw
stopping
disbel
paying
unconscious
flames
##any
folded
western
warmth
traffic
healing
ease
unit
##arian
arrange
vast
bond
utter
degree
##umps
ou
bags
strike
possibility
rab
relieved
gabriel
exclaimed
defense
capital
reported
hoo
##word
##elled
allowing
activities
horiz
conditions
gif
##ket
senses
##ен
standard
brian
survival
ug
bowl
sed
glared
##aly
shell
manif
significant
thee
stair
appropri
offering
briefly
##ints
spect
##friend
saturday
picking
colored
##lict
habit
pause
hugged
corridor
closely
glim
surre
lucy
sob
occurred
lee
##urance
##ware
region
lic
chairs
exit
cough
daddy
ends
cris
gosp
guilty
attached
screw
resources
uncomfortable
cream
pages
confident
##reh
joke
##ila
device
yan
##aping
##inal
##athers
hamm
##field
applic
option
cliff
##brows
centre
approaching
friday
crimin
internet
suffer
audience
sisters
grave
las
courage
johnny
grateful
frag
##eding
slip
eyebrows
reass
##neath
elder
realised
##ij
underneath
hood
hunter
remove
creating
ves
enjoying
stab
efforts
carol
##lfriend
##urally
breeze
##met
precious
attacked
upstairs
girlfriend
##can
constantly
##iley
nights
wing
alcohol
intention
gear
china
badly
33
craft
financial
collaps
dart
##enth
cheer
surprising
swift
keeps
reward
informed
visible
##ays
cere
ham
depth
secure
warned
enemies
blonde
##agg
replaced
grant
ske
cos
goodby
random
ridic
platform
##ona
pleasant
touching
skull
ted
benefit
grandmother
##uk
bench
##hh
histor
az
##ucle
inher
##agn
newsp
core
myster
tables
32
covering
unb
##utions
unique
discussion
analy
ped
claire
reveal
torn
##ан
grav
belly
consum
abrupt
##nda
ded
fourth
bru
retreat
commit
##olved
##gger
rope
35
climb
leads
curtain
satisfied
inch
struggle
include
grandfather
assume
slee
##iated
anybody
adop
designed
roman
##stand
web
impress
##zing
purple
boyfriend
##rian
professional
horrible
milk
worn
jimmy
sust
##erence
asse
alt
shoved
dismiss
envelop
article
brush
brushed
##bie
invited
stal
arrive
encoura
##itable
moves
##oles
egy
interpret
element
healthy
conduct
imper
##ody
assum
improve
lesson
backed
violence
nations
wiz
scientific
palace
wicked
ak
sara
poison
assured
##col
blew
hesitated
attitude
##izes
servant
prepare
egypt
compass
ian
inches
warrior
##alu
fields
ec
##enn
lan
brick
##coming
tempor
solution
silly
plants
irrit
desert
##usi
stones
strang
saving
jenny
liquid
hay
##phere
breathed
##rete
types
appe
frozen
transfer
##cies
##pers
##iqu
emph
cooper
brill
ignor
ling
excellent
unp
##ission
##amm
##rin
pow
sniff
imagination
british
amongst
sergeant
succeed
##do
dick
pant
##ula
kyle
regarding
##oh
searched
checking
washed
nucle
##arsh
marsh
painful
##fall
quant
noted
suspic
economic
sheep
throne
butter
begun
groaned
demons
cd
salvation
brings
jealous
handsome
cher
resting
exchange
holds
destruction
##va
global
recomm
tay
workers
dna
buzz
trained
##certain
##uine
decor
supply
nathan
kissing
seth
##place
lam
stern
established
mystery
liz
seated
unexp
il
escaped
riding
porch
45
jews
football
bor
tang
bunch
experiences
##adem
##ayed
exhausted
ath
abandoned
august
##oll
rust
tie
span
likes
magaz
dining
inte
victim
servants
hopefully
switch
famous
##ran
incident
alarm
india
twist
smash
##aud
waters
aaron
ank
##cher
permission
startled
cale
unexpected
resem
stumbled
seeking
budd
prec
mask
##acles
##orter
##sion
##sey
##ida
gradu
rode
swir
trem
##abor
##uten
armed
sins
driven
##ban
franc
##mn
genuine
##ops
jean
limit
##ounts
argument
admir
constit
conflict
emerged
gospel
citizens
produced
##ok
shooting
beam
guests
packed
published
barn
embrace
ib
production
susan
coach
establish
rome
medicine
spending
growled
failure
disgust
bullet
observ
exposed
hover
##lement
bowed
dumb
louis
sentence
suspect
clearing
polite
produce
##annah
pist
##asha
lightly
nap
##ige
accur
##bby
intellect
menu
##ulted
generally
earn
breasts
academ
rein
##ront
mail
enthusi
##che
##rict
mole
multiple
currently
drinks
tex
basis
confirmed
ky
##resp
py
##ulations
introduced
purchase
desperately
##ст
symp
dang
management
pitch
champ
ka
enorm
falls
lieuten
gazed
virgin
sean
rescue
fence
sacrifice
chew
##aker
quarter
dwell
vessel
obey
operation
runs
##gl
peered
##uf
##iy
##utes
cared
unusual
invisible
tab
swept
##mad
##arch
nan
blaz
corrupt
murd
##oul
arth
sadd
fasc
average
moral
jobs
ine
frustration
##inity
kinds
integr
advanced
communication
raising
cards
grabbing
pilot
##iable
located
manager
individuals
decisions
union
washington
##ums
exercise
veget
##idents
bun
garage
dor
route
convince
resistance
protest
lev
##osis
april
shade
tap
lisa
##erous
moses
expensive
harsh
maria
literally
killer
obtain
struggling
incl
reven
victory
goodbye
adjust
lined
hind
lyn
contained
##rom
directions
rig
democr
bio
merc
sooner
dug
##ppy
emergency
signal
fi
loyal
##idding
diam
volume
##thy
bomb
minor
appropriate
##eling
##raw
shortly
branches
consist
yards
anne
eu
trapped
dealing
mixed
stepping
online
policy
conclud
properly
realm
##lock
cutting
hint
tension
##rection
mand
generation
studying
##elia
unh
##osure
holiday
lightning
##rating
guest
##kind
minim
apply
assemb
dial
favour
honestly
sept
equal
##ih
grasp
bart
hills
36
vul
od
via
seb
naturally
##pless
entry
backwards
glowing
foolish
gathering
rhy
kevin
##sters
##bor
crash
barb
awa
flor
presented
calif
reports
sel
punishment
photo
ugly
beating
perman
affect
importance
believers
methods
lungs
airport
tender
england
caut
crown
##craft
tank
homes
secrets
june
##rol
singing
rapidly
austral
##erted
laur
email
##za
34
fabric
administ
arrival
identity
intr
collection
precise
additional
shopping
bastard
downstairs
##ante
tucked
footst
dropping
withd
idiot
ensure
sofa
awful
gates
##umn
hitting
describe
facts
goo
primary
rit
##ola
jar
californ
expand
lieutenant
painted
shed
pulls
2013
delivered
compreh
spar
southern
##uits
motor
engage
##usive
julia
curse
entering
concrete
seed
##aph
conclusion
cigarette
sid
spare
instructions
teachers
chocol
greeted
ripped
mile
bind
snat
minister
kay
sharing
ignoring
absor
shaped
stall
alley
elements
biggest
chill
trial
##load
ordinary
##irts
##wich
holly
##lar
amanda
curled
stops
##ucing
upright
##ulty
personally
cracked
sliding
fel
uncertain
stunned
sip
placing
tristan
##cca
anth
manip
active
slave
mama
##nat
spine
bored
##ox
disappointed
heels
sensed
defin
ga
magical
remark
charged
##bon
##alt
deserve
curios
declared
##ifying
closet
expert
files
lily
cities
scattered
filling
flame
distinct
maggie
foundation
performance
cord
bend
##acity
##aine
classes
dull
supplies
superior
combination
cousin
dod
colonel
catching
mexic
compar
morgan
embarrassed
monday
photograph
urg
attempted
california
2012
vampires
perce
##bles
cole
seats
illum
initial
gripped
urge
armor
cruel
millions
guid
claimed
##ini
popped
spear
sheriff
lands
##olve
gem
##0s
fairy
neat
##li
drank
##brow
emphas
webs
##lla
instr
kings
evalu
completed
tale
highest
ego
cub
crap
brave
jenn
##11
tools
clenched
##mosphere
tracks
drown
prompt
perspective
hunting
francis
mumbled
horizon
sought
empire
tiss
##vest
director
raced
performed
basket
fairly
##itors
whist
tub
mos
motioned
lur
existed
##atherine
prod
encourage
arab
chicken
jail
sheet
records
##ode
pear
assess
rifle
organization
friendship
film
beard
fuel
eyebrow
curiosity
shore
drifted
scow
##enced
nervously
atmosphere
childhood
##areness
##unte
##pa
pregnant
glancing
abruptly
causes
sup
suspected
##outs
ending
branch
enormous
coinc
scanned
senior
##sect
directed
sunlight
footsteps
fears
alan
lust
commer
gene
praise
desires
frightened
##otted
tapped
intens
impat
symbol
endless
##erable
murmured
echoed
sits
sensation
gifts
##char
contempl
narrowed
zach
figures
compassion
impression
hid
practically
hunt
volunte
##rous
nich
previously
passenger
arrow
impressed
##asty
sant
##kins
##ugg
distrib
trap
awareness
slowed
majority
##umber
ruth
jill
collapsed
committed
liam
identify
dur
questioned
severe
inspect
##nic
chaos
forb
agents
electron
oblig
vit
##cular
estate
routine
messenger
##ros
kal
##gue
tommy
abra
internal
##osition
pig
immediate
snar
feared
fet
##lan
raven
flower
immort
pressing
philosop
##pass
motiv
flipped
rubbing
eaten
smelled
speaks
mall
##otes
muse
##ndered
##mitted
threatened
dism
finds
manifest
nove
laura
rebe
guessed
os
options
reflection
shuff
suffered
cops
territ
gotta
##attering
##agers
pete
##words
numerous
disciples
pod
lance
glare
whir
gesture
##stone
##oning
floating
##pled
incom
sally
visited
calcul
bin
remar
cute
investigation
sway
construct
remote
remembering
essential
argue
prime
puts
adventure
boxes
##osing
##while
##och
jerked
chocolate
sugar
##entially
alph
colors
parent
detect
louder
##ggy
thorough
vanished
bars
boun
border
patience
nurs
essence
sales
tyler
slide
insist
##ties
pillow
fake
consequences
fleet
##greg
proved
ridiculous
dram
reck
fists
resur
trusted
psal
nest
##vant
shakes
nuclear
##isher
##unched
stol
pir
##isc
relationships
noble
deny
slapped
copyright
inev
gran
worlds
realizing
isol
eleven
brilliant
heb
warn
##iture
hmm
determine
##hole
purse
##hi
sail
jeremy
38
amber
regardless
mighty
##oot
kil
identified
##iate
##ae
##erie
roger
tray
mig
cursed
shouting
shy
folks
conver
##ias
critical
reference
russian
pee
violent
lun
disbelief
##amped
tore
apost
sank
lonely
revolution
movements
assass
gul
raw
traditional
deliber
##alem
fier
##inks
painting
towel
marked
july
quit
stead
coven
highway
##put
writer
flowing
player
joshua
ting
widened
##ika
intim
tas
dere
##irm
characters
lifting
anxious
crou
advance
terrified
occasionally
personality
sandwich
37
poet
##uled
cleaning
scripture
abilities
arthur
##icted
vic
centuries
##ulating
damned
##gun
froze
zomb
parties
apple
salt
clay
##ago
sounding
schol
grief
nods
combat
##roph
swing
trace
messages
warriors
physically
uses
companion
divor
document
diet
viv
boot
toile
values
corn
helpless
recon
puff
conference
jamie
indian
vel
sets
latest
kelly
waving
jackson
myth
companies
lifet
quarters
lawyer
knocking
network
abraham
pistol
lucas
continuing
separated
##ал
##elling
outer
dried
lege
##asper
##mond
sale
arranged
overcome
goddess
annie
##ville
suic
phen
vague
follows
trembling
prepar
##uge
ratt
fox
steal
destiny
##andra
pd
income
jonathan
rarely
survived
soil
prayed
exception
wounds
fu
opens
muscle
assign
bike
hook
load
hissed
carpet
valu
##ba
proced
gur
string
incredible
##force
stretch
casual
leon
wounded
scientists
serving
overl
194
##enses
bern
forcing
##20
karen
revealing
logic
halfway
confirm
edward
damp
grade
september
injured
majest
##50
nearest
reception
applied
patted
repair
believing
tool
conte
diamond
spinning
marks
sucked
##mark
trunk
mason
blocks
##umping
wherever
##illa
##alled
eggs
eh
##rees
preparing
anc
companions
weakness
gestured
africa
lover
owned
controlled
wre
jessica
##acon
useless
customers
sensitive
discussed
jewish
sports
bobby
captured
bapt
publ
helps
snake
anxiety
rebecca
##omy
midnight
commanded
##walk
collar
patrick
infinite
distracted
bothered
toler
mes
loaded
neighborhood
newspaper
tries
##isms
gw
testament
safely
##unate
signed
accent
##azz
seemingly
han
##ober
##hammad
##usions
blake
jerus
##mes
##fire
marie
trev
pounding
photos
annoyed
margar
indicated
wizard
giggled
beats
##rily
ritual
muslim
gorge
driveway
##itter
##onation
holes
goodness
peaceful
##ala
equally
rip
jerusalem
october
clue
ras
prol
bleeding
cheap
spat
products
loun
andre
tact
candid
movies
alert
beloved
federal
rhyth
hopes
flag
nodding
austin
cooking
shining
##uish
stor
conqu
writ
illeg
kit
edition
choices
fishing
##ela
punch
memor
panel
defeat
edd
creator
parad
shelter
##iour
troops
kisses
squad
screams
sorrow
strategy
december
lied
##ordan
cad
au
repeat
repub
kir
sadness
##ibl
selfish
##rison
apparent
vig
mah
closest
selling
outl
traveling
attractive
ing
##nis
lion
blessing
smashwords
##inkled
stolen
happily
independent
sneak
phr
##ria
wandered
americans
bold
heavens
collected
samples
haz
context
sacred
unbel
criminal
granted
fog
##isy
objects
pockets
encounter
##ilst
nu
##cere
prosp
##amin
lux
##engers
ages
guar
noah
fancy
owners
##onent
lessons
worthy
erupt
stephen
lane
crossing
georg
aston
mysterious
verses
maid
creative
protected
balls
covers
scramb
jones
kne
paris
engaged
compound
collective
connor
weigh
republic
sadly
drops
acknowled
##ii
haired
reaches
gn
taylor
sanct
beliefs
##rial
eternity
sheets
prost
fierce
##ulting
landsc
dwar
creep
##ooked
##ensed
grandma
spray
persons
##mare
melan
industry
calmly
debt
##rors
luci
vincent
january
yah
prayers
##arn
examined
##oting
faithful
pastor
blo
doctors
furniture
sang
tatt
60
knelt
instance
cel
##ending
fantasy
2014
anton
muslims
##istics
bust
pity
absence
threatening
palms
wagon
##mic
greed
strip
ministry
cage
rent
samuel
shots
##ifically
recip
##iger
insane
adding
interact
exists
gradually
##iments
ct
mankind
##isha
##но
backp
november
sexy
vulner
contrast
ought
climbing
destination
zero
sized
nasty
norther
##ffin
whilst
decent
subtle
strateg
mobile
##essa
42
nightmare
basement
##die
##down
chances
commission
humor
##point
bom
refuse
reflected
krist
overhead
##bre
protein
hut
swords
thread
diana
mont
flee
pulse
gym
jet
experiment
##zer
mount
benefits
belonged
pac
index
skirt
corin
valid
julie
fled
mitch
magazine
discipl
nerves
surg
cake
construction
subjects
##ар
praying
elbow
players
obst
attacks
mentally
aimed
tightened
rushing
##gression
todd
ira
affection
answering
racing
katie
predict
jumping
temperature
despair
##the
cate
assistant
negot
##10
clan
twin
##iev
##encies
wire
crawled
overall
ic
hip
##rence
fortune
robe
traveled
hunger
toes
spite
##anor
puzzled
zone
enh
testing
claims
valuable
intelligent
explosion
aven
partners
##cers
lifetime
##rah
39
increasing
underground
eag
assault
county
hence
retire
mortal
tape
variety
dyn
cheese
hebrew
troll
possessed
revenge
practical
##oop
shim
jesse
scra
leapt
laughs
boring
mia
##ares
toilet
straw
cind
conven
crept
alternative
dimension
funeral
topic
secretary
description
interf
##aning
unsure
client
involve
maxim
handful
##iolet
recru
france
horrif
upd
##inent
##ooped
gap
dies
exhaust
##utation
alongside
##olas
snorted
ancest
sandy
circles
lately
mouse
session
suck
atl
politics
unre
insect
steam
therapy
patch
darwin
instructed
gown
complicated
flut
acted
smoking
channel
sincere
chemical
gav
2011
extent
steven
principle
decre
interpretation
campa
capacity
oak
aged
decades
sorts
typical
lod
grat
ker
expressed
northern
cassie
##ylan
pissed
formal
schedule
##inating
burden
arrog
reader
website
basically
aiden
hath
ultimate
visual
danced
bald
concerning
44
slaves
cloak
backs
##othy
##ashes
##isation
reduced
brid
lon
nud
blocked
tin
chic
##cel
trigger
ebook
tattoo
goods
genetic
##aa
hatred
interests
dat
##cs
attempts
##eze
models
neverth
satisfaction
##boy
insight
treasure
nevertheless
kin
##of
miracle
feb
behold
scrap
lil
dil
persu
exploded
vehicles
isaac
larry
ideal
acknowledge
eastern
clinical
##rent
corners
swimming
buying
occupied
waking
eddie
##icial
##eman
aspects
songs
eyel
lapt
prophets
##natural
district
hem
requires
outf
pounds
recommend
tilted
obsc
wishes
stu
stable
mild
billion
##xed
##inate
preferred
prem
##ours
sie
ais
schem
twins
lect
squir
molly
fest
cleaned
receiving
obser
silk
##vet
assigned
multi
##nam
##itated
buff
rac
rational
##aneously
plot
justin
##rod
mins
affected
consp
##acious
mit
arrest
195
wanna
##ni
intonation
brut
assistance
forgiveness
ny
mane
deadly
##eem
upwards
fifth
outs
combined
##berg
attempting
newly
straightened
##umph
##ko
yelling
clever
eighteen
backpack
princip
nons
suspicious
tense
##ов
committ
pros
##ician
mistakes
nam
tribe
rude
angle
gained
situations
43
princi
envelope
exciting
##lying
logan
goals
visiting
afterwards
bits
attrib
##itty
##armed
phase
gay
catholic
agric
##apes
jung
surroundings
abuse
grinning
ultimately
agency
len
schools
supreme
forming
dian
laying
sophie
optim
righteousness
eb
ti
philosophy
shudd
meanwhile
victims
underw
gentleman
adults
hannah
thirst
kidding
##ario
##ji
portal
dragons
dollar
##bling
survey
##ooks
penet
condem
angela
lamp
pizz
helmet
frustrated
recalled
caleb
followers
lobby
grounds
##lights
root
refuge
developing
##icia
guided
iran
gravity
dagger
campaign
oliver
murdered
violet
surrender
approval
reserved
diagn
##wol
strode
complain
limbs
uk
clas
halt
trash
##chant
##celer
principles
feast
##lers
employees
roads
inhab
gorgeous
torture
ours
license
pam
shattered
contrary
tests
immun
muhammad
fond
##istered
remo
##ication
sore
##rim
andy
romantic
portion
##itar
romans
##inations
disappointment
reasonable
winning
trump
excl
##ano
insurance
ts
accompanied
relatively
economy
reluctantly
rings
backward
suicide
emper
fury
plates
oliv
dylan
obed
delicate
crowded
pron
som
sebast
aloud
storage
mars
overwhelming
##agan
descended
toy
48
interior
##bits
wrap
scot
effic
acceler
gasp
keen
specifically
##har
wars
dict
crashed
##bal
##umble
aggress
##oming
enlight
household
switched
deserved
confront
patterns
promises
##aughters
duke
##enz
stagg
defined
questioning
##mate
strict
junior
repent
witnessed
isab
laptop
elf
carriage
edges
barry
roots
dre
wolves
territory
intri
bish
earned
steep
awak
scarlet
##osal
gary
##aky
##ubble
bliss
si
##tor
##mates
native
snap
##bell
ja
readers
jab
farther
operations
hired
jerry
exhib
michelle
##ogen
melissa
digging
artist
jordan
##icians
41
##icit
2015
derek
prisoner
##don
jennifer
baseball
escort
leadership
limits
rejo
##rowed
genes
competition
blowing
stuffed
allows
teams
##ota
jol
jewel
ladder
application
harmony
47
telephone
returns
##cience
awes
sixty
kicking
thighs
immune
##idently
dub
claws
agricult
solar
commercial
machines
##mony
##ол
##oen
glimpse
rav
bride
costs
commented
alf
sideways
drum
amazed
ware
margaret
european
buddy
dean
##cript
cries
2010
spider
whim
##town
guardian
whispers
monitor
alb
ava
epis
discovery
referred
rene
victoria
##opes
helic
reprodu
sixteen
greatly
hank
elimin
comments
delicious
##oured
##iar
ruin
lawn
winked
stole
institute
joint
va
##rical
alpha
latter
mayor
leaf
punched
unfold
##onic
swiftly
galax
explore
kur
shiny
capture
selected
##lle
counsel
reputation
owe
awe
##ат
triumph
slipping
mini
flin
chim
priests
believes
tissue
extract
cann
paw
##uls
sufficient
sevent
torment
universal
nate
barrier
subs
bolt
witnesses
positions
chuckle
casually
bund
##iner
daughters
thanked
guidance
muff
sum
simpl
psalm
##pent
definition
differences
vote
bottles
permanent
awesome
heather
roared
factor
renew
sebastian
##ер
breaths
bore
conserv
booth
wishing
saint
planted
error
ric
largest
vital
meetings
dragging
duties
sequence
concentration
46
drake
difficulty
noticing
kidna
flaw
accomplish
##78
linda
categ
batter
landscape
announce
stubb
dude
roy
##ito
cafe
drawer
##jected
spit
explains
##iration
##iece
perpet
profit
providing
smirked
darling
concerns
juice
phenom
provides
##itate
##rik
overt
materials
angrily
##ador
scree
tested
hammer
tube
protective
fortunately
helicop
critic
midst
ticket
emperor
corps
impressive
##iser
outcome
sidewalk
feeding
paradise
stained
trevor
ster
fee
amused
##umes
surge
joey
ال
talent
evident
invent
occasional
dana
##ras
caring
yanked
slim
##van
duck
deeds
unse
##hand
leo
navy
chlo
dating
surprisingly
grunted
##ester
abby
tugged
temporary
extern
observe
##oard
behaviour
recorded
avoiding
winds
execut
hatch
aura
legend
yourselves
##ui
stem
aspect
sustain
riley
covenant
canada
incor
profile
##igning
print
spreading
yield
babies
illegal
stack
ceremony
upward
generations
flashing
crisis
roar
alexander
supported
fulfill
scary
facility
purposes
hollow
nh
neut
oxy
nonsense
bubb
saman
incredibly
apologize
offers
illusion
investment
adjusted
aliens
candle
rag
concentrate
fires
package
cottage
##uddled
gavin
##nders
aqu
examine
customer
wy
##ighty
texas
ginger
##mod
bearing
##rations
##ــ
banks
##ounded
shorts
implement
exchanged
prisoners
firing
joining
werewol
poll
joan
healed
squeeze
eased
significantly
ul
sleeve
##retched
obliv
shouts
smirk
gord
freely
kindness
dishes
febru
ramp
##izations
lace
digital
historical
consumed
division
ignorance
chloe
##keep
pizza
sources
stubborn
era
veins
johnson
##agues
draft
frequently
attor
february
surve
tack
association
ribs
avoided
mister
dock
slumped
advert
almighty
nails
launch
illust
neur
cultural
germany
anticipation
stroked
abund
##unting
aboard
bye
glances
prey
##amental
##ın
##tenance
software
sharply
degrees
wrest
pouring
tooth
##12
proceeded
##fr
breaks
determination
affairs
iraq
##iders
##sa
carter
begged
mug
yawn
##ailed
protecting
demands
visitors
void
pic
hits
swinging
confess
concluded
respective
striking
eg
stares
helpful
illness
formation
phoen
conversations
amuse
miserable
standards
intend
bullets
intellectual
realization
yog
plas
horn
meditation
excess
##bes
lounge
simult
agony
revol
lid
flicked
potato
coord
aye
##ribly
counted
mainly
##beat
##cia
ripp
carved
restr
addressed
committee
sheer
genesis
delivery
natal
disaster
replies
##asingly
ital
cautiously
neighbors
talks
shelf
stim
neckl
olivia
bushes
brows
reh
syl
exhaled
ruined
candy
julian
encouraged
intensity
poly
accounts
lets
devast
russia
##asant
navig
ashamed
african
##ogue
gabe
explaining
solve
jin
throb
seal
alter
mice
furious
samantha
controls
authorities
electronic
rack
fourteen
subc
sym
cler
gig
electricity
##alf
penny
linked
pp
rank
toast
mour
70
defensive
charges
disag
classroom
intently
opportunities
depths
australia
score
taller
sticking
crushed
sf
moaned
lind
monsters
computers
stew
governor
dreaming
huff
blessings
193
##bu
cats
staircase
logical
sealed
glorious
wasted
intentions
aj
raz
ador
mechanism
49
rocky
cavern
trailed
##apse
sometime
introduce
documents
vulnerable
pent
swallow
zo
factors
suits
unaw
gentlemen
beaten
originally
magnific
pipe
##onents
communicate
##iques
displayed
japanese
rows
privile
wipe
flowed
clicked
beasts
strangers
tues
casey
privacy
soaked
damaged
##atively
hurting
##berry
anch
naz
deaf
500
curt
stella
shifting
rhythm
chains
##53
congreg
tuesday
goss
arc
##uma
pine
barrel
projects
hyd
cameras
depression
aircraft
garb
dorm
semi
lex
diane
tel
scare
injury
acid
parted
differently
fundamental
floated
hesitation
spanish
##very
doctr
phoenix
views
churches
realise
dared
wander
alto
cav
tumors
examples
charity
oxygen
shaft
##igen
estim
chasing
conscience
chip
flung
medium
crim
##icity
quiver
shone
automatically
tales
introduction
spy
elders
thirteen
depends
countless
replace
frequency
snatched
##ит
yer
burnt
regarded
recovered
dynam
delay
##like
divorce
blown
##zzy
strongly
soup
external
##arded
##grat
##shit
frost
practices
climate
##xture
adrian
tara
purchased
mim
cameron
##sole
unst
ringing
80
dele
shivered
marched
##antically
courty
clam
arriving
##gers
pretending
##kers
##ел
doz
poetry
bron
immortal
mack
taxi
wrath
util
99
##etta
depos
continu
##urd
shuddered
vacation
##lon
##asses
awoke
objective
whereas
utterly
precisely
##hin
lighting
##sell
01
irre
brandon
gloves
subsequ
eleg
wandering
lew
cyn
dealt
bounced
scrambled
affair
plays
##nn
##ulously
existing
prosper
elb
transition
possession
whipped
crad
wiping
scor
gil
exited
tid
spots
marc
tasted
toby
sung
mounted
##dia
elsewhere
strangely
abandon
stool
roughly
cargo
nerve
thankfully
matching
chicago
clients
wilson
##aya
kel
arrested
##sen
stirred
mant
colin
52
90
##ettes
nancy
achieved
anthony
##esa
torch
statue
resurrection
appointment
handing
sham
laz
deaths
includes
folk
dign
domain
licked
voc
programs
moist
thurs
##ет
fbi
##ounted
scout
notion
##stein
supper
##vy
bark
##udes
scratched
mexico
albert
knuck
passes
thoroughly
cotton
wrists
recognition
dusty
referring
drained
##cling
ade
sector
selection
somed
corpse
thankful
surgery
thursday
mistress
dash
##ex
reform
rud
##rum
##rose
##otte
conj
invitation
courtyard
saddle
cabinet
bew
##otyp
finishing
ducked
##olo
lump
principal
necessarily
devices
amid
someday
invite
##azed
##angel
dripping
argued
grasped
2016
##edge
teased
facebook
ranch
gau
challenges
nipp
##cony
fathers
cul
elderly
celest
meters
##icy
manuf
attracted
##add
desired
ko
crush
##ensions
bucket
enthusiasm
rounded
##cha
doubted
##ava
shallow
corinth
fever
freak
overwhelmed
comparison
unlikely
manufact
mode
##veled
nicole
appearing
##tery
eva
##uction
evan
inevitable
eph
retrieved
roo
bunk
balcony
phrase
possibilities
##lands
##eland
scholars
##wa
megan
meg
##ds
catherine
momentarily
immense
blades
scratch
disgu
darted
perception
extraord
launched
substance
depending
limp
smells
##iating
poem
toe
investigate
vari
slightest
administration
sample
arrows
layer
##inter
##eart
cups
ankle
stroke
55
brightly
##ipher
sue
willow
scrub
##yard
biological
appeal
ald
curtains
ruby
islamic
intimid
download
robin
brains
stake
dressing
sarc
whispering
inspired
rebu
wheels
admiral
speaker
##esy
humble
miller
blog
assure
nad
eagle
prize
perfection
fork
crashing
##ati
necklace
league
mp
jared
bills
intu
sophia
plung
##respond
parker
##bar
patrol
comprom
flushed
grandpa
elabor
##shine
hans
museum
papa
guitar
marble
blend
grind
remarked
bullshit
correspond
wealthy
dozens
##vas
pearl
vice
clutched
guarant
relevant
##encing
waitress
rus
cuts
accurate
51
пр
##omon
stretching
florida
##box
injuries
moreover
disting
humili
bishop
dal
worker
##ainted
surviv
divided
vain
##iat
##isk
approx
lamb
ghosts
pleaded
targets
christop
nah
viet
##inge
convention
assuming
tips
proven
fucked
allahu
unne
##pit
jos
sunny
romance
quran
attended
unaware
##то
jungle
melted
altar
darkened
dependent
choked
ellen
##ologist
dump
indicate
clust
smashed
yep
violently
heavenly
luckily
robot
shep
requested
##going
moonlight
charm
embarrassment
patiently
##rr
##iya
generous
misery
crouched
jerk
masters
mcc
##iency
tina
##bra
para
caress
cush
suz
##away
atop
suspicion
blocking
hyper
frantically
processes
accommod
foul
pup
nas
destro
inherit
2009
primitive
##ugs
retired
alle
pole
vest
ot
trous
tag
tune
##pson
accomplished
philip
constitution
resolve
hopeless
fingert
defeated
units
pou
joking
choosing
amusement
artific
deput
counting
majesty
profound
grabs
archit
##works
accus
suitable
twisting
reduce
##wing
##tion
increasingly
appreh
по
##oi
sympath
deer
##verty
commands
wilder
cure
charlotte
denied
congress
spaces
##ography
##unks
##ifully
gy
repeatedly
maneu
##ilda
poverty
noises
suggestion
ein
attorney
orch
virus
insult
assignment
##ountain
heir
transformed
paths
ascend
shrug
odds
asshole
eli
##iva
matched
appointed
swore
recording
accepting
register
chant
blushed
tro
factory
warehouse
jade
mun
##standing
pond
##world
sunshine
gill
hears
dwarf
janet
blankets
##angs
downwards
makeup
explo
organized
whit
proport
pave
terry
gazing
passengers
entertainment
unnecess
shrie
davis
mik
cert
effectively
wildly
operating
theat
ninet
##iac
outfit
##aline
containing
adopted
marine
##ima
helicopter
##rich
wednes
rolls
hurts
buttons
bruce
forear
dy
wednesday
publishing
mol
boston
dimin
thorn
unhapp
cindy
tat
discer
honour
congrat
fountain
gor
distress
##immed
53
mattress
visions
episode
campus
tuck
##stream
creek
recept
prest
civilization
##itching
kilomet
winced
scientist
erin
seam
acceptance
lighter
wreck
##13
##ecy
blink
swam
functions
contains
stored
consult
metast
academy
noon
complained
initially
gardens
clutching
christianity
dreamed
yo
mixture
wives
##asions
minded
removing
commitment
mathem
surat
rice
54
##tail
https
lana
bould
##oman
wield
tasks
theo
sipped
shimm
##ando
boats
irish
wrapping
dismissed
rejected
junk
##ин
simultaneously
altogether
rounds
belongs
##ista
properties
payment
infant
prick
encountered
##ijah
adren
suite
##asis
wend
demonstrated
gossip
geo
welcom
substant
flour
worries
prophecy
structures
reporter
sphere
##uts
troubled
lifest
crimes
heated
craig
ton
meals
maintained
nostr
keith
disord
technical
induced
monit
reign
prote
phill
neph
needing
fitting
##omic
gust
##hou
galaxy
fisher
tearing
editor
tighter
ambul
tinted
##ications
genius
modest
walt
vom
##rep
beds
celebrate
pend
butterf
shine
importantly
italian
industrial
succ
shoe
##aver
owen
harvest
subconscious
detailed
magnificent
fid
floors
fade
##chief
dipl
wigg
acquired
annoying
neglect
observation
gordon
crawl
worrying
fem
suppress
planets
contrad
fluid
caution
##arts
ching
##ghan
drain
martha
##onym
stores
betrayed
rebell
intimate
marty
##anging
isaiah
collapse
testim
##tm
leap
hopped
brace
articles
wallet
drama
environmental
asia
philosoph
##eration
shops
indicating
fantastic
thief
madness
orph
unlocked
biz
weary
adapt
begging
greeting
studio
ellie
pounded
debate
towns
pel
parall
pathway
##го
gram
seventeen
mothers
##iors
nuts
stealing
##bris
punish
doubts
discussing
seventy
kor
tipped
rays
icy
##after
##shot
discipline
clung
benj
comforting
feather
mage
solemn
arguing
tut
psychic
arts
wink
##vere
cattle
relatives
##لا
partially
flex
kore
instinctively
neil
persist
spoon
ink
ned
##rene
disturbing
fiery
wag
recovery
measured
shotgun
sack
engines
terr
kath
secured
interaction
behalf
##aka
creates
shorter
darker
deliberately
ist
melody
disturbed
sty
cocked
acceptable
ai
nag
sites
headache
##aves
strained
2008
personnel
carn
syd
axe
indul
encl
barked
neutral
prospect
corporate
eco
amelia
column
##19
protested
pump
award
proposed
spilled
stacy
console
cogn
fans
everyday
collabor
garbage
authors
muffled
##avor
doug
pus
nom
pursuit
om
correctly
downtown
##да
circled
growl
rubber
represented
##py
accused
concentrated
scriptures
vs
mock
glaring
judging
santa
invasion
inward
daylight
ala
flip
##hib
twe
##cup
##14
pand
scanning
attacking
budget
walter
cin
erupted
exerc
cares
domest
bid
signaling
politely
disturb
suggesting
neatly
goddam
sympathy
femin
chi
tremend
flooded
##most
identical
entity
writers
arched
dates
consideration
debris
##uddle
corinthians
clarity
##bbled
breth
regularly
appet
bug
sticks
glowed
ana
##acter
isolated
spraw
pretended
rol
##etheart
sixth
golf
95
sober
zoe
citizen
troubles
groan
##ishly
lasted
sweetheart
successfully
##quar
##atell
attraction
foss
geoff
snarled
fading
fireplace
ross
lauren
squinted
appreciated
inhabit
messiah
communications
##ilipp
ashley
coward
lydia
mattered
farmer
##fulness
##ril
56
bh
procedure
poked
antib
##iano
demanding
needle
shapes
##arted
mechanical
advis
dedicated
##era
ng
brethren
bubble
heck
crum
bure
##ucking
seeds
occasions
solomon
##igan
brushing
hart
##orse
##ptions
religions
deciding
employee
zombie
##etheless
##eria
interrog
departure
nonetheless
pitched
aggressive
2017
absent
jur
battles
iii
theirs
statements
threats
piercing
vine
furthermore
##ogy
pursue
scroll
christopher
##bot
##ppers
mouths
laboratory
anderson
locker
funds
kl
literature
distraction
randy
##rons
coal
legit
leah
biting
ignorant
opponent
skinny
expressions
alliance
usa
##colm
accum
theme
attach
fridge
remem
unm
##aneous
malcolm
##25
wider
convey
dense
twitter
##ologies
aur
sniffed
coughed
liberty
compare
jokes
improved
slo
maker
ral
sped
##cin
ridge
abst
##see
measures
symbols
trousers
pony
conspir
resort
##ifies
2000
##nings
whimper
rabbit
supporting
miranda
institution
elves
mutual
jenna
shirts
forbidden
##tical
##unken
fingertips
shuffled
eman
steering
inquired
engineering
artificial
shane
synth
powder
fighter
stripped
scoff
##aux
##omp
slap
karma
focusing
giggle
nightmar
undert
##uting
##acement
##rud
shuttle
broo
crimson
unseen
##net
grumbled
savage
pinned
##tes
nope
architect
##cery
peak
pla
angie
fert
grain
failing
soap
pose
flies
communities
paced
advised
parl
metaph
##ender
dove
shelves
stephan
preparation
elijah
polished
babe
ming
##rd
preced
scenario
foods
ark
scur
на
##orters
slender
mansion
tob
leans
enforce
trembled
outward
veter
fellows
karl
welcomed
hire
loyalty
glist
partly
scowled
##power
experiencing
disappearing
slamming
derived
knights
teasing
mam
significance
candles
attain
boom
bump
##top
absorbed
extraordinary
philipp
binding
exceed
##umin
curve
##ills
ponder
##etically
dramatic
coincidence
lewis
tempted
casting
detected
mistaken
##eut
qualities
listed
orb
francisco
trailer
alicia
##ardon
pope
sinking
pills
corruption
##aki
urged
##apers
mutations
supernatural
gly
jackie
cooked
inspector
staggered
lazy
believer
fried
##lets
curls
##car
shud
mead
paran
swirling
##iro
transformation
marketing
priority
ambulance
##gle
charming
maneuver
##bour
##scri
twent
eagerly
assembly
gratitude
##road
foster
election
##oped
quinn
57
offices
##ும
peering
notebook
##apor
sage
inex
##no
techniques
departed
oldest
ivan
##itz
##keeper
bak
rect
##16
alike
kimber
##kh
##ndry
cod
heel
insects
travelling
coins
lifestyle
sickness
deserted
advoc
expectations
pathetic
sensing
soothing
##bn
favourite
##elf
##ivers
blurted
businesses
fruits
embraced
teachings
##lee
feng
benjamin
##roid
muscular
secretly
explor
timing
presum
williams
meantime
confron
##imeter
##17
bureau
##soever
vegetables
##chair
governments
58
mull
##po
employment
dol
grimaced
shred
lever
psychological
refr
perceived
abu
panc
registered
ancestors
annoyance
##isl
unfortunate
wonders
##view
spur
dumped
screwed
trent
##inged
chips
intrud
knot
shudder
germ
##heard
bout
heartbeat
miracles
chad
guarantee
flashlight
hack
expans
nostrils
hawk
bert
draped
##asting
becky
performing
feature
celebration
officially
chal
therapeut
retrieve
settling
delighted
natalie
translated
kara
instrument
##esc
divers
squat
ranks
##quarters
flaming
obtained
hooked
endure
shack
watches
ally
nikki
kend
elbows
##raged
scold
slope
retirement
translation
approved
66
turkey
unple
##inson
jacqu
clerk
##aze
maintenance
dus
teenager
immig
scrib
decorated
stove
hull
deme
theories
##ра
ache
##abilities
races
##ourse
suggests
opinions
regul
##ил
ford
##izzy
jace
wrinkled
##ea
acknowledged
aisle
##stick
hugging
irritated
##quis
skept
approaches
htm
##uffs
adds
sucking
clinic
zeal
phenomen
marines
terribly
autumn
urgent
avenue
gam
continually
dru
comprehend
oath
uneasy
hypoth
##ны
barr
shepher
gravel
overs
##hal
hyster
releasing
connections
wilderness
stif
##asmine
cri
promising
abd
unity
##lad
troy
caroline
##iped
##arse
finn
officials
spells
virtue
gross
##ollen
##born
radiation
robes
colleagues
gib
nause
reassuring
chel
##ocks
sydney
##vo
##arre
drives
arguments
suited
worldly
resulted
lincol
mush
cruc
freezing
contest
ached
ecst
executive
broadcast
rivers
2007
marshall
blows
drunken
05
islands
tossing
concepts
uncont
arrangements
##bc
traged
locks
practiced
awh
assessment
sympt
dashed
carrie
sorcer
tran
fashioned
myr
remarkable
sket
sov
lincoln
democracy
bothering
comr
reminds
hovering
##atch
tapping
decade
anytime
deputy
bibl
visitor
array
caf
compart
##weh
printed
kam
betty
represents
300
tricks
proudly
##gas
melt
farmers
swollen
##quate
blinking
suppl
diplom
##life
curved
gree
cant
respected
controlling
oblivious
##abled
opposed
osc
blush
75
alec
##27
discon
convincing
electrical
vivid
marco
encouraging
laser
##lene
minimum
physics
##anne
lovers
##23
zeus
thud
shin
howard
marvel
##jud
##ho
walker
residents
composed
maya
exasper
sain
unle
reminder
clasped
##uffed
extensive
trips
openly
tribes
allen
##burg
grows
slice
lantern
timothy
whatsoever
unnecessary
von
##otherap
circular
taxes
headquarters
##aches
strand
tire
resulting
exagger
sunset
##rett
##unts
slipp
gwen
##bridge
##rus
liv
chambers
##burn
considerable
correl
##cules
trigg
soviet
erect
stark
stance
nightmares
chased
rober
succeeded
satell
destroying
disrupt
knuckles
prosec
instruction
inviting
habits
murderer
bewild
equival
resumed
homeless
evelyn
pencil
seventh
proposal
##len
senator
yahweh
grac
##esth
framed
##pes
panicked
societ
fulfilled
2006
jerem
widely
musical
pecul
pavement
sasha
##adel
heroes
kindly
bos
container
skip
resent
females
peculiar
peoples
paperwork
longing
crawling
neighbour
earnest
discl
reverse
##ustomed
characteristics
mend
reserv
milo
awhile
shui
ragged
inspiration
emotionally
fortress
earthly
likewise
brass
##quet
absurd
##verse
excitedly
jinks
layers
overnight
curiously
fla
avery
signals
drifting
59
seized
kinda
##ooled
testimony
##ibilities
##wan
scars
issued
##oly
orbit
annual
safer
eighty
##itute
##atics
##wr
whip
bou
largely
cem
##aved
##rem
compens
shove
torso
##chem
employed
trucks
discomfort
politicians
instincts
##ailing
jeep
##ller
##angle
##nels
rely
unpleasant
prices
jasper
reads
##acion
arena
##ipper
##avan
err
vaguely
ther
md
##ux
stabbed
##iry
copies
donald
dall
savior
##erior
omn
jeremiah
rider
congregation
gripping
clip
administr
demonstrate
ups
prover
conclusions
##edy
reluctant
haunted
##ington
tremendous
ninety
##gic
##uman
##guard
##ao
approximately
addict
innov
tide
highlight
##bag
dominic
ceased
males
##rogen
##aying
rug
sprang
jumps
tracking
aching
organizations
essentially
luxury
eyelids
eden
##lessness
flickered
feathers
parallel
narc
holog
##kk
imprison
oly
hollywood
##rest
graham
forgetting
scenes
saul
##udge
penn
moss
donna
desperation
remn
##uttered
tiger
##acking
liver
rumors
alleg
##eared
terminal
rigid
##worth
hovered
jessie
##vent
venge
##18
moan
vicious
initi
fighters
behave
melanie
quantum
bizarre
chand
ankles
bum
##avier
filthy
handled
inhaled
exhaustion
##chen
lifeless
kai
upside
##fol
##ught
amounts
piled
painfully
wasting
diso
##rels
witches
sul
innocence
##una
shades
pall
install
param
doctrine
attending
technique
##zzie
elegant
downward
devotion
underwear
##roc
reasoning
worsh
unhappy
corrected
toys
sensit
operate
##licted
angeles
viewed
cosmic
georgia
squeezing
scheme
worm
##encer
socks
relation
virginia
phones
##hire
similarly
entit
engineer
hier
##lex
terrifying
candidate
beamed
automatic
molecular
rats
findings
languages
kent
haul
sanctuary
rates
relent
referen
##annon
emphasis
paintings
surveill
gamb
pussy
hunters
##ulsion
ov
engagement
##oes
brun
unbeliev
carr
misunder
##ti
serpent
twir
raf
ruled
tops
retreated
temptation
requirements
becca
sparkling
usher
pharm
diseases
strain
writes
mature
strolled
##47
transferred
bulk
visits
##iences
separation
##itan
surveillance
beef
resident
bouncing
arrangement
intact
passionate
##athed
##omi
ella
shawn
barbara
carmen
##15
sweep
##atures
virtual
presents
waiter
rocked
railing
metall
observing
suv
##uished
smug
не
heap
domestic
pacing
elite
nicholas
plasma
##rants
idol
connie
rocket
barg
saints
crowds
##actic
urban
trials
sly
bears
##ali
sweeping
churn
debbie
persec
graph
pleading
jasmine
instruments
##bly
labour
wool
steadily
input
elise
whiskey
reun
travis
nun
summoned
chron
shaken
assets
clapped
dipped
adrenaline
##opy
veil
preach
confession
uncon
rogue
hesitate
chewed
##leton
ced
claud
rocking
tended
amazement
frightening
orn
##orous
##agne
rapt
genuinely
reminding
brook
involving
lingered
jealousy
constructed
whore
virtually
##uated
motionless
##tie
##xual
enlighten
dh
##water
lecture
traced
##ssa
##ifications
##unction
float
conviction
courts
opposition
escorted
##itudes
alar
infected
arrogant
##riger
biblical
carbon
colt
gasping
awkwardly
experiments
punct
challenged
##29
indiff
phy
ish
kenned
blunt
riv
##reet
65
classic
##αι
positioned
deem
oddly
scheduled
jed
##sm
laundry
elaborate
##aving
ire
snapping
dome
salad
##sea
cherry
rex
refriger
compliment
anticipated
tess
rape
##aste
user
cull
strings
exped
slick
sticky
pi
sting
academic
examining
agenda
##lend
athlet
olive
homework
##oto
brig
recl
calmed
define
particles
ambass
peer
dignity
denial
bloss
flush
peeked
devoted
snick
reporting
bella
puzzle
panting
outst
##cled
warren
##ır
nov
spa
proportion
dischar
##gie
lingering
typically
lest
fangs
outline
ez
responses
##lings
announ
engulf
stations
admired
olymp
##archy
prescri
picks
posted
uttered
residence
diab
sharon
contempt
##rav
emerald
packing
ni
dale
piano
stunning
katherine
##rition
bot
illuminated
aly
burns
jad
##67
mold
facilities
crisp
##ortion
uncover
refusing
tant
exter
roses
frantic
##ieth
satisfy
impul
##xx
##bod
seeming
##imp
bartender
fuckin
consistent
evolved
##west
mound
regain
ki
efficient
hugh
dum
russell
mara
guessing
sobbing
tracy
heed
arise
shalt
targeted
sock
withdrew
travelled
venture
locate
lucifer
buddha
pepper
##yon
tires
kneeling
sull
sections
impatient
wendy
colony
oo
processing
tet
dose
brew
affirm
##rolled
##49
propag
apology
cane
##ements
lena
grandpar
apostle
producing
hastily
consol
smoothly
provin
frowning
##acent
prolifer
enjoyment
discern
thoughtful
kennedy
horm
imperial
punished
scrut
advers
##igo
examination
cowboy
assembled
fragile
thrilled
sends
ties
guarded
blaze
teenage
teddy
blackness
transpar
tongues
brooke
imagining
fern
ampl
teens
stages
destruct
truths
##child
publish
trusting
dante
suspended
daisy
zombies
waver
assassin
amen
##oons
heath
maximum
warmed
tragedy
erik
ruler
equivalent
sall
recognised
stephanie
##robe
woo
yoga
leaped
##ان
legisl
ende
activated
zen
mommy
whistle
housing
altered
##iots
emerging
tickets
intrig
patri
unison
##low
lick
##occup
iris
nicely
outdo
subur
tunnels
fearful
gina
##itating
disbelie
progression
indign
blouse
thrill
nay
pierced
embed
raj
rebel
skies
horns
spi
##fold
horrified
dess
metab
accustomed
scul
joel
buddh
##yers
creepy
thri
##anth
brist
silhou
dresses
therapeutic
bacon
temples
risks
##rad
perched
harold
challenging
ropes
eleph
accidentally
scand
mandy
sculpt
##ami
andrea
touches
##ам
tumbled
fatig
policies
##wide
brutal
clad
##33
welf
prohib
##irect
promote
copper
##imental
2018
sliced
refers
##gins
##giving
disgusting
exposure
mechanisms
inclined
##rise
escaping
loos
##ooping
unfair
##balls
obedience
bc
##amiliar
werewolf
##otherapy
dot
depressed
defence
gaining
signature
conducted
nudged
##inction
happier
##usal
forgiven
stef
plague
##ulu
##inkle
yel
unfamiliar
offended
ledge
sooth
vessels
stability
occurs
sofia
unsp
cautious
bass
elected
huddled
enters
##bted
hostile
explode
corporation
prox
necessity
adul
mates
canvas
italy
##yson
lodge
organs
gerald
##etics
independence
welfare
colorful
calvin
damien
loan
warming
bik
fib
oven
cemet
starving
dizzy
gren
functional
knives
expense
globe
##via
allison
contempor
fortunate
eleanor
grie
mast
##onica
uncertainty
haze
lizzie
plo
ihr
emerge
interven
potatoes
survivors
clinging
tomb
sparks
harbor
twitched
streaming
aer
evangel
resource
griffin
ku
screens
jewelry
hearted
datab
unic
chor
##mann
##து
skipped
strapped
amazon
overly
cape
cemetery
criminals
institutions
loop
##bone
sneered
links
awaiting
establishment
dive
obeyed
assay
repeating
crumpled
revers
##wind
coy
propped
chir
renee
sheila
dangling
isbn
potentially
2005
difficulties
execution
winding
deed
talents
claiming
bil
cleans
tablet
##ersed
crooked
confessed
whoa
youngest
nail
presentation
##ου
phara
enterpr
sleepy
carlos
britain
arose
resolved
fantas
##dan
hardened
inhabitants
##zi
##etor
ji
theor
##spring
perse
thine
reveals
groom
mt
managing
univ
brighter
tortured
stays
wren
joked
depri
rescued
pushes
healer
flashes
consequence
chewing
pharaoh
certainty
manners
permitted
shields
shan
beams
##akable
graduate
shaky
thie
regions
thoughtfully
clint
subd
toxic
##ules
unin
devon
collecting
interpre
beans
arist
exploring
nurses
metallic
##vol
supposedly
##99
rises
hazel
ruins
embarrassing
plunged
describes
bruises
disin
adventures
cooperation
scope
pondered
gulped
##vereign
sovereign
nineteen
perceive
ralph
fatal
raises
pas
##foot
honesty
halted
forearm
madison
backing
paige
involvement
lunged
imaginary
compartment
##uri
secondary
##uther
halls
ingred
wary
cupped
treating
rusty
gus
disappro
stroking
knob
shri
willingly
obama
identification
sweater
stamm
##cut
gender
##section
guts
juan
experts
camps
##inkling
villages
appreciation
careless
##ак
preacher
##lie
decides
glit
978
loft
dated
enhanced
springs
##elines
distribution
shay
tourists
##riers
sunk
sah
cracks
frequent
allies
representative
facil
##itative
brim
anonym
masses
outstretched
confusing
impatiently
mp3
mused
thresh
##essions
##bul
braz
guardians
snugg
indication
relate
stormed
stumbling
tensed
educated
##rist
suitcase
##uch
grandparents
##iper
technically
goose
promptly
organic
padd
pacific
responding
##iament
fights
towers
##rell
reconc
checks
ashes
cease
colours
##pm
filed
bee
frog
apprent
gum
##rand
superst
shir
freeze
guild
keeper
levi
offense
bolted
lifts
latin
concealed
anchor
##iblings
##acular
reacted
transf
##ем
##30
closes
chatting
##lord
monitoring
arou
marking
##path
siblings
motel
throws
##astically
morris
bury
terrorist
valent
stray
inquis
##oids
spill
stain
brisk
sleeves
cousins
reed
cracking
##ilton
strikes
stench
resembled
sig
strategies
excus
symptoms
monkey
relaxing
fascinating
redeem
strands
##anta
increases
cens
##22
judged
limb
snort
canad
radical
blasted
##gage
champagne
pilgr
seas
trud
arn
blan
bumped
flinched
mamm
zack
##zes
perimeter
subsequent
motorcy
curb
prevented
primarily
participate
##hem
stiffened
folder
jonah
sandra
clark
spencer
agon
morph
humming
mocking
recommended
zh
##vard
ip
practicing
diary
facial
momentum
fetch
couples
reactions
rim
hopeful
breed
liar
rattled
##reen
flared
remainder
chapters
weed
bonds
locations
cope
hector
##lasses
##rat
sauce
##80
drowned
responsibilities
ruff
thirsty
astron
pout
##fs
##zzle
herd
threshold
solutions
sweaty
composure
nephew
scoffed
##di
champion
balanced
resolution
dresser
serves
##hips
promotion
maintaining
incorpor
##ullah
authent
ace
inhibition
##ewell
##aria
dunge
tug
mirac
ding
quote
##iona
mm
continuous
shifts
64
##oken
##rina
tangled
enqu
softened
##ес
ree
phillip
unicorn
dent
disorder
carries
accompany
ivy
2004
inspection
razor
lesser
blinding
intrigued
helena
##iko
boards
slavery
contacts
lowering
##boards
festival
nib
##osph
proteins
stink
liberal
uncontroll
baron
babylon
##nas
pierce
portra
dual
theater
##bird
html
commandments
##bish
nora
stacked
scarce
##oys
reapp
grunt
novels
bruised
sworn
##osa
parliament
lemon
regained
concert
epic
coloured
##loaded
raging
evidently
drivers
crushing
audio
vas
ditch
mae
perple
fraction
thereby
swayed
duncan
infection
sadie
complaining
og
weighed
##ouses
##ии
battery
pregnancy
2003
chak
bundle
sew
battered
##eped
panties
acquaint
encouragement
##ndar
##umbles
sunglasses
trading
bending
##alp
earthqu
roaring
mck
furiously
blazing
cigarettes
generated
goddamn
nim
afterward
alist
eyeing
antonio
triple
ricky
cable
config
franklin
purely
anxiously
newspapers
umb
##worthy
echoing
##master
frig
gritted
cookies
parag
rural
sighs
swirled
garr
redd
eerie
lud
incap
04
##uv
flickering
##asted
manor
basketball
63
helm
##ricted
roles
smelling
involves
jeh
dee
shivering
rah
attic
participant
winston
fits
judah
oscar
tents
pirate
users
jury
withdraw
teresa
porn
consent
dani
texts
piper
reserve
##mel
hou
goat
phenomenon
vag
shaw
giggling
menacing
enforcement
wheat
reid
throbbing
warrant
##itarian
farewell
vietnam
daw
##istically
##imity
hebrews
cran
##ас
yells
nursing
contribute
armies
discou
components
reson
descent
dennis
##lines
##liness
natasha
das
##rice
##fare
evolutionary
percept
2001
millenn
proc
wayne
submit
apoll
regional
installed
aster
##ithe
handling
chan
08
harper
insan
possessions
crops
restore
##ashri
addiction
receiver
henri
vend
enhance
##rix
##mun
handy
##hop
humility
creeping
finest
plum
liking
sarcast
customs
belongings
reins
bugs
villagers
hates
awakened
kimberly
rotten
sarcastically
envy
peek
dadashri
periods
swarm
confronted
sweetie
magazines
alistair
restless
slides
drone
##neys
hav
spilling
questioner
inheritance
##atical
##од
##itage
picnic
mexican
announcement
gasps
entitled
slur
fame
rosie
cue
metres
##nut
fewer
pardon
inevit
##ppled
sessions
asian
overse
auto
cia
abstract
grocery
furrowed
owed
ner
##amas
stride
stomped
poster
##akers
charging
volcan
omin
##inder
##ahl
restored
markets
curly
incon
tavern
theatre
tram
titles
lacking
##ipe
forests
substantial
inject
mak
dimensions
harness
resid
momma
##llie
naive
armour
frankly
solely
indo
admire
tones
singular
hauled
embedded
scratching
divide
destined
bryce
##24
ambassador
daring
motivation
locals
lawyers
cultures
pairs
agricultural
offspring
lords
canyon
lynne
vengeance
gloom
respectively
naught
edged
tres
traits
cum
gag
locking
jules
jag
interfer
unwilling
68
riders
judges
velvet
ler
chelsea
harris
connecting
resembl
puppy
reflecting
vince
una
ibn
ongoing
compelled
gover
guru
caps
thumbs
spont
##ом
understands
declare
refresh
##ucer
crucial
cun
deception
gob
readily
##oooo
meaningful
estimated
##57
voy
unsett
rebellion
chart
aub
passages
condemn
##ор
countered
invented
lass
digest
freshly
##inates
fae
channels
splend
psychology
##ele
03
cafeter
##elly
posture
mn
kenn
pickup
catches
fluttered
intric
viewing
sect
nel
appetite
missions
##prints
dougl
##acht
##tr
pref
abundance
snakes
hairs
narciss
crop
merciful
vick
gloss
escal
cot
exotic
targeting
contemporary
surviving
sobbed
trop
tract
outrage
gaw
consisted
##tu
meets
conceal
dodge
fingern
yu
sights
##attle
##ressing
winger
ich
coughing
heritage
trim
democratic
columb
folding
jaws
##pat
societies
##getic
infr
pouch
fou
refrigerator
##emen
stanley
serena
powered
sobs
cursing
kg
##osexual
quicker
cement
##omin
agriculture
##ын
pak
cay
offensive
judgement
declar
boundaries
update
##jv
rainbow
vik
photographs
temporarily
merch
##rates
##onia
##ishes
cafeteria
associate
07
backyard
pyram
##ener
chatter
revised
fuss
monk
eliminate
retorted
predicted
##osity
expenses
veronica
##comes
circuit
attent
pillows
extending
planes
pronounced
scarf
shovel
resemblance
dab
deserves
kidnapped
lining
abdom
##vi
flock
lonel
chast
pains
##arus
slower
piles
smacked
tunic
executed
procedures
rox
muddy
milit
settlement
##athom
convenient
morality
##fo
scales
##ubby
gallery
laurie
lawrence
pupp
dj
##bury
preaching
fools
##ader
sweating
messed
nutrition
volunteer
commotion
fors
honored
casc
coh
##ormal
ripping
bastards
67
##izer
streams
afghan
preoccup
cannon
regards
disgusted
##quisite
bever
delic
strap
bait
shepherd
nickn
waterfall
implications
overheard
circling
chemistry
##atin
##aire
lend
##ceded
choking
##aid
##utton
##isp
##وا
##unching
caressed
tak
slaughter
psychiat
murders
##kel
##ия
tiff
esteem
learnt
hound
cheerful
fores
##mph
benny
teenagers
recess
vigil
scooped
##ianna
clara
disguise
converted
expanded
##rational
travels
##gor
wins
preserve
1st
slack
mouthed
resisted
interfere
contacted
fen
sensitivity
manual
##weight
rumble
exposing
##lich
##chal
dallas
##fish
spectacular
kon
##ova
protector
hord
cultiv
pyth
turk
goodnight
stirring
##ione
nipples
cyl
reckon
umm
##issy
urgency
02
louise
ireland
justify
##phs
guides
cram
bedside
excuses
vacant
slowing
neared
lugg
motions
weeping
longed
fract
anguish
permanently
civilian
improvement
crude
render
##ouched
orgasm
hurriedly
phosph
tourist
shoving
diner
adopt
skilled
clues
consume
flan
predic
fitted
grandd
prostate
mentor
cs
mmm
zu
hadith
glen
perfume
messy
artif
stuart
recognise
boulder
prominent
enable
biology
tons
label
cheered
##им
irritation
##mal
tripped
conquer
jagged
disgr
equipped
satellite
pausing
hed
##piece
deploy
dia
fitz
mund
consumption
luggage
traitor
molecules
crypt
grasping
bucks
merchant
feminine
risen
oun
shrieked
harass
sipping
##ooking
buzzing
fidget
enchant
gel
deals
##rable
swell
centered
integrity
aden
publication
bacter
nearer
##buh
frankie
overd
microphone
paces
captive
candidates
poking
confirmation
tee
amend
underlying
betrayal
boil
bellowed
kathy
##ws
trek
reliable
emptied
##eted
coke
stere
blurred
reflex
trailing
##rup
##ocy
sco
foyer
infilt
poorly
memorial
regime
designs
drill
##eenth
expansion
justified
tranqu
stump
playfully
lav
##alty
##jan
undou
licking
freaking
tanks
privilege
indicates
verbal
##enzie
ruling
disagree
borrow
formula
potent
##eri
plac
restrain
prompted
dominant
insign
surveyed
proliferation
arrives
coco
##emption
strongest
graduated
distributed
gleaming
heaved
static
rejection
synd
jor
##hill
rend
dissip
consuming
meek
##sl
policeman
pirates
wade
##iantly
##iki
leis
matches
##zo
patio
undoubted
ephes
strictly
holidays
portray
popping
brenda
pc
##zek
##rics
rival
prejud
destructive
stammered
##aza
drowning
##eters
yea
roberts
69
paragraph
linen
bombs
bites
stad
pon
acute
terrain
expose
brazil
welcoming
##له
##ounting
##cloth
append
pbuh
weekly
infect
artists
everl
hunched
fascinated
bisc
lynn
gentiles
micah
tennis
##irk
enlightenment
naomi
riches
volunt
78
fossil
frances
energies
rehear
posts
motive
lamps
vile
expressing
euph
renewed
agitated
commanding
billions
winner
bells
alfred
assert
egyptian
190
cushion
demeanor
weakly
resigned
bernard
chapel
supervis
joh
##ryn
awakening
bands
gin
founded
stressed
legacy
singer
alab
widow
##60
twil
sterling
##lu
##iti
trinity
adem
##oust
mesmer
towering
anyways
disor
blamed
tragic
whirl
##ся
62
foref
sighing
soda
braced
versus
vacu
uniforms
parade
ferry
toll
maze
unbelievable
seasons
##asive
hr
google
scowl
oz
##ldom
calculated
repro
incons
##auc
guiding
interjected
unbear
presumably
awaited
sailing
intervention
conform
bolts
contradict
##erving
patches
uncom
suspiciously
##acted
consequently
category
spons
devour
traditions
##maid
coron
continent
monica
stung
banging
loneliness
inhibitor
xavier
##ico
prone
stumble
christine
solved
##gate
##otch
misty
provision
chunk
maps
##ين
##atched
funding
150
countryside
2002
aiming
undoubtedly
ants
prud
dusk
cullen
clubs
dc
warmly
doubled
draws
passport
visibly
##burst
conservative
tobac
arrogance
designer
gigantic
##கக
worldwide
wax
badge
exclud
kane
spain
coffin
tactics
comfortably
attributes
disconn
quart
fumbled
writh
evaluation
##pling
annette
apostles
colum
wept
glove
medication
muster
unexpectedly
chu
##ilation
boiling
josie
cooler
remorse
shutting
restrict
transportation
speakers
pauses
commonly
##run
shocking
##itals
astonished
resistant
tac
##agram
##uer
trance
recruit
wears
dwelling
steaming
##blem
ern
mitchell
decline
rumm
lilly
inherited
##ois
permit
elevated
liquor
##etti
robber
##urer
korea
marching
bah
##onto
amidst
robots
hipp
madam
monst
skinned
britt
##je
##amon
vertical
wer
plains
##wick
hades
blinded
manus
dane
dip
##ndan
##east
tomato
protrud
##ologists
gaping
resign
treacher
madame
thompson
vines
trauma
##ema
glee
battlefield
xander
dangers
98
worthless
lowest
flipping
unch
grove
lac
##bin
everlasting
douglas
graves
vivo
nina
carolina
verge
dew
09
detection
crystals
stur
verd
endured
##oria
tobacco
kills
##ед
##gments
canadian
##ben
crest
manny
severely
wry
disd
splashed
##ocation
cluster
missile
fearing
incidents
palest
suppressed
gladly
athe
discarded
penis
protocol
boost
gesturing
sunrise
abdu
bronze
##ла
sarcasm
mons
whirled
adjacent
acquire
ventured
##storm
merry
lacked
seren
##brid
jax
radar
stealth
educational
convert
conspiracy
diamonds
##ка
73
smallest
nash
courses
vanessa
insides
loading
##etical
wardrobe
heavier
summary
##ados
##odes
dreadful
activation
mining
vigor
nurt
kurt
abig
ost
##mail
##omer
##keys
caves
utmost
##40
describing
transcend
regulation
unbelie
slung
raymond
##gm
airpl
pedest
##alo
hiss
nie
suggestions
kitten
hitler
orphan
lori
##otype
curren
seattle
##far
australian
proclaim
mick
specim
##iami
suspicions
keyboard
dialed
statues
slapping
dominated
manifestation
meadow
##non
approve
phar
misch
insec
sprinted
calendar
thereof
regretted
##alia
huffed
bursting
houston
##bble
advertising
limitations
clown
forwards
proclaimed
scam
situated
minimal
ان
##oused
audible
extension
programming
teaches
wells
##oping
sensible
irrational
fluff
corridors
saith
champions
##stal
gruff
trend
borders
repentance
exod
sincerely
##mented
flir
dramatically
fay
stanford
prolong
startling
packs
calming
references
##acc
actor
cunning
vegas
jersey
heights
swaying
vlad
cans
apollo
77
enfor
qualified
kad
##eta
ramb
tir
compromise
pathways
hardest
snaps
tastes
tucker
format
assumption
preston
callie
tendency
cookie
twilight
##oir
##olis
patron
##inges
stairwell
##ின
subt
artifact
xen
participants
##mi
bethany
sandwiches
butler
pursed
pluck
##ettle
emptiness
duff
##lim
##ipt
custody
hushed
transparent
catal
orient
technologies
trio
lacey
reviews
sensual
dys
mutation
##atha
topics
jude
cupboard
ration
##asse
felix
ama
##pert
writings
inevitably
##beit
cheers
miami
communist
employer
sailed
deepest
fiance
woken
thanksgiving
katrina
##rig
spiral
bonus
banged
cater
emil
dile
doom
orth
adams
sinister
involunt
briefcase
applause
tremble
requests
##arring
nelson
thump
thieves
degr
sabb
magnetic
mushroom
desol
belonging
legitimate
expanding
deemed
intercept
##ovan
sympathetic
database
izzy
notices
scholar
dessert
stefan
hilt
astonishment
remembers
dazed
##opt
fills
##von
corporal
peeled
##gon
cancers
giants
shares
rosa
baker
apolo
dimensional
##enson
dutch
alleged
##mie
##rust
##gf
galactic
##olving
admiration
caravan
marina
speechless
manic
kale
tugging
06
##lena
upcoming
gifted
willed
maddie
##ои
aby
##mons
72
fraud
womb
85
congratulations
88
jeffrey
legged
##isticated
slab
retail
precision
manuscript
fixing
##isons
busted
##ulars
mischiev
incarn
responds
rewarded
##vial
grid
sciences
threaten
haste
##еи
programme
lame
lasting
##ون
exclusive
curves
delusion
##aska
sacrifices
