[PAD]
[UNK]
[CLS]
[SEP]
[MASK]
!
"
#
$
%
&
'
(
)
*
+
,
-
.
/
0
1
2
3
4
5
6
7
8
9
:
;
<
=
>
?
@
[
\
]
^
_
`
a
b
c
d
e
f
g
h
i
j
k
l
m
n
o
p
q
r
s
t
u
v
w
x
y
z
{
|
}
~
¡
¢
£
¤
¥
¦
§
¨
©
ª
«
¬
®
¯
°
±
²
³
´
µ
¶
·
¸
¹
º
»
¼
½
¾
¿
×
ß
æ
ð
÷
ø
þ
đ
ħ
ı
ĸ
ł
ŋ
œ
ŧ
ſ
ƃ
ƈ
ƒ
ƙ
ƚ
ƴ
ƶ
ƹ
ƿ
ǁ
ǂ
ǝ
ǥ
ȝ
ȼ
ɂ
ɏ
ɐ
ɑ
ɒ
ɓ
ɔ
ɖ
ə
ɛ
ɟ
ɡ
ɣ
ɤ
ɥ
ɨ
ɩ
ɪ
ɮ
ɯ
ɱ
ɲ
ɳ
ɵ
ɸ
ɹ
ɻ
ɽ
ʃ
ʊ
ʌ
ʎ
ʑ
ʒ
ʔ
ʕ
ʘ
ʤ
ʧ
ʲ
ʷ
ʹ
ʺ
ʻ
ʽ
ʾ
ʿ
ˀ
˂
˃
˄
˅
ˆ
ˇ
ˈ
ˉ
ˋ
ˌ
ː
˗
˘
˙
˚
˜
˝
ˤ
ˮ
˴
ͻ
΄
α
β
γ
δ
ε
ζ
η
θ
ι
κ
λ
μ
ν
ξ
ο
π
ρ
ς
σ
τ
υ
φ
χ
ψ
ω
ϒ
ϕ
ϙ
ϛ
ϝ
ϟ
ϵ
ϸ
а
б
в
г
д
е
ж
з
и
к
л
м
н
о
п
р
с
т
у
ф
х
ц
ч
ш
щ
ъ
ы
ь
э
ю
я
ђ
є
ѕ
і
ј
љ
њ
ћ
џ
ѭ
ѵ
ѻ
҉
ґ
ғ
қ
ҡ
ң
ҫ
ү
ұ
ҳ
һ
ӈ
ӏ
ә
ө
ԑ
ԛ
֎
־
׀
׃
א
ב
ג
ד
ה
ו
ז
ח
ט
י
ך
כ
ל
ם
מ
ן
נ
ס
ע
ף
פ
ץ
צ
ק
ר
ש
ת
ײ
׳
״
،
؛
؟
ء
ا
ب
ة
ت
ث
ج
ح
خ
د
ذ
ر
ز
س
ش
ص
ض
ط
ظ
ع
غ
ـ
ف
ق
ك
ل
م
ن
ه
و
ى
ي
٠
١
٢
٣
٤
٥
٦
٧
٨
٩
٪
٬
٭
ٱ
ٳ
ٴ
پ
ځ
څ
چ
ڏ
ڔ
ڕ
ژ
ڛ
ک
گ
ڰ
ڳ
ڷ
ھ
ڿ
ہ
ۃ
ۇ
ۈ
ۋ
ی
ۍ
ۏ
۔
ە
۞
ۥ
ۦ
۩
۰
۱
۲
۳
۴
۵
۶
۷
۸
۹
߷
ः
अ
आ
इ
ई
उ
ऊ
ऋ
ए
ऐ
ओ
औ
क
ख
ग
घ
ङ
च
छ
ज
झ
ञ
ट
ठ
ड
ढ
ण
त
थ
द
ध
न
प
फ
ब
भ
म
य
र
ल
व
श
ष
स
ह
ऽ
ा
ि
ी
ो
ौ
ॐ
ॠ
।
॥
०
१
२
३
४
५
६
७
८
९
ং
ঃ
অ
আ
ই
ঈ
উ
ঋ
এ
ঐ
ও
ঔ
ক
খ
গ
ঘ
ঙ
চ
ছ
জ
ঝ
ঞ
ট
ঠ
ড
ঢ
ণ
ত
থ
দ
ধ
ন
প
ফ
ব
ভ
ম
য
র
ল
শ
ষ
স
হ
া
ি
ী
ে
ৈ
ৎ
ৗ
০
১
২
৩
৪
৫
৬
৭
৮
৯
ਅ
ਈ
ਉ
ਕ
ਖ
ਗ
ਚ
ਜ
ਤ
ਥ
ਦ
ਧ
ਨ
ਪ
ਬ
ਭ
ਮ
ਰ
ਲ
ਸ
ਹ
ਾ
ਿ
ੀ
੧
੩
ஃ
அ
ஆ
இ
ஈ
உ
ஊ
எ
ஏ
ஐ
ஒ
ஓ
க
ங
ச
ஜ
ஞ
ட
ண
த
ந
ன
ப
ம
ய
ர
ற
ல
ள
ழ
வ
ஷ
ஸ
ா
ி
ு
ூ
ெ
ே
ை
ௗ
ด
ว
ส
๛
༅
༻
࿇
ခ
င
ဆ
န
ပ
သ
ါ
ာ
ေ
း
ᄃ
ᅠ
ᐯ
ᑌ
ᑎ
ᑕ
ᑭ
ᒍ
ᒪ
ᖴ
ᗩ
ᗪ
ᗰ
ᗷ
ᴥ
ᴼ
ᵒ
ᵛ
ᵦ
ᶜ
᾽
῾
‐
‑
‒
–
—
―
‖
‗
†
‡
•
‧
‰
‱
′
″
‴
‶
‹
›
※
‼
‽
‿
⁀
⁃
⁄
⁉
⁰
⁴
⁵
⁶
⁷
⁸
⁹
⁺
₀
₁
₂
₃
₄
₅
₆
₇
₉
₡
₣
₤
₦
₧
₪
₫
€
₰
₱
₹
℃
℉
ℌ
ℎ
ℏ
ℓ
№
ℝ
™
⅓
⅔
⅖
⅘
⅚
⅛
⅜
⅞
ⅱ
ⅵ
ↄ
←
↑
→
↓
↔
↩
↵
⇐
⇒
⇓
⇔
⇝
⇧
⇪
∂
∅
∆
∈
∎
∏
∑
−
∓
∕
∗
∘
∙
√
∛
∝
∞
∟
∣
∧
∨
∩
∪
∫
∬
∴
∶
∼
≅
≈
≋
≎
≒
≡
≤
≥
≦
≧
≳
⊂
⊆
⊕
⊗
⊘
⊙
⊢
⊣
⋄
⋆
⋯
⋲
⌂
⌈
⌉
⌘
⍟
⍺
⎛
⎢
⎯
⏰
⏱
⏲
①
②
③
④
⑤
⑥
⑦
ⓐ
ⓒ
─
│
┌
┐
└
┘
├
┥
┬
┴
┼
═
║
╖
╜
╟
╠
╣
╥
╦
╨
█
▌
■
□
▪
▫
▲
△
▶
▸
►
▻
▼
▽
◄
◅
◆
◇
◉
◊
○
◍
●
◐
◑
◙
◡
◦
☀
★
☆
☇
☉
☎
☏
☐
☑
☔
☜
☝
☞
☠
☢
☣
☥
☪
☮
☯
☸
☹
☺
☻
☼
☽
☾
☿
♀
♂
♃
♄
♆
♈
♍
♏
♐
♑
♒
♔
♕
♚
♛
♜
♝
♞
♟
♠
♡
♣
♥
♦
♩
♪
♫
♬
♯
♿
⚔
⚗
⚛
⚜
⚡
⚤
⚧
⚫
⚽
⚾
⛄
⛔
⛟
⛰
⛱
⛴
⛽
✅
✈
✋
✍
✓
✔
✖
✗
✘
✝
✞
✟
✠
✡
✦
✧
✨
✩
✪
✯
✰
✽
❀
❁
❃
❄
❊
❋
❌
❎
❏
❑
❖
❛
❜
❝
❞
❤
❥
❦
➔
➜
➡
➢
➤
➳
➹
⟞
⧠
⧳
⩾
⭐
ⱥ
ⲅ
⸮
⺄
⺈
⺊
⺌
⺍
⺕
⺜
⺧
⺶
⺷
⺻
⺼
⻊
⻏
⻖
、
。
〈
〉
《
》
「
」
『
』
〜
〡
・
ヽ
ㄅ
㇀
㇂
㋛
㐂
㐆
㐫
㐬
㐭
㐮
㐱
㐴
㑄
㑅
㑒
㑦
㑨
㑪
㑹
㒒
㒵
㒼
㓁
㓇
㓛
㔟
㔪
㔬
㔺
㔾
㕍
㕚
㕛
㕜
㕝
㕞
㕡
㕣
㕮
㖦
㖨
㖾
㗅
㗈
㗊
㗋
㗙
㗚
㗴
㗿
㘅
㘩
㘴
㙊
㙓
㙕
㙵
㙹
㚅
㚇
㚊
㚍
㚏
㚑
㚒
㚔
㚖
㚘
㚙
㚢
㚣
㚥
㚦
㚳
㚶
㚷
㚻
㚼
㛂
㛍
㛏
㛑
㛒
㛕
㛙
㛚
㛺
㛻
㛼
㛾
㝉
㝊
㝡
㝢
㝫
㝬
㝵
㝶
㝻
㞁
㞋
㞍
㞐
㞑
㞒
㞓
㞚
㞞
㞠
㞡
㞢
㞧
㞬
㞵
㞺
㟁
㟢
㟨
㟴
㟽
㠀
㠪
㠭
㠮
㠯
㠱
㠲
㠶
㠻
㠾
㡀
㡜
㡡
㡣
㡯
㡰
㡿
㢂
㢄
㢟
㢽
㣉
㣍
㣏
㣔
㣯
㣺
㤗
㤚
㤟
㤨
㤻
㤽
㤿
㥃
㥆
㥐
㥡
㥣
㥯
㥰
㥾
㦉
㦊
㦖
㦤
㦰
㧈
㧖
㧗
㨢
㩇
㩮
㩳
㪁
㪅
㫃
㫕
㫖
㫗
㫪
㫷
㫸
㫺
㬎
㬚
㬜
㬝
㬟
㬢
㬮
㬵
㬶
㬸
㭟
㭭
㭷
㮇
㮈
㮍
㮤
㮶
㯃
㯍
㯎
㯰
㰏
㰦
㱀
㱒
㱜
㱸
㱿
㲂
㲃
㲇
㲋
㲺
㳃
㳒
㳔
㳙
㴑
㴞
㵙
㵤
㶚
㷀
㷔
㸅
㸿
㹠
㹦
㹨
㺃
㺔
㽗
㽲
㽵
㽷
㾏
㾮
㾯
㿉
㿗
㿻
䀎
䀣
䀹
䁘
䁧
䁹
䂐
䂑
䂓
䄅
䅈
䅏
䅣
䆓
䆴
䆿
䇂
䇏
䇦
䇮
䇳
䈇
䈎
䉤
䊵
䋆
䋎
䋖
䋝
䋡
䌂
䌕
䌟
䌫
䍃
䍗
䍧
䍬
䍰
䍳
䍷
䍻
䎹
䏌
䏍
䏎
䏏
䏐
䏠
䏤
䏮
䏰
䏶
䏺
䐃
䐅
䐇
䐈
䐉
䐋
䐌
䐍
䐖
䐗
䐜
䐡
䐢
䐤
䐥
䐨
䐩
䐭
䐵
䑀
䑉
䑊
䑓
䑛
䑲
䑶
䑺
䒋
䒍
䒏
䒐
䒑
䒭
䒳
䒶
䒾
䓔
䔈
䔍
䔥
䔬
䕃
䖝
䖤
䖧
䖫
䖵
䖸
䗖
䗥
䗪
䘏
䘒
䘕
䘮
䘸
䙁
䙆
䙒
䙝
䙥
䙦
䙮
䙴
䙵
䚏
䚗
䚡
䚯
䚰
䚼
䛄
䛇
䛎
䛏
䛑
䛙
䛠
䛷
䛿
䜋
䜌
䜞
䜡
䜭
䜴
䜵
䜷
䜸
䜻
䝂
䝆
䝇
䝐
䝤
䝪
䝿
䞑
䞙
䟽
䠑
䠖
䡀
䡄
䡎
䢵
䣊
䤫
䦌
䦥
䦫
䦬
䦯
䦰
䧧
䧺
䨄
䨩
䪏
䪼
䬻
䭇
䯂
䯆
䯊
䯒
䯛
䯨
䰗
䰠
䳄
䳑
䴇
䵷
ꜣ
ꝩ
ꞵ
ꟷ
﨏
﨑
﨓
﨔
﨟
﨡
﨤
ﬠ
ﭏ
ﭘ
ﭼ
ﮔ
ﮕ
﴾
﴿
﷓
ﷺ
﹘
ﺋ
ﺍ
ﺎ
ﺐ
ﺑ
ﺒ
ﺖ
ﺗ
ﺘ
ﺙ
ﺛ
ﺜ
ﺟ
ﺠ
ﺢ
ﺣ
ﺤ
ﺧ
ﺨ
ﺪ
ﺬ
ﺮ
ﺰ
ﺲ
ﺳ
ﺴ
ﺶ
ﺷ
ﺸ
ﺻ
ﺼ
ﺿ
ﻀ
ﻃ
ﻄ
ﻈ
ﻊ
ﻋ
ﻌ
ﻐ
ﻓ
ﻔ
ﻖ
ﻗ
ﻘ
ﻚ
ﻛ
ﻜ
ﻞ
ﻟ
ﻠ
ﻢ
ﻣ
ﻤ
ﻥ
ﻦ
ﻧ
ﻨ
ﻪ
ﻫ
ﻬ
ﻮ
ﻲ
ﻳ
ﻴ
ﻻ
ﻼ
𐇲
𝐻
𝐿
𝑃
𝑓
𝑔
𝑖
𝑧
𝛑
𝛼
𝛾
𝛿
𝜶
🃏
🆒
🌃
🌏
🍆
🍉
🍔
🍷
🍽
🎁
🎓
🎦
🎭
🎾
🏊
🏓
🏖
👂
👅
👇
👊
👋
👌
👍
👎
👦
👧
👨
👩
👫
👬
👭
👰
💉
💊
💍
💑
💜
💣
💤
💪
📖
📚
📮
📽
🔞
🔥
🔦
🕖
🕚
🗝
🗣
😀
😁
😂
😃
😄
😅
😆
😇
😉
😊
😋
😍
😐
😒
😓
😔
😕
😘
😚
😜
😞
😟
😠
😡
😢
😥
😫
😬
😮
😱
😲
😳
🙁
🙂
🙃
🙄
🙏
🚬
🚴
🛏
🤔
🤙
🤞
🤡
🤣
🤵
🥑
𠀋
𠂉
𠂢
𠂤
𠆢
𠈓
𠌫
𠍱
𠎁
𠏹
𠑊
𠔉
𠗖
𠘨
𠝏
𠠇
𠠺
𠢹
𠥼
𠦝
𠫓
𠫔
𠬝
𠮟
𠮷
𠵅
𠷡
𠹤
𠹭
𠺕
𠽟
𡈁
𡈽
𡉕
𡉴
𡉻
𡋗
𡋤
𡋽
𡌛
𡌶
𡍄
𡏄
𡑭
𡑮
𡗗
𡙇
𡚴
𡜆
𡝂
𡢽
𡧃
𡱖
𡴭
𡵅
𡵢
𡵸
𡶒
𡶜
𡶡
𡶷
𡷠
𡸳
𡸴
𡼞
𡽶
𡿺
𢅻
𢈘
𢌞
𢎭
𢛳
𢡛
𢢫
𢦏
𢪸
𢭆
𢭏
𢭐
𢮦
𢰝
𢰤
𢷡
𣆶
𣇃
𣇄
𣇵
𣍲
𣏐
𣏒
𣏓
𣏕
𣏚
𣏟
𣏤
𣑊
𣑋
𣑑
𣑥
𣓤
𣕚
𣖔
𣗄
𣘸
𣘹
𣘺
𣙇
𣜌
𣜜
𣜿
𣝣
𣝤
𣟧
𣟿
𣠤
𣠽
𣪘
𣱿
𣳾
𣴀
𣴎
𣵀
𣷓
𣷹
𣷺
𣽾
𤂖
𤄃
𤇆
𤇾
𤎼
𤘩
𤚥
𤟱
𤢖
𤥠
𤩍
𤭖
𤭯
𤰖
𤴔
𤸎
𤸷
𤹪
𤺋
𥁊
𥁕
𥄢
𥆩
𥇍
𥇥
𥈞
𥉌
𥐮
𥒎
𥓙
𥔎
𥖧
𥝱
𥞩
𥞴
𥧄
𥧔
𥫣
𥫤
𥫱
𥮲
𥱋
𥱤
𥶡
𥸮
𥹖
𥹢
𥹥
𥻂
𥻘
𥻨
𥼣
𥽜
𥿔
𥿠
𥿻
𦀌
𦀗
𦁠
𦃭
𦉰
𦊆
𦍌
𦐂
𦙾
𦚰
𦜝
𦣝
𦣪
𦥑
𦥯
𦧝
𦨞
𦩘
𦪌
𦪷
𦫿
𦰩
𦱳
𦳝
𦹀
𦹥
𦾔
𦿶
𦿷
𦿸
𧃴
𧄍
𧄹
𧏚
𧏛
𧏾
𧐐
𧑉
𧘔
𧘕
𧘱
𧚄
𧚓
𧜎
𧜣
𧝒
𧦅
𧪄
𧮳
𧮾
𧯇
𧲸
𧶠
𧸐
𧾷
𨂊
𨂻
𨉷
𨊂
𨋳
𨏍
𨐌
𨑕
𨕫
𨗈
𨗉
𨛗
𨛺
𨥆
𨥉
𨥫
𨦇
𨦈
𨦺
𨦻
𨨞
𨨩
𨩃
𨩱
𨪙
𨫍
𨫝
𨫤
𨯁
𨯯
𨴐
𨵱
𨷻
𨸟
𨸶
𨺉
𨻫
𨼲
𨿸
𩊠
𩊱
𩒐
𩗏
𩙿
𩛰
𩜙
𩝐
𩣆
𩩲
𩷛
𩸕
𩸽
𩹉
𩺊
𩻄
𩻛
𩻩
𩿎
𪀚
𪀯
𪂂
𪃹
𪆐
𪎌
𪐷
𪗱
𪘂
𪘚
𪚲
##o
##n
##a
##t
##u
##r
##l
##e
##g
##w
##k
##s
##y
##i
##p
##m
##1
##z
##c
##h
##d
##v
##е
##ı
##f
##ে
##ল
##ি
##ভ
##শ
##ন
##8
##3
##5
##0
##7
##ن
##ف
##س
##ο
##ρ
##α
##τ
##η
##ς
##j
##9
##п
##ч
##у
##т
##с
##я
##6
##2
##ң
##і
##з
##b
##л
##д
##а
##о
##ь
##р
##и
##н
##ц
##г
##ि
##र
##ध
##प
##म
##य
##स
##ा
##в
##ט
##ר
##י
##א
##ל
##ז
##ם
##ط
##ل
##ا
##ق
##خ
##و
##қ
##4
##q
##ٱ
##ت
##ذ
##ه
##ي
##د
##ر
##ł
##б
##к
##κ
##ι
##ع
##م
##x
##ѕ
##כ
##ظ
##х
##ы
##ற
##ு
##க
##м
##ж
##ش
##ء
##π
##χ
##ν
##ச
##ந
##த
##வ
##ழ
##ி
##ү
##ю
##ب
##ה
##ו
##ך
##ε
##ष
##न
##त
##ட
##ர
##φ
##ш
##ג
##ə
##σ
##υ
##ெ
##ய
##ப
##ை
##ா
##ـ
##غ
##ъ
##ұ
##ғ
##व
##ो
##ऽ
##ह
##©
##μ
##γ
##λ
##ة
##ত
##খ
##া
##ی
##щ
##ல
##द
##ी
##ம
##ح
##ড
##ও
##ө
##÷
##ক
##র
##˴
##ك
##ன
##হ
##ز
##क
##ω
##ә
##ண
##ள
##נ
##®
##þ
##ۥ
##ஞ
##ى
##ח
##ூ
##±
##θ
##श
##º
##ξ
##∗
##ल
##´
##ד
##ˌ
##₃
##ת
##ב
##भ
##δ
##জ
##য
##ব
##স
##æ
##−
##⎛
##ק
##ס
##ম
##ß
##च
##ே
##ζ
##ф
##ض
##ছ
##β
##ங
##ص
##מ
##گ
##ث
##ج
##দ
##ש
##ʾ
##ע
##ः
##ী
##ই
##פ
##צ
##ঙ
##™
##↓
##ک
##চ
##°
##ˈ
##ן
##ঠ
##¬
##ট
##ण
##×
##۷
##ψ
##ҳ
##ং
##ɡ
##ﺳ
##ﺘ
##ﻴ
##ﻨ
##ﺎ
##१
##ज
##घ
##ফ
##﷓
##थ
##ग
##ণ
##¸
##ब
##ধ
##ख
##அ
##ۦ
##€
##²
##ষ
##ɑ
##ञ
##◄
##ड
##ठ
##᾽
##ȝ
##ﻓ
##ﻲ
##£
##ɛ
##¨
##µ
##¹
##৯
##১
##¤
##˚
##প
##►
##ہ
##ৎ
##∆
##→
##≥
##০
##২
##গ
##ौ
##ð
##є
##ङ
##۰
##ϸ
##ट
##উ
##ø
##پ
##ஃ
##৫
##৩
##۵
##ץ
##چ
##இ
##ৗ
##─
##ঞ
##═
##╦
##छ
##फ
##⅓
##६
##₂
##ʻ
##∘
##۩
##³
##ɔ
##ː
##э
##¾
##ǁ
##எ
##❖
##ﻧ
##ﺒ
##ﻪ
##ɪ
##ף
##∓
##ˆ
##ஜ
##உ
##থ
##½
##¼
##◦
##۳
##۴
##۲
##०
##≤
##₪
##ژ
##ɣ
##đ
##ਰ
##ਭ
##ঘ
##ﺮ
##ﻳ
##ℓ
##∂
##●
##♥
##ە
##۱
##۶
##⁄
##☼
##ʿ
##✦
##४
##΄
##∙
##ʹ
##ई
##ௗ
##█
##ٴ
##ஒ
##ﺤ
##ﻘ
##ﻖ
##ﻐ
##ﺴ
##ј
##ɳ
##५
##२
##ঃ
##¦
##⁰
##│
##ஆ
##★
##♔
##≈
##♪
##⎯
##œ
##ঝ
##ﮔ
##ﻫ
##ढ
##ھ
##¢
##ﻈ
##ﻣ
##◊
##⋯
##ﻗ
##ए
##∫
##ƒ
##≧
##⁷
##ۃ
##℃
##٠
##١
##٨
##८
##😐
##ਾ
##ਕ
##¥
##ħ
##♀
##ԛ
##○
##ஐ
##ਸ
##ਤ
##←
##◇
##۹
##ℏ
##√
##ৈ
##ஈ
##ɸ
##৮
##৭
##◅
##⊙
##▻
##њ
##ﻼ
##ª
##ˉ
##һ
##♍
##ﻠ
##३
##ஊ
##ˇ
##⊢
##⁶
##♒
##№
##ਲ
##☠
##⁺
##৬
##♏
##झ
##इ
##✧
##⋆
##ۈ
##ʊ
##ſ
##९
##आ
##¯
##ﻮ
##ﻌ
##ﻟ
##ﺖ
##ڷ
##ڔ
##ڳ
##ﺣ
##ᵛ
##⁵
##ਚ
##⛽
##˝
##င
##း
##ပ
##န
##ੀ
##ਨ
##☆
##ਗ
##ਿ
##ٳ
##🌃
##🛏
##↔
##👫
##ﺟ
##џ
##𝐻
##𝑧
##ﺪ
##♦
##♛
##٦
##ਪ
##ﺑ
##⚤
##˂
##٥
##ओ
##ᴼ
##☹
##⅞
##˙
##∞
##ʔ
##ґ
##ஏ
##▼
##ᵒ
##④
##♣
##৪
##ɨ
##ﻛ
##ﺰ
##♂
##❤
##℉
##ƴ
##↩
##𝛑
##ʃ
##ਜ
##ɮ
##⁸
##ਉ
##ȼ
##ﻤ
##≋
##❃
##ﺷ
##ǝ
##ɽ
##ʲ
##ۇ
##ʎ
##ɟ
##ɯ
##ﻬ
##ﻄ
##𝐿
##𝑃
##▲
##ﺙ
##ҫ
##ђ
##ћ
##✨
##ஷ
##˜
##҉
##╖
##₄
##ﺲ
##۸
##ϕ
##ऊ
##♫
##■
##ﻦ
##এ
##আ
##❊
##⅔
##⁴
##ʌ
##ɐ
##ɥ
##љ
##🤵
##💍
##ɹ
##☣
##ʤ
##⇒
##₱
##∈
##✯
##ﺼ
##ᗰ
##ᗩ
##✈
##⅛
##ڿ
##ۍ
##ڕ
##□
##٤
##ﺍ
##ﻜ
##⛴
##औ
##ﻀ
##ﺋ
##ﻢ
##ﺸ
##ﮕ
##ꝩ
##ਮ
##ਹ
##ŋ
##😠
##⁹
##ӈ
##ʒ
##✩
##ﺐ
##ⅱ
##₅
##∩
##ﻻ
##ѵ
##٧
##ஸ
##①
##😂
##ƚ
##७
##ꟷ
##👬
##👭
##ﺧ
##⅜
##↑
##ʽ
##∣
##💑
##🙁
##ﻞ
##☺
##⌂
##ځ
##ਖ
##♠
##ɩ
##⛟
##ɵ
##┐
##ﺢ
##ᑎ
##ᗪ
##ﺠ
##۞
##₇
##₀
##ﺬ
##♐
##ஓ
##ǂ
##✍
##🤙
##ﺗ
##☏
##ﺛ
##ĸ
##₤
##٣
##ɂ
##✔
##ⱥ
##ɏ
##ਬ
##ڏ
##₉
##₆
##₁
##📚
##⅖
##⭐
##∕
##٩
##٢
##ᶜ
##ﺻ
##ਦ
##🍔
##🚬
##🍷
##💉
##💊
##👊
##💣
##ਥ
##🚴
##🏊
##⚽
##🎾
##🏓
##🍉
##🍆
##🥑
##🏖
##⛰
##🍽
##📽
##🎦
##🎭
##📖
##║
##▌
##ɒ
##⅚
##∪
##∼
##ˀ
##❀
##≒
##ﺜ
##☽
##☀
##☾
##┼
##ŧ
##▽
##ﺨ
##ﻚ
##😱
##🔥
##ϒ
##ﻊ
##♿
##ʧ
##ਈ
##ေ
##ါ
##ဆ
##ာ
##သ
##₦
##₡
##△
##˃
##ﻋ
##څ
##उ
##ﺶ
##♯
##ƶ
##╜
##┘
##ᒪ
##ᑕ
##ᒍ
##ᑭ
##ᐯ
##❄
##⚫
##✝
##✽
##𝜶
##☞
##☜
##ϝ
##ˤ
##ƈ
##└
##ڰ
##♡
##🙂
##ϛ
##ɓ
##ﻔ
##☢
##ว
##ส
##ด
##♑
##②
##ʷ
##⊘
##◆
##ᖴ
##ᵦ
##₧
##🔦
##👩
##🔞
##➡
##👧
##👦
##⟞
##┴
##┬
##🆒
##☮
##😇
##💪
##🌏
##✖
##👅
##🎓
##🤡
##🕚
##💤
##🕖
##🗣
##☯
##😒
##⍺
##ऋ
##😋
##🤔
##🙄
##😮
##😟
##😓
##🤣
##😔
##😄
##😬
##😡
##😕
##😳
##😀
##😲
##╥
##ﭏ
##⋄
##अ
##ਧ
th
the
##er
##in
##ed
##nd
##ou
##at
##ing
to
##en
##or
##on
##es
and
##ar
##is
##an
##ll
##as
of
##it
in
##re
he
##om
be
you
sh
ha
##ow
##le
wh
##ut
##ot
##ic
##id
it
##et
##ac
##ld
was
on
##al
##gh
##ve
that
st
##ly
her
##st
##ay
re
##im
##ion
##ent
##se
as
for
##ur
his
##ir
she
##ith
##ad
##ver
with
##oo
an
##ght
we
##am
is
##ould
##ch
me
at
li
fr
##ke
se
##ter
##all
##th
my
##ro
had
##ce
not
ch
but
##ill
do
##il
##ct
##ess
ne
##pp
##ain
##ere
they
so
##ri
sa
him
##el
this
##ight
##ked
##ome
su
##ant
have
##est
de
##ack
from
go
##ore
##us
what
##ust
all
up
out
##rou
con
al
##ers
ab
kn
##ie
##ge
##ra
##ard
##ation
le
no
##ul
##out
##un
##her
or
ex
are
##op
sp
##ind
##king
##one
wor
would
said
int
##um
##ab
were
##os
one
there
##ist
fe
##art
if
com
##ol
##and
tr
loo
can
##ate
did
##ood
un
your
could
##em
them
by
##ast
##own
cl
en
##ally
like
back
##ap
when
##if
pl
pr
about
tim
##ven
into
man
##ace
pro
##ig
just
ma
##ong
##ide
##ck
##ive
their
ag
ro
will
who
##ep
know
any
##hing
mo
##ous
##ect
some
##ame
##au
then
te
bl
us
##way
##lf
over
lo
ar
##ort
get
##ity
time
ever
co
been
sm
qu
how
##our
##ice
##ach
##urn
down
off
ta
hand
more
##ine
bo
##ry
now
too
want
af
oth
##round
##ies
see
tw
##ment
thou
##ich
fl
##nder
##ag
don
sc
##reat
##ink
pe
br
##ved
##ick
##ound
##ear
##pl
##pt
car
am
##ure
than
again
##ile
ey
##ass
our
##fore
##ull
##ving
##other
im
bec
##itt
##ud
##ip
##ose
every
way
##ue
##act
##self
only
even
##fe
before
##ish
other
ad
sl
##ft
##ence
say
gr
head
##ings
didn
##ble
##ire
after
cont
##ated
##ite
ac
##led
##per
dis
##ks
##rough
##able
##ance
##ade
##iz
through
##ber
here
##pped
po
need
right
##ree
which
##ans
##age
##omet
around
res
eyes
##ci
##ell
day
##ward
##ang
somet
has
##ath
peop
two
fir
mar
fo
people
##ff
turn
where
##wn
good
##ves
##ak
think
going
##oun
well
gu
should
##ions
let
##qu
mu
##ause
gl
looked
jo
thought
ll
wat
comp
app
per
##oth
long
rem
still
str
under
##ery
god
em
ve
##ord
##co
bet
may
wa
##ia
##ather
##ew
##thing
cr
##iss
##ild
##ting
sw
something
first
##ase
away
pre
##ning
##ious
##ied
##dy
never
door
##ress
asked
##ted
new
life
got
much
made
des
##ave
ho
because
make
part
feel
##ened
face
call
spe
##ens
hel
##ough
##ah
come
op
why
ke
##igh
##gg
bel
##te
take
##orm
happ
##ady
wal
##ered
look
##are
##ittle
year
##iv
little
room
act
ph
##air
##ched
tell
##ise
##so
##ily
ear
##ss
very
start
##ents
##ty
sur
arm
while
##ying
##av
being
att
mom
##ary
##ried
##ful
its
wr
##be
##ark
real
##dd
##ook
inter
##ory
el
##side
those
these
help
##uck
##iff
own
took
##ness
find
rel
seem
tal
##ical
knew
most
##ced
fin
another
dr
##ub
##ph
##elt
mat
##tain
imp
sure
##cl
left
##xt
few
##ign
ser
##ian
came
beg
##ations
exp
word
really
ev
old
work
end
##oss
put
things
##ons
wom
beh
also
turned
##ared
##ult
does
##get
felt
night
comm
##owed
mind
world
unt
##ever
##vel
war
many
vo
pers
light
last
##int
la
love
##ouse
sk
gra
##ail
##de
min
bu
##ys
##ush
sin
wasn
##ool
##ps
##ower
told
cle
ind
side
went
each
ret
##ors
##ru
set
##een
##ways
##ont
##ne
rep
##iend
##ross
ob
##ible
found
friend
##les
yes
keep
hum
wait
both
place
##ating
toward
##ash
cons
belie
hands
##og
must
nothing
pull
might
##ition
##ict
inst
##cess
next
##ual
par
home
same
dec
##ib
##ple
sat
great
diff
##ually
cor
##ling
years
body
che
against
anything
saw
ste
far
foll
ass
wanted
##ange
without
##iver
##ost
enough
##ial
hard
thing
##ream
once
though
pass
##ned
always
##ner
behind
fam
until
men
##sp
##ction
##ces
such
person
house
high
gi
##na
looking
##az
small
open
gir
three
bre
##ently
voice
ple
inf
coun
child
##oc
rest
##red
##cept
##ised
gre
##aring
couldn
dark
##owing
met
hop
##ars
himself
wo
hu
sound
acc
##ng
##ead
run
sim
stand
##uc
father
##aught
moment
##der
conf
mor
inv
heart
cour
ang
clos
bed
supp
pa
tra
give
##uth
girl
underst
cur
##med
dri
##sw
gen
##bed
front
contin
better
mon
##less
##ching
##outh
##ix
resp
##day
##ken
##ows
mean
smil
20
##cond
sy
sil
betw
between
quest
plan
chr
care
char
woman
dra
##gn
everything
quick
maybe
##ier
second
answ
##ater
pres
##ank
kill
ed
expl
##end
rec
mother
someone
heard
wind
ter
hold
##ember
since
##ense
water
read
air
differ
reg
play
##cer
breat
##ung
##ason
##ret
##used
##ock
big
##ained
oh
bit
##ond
dist
lau
ra
##ject
inside
alm
started
##ably
near
bar
ref
seemed
miss
black
flo
yet
##ention
use
##ished
pat
red
add
sch
chap
remember
##tered
hair
return
##ready
kind
already
##ized
stood
lar
##up
trying
ent
inc
called
lot
##bo
ca
sle
##ully
poss
wall
name
laugh
power
cap
pol
walked
aw
##ates
reach
ok
doing
done
##kes
gave
understand
began
##gether
sub
pain
stay
deep
words
19
else
##ren
chapter
best
form
##iet
across
##rew
blood
##amp
almost
##ny
used
##ott
dire
mr
wonder
young
det
sn
col
##ately
soon
ide
minut
together
vis
##io
##ided
seen
##pr
says
christ
##ined
##ump
bus
hour
##pping
stop
##als
believe
fact
##its
human
##wh
sto
eas
family
tried
comple
##umb
along
point
##ene
##ts
##ited
##ither
breath
sec
pur
dro
repl
##ake
move
sign
##row
past
pulled
stud
tri
coll
list
close
##ters
##eng
leave
later
##iness
wee
table
##aced
##itch
ye
days
mem
##ased
bri
##ected
creat
ele
##hip
hear
##ured
feet
lead
##ued
##ures
slow
myself
others
##ically
thin
meet
leg
smile
course
smiled
tre
##cy
sit
everyone
##sel
##man
getting
perf
fing
##ins
##uring
##oy
nodd
bad
land
dem
##ering
four
book
har
bro
##ular
trans
spir
step
able
##to
prot
fall
##ets
coming
cou
##olog
appear
hur
different
##ric
##idd
ap
held
mouth
floor
nat
eff
having
lord
del
##oke
##ities
sor
##ility
talk
##vers
least
arms
dead
##oney
ground
##aps
half
##ience
dep
exper
loc
white
##cc
school
##ize
##icked
def
hor
fire
med
##cial
needed
clear
prob
wouldn
morning
cent
dan
finally
nodded
##cus
quickly
free
##ged
##aking
top
sun
ask
##iew
times
##sc
##du
cer
death
herself
tom
##ten
full
##ushed
question
large
##br
making
towards
hell
##hn
okay
lear
cal
##ific
jes
build
##ept
##itting
happened
##ms
ran
##ines
earth
##ments
##fully
cat
eng
sever
##dden
mus
##uff
short
##ug
boy
appro
##by
upon
fa
doesn
sudden
sleep
##ired
won
reason
fur
gone
##ma
king
##ames
anyone
try
eye
probably
john
friends
##ening
##ield
less
prom
contro
##oud
feeling
##ird
within
##ative
##irt
cover
idea
fre
pri
##ove
hope
stopped
##ife
##eth
fun
fight
please
taking
stra
##fort
cra
tou
##iously
opened
gener
##gged
spirit
fell
surpr
mess
##ants
##yp
however
##ane
outside
children
whole
certain
grab
proble
##aut
##00
grou
##ient
moved
##ton
money
jesus
dam
nor
##selves
adv
show
cell
son
lea
cut
av
##orn
matter
sho
num
kiss
ready
ins
dou
true
##tern
reached
dad
pos
sorry
five
stre
sam
##ides
today
count
become
##head
actually
consid
##ister
##att
bring
fig
minutes
forward
interest
##aw
law
yeah
##ards
thinking
alone
inform
##mm
truth
onto
##od
wrong
either
##ident
sou
living
live
lost
complete
swe
food
kept
imag
sent
fill
state
ext
jack
mil
##app
##erg
##inted
several
continued
city
hadn
import
beaut
replied
phone
##ches
##esh
slowly
##que
thank
job
##rought
whis
change
##ipped
shook
dream
##where
chang
given
quite
##gr
dev
shall
opp
press
mag
kid
direct
##room
sing
walk
fear
##aster
case
cre
##ists
##ract
##land
##airs
thr
taken
hot
##osed
##ina
quiet
ann
##ution
##aces
##ther
brought
story
mark
##ression
during
id
bes
##els
##clud
##ored
##gan
##lic
ir
watched
control
##ik
##otion
##ues
talking
soft
##ison
##cle
strong
break
bur
adm
sense
##ics
foot
dest
dress
je
##ien
women
number
##ime
art
##enty
hall
month
##ger
lay
arri
road
##stem
win
main
saying
instead
tem
##ices
answer
cir
suddenly
##ike
##ism
##iced
##ape
roll
guess
occ
ten
pet
order
sol
pub
##aned
blue
standing
##aining
low
business
ago
six
above
reco
line
followed
system
self
##haps
cold
perhaps
##ute
bab
pay
speak
begin
lips
serv
sal
waiting
group
heal
val
pret
brother
##iding
##body
grand
##ots
prov
ge
wood
exc
##ze
town
##iting
decided
isn
##velop
##cing
closed
looks
glass
chest
perfect
10
compan
important
hours
shoulder
class
fine
skin
##sh
cross
##ians
##cious
happy
pap
hit
gun
##tend
deal
rather
longer
jud
prof
attention
spoke
da
##anger
working
aff
entire
window
known
##aughter
disapp
suc
##iful
sigh
watch
whatever
ship
bra
requ
whisper
laughed
guy
possible
sitting
201
##anced
became
cry
office
exact
##ising
bas
pretty
yell
##not
sens
##ror
##aged
cond
couple
##ony
mer
seat
soul
##imes
##ational
exam
hon
const
##ories
caught
neck
##ital
partic
path
pray
##vern
##acked
univer
cho
##ief
##ective
##aim
mur
pie
warm
passed
commun
enj
##ength
running
fingers
##erv
view
squ
##antly
bott
##ped
est
chair
trust
chur
test
sir
burn
tight
esc
forg
yourself
prin
rock
includ
scream
##ior
##eric
##ob
straight
command
##zy
##ages
offic
lift
##medi
##rupt
##read
ver
wife
##son
conn
chance
##ision
mir
often
accept
##ef
stru
##res
din
##cent
stared
information
nice
concer
##ural
##ection
building
problem
green
ale
bill
parents
means
hund
##night
gaz
##ination
auth
er
typ
ce
boo
rece
bag
hundred
tor
abs
immedi
##ara
week
##ale
bene
lim
beautiful
##ator
cop
eat
norm
space
alth
die
##ply
further
##unch
##ount
cloth
level
grow
produ
thoughts
area
pop
themselves
although
safe
meant
secret
##ax
##com
ign
ben
sort
heav
stepped
shot
holding
street
slight
##ains
##ler
trou
follow
pract
##arr
watching
sex
develop
gri
exist
##old
americ
##ster
shut
hurt
present
ord
##ones
lu
spec
apart
cannot
var
doub
makes
ill
fast
##ctor
prev
cam
returned
##bing
##aching
church
ant
##ork
among
guard
jump
##unt
grin
prep
##ety
drink
mad
##ement
##ift
hung
using
sear
fut
sold
late
leaving
##cri
mill
##ote
12
##empt
pal
situ
exactly
expect
noticed
seeing
sad
event
grabbed
##ming
##my
moving
sometimes
##ee
walking
##ances
equ
filled
##vin
closer
kitch
sky
div
team
shout
super
govern
led
##iny
happen
treat
early
faith
obv
energ
except
dav
##ude
gold
##iddle
##me
pan
11
legs
twenty
##ili
attack
##ilt
##ert
dog
shad
##ived
suff
lit
agre
kitchen
bare
send
process
hist
phys
appeared
news
anim
mich
##ledge
##ether
lives
##lect
##oon
sister
##mb
##cially
completely
convers
raised
##ley
##ann
##ats
anyway
sight
pict
simply
report
esp
##acing
rose
##itive
approach
author
empt
comes
age
##idence
desp
##ha
thro
box
baby
##use
crow
force
##ives
sugg
suggest
middle
tech
mine
pot
immediately
strange
loud
##dom
wish
tears
rele
##gin
fail
personal
answered
rev
rub
rich
hea
fle
realized
##sy
bright
cast
enter
easy
clim
##ey
##light
following
comfort
worry
thanks
##ek
maj
sand
star
##lly
##ney
result
##bs
arr
killed
stuff
check
silence
smell
enjoy
wide
future
mist
##ified
den
##cover
##erm
pushed
##right
##aled
expression
18
knows
moun
knowing
energy
giving
##ael
##amed
worked
shar
paul
##unk
tree
corner
tar
recogn
support
di
picked
peace
police
stri
##ring
batt
alex
vi
imm
single
relations
weap
##ffe
lady
##zz
pen
itself
spot
whether
gas
figure
position
girls
seems
##ology
pleas
fair
round
hang
field
vict
susp
proper
experience
questions
loved
mass
bey
stone
##ashed
mel
##ern
clean
espe
months
rad
ones
touch
hus
##acy
enc
##fer
##ries
ru
mut
danger
##irty
luck
gar
crowd
beside
beyond
special
country
##ocked
draw
especially
attempt
fav
drive
##band
##ging
##ope
whispered
learn
obs
##par
fly
pick
died
surv
ahead
south
cy
##und
camp
invol
##cuss
cas
pointed
ori
diffic
sett
dropped
sword
ball
allah
placed
direction
clothes
non
15
leaned
ur
books
##bers
changed
game
mis
eight
glanced
finished
##aded
##isted
##con
##ousand
thousand
rob
ris
fil
##ana
jer
heaven
##itted
paper
##rib
turning
na
lab
guys
edge
incre
situation
##ously
company
wra
coffe
sar
added
mod
drag
summ
techn
none
waited
mention
covered
wondered
port
telling
knowledge
public
captain
disappear
haven
empty
fore
angel
save
desk
nearly
daughter
van
inde
relig
carry
tonight
##orrow
respond
##oid
bir
supposed
##rif
arrived
magic
reve
coffee
invest
##raid
trees
fif
david
success
tall
discover
relationship
spent
master
shirt
stom
elect
throat
visit
earl
##usion
organ
afraid
##eren
evil
particular
priv
##ishing
sighed
activ
tot
##uly
ident
effect
meeting
husband
##port
##ips
gather
shru
discuss
##atic
##more
kids
bal
general
##osp
arg
##let
pack
##ena
dar
shoulders
13
##eless
hey
minute
shit
200
wants
surprised
bath
river
oper
16
##go
worth
jour
remind
und
threat
nature
compl
conversation
##ental
heavy
##ees
needs
brown
doctor
surround
calm
scr
##ruct
purp
mountain
party
record
gaze
comput
headed
poor
evening
##lish
##ivid
##ration
doubt
james
sounds
rid
frown
tomorrow
cause
iss
intern
music
alive
listen
lie
brain
##ency
possib
##cked
weeks
##urity
vol
descri
##ining
circ
spend
14
darkness
note
##oring
strength
##ressed
pock
post
steps
##ron
wild
hosp
##ples
staring
##yn
##wards
distance
##itten
government
weak
##oof
univers
protect
detail
##come
trouble
##lo
holy
##ral
third
difficult
sweet
mid
consider
##roy
pun
strugg
huge
subject
##ought
claim
fuck
mal
gro
lived
proph
finger
major
necess
entered
simple
##iel
showed
##icking
thick
michael
##ury
##ushing
cool
dinner
becom
object
##ires
rom
inn
below
health
##ume
##iam
history
rain
##iling
ash
battle
vill
reading
key
##ises
##une
##ask
normal
##how
##ilar
##rect
##ession
forget
##ov
beginning
##inite
travel
slightly
dom
ah
center
takes
contact
effort
smo
et
mot
tow
##uel
ut
piece
accord
certainly
broken
##umbled
enem
somewhere
usually
##ham
forest
sick
##action
ways
determ
##gram
ble
sna
glad
##udd
perform
sour
brief
design
mrs
sea
beat
##ingly
##iled
walls
##aff
spl
seven
bull
doors
choice
neg
damn
despite
nose
stomach
respons
horse
gent
managed
##essed
barely
sque
suit
stup
amaz
##teen
allowed
appar
##bert
17
individ
born
catch
rolled
cab
serious
wearing
ring
##ett
viol
clearly
hill
boys
project
common
polit
charac
scre
worse
soci
##ager
security
curr
north
##yle
notice
surprise
spread
##ges
expected
##ai
hospital
goes
luc
##ald
##ential
##akes
##onse
focus
therefore
aren
surf
earlier
cancer
##ality
somehow
hun
origin
bow
fort
wel
##la
wound
##por
lifted
##ented
agreed
repe
jen
stro
max
explain
chuck
program
demand
cloud
weren
##owers
##iliar
planet
pu
##rodu
continue
anger
jul
bod
mary
##ulation
conscious
social
##pper
mach
##atter
demon
##using
dear
comb
created
teeth
##idden
lang
explained
##ption
message
reality
##ization
##itions
share
response
eventually
hol
regard
##aint
birth
dim
tone
purpose
individual
stupid
##uct
jew
playing
##apt
remembered
ol
seconds
##sed
track
easily
##iers
helped
accom
local
##gress
##orge
##ium
stret
##igg
anymore
cost
jim
phot
allow
speed
neither
stat
kar
broke
presence
emotion
likely
lad
##izing
aut
anal
fuc
##idge
defe
deb
silent
tired
##ceed
station
##iction
fresh
park
rul
##miss
final
##ball
##uit
similar
angry
offered
emb
##aped
offer
hide
destroy
coo
##ama
remained
##ata
works
tele
##he
##ya
intell
##form
gets
court
shrugged
grace
##cil
including
threw
unl
colle
##olution
learned
##ploy
##tt
nerv
bedroom
moon
beneath
service
frank
action
##etic
##oved
stairs
forced
indeed
speaking
fit
asking
truck
computer
study
los
tong
truly
separ
humans
##ensive
considered
natural
opport
liked
##erial
promise
tast
tiny
bottom
grew
worried
members
depart
written
wit
resear
band
motion
phil
handed
shouted
bell
gently
##men
picture
places
opportun
arch
gh
lying
##erved
##lt
harm
drew
##ify
##ette
due
favor
##val
cult
experien
memory
pocket
paused
respect
keeping
cup
aware
disc
relax
pulling
aftern
gard
based
hom
hes
##icle
##ray
physical
fix
env
##ended
langu
example
quietly
ger
##rible
cells
type
san
weight
imagine
hat
states
ach
prop
##rit
familiar
deliver
jumped
oppos
meaning
##ences
thus
escape
material
sac
older
base
sounded
dust
unf
dressed
whe
teach
##ez
song
30
odd
##ension
blank
##ils
##hood
lights
tum
powerful
inh
bird
##ja
honest
carried
desire
army
pair
metal
card
vers
lou
kissed
peter
afternoon
##urs
christian
insp
board
target
lose
choo
joy
##line
psy
cand
##inct
stick
##icated
west
carefully
##asion
##isf
wol
##reme
##rage
silver
##osh
##erve
aud
##aling
##zen
buy
##uss
##rie
counter
appre
forth
##gar
according
mart
thirty
##cient
##ky
fool
meth
moments
forever
drug
crazy
ban
american
##gging
research
writing
##rap
correct
snow
chall
##olute
dry
adam
hoped
dig
prison
link
hesit
##oned
screen
##ius
married
##str
neigh
understanding
trip
ears
entr
lower
infl
cheek
firm
whom
##amb
decl
color
##ially
pressed
hoping
problems
lock
flesh
mult
obviously
##set
directly
cust
##usted
neighb
shoot
tun
##itude
##ench
store
knees
talked
smiling
numb
gentle
##wise
##itary
convin
##ica
shop
term
wip
whose
realize
psych
dut
university
bob
bi
##cles
heat
##ades
##work
busy
shif
block
starting
belong
##raph
involved
##ability
##ests
mission
##ipp
pour
bodies
jan
image
bear
apartment
nod
society
wis
##astic
log
hate
doll
sharp
unto
shaking
mike
hy
##ilities
ell
capt
##mer
witness
##bel
definite
camer
##lin
extra
fal
##gy
##ival
desper
##ique
officer
##soci
unless
##riage
touched
stories
growing
##asing
avail
vamp
opening
imposs
vision
absolute
fat
satisf
##umed
ended
21
##ners
remain
flat
finding
matt
decision
##ature
turns
##iod
understood
lean
wed
write
fold
uncle
murder
une
##cend
queen
prim
necessary
surface
associ
spiritual
letter
25
fucking
ice
##ls
events
join
fac
charl
ancient
##acher
##ipping
refer
ess
##ients
handle
lunch
gate
besides
engine
fighting
ya
trad
drove
feed
##ites
wrapped
blind
male
ty
storm
tongue
putting
##bit
jon
doc
evidence
date
higher
character
##play
stayed
soldiers
fully
scient
eth
lack
##yal
##ested
employ
dragon
island
calling
mere
##ground
miles
introdu
##ables
asks
##ec
jake
search
received
pred
##riend
concern
missing
push
feelings
built
mov
bother
believed
repres
drop
staff
president
##rael
##anted
various
##aks
##arily
usual
slid
ride
sell
paid
##ding
caused
##inking
period
##istic
##lled
##attered
access
willing
pill
science
hidden
train
jac
nick
##inting
bible
skill
##ument
size
investig
meas
locked
gon
smoke
private
hen
bank
benef
beast
pound
nobody
falling
##ication
host
000
##others
spo
guards
##we
approached
stuck
ry
grass
cried
tu
breast
laughing
ep
##ively
bound
creature
avoid
##oint
##ship
wand
happening
attract
hearing
mic
risk
flash
##nday
##itor
wash
language
##fast
played
fema
##well
veh
thom
tit
daniel
pleasure
shock
impossible
kingdom
civ
aside
female
scar
training
crack
yelled
universe
##hy
22
israel
wore
enemy
laid
lines
##af
scene
shadow
attend
ability
obvious
fish
definitely
ray
du
william
method
disappeared
init
##ura
freed
##ston
prepared
##cho
kat
entrance
##iah
24
wet
opportunity
stage
swall
nar
gest
bathroom
sarah
students
rap
military
##inary
crossed
##ids
quar
slam
##ounced
mas
##roud
##omb
journey
apparently
##alth
slipped
gab
##ruction
interrupt
grinned
summer
gray
unc
luke
vir
crew
toss
##ole
inj
driver
educ
east
copy
wake
hole
village
##icate
##nel
weapons
##ores
data
shouldn
estab
wid
missed
tax
dangerous
manage
market
custom
htt
interesting
##anna
##leep
199
rand
appreci
disp
create
softly
mort
frowned
##conom
weapon
finish
sla
asleep
noise
addition
depend
hotel
##ashing
uns
clock
##otten
confused
eric
college
dance
suppose
available
tur
##ancy
gives
occur
product
heads
knife
burst
resist
##book
animal
loss
rout
agree
##ulf
george
beach
ourselves
##oses
breathing
##ker
##aked
faces
signific
scared
windows
gotten
positive
practice
amb
happens
##ases
movement
bottle
english
##anda
pin
length
##ndon
econom
display
##cking
ordered
sen
council
##gu
##arm
club
leader
dreams
fed
spell
boat
##ading
opposite
##claim
results
animals
wine
text
adj
comment
national
surely
etern
gal
##anged
##orted
occasion
civil
breakfast
yellow
source
23
eating
der
prayer
sav
relief
crit
assist
garden
concerned
wondering
##ological
letting
wonderful
impro
stream
##iday
joined
ghost
hanging
plans
eld
struct
ly
pil
mostly
behav
listening
mirror
sleeping
welcome
gonna
bran
##rated
hers
##lished
tea
##asm
flight
screamed
leading
##imin
existence
net
##iron
amount
interested
medical
saved
sweat
judge
throughout
settled
careful
##elle
##rel
##ww
##ki
ken
broad
extreme
prefer
aim
current
million
##eness
##sequ
saf
leaves
nervous
robert
concent
tend
confir
grad
##rid
yours
##stairs
lin
##tle
moder
##ev
achie
##key
##cul
unable
sne
hi
por
lif
mentioned
fro
account
terror
flying
lucky
gift
greet
choose
otherwise
york
mech
snapped
##ograph
##unately
forehead
lip
##ators
##eral
chin
series
##ping
becoming
possibly
pra
wooden
fallen
united
smooth
influ
interv
contr
wear
lat
##otions
eur
##ta
##aur
##den
##ague
mix
intellig
##cise
names
removed
##here
##omed
difference
fund
##iment
proud
pieces
checked
trick
farm
rough
deg
##athan
spr
belief
numbers
##board
waved
##iving
driving
role
community
##imate
pure
instruct
condition
##asons
ens
anywhere
parts
##yl
details
innoc
cabin
wheel
memories
comfortable
figured
repeated
wave
tent
##ese
emp
anx
throw
page
opt
excited
stars
##roll
##ca
charge
trail
##ols
encou
sides
josh
tour
joe
reflect
select
##ram
provide
aust
scan
##bb
extend
feels
hallway
address
##eks
##ibility
reply
hous
value
emotions
##ached
development
wrote
freedom
double
asp
nine
##ka
aunt
frust
glance
##uing
aid
##lam
recall
##mas
thomas
chief
##illed
##aming
machine
##wor
##itation
##iot
##iple
wolf
lung
que
blond
complex
discovered
##icious
buck
##oted
##ocking
rum
shower
##uce
scri
lake
boss
pool
tells
circum
cla
cred
nearby
jason
##ception
hardly
##rop
reb
echo
environ
distract
##arrass
ze
actions
religion
bay
funny
bridge
embarrass
learning
hors
alright
##ios
ju
##ims
heading
taught
warri
tan
exh
bless
elev
##han
jam
##under
burning
mental
circle
bud
suggested
prince
##izz
stare
wanting
showing
grey
exch
conv
##kn
www
unfort
marriage
previous
decide
prophet
brothers
foc
hello
##for
gathered
rise
manner
pit
beauty
##uses
function
##gen
responded
golden
dirt
react
mac
wisdom
specific
gras
row
##uted
smart
named
naked
iron
magn
compet
mum
##iter
##atory
dece
promised
maintain
beer
craw
passing
drift
waist
admit
##umped
shape
ren
killing
pad
consciousness
##reek
greater
america
##eds
tv
##othing
flew
##ucked
section
jess
sher
loose
jaw
totally
required
pretend
narr
##ament
russ
forgotten
pale
released
##nds
answers
item
couch
ideas
climbed
cheeks
teaching
polic
gods
purch
mechan
cit
progress
shared
##enge
grim
failed
cele
cham
rare
rang
domin
shoes
plate
potential
crying
accident
nur
pink
liter
##mp
teacher
safety
blade
helping
kr
cu
emer
jose
##enger
frey
terrible
##gs
qur
focused
##nes
##comfort
total
grip
##ora
hero
stated
reaching
easier
yester
obl
changes
script
leather
carrying
race
rules
bent
creatures
aver
##illy
##pan
theory
calls
reminded
seek
yesterday
recover
##mar
celebr
##house
cass
transl
taste
leaders
gigg
oce
blow
wished
evolution
mc
##asy
##bi
struck
##iven
charlie
horses
incred
hiding
listened
tumor
task
shield
feat
##ech
shake
solid
absolutely
freyja
temper
##ada
notes
accepted
radio
plat
bought
thor
setting
bol
ult
environment
wealth
aband
nic
worst
laughter
mood
##oying
amazing
cow
twice
pleased
fault
exha
libr
chuckled
fran
##aging
shadows
##lyn
ron
cook
younger
weird
henry
##reg
member
purs
vide
shel
deck
original
wes
model
meal
roof
pointing
ceiling
26
##ification
sha
modern
media
regular
cock
fright
political
##mon
rushed
express
cryst
##eter
squeez
##ita
negative
pul
temple
fought
##ns
seriously
twel
embr
receive
unlike
##vey
streets
jacob
##lies
pushing
acqu
plant
faced
cave
##osen
everywhere
emerg
pier
sacrif
hated
planned
##isa
signs
profess
knock
issue
reasons
opin
ms
##onscious
faster
upset
dise
fifty
##nie
matth
species
198
giant
trave
pressure
lap
former
grown
points
27
orders
islam
determined
myst
uh
perfectly
price
tick
prior
symb
coat
##min
victor
cars
woke
colon
##tering
spring
pants
profession
terms
revealed
bringing
thinks
religious
match
breaking
serve
false
sev
provided
##acle
##antic
movie
28
witch
impl
enjoyed
fant
concept
fol
frame
##gest
frequ
spin
##pet
##iety
formed
creation
um
weather
ba
causing
vac
button
percent
colour
thy
##wood
treatment
##antage
till
divine
ack
agent
##ects
technology
http
rights
rule
nav
##rick
powers
hungry
##ointed
sof
landed
jacket
square
carl
jane
##off
warning
circumst
favorite
adult
wise
eliz
novel
duty
doorway
dish
impact
rush
deeply
##mission
property
##xic
bloody
soph
rach
massive
patients
excuse
passion
castle
europe
verse
reaction
##iance
dawn
twelve
represent
jay
##aries
##ulous
revel
woods
##ira
rever
dirty
forces
waves
ram
##nal
proceed
brit
##sing
##now
activity
teen
fifteen
ignored
##lessly
resc
##inging
pattern
narrow
honor
chem
chris
occup
rising
winter
##ander
christmas
everybody
review
##iant
##riel
content
laws
groups
entirely
restaur
##ifer
cleared
##ulated
regret
surrounded
prove
cart
richard
ow
wil
disci
losing
meat
##ishment
ocean
cig
matthew
chosen
##ocr
bul
dying
eyed
burned
fruit
twisted
damage
harder
nut
ay
balance
##ails
##pe
washing
refused
plane
systems
##ero
becomes
ast
##hol
##isters
daily
release
wings
50
parking
vall
plenty
searching
##ule
stretched
whenever
pictures
drawn
instantly
rubbed
kicked
studied
interp
scrat
##iana
lowered
analys
descend
honey
##icing
planning
exer
range
hyp
##cell
##iles
bree
medic
mi
gut
defend
ros
##icles
clouds
drinking
leaning
spoken
iv
mistake
instit
chick
facing
##claimed
german
glo
plus
pip
dun
particularly
sus
justice
happiness
musl
consequ
subst
##ider
beth
##inger
simon
rapid
inner
unif
##mber
instinct
thousands
##mit
ii
##back
transform
larger
fate
gasped
acknow
##gment
unkn
click
##yer
resour
knocked
exec
gall
related
##bled
recognized
map
century
interview
relie
00
kick
speech
london
mountains
muttered
anna
##igned
sending
##rate
shows
vampire
tradition
strate
##ua
stun
guide
es
loving
authority
kh
oil
steve
tail
blur
department
advent
drip
patient
forty
priest
worship
fred
remains
lies
vehicle
awake
lor
starts
bush
cigar
lots
growth
somebody
explan
tied
panic
clut
suffering
197
hurry
cha
concl
wedding
##eps
famil
fash
location
remaining
bat
##ses
glory
nation
excit
29
anti
screaming
##asc
holl
connect
survive
##erson
recently
code
scale
contract
citiz
##ancing
virt
cro
staying
shiver
devil
merely
statement
encoun
100
marry
##kin
shifted
french
interrupted
ate
countries
bread
##athy
chose
minds
levels
##lection
##abeth
silently
effective
waste
##ino
egg
therap
brand
student
delight
smaller
slept
instant
salv
##hr
royal
soldier
uniform
##eg
##agon
princ
rear
unfortunately
palm
eager
connection
fist
tightly
indust
##eous
ber
changing
sees
excitement
forms
bast
swung
##istan
rot
nowhere
shown
hearts
issues
smir
40
fan
##iently
corrid
particip
danny
steel
require
pm
##isions
experienced
sunday
##ille
##oph
weeke
conc
voices
##aken
fashion
rooms
games
afric
sexual
rick
cases
##inese
expecting
faint
shocked
official
flow
blast
jeff
appearance
bigger
liqu
collect
##over
hurried
height
clar
stands
##iring
boots
##ded
apolog
swim
fellow
drunk
##cast
quality
accompl
chinese
partner
camera
liber
##umbling
closing
education
##oe
##ibly
distur
fab
matters
transport
##uries
##iest
stir
library
eve
flood
contents
##ivity
contain
##uous
uncomfort
##uments
beings
hug
challenge
intense
tossed
deeper
spark
developed
##ga
plain
curious
slammed
destroyed
flowers
bord
foreign
princess
families
unw
grate
##ym
buildings
bite
org
##what
rh
sport
math
rib
##ado
##rog
fulf
crime
imagined
clin
cash
butt
tear
compared
##oma
glow
returning
professor
##eping
andrew
somewhat
background
wiped
brad
glasses
swallowed
advantage
orange
behavior
vin
##ubb
##icip
abc
served
kim
mob
international
structure
video
coin
responsible
nin
awk
joseph
style
houses
forgive
neighbor
autom
awkward
micro
split
apr
goal
ara
unknown
protection
##bl
##iation
ax
inqu
helen
huh
season
ryan
terrif
mercy
##ulate
ment
elizabeth
aug
jeans
commander
##iber
murm
jap
prevent
labor
demanded
reject
##ato
extremely
isa
gain
##case
righteous
knight
31
sink
confusion
##ford
##vision
appl
smiles
##org
tip
officers
##issa
flick
finan
papers
greek
hast
features
nik
mate
spun
relative
##hold
##xp
philos
circumstances
hal
satur
bon
##illing
disg
##enched
legal
rail
ox
shr
cru
knee
##ein
tunnel
agreement
rod
ain
billy
##erves
alien
##phone
doct
##sec
puzz
tony
struggled
intent
central
##esis
##ella
bitch
buried
##uced
##epend
rocks
stronger
passage
stock
paint
site
upper
##icient
settle
stranger
##def
bones
yard
ali
stan
possess
rolling
wrist
breathe
tort
recognize
restaurant
march
lovely
highly
traff
dozen
increased
poured
blame
file
##whel
services
##zed
conce
##eline
muscles
fired
##ris
##fl
areas
wow
thir
##mo
shift
emotional
scott
greatest
##iveness
##atives
plastic
annoy
##mos
##tha
godd
distant
chase
letters
dragged
connected
kate
overwhel
charles
##wal
claw
innocent
pace
trade
acts
kell
corpor
nurse
angels
amy
raise
pride
actual
satan
chamber
##lling
##omm
drawing
beck
harry
normally
steady
skills
##time
abcdef
hundreds
tremb
abcdefgh
analysis
dogs
scen
clothing
explos
ward
les
##bey
status
birds
dave
##vert
confidence
crystal
##aper
friendly
population
rate
equip
admitted
sons
horror
##bow
belt
ships
chain
recent
rif
##cr
valley
japan
flu
thumb
dare
mud
alco
request
separate
intended
martin
excell
stiff
bone
challeng
surrounding
insisted
marcus
loudly
brow
##ggie
effects
shame
fixed
##vis
convinced
influence
souls
constant
jere
glob
thrust
successful
birthday
keys
##raft
ari
##rier
capable
##isible
images
opinion
considering
##win
##acks
smith
syn
cycle
stress
youth
tempt
independ
sake
culture
electric
assumed
rachel
tough
chat
##ales
##olic
advice
anticip
tower
##lor
##istry
version
rage
judgment
parked
whoever
begins
blanket
monster
pile
bitter
##inda
cous
inhib
eternal
admin
achieve
##inated
thrown
thigh
diss
greg
throwing
##bur
detective
heavily
ethan
journal
dollars
##inked
owner
gle
trib
##mother
described
##oms
treated
##atically
hasn
etc
disease
##ari
scent
pregn
altern
##inn
##eled
piss
fer
rat
##otic
##uary
##father
title
serge
##ords
cott
humanity
associated
appears
equipment
persp
television
oct
observed
increase
lone
faded
guilt
accompan
vent
##pri
explanation
vib
##ads
announced
contem
##unted
acting
qual
measure
fiction
guil
christians
##ache
contrib
troo
furn
firmly
landing
##rey
##hh
included
gang
196
##rant
##ault
loves
##alous
squeezed
jun
enth
entertain
cath
bang
hips
haw
demonstr
sem
dancing
tam
weekend
popular
##ctions
basic
useful
ps
##da
credit
rested
revelation
##agger
unus
emma
##ocol
drugs
##aron
blinked
alice
spotted
items
##hen
##ode
##imately
relaxed
ven
thunder
dread
##ani
avo
desperate
##jo
betray
career
sched
##ounce
##pse
##rain
swear
retrie
##itched
clo
chann
glor
sequ
sole
intelligence
ignore
extended
reluct
emily
ladies
appreciate
bry
ou
responsibility
elevator
guns
studies
limited
blessed
coast
##any
pause
proof
til
##cks
continues
diver
##ointment
spirits
treas
dw
##agged
flashed
walks
forgot
disbel
stopping
##arian
flames
healing
unconscious
paying
folded
western
traffic
warmth
ease
afford
unit
arrange
bond
vast
utter
gabriel
degree
##umps
rab
strike
bags
hoo
possibility
relieved
defense
33
capital
exclaimed
brian
reported
##elled
activities
##aly
gif
allowing
horiz
conditions
##ен
##ket
survival
ug
senses
standard
sed
bowl
saturday
shell
glared
manif
significant
thee
##ints
stair
appropri
##friend
offering
spect
briefly
lucy
picking
##lict
chairs
daddy
lee
habit
colored
##ware
surre
glim
hugged
corridor
##urance
closely
sob
lic
occurred
resources
region
exit
cough
##inal
cris
ends
guilty
gosp
pages
ded
attached
joke
screw
##ila
confident
cream
uncomfortable
##reh
##field
friday
32
device
yan
##aping
applic
##athers
internet
hamm
option
##brows
cliff
johnny
crimin
centre
approaching
frag
audience
suffer
##ij
sisters
las
grave
courage
grateful
##eding
35
slip
hunter
eyebrows
reass
##neath
elder
indic
realised
ham
underneath
hood
##urally
carol
remove
ves
##can
creating
##lfriend
stab
##iley
enjoying
efforts
breeze
girlfriend
upstairs
##met
precious
attacked
alcohol
china
constantly
wing
financial
nights
intention
gear
badly
dart
craft
##enth
collaps
##ays
cheer
surprising
swift
keeps
##ona
reward
cere
visible
goodby
informed
depth
grant
##agg
secure
enemies
warned
ted
blonde
ske
replaced
cos
ridic
random
platform
##uk
az
pleasant
touching
skull
discussion
##ucle
grandmother
benefit
##agn
inher
histor
core
bench
claire
##utions
newsp
myster
unb
tables
covering
##nda
ped
analy
unique
web
##ан
consum
torn
grav
reveal
belly
abrupt
fourth
##gger
bru
retreat
article
commit
curtain
##olved
rope
climb
leads
satisfied
py
include
inch
grandfather
struggle
roman
adop
anybody
assume
##iated
slee
##stand
impress
designed
##bie
##zing
sust
##rian
jimmy
boyfriend
purple
milk
professional
alt
horrible
dismiss
##erence
worn
asse
lesson
stal
shoved
envelop
brush
##oles
brushed
invited
egy
##itable
interpret
encoura
arrive
moves
##ody
healthy
element
imper
conduct
##col
ak
assum
improve
violence
backed
sara
nations
wiz
poison
scientific
wicked
palace
assured
ec
ian
##enn
blew
attitude
hesitated
##izes
compass
servant
egypt
##alu
warrior
##coming
prepare
lan
fields
inches
solution
brick
tempor
plants
jenny
hay
silly
irrit
desert
##usi
strang
stones
45
saving
excellent
liquid
##phere
types
breathed
##rete
appe
##pers
##cies
transfer
##iqu
frozen
brill
cooper
ignor
smash
emph
##ission
unp
ling
pow
##rin
##amm
##oh
dick
##va
sniff
british
imagination
sergeant
cd
amongst
##ula
succeed
kyle
##oll
pant
##li
regarding
##fall
nucle
marsh
##arsh
searched
checking
washed
painful
noted
quant
suspic
sheep
butter
economic
throne
global
demons
seth
salvation
jealous
begun
groaned
cher
brings
tay
handsome
recomm
destruction
liz
resting
exchange
holds
buzz
dna
workers
nathan
trained
##certain
##place
##uine
decor
supply
lam
kissing
mystery
##adem
stern
established
unexp
seated
escaped
ath
bor
##ok
football
tang
riding
porch
jews
august
experiences
bunch
##ayed
exhausted
abandoned
ib
rust
magaz
tie
span
##ran
##aud
inte
dining
likes
india
victim
hopefully
servants
switch
cale
famous
aaron
##cher
incident
twist
alarm
##ops
budd
waters
ank
permission
unexpected
startled
prec
seeking
resem
stumbled
##mn
##ida
##sey
##acles
mask
gradu
##orter
##uten
##sion
jean
##abor
rode
swir
trem
##ox
franc
armed
driven
sins
murd
limit
genuine
argument
##ban
##ounts
admir
conflict
constit
citizens
gospel
emerged
produced
shooting
published
guests
susan
beam
packed
rome
production
barn
embrace
coach
medicine
establish
failure
spending
##lement
growled
louis
##annah
disgust
observ
bullet
dumb
##asha
exposed
hover
bowed
sentence
suspect
clearing
polite
produce
pist
nap
mail
##che
##bby
lightly
accur
academ
menu
intellect
##ront
rein
generally
##ulted
earn
breasts
tex
ky
enthusi
mole
ka
confirmed
##rict
##ulations
multiple
drinks
currently
basis
##resp
sean
##lar
introduced
lieuten
dang
purchase
management
##ст
symp
desperately
virgin
champ
sacrifice
pitch
##aker
falls
enorm
rescue
gazed
chew
fence
##uf
quarter
##arch
dwell
vessel
tab
obey
##ige
operation
36
##mad
##utes
runs
invisible
bio
nan
blaz
peered
unusual
cared
arth
fasc
swept
corrupt
conclusion
##inity
sadd
moral
jobs
ine
average
##iy
frustration
integr
directions
kinds
advanced
tap
communication
cards
april
exercise
raising
pilot
##iable
washington
grabbing
decisions
dor
manager
##ums
union
located
individuals
veget
##idents
lisa
goodbye
lev
##osis
bun
maria
garage
route
resistance
34
protest
##11
convince
literally
shade
reven
moses
##erous
expensive
harsh
victory
lyn
killer
##rom
incl
obtain
struggling
adjust
il
hind
lined
##ih
merc
democr
rig
contained
##ppy
sooner
dug
emergency
loyal
diam
fi
anne
signal
eu
##idding
##thy
volume
bomb
trapped
##oul
od
##eling
online
minor
##raw
appropriate
##elia
branches
consist
shortly
policy
methods
yards
##lock
##rection
mixed
mand
dealing
stepping
properly
conclud
hint
realm
cutting
tension
dial
##osure
generation
studying
unh
holiday
sept
lightning
honestly
##rating
guest
##kind
austral
email
apply
minim
assemb
bart
favour
crash
equal
seb
naturally
grasp
kevin
vul
hills
barb
via
##bor
entry
##pless
explod
##sters
foolish
glowing
backwards
flor
gathering
rhy
calif
awa
reports
punishment
photo
presented
ugly
beating
perman
importance
affect
believers
england
june
laur
sel
lungs
##craft
tender
airport
##za
##rol
caut
crown
secrets
precise
singing
homes
tank
goo
##erted
rapidly
bastard
administ
2013
arrival
intr
fabric
identity
collection
shopping
additional
##ante
idiot
julia
downstairs
##umn
footst
tucked
withd
dropping
##ola
awful
ensure
sofa
gates
rit
##50
californ
facts
describe
hitting
jar
primary
lieutenant
##ications
expand
shed
painted
pulls
delivered
instructions
engage
spar
compreh
##uits
motor
sid
##aph
##usive
southern
kay
curse
seed
cigarette
entering
concrete
chocol
spare
teachers
bind
ripped
greeted
minister
mile
snat
sharing
dod
stall
absor
##gl
ignoring
shaped
holly
elements
alley
##load
biggest
amanda
trial
chill
##ucing
ordinary
##cca
##irts
fel
##wich
defin
anth
ga
stops
curled
pup
mama
##ulty
upright
sip
personally
uncertain
cracked
tristan
sliding
active
stunned
slave
manip
##nat
2012
placing
bored
disappointed
spine
heels
sensed
##bon
remark
##alt
magical
files
charged
lily
curios
maggie
deserve
##ifying
declared
closet
expert
##aine
monday
cities
scattered
filling
foundation
distinct
flame
performance
bend
##acity
classes
dull
supplies
superior
cousin
combination
colonel
webs
mexic
morgan
california
photograph
cole
catching
compar
embarrassed
urg
attempted
vampires
##ini
perce
##bles
illum
seats
guid
initial
mos
crap
millions
cruel
gripped
urge
sheriff
armor
tools
claimed
popped
spear
##lla
jenn
##20
fairy
lands
##olve
gem
neat
##brow
drank
emphas
instr
evalu
kings
tale
completed
ego
highest
cub
##words
brave
drown
##vest
francis
##mosphere
perspective
hunting
tracks
prompt
director
clenched
empire
horizon
mumbled
sought
tiss
##itors
##atherine
raced
performed
basket
whist
fairly
tub
motioned
sup
lur
assess
existed
prod
chicken
arab
jail
pear
encourage
sheet
records
friendship
organization
film
rifle
fuel
beard
eyebrow
curiosity
##pa
shore
##areness
drifted
scow
nervously
atmosphere
##enced
##unte
pregnant
childhood
os
hmm
##och
coinc
glancing
abruptly
causes
##outs
alan
suspected
ending
branch
##sect
senior
enormous
footsteps
scanned
sunlight
directed
lust
fears
gene
commer
figures
praise
desires
impat
##char
symbol
frightened
endless
##otted
intens
tapped
##erable
zach
murmured
gifts
hid
compassion
echoed
sits
contempl
sensation
nich
##kins
narrowed
impression
sant
hunt
volunte
practically
##rous
##asty
previously
ruth
arrow
impressed
passenger
38
jill
tommy
##ugg
liam
awareness
distrib
trap
##umber
kal
committed
slowed
majority
collapsed
dur
forb
identify
##lan
chaos
##ros
raven
questioned
inspect
severe
electron
agents
oblig
messenger
vit
##gue
routine
abra
##cular
##osition
estate
pig
internal
##otes
fet
nove
immort
snar
immediate
feared
philosop
rebe
flower
mall
##pass
motiv
pressing
eaten
rubbing
flipped
smelled
muse
laura
speaks
reflection
##ndered
##mitted
manifest
dism
threatened
finds
pod
options
cops
copyright
guessed
##stone
pete
shuff
suffered
territ
lance
##attering
##agers
sally
gotta
whir
numerous
disciples
##oning
37
##do
##put
glare
gesture
incom
floating
calcul
##pled
bin
cute
remar
visited
investigation
construct
sway
remote
remembering
essential
adventure
si
boxes
##while
prime
argue
prol
puts
##osing
chocolate
alph
sugar
jerked
parent
tyler
eleven
##ggy
##entially
jeremy
detect
colors
louder
patience
vanished
thorough
sales
boun
border
bars
essence
nurs
##ties
consequences
slide
insist
fake
##greg
ridiculous
resur
##ae
pillow
fleet
##isher
reck
amber
proved
psal
dram
##isc
fists
trusted
pir
##vant
nuclear
shakes
nest
stol
relationships
##hole
lun
noble
##hi
gran
brilliant
deny
slapped
roger
inev
worlds
isol
warn
realizing
##iture
determine
##oot
reference
purse
sail
heb
##erie
regardless
kil
mighty
identified
cursed
mig
##iate
shouting
shy
##itter
tray
##unched
conver
folks
russian
critical
pee
violent
disbelief
revolution
apost
##amped
##irm
lonely
tore
sank
gul
assass
##alem
july
raw
movements
traditional
##ago
##inks
deliber
##ika
fier
painting
marked
characters
towel
writer
joshua
coven
stead
pd
highway
dere
player
flowing
ting
##ias
widened
tas
intim
poet
personality
anxious
terrified
advance
lifting
crou
arthur
occasionally
sandwich
scripture
##uled
zomb
clay
apple
vic
cleaning
abilities
##aa
##icted
##gun
centuries
salt
##roph
damned
##ulating
froze
parties
grief
schol
sounding
nods
combat
trace
document
swing
messages
viv
boot
corn
divor
physically
warriors
uses
jamie
recon
diet
companion
values
toile
helpless
kelly
jackson
indian
myth
conference
puff
annie
vel
lucas
sets
latest
##mond
abraham
companies
network
waving
lawyer
lege
lifet
proced
quarters
##ville
continuing
knocking
suic
separated
pistol
##elling
prepar
##asper
##ал
sale
outer
jonathan
dried
##andra
goddess
194
vague
overcome
destiny
arranged
##uge
phen
fox
follows
trembling
ratt
fu
steal
income
soil
rarely
survived
exception
prayed
wounds
load
opens
assign
muscle
bike
hook
hissed
##ba
carpet
gur
incredible
valu
string
##force
leon
index
quit
stretch
casual
##enses
bern
wounded
scientists
serving
overl
karen
eh
cord
##ii
forcing
september
revealing
majest
logic
edward
##usions
smashwords
confirm
halfway
60
damp
reception
grade
injured
conte
applied
nearest
tool
patted
repair
believing
##mark
##nic
diamond
mason
marks
spinning
##illa
sucked
trunk
africa
blocks
eggs
##alled
##umping
wherever
jessica
##rees
publ
preparing
weakness
anc
companions
##acon
lover
rebecca
bobby
##omy
wre
gestured
owned
controlled
sports
sensitive
signed
useless
customers
jewish
bapt
patrick
captured
midnight
discussed
han
snake
gw
anxiety
helps
##walk
infinite
commanded
collar
distracted
bothered
mes
acknowled
toler
loaded
##isms
marie
newspaper
neighborhood
##fire
muslim
##ober
##azz
tries
ing
testament
safely
##hammad
##unate
##mes
##10
trev
blake
accent
photos
jerus
seemingly
margar
pounding
annoyed
ritual
wizard
indicated
##rily
giggled
gorge
beats
goodness
driveway
##ala
october
holes
##onation
andre
ras
peaceful
rip
jerusalem
equally
products
clue
bleeding
au
cheap
spat
loun
tact
movies
candid
alert
writ
beloved
federal
##cere
##ela
austin
rhyth
flag
nodding
kit
hopes
edition
illeg
cooking
choices
shining
fishing
stor
##uish
conqu
memor
edd
parad
punch
cad
panel
defeat
creator
december
##ordan
##iour
shelter
screams
troops
kisses
strategy
squad
sorrow
##nis
lied
kir
repeat
repub
mah
##ibl
##onent
selfish
42
##rison
sadness
outl
vig
apparent
selling
##ria
closest
traveling
attractive
lion
blessing
stolen
independent
connor
noah
happily
unbel
##inkled
phr
sneak
haz
##isy
americans
wandered
bold
context
heavens
samples
granted
collected
grandma
nu
sacred
criminal
fog
paris
##amin
objects
encounter
pockets
georg
prosp
stephen
##ilst
creative
lux
##engers
ages
guar
owners
lessons
fancy
lane
worthy
yah
verses
erupt
jones
crossing
aston
mysterious
maid
balls
protected
covers
scramb
compound
kne
engaged
39
collective
2014
republic
sadly
sanct
weigh
taylor
##arn
drops
gn
haired
reaches
eternity
beliefs
prost
##rial
creep
sheets
##ooked
##ulting
landsc
melan
fierce
dwar
luci
##mare
##ensed
spray
industry
persons
vincent
january
calmly
debt
##rors
##istics
blo
prayers
##oting
examined
fantasy
pastor
faithful
tatt
doctors
cel
sang
furniture
anton
instance
knelt
krist
##ending
pity
muslims
ct
bust
greed
absence
##mic
threatening
wagon
palms
samuel
rent
##iger
##isha
recip
strip
november
cage
ministry
acknowledge
##ifically
insane
shots
interact
zero
adding
##iments
mankind
exists
gradually
sexy
##но
backp
vulner
destination
##ffin
##down
##essa
contrast
ought
climbing
##bre
44
norther
##die
strateg
nasty
sized
mobile
##point
whilst
subtle
decent
nightmare
upd
commission
humor
basement
bom
chances
refuse
reflected
protein
overhead
mont
hut
swords
thread
mitch
diana
##zer
julie
flee
benefits
pulse
gym
mount
experiment
valid
pac
jet
belonged
corin
##the
magazine
skirt
fled
discipl
cake
nerves
surg
construction
praying
subjects
ira
##ар
katie
obst
##anor
elbow
attacks
players
##iev
mentally
todd
##gression
rushing
aimed
tightened
affection
cate
racing
answering
predict
temperature
despair
jumping
##encies
##ogue
negot
assistant
twin
ic
clan
wire
##rence
fortune
hip
##rah
sincere
crawled
2011
overall
hunger
robe
traveled
toes
spite
partners
claims
puzzled
testing
enh
zone
jesse
explosion
##cers
intelligent
valuable
aven
lifetime
underground
assault
eag
hence
revenge
increasing
dyn
##oop
mia
##imm
retire
hebrew
county
cheese
troll
mortal
description
##0s
variety
tape
practical
cind
possessed
boring
scra
laughs
straw
##ares
leapt
conven
toilet
topic
crept
alternative
##iolet
dimension
secretary
maxim
france
client
funeral
##aning
interf
unsure
involve
handful
recru
politics
##olas
horrif
##inent
sandy
dies
gap
##ooped
##utation
exhaust
alongside
snorted
atl
ancest
circles
suck
mouse
darwin
session
insect
lately
unre
website
##of
43
steam
patch
channel
therapy
instructed
gav
complicated
campa
steven
chemical
flut
smoking
gown
interpretation
acted
##ylan
extent
grat
principle
capacity
oak
decre
aged
typical
decades
sorts
ker
lod
cassie
##inating
northern
expressed
pissed
formal
schedule
##othy
arrog
burden
basically
aiden
reader
visual
uk
ultimate
ebook
hath
##isation
bald
concerning
danced
slaves
backs
lon
cloak
chic
##cel
##ashes
brid
tin
larry
reduced
nud
blocked
dat
hatred
insight
trigger
tattoo
goods
feb
##boy
genetic
interests
##eze
##cs
##ooks
models
neverth
attempts
lil
satisfaction
treasure
kin
nevertheless
miracle
scrap
behold
isaac
dil
persu
##rent
exploded
ideal
vehicles
clinical
eastern
##eman
swimming
eddie
ti
corners
##icial
molly
buying
occupied
waking
hem
aspects
songs
##natural
lapt
recommend
eyel
prophets
district
##rod
outf
requires
pounds
stu
tilted
obsc
stable
wishes
##xed
billion
mild
##inate
prem
##ours
lect
twins
sie
##nam
ny
justin
ais
preferred
schem
squir
multi
fest
##vet
obser
receiving
cleaned
eighteen
rac
silk
buff
##itated
assigned
plot
rational
mit
##aneously
48
##ni
consp
mins
affected
##acious
forgiveness
arrest
brut
wanna
##berg
intonation
assistance
##78
deadly
##eem
mane
outs
fifth
upwards
combined
##umph
nons
yelling
attempting
newly
clever
straightened
nam
princip
abuse
##ko
##53
pros
backpack
suspicious
##ов
tense
##ician
committ
mistakes
logan
rude
tribe
angle
princi
situations
##itty
gained
gay
eb
goals
exciting
##lying
attrib
len
afterwards
envelope
dian
visiting
agric
catholic
bits
##armed
sophie
phase
##apes
angela
grinning
hannah
jung
surroundings
shudd
schools
agency
philosophy
optim
supreme
ultimately
caleb
righteousness
forming
meanwhile
laying
##ji
41
underw
##icia
victims
adults
gentleman
thirst
kidding
dragons
##itar
portal
iran
survey
##bling
dollar
penet
condem
pizz
lamp
frustrated
helmet
lobby
root
followers
recalled
grounds
oliver
violet
##lights
campaign
##wol
refuge
gravity
pam
developing
murdered
surrender
guided
dagger
diagn
approval
reserved
strode
halt
ours
complain
##chant
limbs
trash
clas
principles
torture
##celer
feast
##lers
employees
gorgeous
immun
roads
shattered
inhab
tests
license
muhammad
ts
##rim
introduction
contrary
andy
fond
sore
##istered
romantic
remo
##ano
trump
dylan
##inations
romans
insurance
portion
disappointment
excl
suicide
oliv
winning
reasonable
economy
relatively
accompanied
emper
reluctantly
rings
##ario
backward
fury
plates
sebast
obed
mars
som
aloud
delicate
pron
crowded
##agan
##har
scot
storage
overwhelming
toy
46
descended
##bits
interior
wrap
47
effic
keen
enlight
##bal
acceler
gasp
##don
specifically
wars
dict
##enz
2015
##oming
crashed
##umble
confront
aggress
promises
switched
duke
household
##mate
deserved
patterns
##aughters
isab
repent
stagg
barry
questioning
defined
junior
snap
strict
scarlet
bish
jennifer
witnessed
laptop
elf
awak
##bell
wolves
dre
gary
roots
carriage
edges
ja
intri
native
territory
bliss
##tor
##osal
ava
steep
earned
##aky
##ubble
jerry
2010
##mates
michelle
artist
derek
melissa
operations
jab
jordan
readers
##ogen
farther
exhib
hired
awes
digging
##icit
##icians
leadership
baseball
##12
https
##ota
sixteen
prisoner
competition
escort
sixty
application
limits
rejo
genes
##rowed
dub
jol
blowing
stuffed
jewel
harmony
allows
teams
##cience
ladder
telephone
##oen
returns
dean
##idently
kicking
agricult
thighs
immune
claws
comments
rav
commercial
solar
alf
##ол
machines
margaret
costs
##mony
guardian
glimpse
bride
##cript
commented
##town
drum
whispers
alb
buddy
sideways
european
sevent
spider
amazed
ware
rene
discovery
cries
victoria
hank
whim
monitor
epis
##opes
elimin
helic
reprodu
delicious
referred
##iar
greatly
##oured
va
ruin
lawn
winked
##lle
kur
alpha
institute
stole
joint
##rical
##onic
leaf
latter
galax
mayor
explore
unfold
swiftly
punched
capture
shiny
reputation
selected
counsel
awe
nate
owe
triumph
mini
##ат
chim
slipping
flin
extract
priests
cann
awesome
##uls
believes
tissue
paw
universal
sufficient
torment
sum
definition
subs
barrier
witnesses
##iner
bolt
guidance
##tm
bund
positions
chuckle
casually
daughters
##pent
psalm
muff
sebastian
heather
thanked
simpl
vote
differences
permanent
bottles
renew
conserv
##ер
roared
factor
error
ric
breaths
bore
booth
saint
profile
wishing
planted
vital
meetings
largest
linda
duties
drake
dragging
sequence
concentration
kidna
categ
##ito
roy
difficulty
noticing
dude
flaw
accomplish
stubb
batter
announce
landscape
##iration
cafe
##rik
drawer
spit
darling
##jected
scree
##iece
perpet
profit
explains
juice
concerns
overt
providing
phenom
##ador
materials
smirked
angrily
##itate
provides
hammer
tested
tube
helicop
protective
trevor
fortunately
critic
##ras
impressive
emperor
ticket
midst
paradise
##iser
joey
corps
canada
ster
##van
outcome
dana
feeding
sidewalk
stained
print
fee
##umes
chlo
surge
ال
##ester
amused
invent
talent
abby
duck
evident
occasional
caring
##hand
leo
unse
yanked
deeds
bye
sustain
navy
dating
legend
extern
behaviour
surprisingly
temporary
riley
grunted
observe
tugged
##ui
##oard
stem
recorded
execut
avoiding
winds
hatch
aura
yourselves
incor
aspect
covenant
yield
##igning
alexander
spreading
illegal
babies
generations
crisis
49
nonsense
stack
ceremony
roar
scary
upward
saman
flashing
fulfill
slim
supported
nh
oxy
facility
neut
hollow
bubb
purposes
apologize
incredibly
illusion
aliens
offers
investment
rag
concentrate
adjusted
ul
candle
aye
aqu
fires
package
wy
texas
##ــ
gavin
customer
cottage
##nders
##rations
##uddled
ginger
joan
poll
banks
examine
##ighty
implement
facebook
##ounded
shorts
febru
bearing
sources
werewol
prisoners
exchanged
firing
healed
obliv
chloe
joining
lace
digital
gord
squeeze
significantly
eased
##retched
sleeve
shouts
kindness
##izations
ramp
##keep
freely
smirk
february
pizza
dishes
historical
ignorance
division
stubborn
consumed
johnson
draft
era
veins
surve
##agues
frequently
attor
70
association
tack
advert
mister
ribs
avoided
neur
germany
dock
illust
slumped
launch
almighty
##fr
nails
software
abund
anticipation
cultural
##unting
##tenance
iraq
aboard
prey
stroked
##mod
##sa
##amental
glances
##ın
tooth
wrest
degrees
sharply
australia
carter
pouring
##iders
determination
eg
proceeded
affairs
breaks
meditation
yawn
phoen
confess
mug
begged
pic
demands
visitors
##ailed
void
protecting
yog
hits
fourteen
swinging
respective
striking
concluded
helpful
formation
illness
stares
conversations
amuse
realization
standards
intellectual
miserable
bullets
plas
horn
intend
##bes
revol
excess
natal
simult
lounge
##cia
193
potato
##beat
agony
lid
flicked
##19
olivia
##ribly
genesis
coord
ripp
counted
mainly
carved
ital
restr
disaster
committee
talks
delivery
addressed
sheer
julian
neighbors
cautiously
replies
##asingly
##nn
russia
syl
shelf
neckl
brows
reh
candy
bushes
poly
stim
ruined
exhaled
encouraged
gabe
jin
sym
samantha
intensity
navig
accounts
devast
lets
##asant
ashamed
african
explaining
linked
furious
alter
seal
penny
solve
mice
lind
throb
controls
authorities
electronic
rack
gig
subc
rank
##alf
electricity
pp
cler
mour
opportunities
toast
charges
defensive
score
disag
classroom
intently
sf
depths
huff
##bu
monsters
aj
blessings
tues
crushed
computers
stew
dreaming
taller
sticking
governor
moaned
##13
cats
documents
raz
logical
staircase
wasted
glorious
sealed
rocky
ador
80
intentions
mechanism
##apse
cavern
zo
trailed
gentlemen
tuesday
yep
pent
sometime
52
swallow
vulnerable
introduce
factors
unaw
magnific
suits
beaten
pipe
500
originally
##iques
##onents
casey
japanese
communicate
privile
privacy
##uma
displayed
wipe
rows
strangers
flowed
clicked
##rr
beasts
damaged
soaked
##berry
99
thirteen
naz
stella
anch
curt
hurting
##atively
deaf
shifting
chains
rhythm
hyd
lex
congreg
goss
arc
diane
depression
pine
tel
projects
##shit
barrel
cameras
garb
phoenix
semi
aircraft
dorm
acid
injury
scare
##very
differently
examples
parted
fundamental
charity
hesitation
spanish
floated
blog
doctr
views
##sole
churches
wander
realise
medium
dared
alto
oxygen
cav
lew
tumors
##icity
##igen
conscience
chip
estim
shaft
chasing
depends
##grat
90
tales
flung
spy
quiver
crim
automatically
shone
frequency
tara
elders
precisely
countless
yer
replace
dynam
##ит
##zzy
burnt
snatched
delay
recovered
divorce
regarded
##like
soup
cameron
blown
external
strongly
adrian
frost
htm
dele
climate
##arded
##xture
practices
poetry
unst
mim
purchased
ringing
##kers
##gers
objective
util
shivered
marched
##antically
arriving
clam
bron
courty
mack
##ел
doz
pretending
##etta
immortal
taxi
##lon
wrath
vacation
##sell
##asses
##hin
continu
depos
##urd
shuddered
brandon
awoke
whereas
utterly
lighting
irre
gloves
tid
subsequ
cyn
wandering
55
eleg
transition
affair
plays
dealt
bounced
scrambled
gil
possession
scor
prosper
##aya
existing
toby
##ulously
elb
marc
2016
##dia
whipped
crad
elsewhere
wiping
thurs
##esa
exited
sung
spots
nancy
abandon
tasted
chicago
roughly
mounted
strangely
kel
stool
cargo
colin
thankfully
nerve
wilson
clients
matching
arrested
anthony
resurrection
mant
##sen
##ettes
stirred
##14
sham
statue
achieved
torch
laz
thursday
programs
appointment
deaths
handing
includes
##vy
##stein
##ex
fbi
dign
voc
folk
domain
bark
##ет
licked
mexico
moist
##udes
scout
##ounted
notion
albert
supper
scratched
knuck
recognition
passes
##angel
##cha
thoroughly
cotton
##cling
dusty
wrists
somed
drained
dash
referring
surgery
##otte
sector
selection
mistress
##rose
rud
ade
thankful
corpse
reform
##rum
ko
conj
invitation
##olo
##otyp
bew
saddle
courtyard
cabinet
someday
finishing
principal
lump
ducked
##edge
necessarily
devices
amid
##azed
mode
invite
challenges
dripping
##add
teased
argued
##ava
grasped
gau
ranch
nipp
##icy
celest
##cony
cul
fathers
##ensions
evan
elderly
crush
meters
manuf
freak
attracted
nicole
desired
unlikely
fever
bucket
eva
enthusiasm
meg
eph
rounded
shallow
doubted
##tery
corinth
##uction
overwhelmed
comparison
manufact
roo
##wa
##veled
##lands
catherine
##eland
##ds
appearing
inevitable
megan
bunk
retrieved
balcony
possibilities
phrase
scholars
poem
vari
195
momentarily
scratch
immense
perception
sample
disgu
blades
darted
extraord
##inter
bullshit
substance
launched
smells
##iating
limp
depending
administration
stroke
toe
##eart
investigate
arrows
slightest
sue
layer
cups
ruby
willow
ankle
ald
##ipher
brightly
biological
##yard
appeal
scrub
curtains
islamic
robin
mp
intimid
download
stake
brains
dressing
whispering
##bar
sarc
papa
admiral
nad
perfection
inspired
rebu
wheels
##esy
miller
speaker
##ati
humble
nah
sophia
prize
eagle
assure
hans
fork
parker
crashing
jared
intu
necklace
league
##ography
##shine
bills
##respond
comprom
grandpa
elabor
plung
patrol
museum
flushed
guitar
pearl
53
##vas
grind
rus
marble
##box
blend
correspond
tips
пр
remarked
vice
dozens
waitress
wealthy
##encing
guarant
##omon
clutched
christop
florida
relevant
bishop
romance
cuts
surviv
accurate
dal
ghosts
##iat
worker
stretching
lamb
humili
injuries
##ainted
##isk
moreover
viet
disting
divided
approx
vain
jos
pleaded
##pit
targets
convention
##inge
proven
allahu
sunny
fucked
assuming
unne
quran
2009
attended
unaware
##то
melted
jungle
dump
altar
darkened
ellen
##ologist
dependent
shep
choked
clust
indicate
smashed
ot
violently
##ima
heavenly
robot
##iya
luckily
charm
##going
moonlight
requested
jerk
embarrassment
54
tina
suz
patiently
generous
##bra
misery
mcc
crouched
##away
masters
##iency
hyper
para
accommod
suspicion
caress
cush
tag
inherit
nas
atop
blocking
##pson
processes
frantically
philip
foul
pou
destro
alle
vest
##ugs
retired
primitive
pole
hopeless
resolve
trous
constitution
tune
accomplished
fingert
defeated
units
joking
##works
artific
choosing
amusement
majesty
counting
archit
deput
##oi
##tion
charlotte
ninet
accus
profound
grabs
##wing
twisting
reduce
##16
##verty
suitable
по
appreh
congress
eli
increasingly
deer
wilder
gy
asshole
cure
commands
denied
sympath
##ilda
##world
##iac
spaces
##unks
##ifully
##iva
poverty
ein
repeatedly
maneu
##nesday
virus
noises
attorney
orch
suggestion
insult
##ountain
assignment
wednesday
jade
heir
transformed
paths
shrug
ascend
whit
odds
chant
janet
matched
tro
gill
appointed
register
sunshine
swore
recording
mun
##standing
entertainment
accepting
mik
factory
blushed
warehouse
pond
terry
dwarf
hears
##angs
bruce
explo
blankets
proport
downwards
makeup
organized
pave
congrat
gazing
cert
tat
passengers
davis
unnecess
theat
shrie
effectively
wildly
operating
##rich
##aline
adopted
mol
containing
cindy
dy
publishing
outfit
marine
boston
helicopter
hurts
buttons
rolls
honour
forear
thorn
##ecy
##stream
gor
dimin
unhapp
discer
scientist
##immed
fountain
tuck
distress
prest
visions
##17
acceptance
campus
recept
episode
erin
mattress
civilization
creek
blink
##itching
seam
kilomet
yo
winced
wreck
lighter
noon
consult
functions
swam
contains
academy
stored
christianity
metast
gardens
complained
initially
##oman
clutching
dreamed
minded
mixture
wives
commitment
rice
##asions
mathem
removing
lana
theo
##ando
##ista
##tail
surat
##ocks
tasks
dismissed
irish
bould
wield
shimm
sipped
suite
wend
##ijah
boats
prophecy
simultaneously
junk
##ин
wrapping
rejected
prick
payment
altogether
properties
rounds
##asis
belongs
adren
infant
editor
geo
gossip
##uts
encountered
welcom
reporter
demonstrated
nope
craig
substant
flour
worries
structures
crimes
lifest
##25
sphere
troubled
disord
phill
keith
heated
ton
articles
meals
maintained
##onym
nostr
technical
neph
monit
prote
fisher
induced
reign
##ghan
##rep
##omic
##hou
needing
galaxy
fitting
seventeen
gust
modest
tighter
tearing
walt
genius
ambul
vom
tinted
butterf
celebrate
pend
beds
##aver
vs
harvest
shine
italian
owen
fade
succ
fid
importantly
industrial
shoe
subconscious
magnificent
dipl
##99
detailed
twitter
##chief
floors
gordon
##py
annoying
neglect
testim
##arts
acquired
wigg
fem
observation
martha
crawl
caution
planets
suppress
worrying
contrad
marty
stores
fluid
om
rebell
betrayed
ching
environmental
isaiah
56
drain
intimate
##anging
fantastic
collapse
asia
leap
brace
wallet
drama
hopped
##eration
philosoph
##aka
thief
ellie
madness
shops
indicating
seventy
biz
orph
adapt
pel
gram
mage
debate
unlocked
nuts
mothers
greeting
studio
begging
weary
tut
towns
parall
pounded
##iors
##shot
pathway
##го
stealing
kor
##bris
doubts
benj
discipline
punish
##after
discussing
2008
rays
arts
comforting
icy
kath
tipped
feather
pus
solemn
clung
psychic
##vere
arguing
wink
##لا
neil
console
ist
relatives
persist
cattle
kore
flex
##rene
ink
partially
95
spoon
instinctively
ai
ned
sites
recovery
creates
wag
terr
melody
disturbing
fiery
shotgun
sack
engines
authors
measured
interaction
secured
behalf
sty
darker
deliberately
headache
shorter
syd
nag
disturbed
acceptable
cocked
##aves
carn
strained
amelia
##18
personnel
iii
corporate
encl
axe
indul
neutral
eco
barked
prospect
column
doug
pump
stacy
award
nom
protested
proposed
##avor
collabor
cogn
spilled
everyday
garbage
fans
pursuit
muffled
downtown
ming
growl
correctly
##да
twe
circled
invasion
budget
rubber
santa
accused
represented
exerc
cin
concentrated
mock
scriptures
pand
goddam
##cup
judging
##hib
walter
ala
glaring
daylight
flip
inward
scanning
attacking
bid
chi
erupted
domest
##gle
cares
femin
signaling
sympathy
disturb
entity
politely
suggesting
neatly
writers
tremend
ng
flooded
zoe
##most
ana
identical
##acter
dates
##23
consideration
debris
arched
rol
##uddle
clarity
appet
corinthians
##bbled
ashley
breth
regularly
##etheart
sticks
2017
glowed
isolated
sixth
spraw
pretended
golf
sweetheart
groan
troubles
citizen
sober
##ishly
lasted
##quar
successfully
geoff
ross
lauren
coward
translation
bh
foss
##atell
##bot
attraction
fading
snarled
fireplace
##ilipp
##era
##ril
compare
lydia
farmer
appreciated
##fulness
communications
squinted
messiah
procedure
inhabit
mattered
##iano
antib
poked
needle
##arted
demanding
dedicated
advis
mechanical
shapes
##orse
bubble
seeds
brethren
heck
##igan
solomon
bure
crum
##ucking
jur
##ogy
hart
57
##ptions
religions
christopher
occasions
departure
zombie
brushing
employee
##eria
deciding
abst
interrog
absent
usa
##etheless
nonetheless
aggressive
pitched
threats
battles
theirs
statements
##colm
##ppers
leah
vine
scroll
furthermore
boom
piercing
malcolm
pursue
literature
randy
##29
coal
kl
anderson
mouths
distraction
funds
laboratory
locker
##rons
##aneous
legit
58
attach
theme
ignorant
alliance
biting
skinny
##15
opponent
##ologies
expressions
2000
remem
##ardon
accum
aur
unm
ral
fridge
liberty
##see
wider
##27
convey
jokes
dense
slo
sniffed
coughed
##cin
maker
jenna
improved
symbols
conspir
ridge
##net
sped
##nings
miranda
measures
pony
trousers
forbidden
lewis
resort
##ifies
rabbit
institution
supporting
whimper
mutual
slap
elves
shirts
engineering
shane
eman
fingertips
html
##omp
##tical
karma
##unken
nightmar
shuffled
broo
synth
steering
artificial
inquired
powder
##aux
undert
stripped
fighter
scoff
##acement
giggle
##rd
focusing
##uting
##rud
shuttle
##tes
crimson
savage
unseen
angie
architect
grumbled
pinned
fert
##cery
stephan
pla
peak
preparation
elijah
pose
grain
bug
failing
metaph
communities
parl
soap
babe
##ender
flies
dove
paced
ark
advised
shelves
foods
polished
tob
preced
scenario
##orters
scur
на
fellows
enforce
veter
mansion
slender
coincidence
loyalty
leans
trembled
outward
alicia
partly
hire
##power
mam
welcomed
##bn
66
ponder
glist
##top
scowled
experiencing
disappearing
knights
##scri
slamming
significance
derived
teasing
05
philipp
##umin
candles
bump
attain
extraordinary
##ills
absorbed
##etically
karl
binding
curve
exceed
##no
dramatic
tempted
detected
casting
##eut
francisco
orb
mistaken
51
corruption
qualities
gly
##xx
listed
##car
##aki
##apers
pope
trailer
pills
sinking
jackie
supernatural
mutations
inspector
urged
marketing
gratitude
##iro
paran
cooked
lazy
##kh
believer
charming
transformation
staggered
##po
fried
##lets
quinn
mead
shud
swirling
curls
##road
priority
##bour
ambulance
##oped
assembly
maneuver
eagerly
twent
foster
sage
kimber
##itz
election
##iped
notebook
##apor
offices
##view
peering
##ும
ivan
cod
techniques
inex
##ivers
##keeper
departed
bak
rect
oldest
##ndry
insects
alike
advoc
heel
pathetic
lifestyle
travelling
sickness
coins
##lee
expectations
deserted
sensing
##elf
soothing
favourite
benjamin
fruits
businesses
blurted
embraced
teachings
##roid
timing
explor
feng
muscular
williams
meantime
secretly
##bc
presum
vegetables
confron
mull
bureau
##imeter
dol
##chair
##soever
governments
employment
panc
lever
pi
shred
grimaced
refr
psychological
abu
perceived
75
unfortunate
registered
ancestors
annoyance
trent
chad
intrud
wonders
screwed
miracles
spur
dumped
germ
chips
##inged
knot
hack
expans
feature
becky
shudder
##heard
heartbeat
bert
hawk
bout
guarantee
flashlight
nikki
turkey
nostrils
##47
chal
kara
##asting
draped
performing
celebration
natalie
##esc
officially
therapeut
divers
delighted
settling
retrieve
##quarters
translated
instrument
##aze
squat
ranks
kend
flaming
ally
obtained
hooked
##raged
shack
endure
watches
retirement
elbows
scold
##inson
slope
immig
dus
scrib
approved
jacqu
maintenance
unple
clerk
hull
teenager
acknowledged
stove
theories
decorated
##ра
jace
##abilities
deme
autumn
##ourse
ache
opinions
suggests
races
##ил
ford
##izzy
regul
##stick
##quis
wrinkled
gross
aisle
##ea
skept
irritated
##lad
##vo
finn
hugging
##uffs
approaches
marines
adds
hypoth
2007
zeal
##isl
gam
phenomen
terribly
clinic
urgent
sucking
dru
avenue
continually
oath
connections
caroline
##hal
comprehend
barr
##asmine
shepher
##ны
uneasy
cri
troy
abd
gravel
hyster
unity
overs
wilderness
releasing
stif
promising
spells
officials
virtue
##arse
radiation
##born
chel
nause
sydney
gib
##ollen
robes
##arre
cruc
colleagues
300
reassuring
lincol
arguments
mush
assessment
drives
marshall
sympt
suited
worldly
resulted
freezing
ecst
##atch
tran
executive
walker
contest
rivers
ached
broadcast
carrie
islands
traged
drunken
uncont
blows
concepts
arrangements
anytime
tossing
referen
awh
kam
locks
thud
practiced
democracy
sorcer
##anne
myr
dashed
lincoln
fashioned
remarkable
alec
sket
01
sov
array
comr
betty
bothering
##life
##gas
hovering
reminds
tapping
decade
caf
visitor
bibl
deputy
##weh
tricks
compart
printed
represents
melt
proudly
gree
maya
##ho
farmers
diplom
swollen
cant
##quate
suppl
zeus
conclusions
osc
shin
blinking
##abled
marco
curved
controlling
respected
##lene
blush
oblivious
physics
discon
opposed
convincing
vivid
electrical
##jud
encouraging
laser
minimum
lovers
59
##kk
howard
marvel
timothy
##omi
2006
unle
gwen
##burg
residents
sain
composed
exasper
liv
reminder
rober
##uffed
clasped
allen
extensive
trips
tribes
taxes
##aches
grows
##otherap
openly
##rus
##rett
##burn
slice
##bridge
lantern
headquarters
unnecessary
sunset
strand
circular
von
whatsoever
tire
resulting
nightmares
##unts
exagger
instruction
slipp
murderer
##cules
chambers
evelyn
correl
considerable
stark
trigg
grac
soviet
erect
satell
prosec
##len
disrupt
chased
stance
succeeded
destroying
knuckles
inviting
homeless
bewild
habits
seventh
sasha
proposal
senator
equival
pencil
resumed
##pes
yahweh
##esth
jerem
##67
panicked
framed
societ
##adel
fulfilled
likewise
pecul
bou
skip
musical
heroes
pavement
widely
##wr
discl
inspiration
bos
resent
container
females
kindly
peculiar
avery
peoples
longing
reverse
paperwork
mend
characteristics
milo
neighbour
earnest
crawling
reserv
awhile
emotionally
##ustomed
shui
ragged
##quet
##verse
fortress
brass
earthly
excitedly
absurd
testimony
kinda
eighty
overnight
layers
jinks
##oly
curiously
##rem
##33
##itute
fla
signals
drifting
##wan
##ibilities
seized
##atics
##ooled
scars
reads
annual
##chem
orbit
issued
safer
whip
cem
narc
compens
##ller
largely
##aved
err
shove
politicians
torso
employed
##acion
trucks
md
discomfort
##fol
jeep
instincts
vaguely
##iry
jasper
##ailing
##nels
ther
##avan
##guard
prices
##angle
unpleasant
rely
arena
donald
##ington
omn
##ipper
stabbed
dall
jeremiah
prover
##24
savior
administr
##uman
copies
haunted
congregation
##erior
ups
rider
clip
##ao
dominic
gripping
demonstrate
##edy
innov
ninety
reluctant
##rogen
addict
##gic
##bag
tremendous
eden
approximately
tide
highlight
males
##aying
##lessness
ceased
rug
graham
organizations
tracking
jumps
essentially
sprang
aching
##vent
luxury
eyelids
hollywood
feathers
penn
holog
oly
donna
##rest
liver
parallel
flickered
saul
imprison
##ti
##avier
65
forgetting
##udge
scenes
##ux
desperation
jessie
venge
moss
alleg
tiger
remn
rumors
melanie
##zi
##worth
bum
terminal
ip
##uttered
##acking
initi
##eared
rigid
hovered
moan
vicious
fighters
behave
bizarre
quantum
chand
##chen
witches
filthy
kai
ankles
exhaustion
handled
param
inhaled
##una
lifeless
upside
##ught
sul
innocence
install
painfully
amounts
diso
piled
wasting
##rels
##zzie
shades
pall
devotion
##roc
georgia
doctrine
technique
attending
virginia
underwear
##encer
elegant
downward
input
reasoning
worsh
sensit
unhappy
toys
##hire
corrected
##licted
##annon
cosmic
operate
angeles
worm
viewed
unbeliev
becca
socks
squeezing
scheme
##80
relation
phones
hier
##lex
entit
sanctuary
kent
similarly
rats
engineer
terrifying
surveill
relent
languages
candidate
ov
molecular
pussy
gamb
findings
brun
emphasis
rates
automatic
beamed
hunters
##ulsion
haul
##oes
paintings
temptation
engagement
carr
debbie
raf
##iences
requirements
misunder
##bly
serpent
tops
pharm
barbara
twir
ruled
retreated
diseases
strain
ella
separation
sparkling
shawn
surveillance
usher
##itan
mature
resident
writes
strolled
bulk
transferred
visits
beef
carmen
intact
amen
passionate
arrangement
bouncing
nicholas
virtual
##atures
##athed
presents
communic
waiter
sweep
##ssa
rocked
metall
connie
reun
##uished
observing
idol
railing
chron
elite
domestic
suv
plasma
smug
barg
##rants
не
heap
pacing
##ali
rocket
saints
##actic
crowds
urban
sly
trials
jasmine
elise
bears
ced
confession
persec
graph
assets
whiskey
pleading
sweeping
churn
labour
travis
instruments
wool
##opy
nun
steadily
##leton
claud
summoned
shaken
enlighten
adrenaline
rogue
slick
veil
##water
preach
clapped
uncon
dipped
##sm
jealousy
dh
brook
orn
whore
##tie
##xual
##orous
hesitate
chewed
rapt
frightening
##agne
rocking
amazement
tended
lecture
user
courts
reminding
genuinely
involving
motionless
virtually
lingered
constructed
##uated
##ifications
##itudes
##unction
alar
carbon
float
ish
colt
conviction
traced
opposition
infected
phy
escorted
arrogant
kenned
##riger
gasping
biblical
##reet
experiments
indiff
punct
ire
awkwardly
riv
##aste
challenged
classic
aly
blunt
##sea
tess
elaborate
##αι
jed
scheduled
##oto
positioned
oddly
rex
deem
laundry
##aving
cherry
rape
salad
dome
snapping
compliment
##lend
refriger
anticipated
cull
strings
agenda
sting
exped
denial
academic
olive
brig
sticky
homework
bella
athlet
examining
recl
ambass
dignity
snick
define
nov
flush
bloss
calmed
particles
peer
##30
warren
devoted
reporting
puzzle
peeked
spa
outline
##gie
panting
##cled
outst
diab
dischar
proportion
##ır
dale
##archy
##rition
bot
##lings
sharon
affirm
fangs
lest
typically
katherine
lingering
olymp
responses
announ
stations
engulf
prescri
ni
posted
##rav
admired
##ortion
contempt
picks
residence
uttered
packing
emerald
stunning
ez
piano
fuckin
burns
jad
illuminated
roses
##imp
##ieth
##bod
exter
mold
tant
facilities
crisp
ki
russell
bartender
uncover
refusing
hugh
frantic
impul
##west
satisfy
seeming
dum
mara
evolved
lena
consistent
##oooo
mound
tracy
efficient
##49
regain
lucifer
sobbing
guessing
buddha
arise
heed
shalt
targeted
oo
pepper
sock
sections
wendy
##yon
venture
travelled
withdrew
locate
sull
tet
processing
colony
kneeling
tires
##igo
impatient
dose
brew
propag
##rolled
apology
##ements
cane
blaze
grandpar
provin
##acent
consol
apostle
producing
##tu
smoothly
hastily
kennedy
frowning
prolifer
discern
brooke
horm
blackness
mommy
enjoyment
imperial
##child
thoughtful
fern
advers
punished
transpar
scrut
examination
teddy
daisy
cowboy
fragile
ties
assembled
##fold
ampl
publish
truths
thrilled
guarded
sends
teenage
ingred
destruct
tongues
imagining
teens
dante
erik
chor
zombies
heath
stephanie
stages
assassin
##oons
trusting
tragedy
suspended
waver
amazon
maximum
yoga
zen
iris
sall
warmed
ruler
equivalent
nay
##robe
##anth
##iots
##low
legisl
recognised
brist
##ان
whistle
leaped
ende
gina
activated
housing
altered
lick
patri
thrill
##rad
joel
emerging
tickets
intrig
raj
tunnels
##itating
unison
outdo
nicely
subur
##occup
andrea
fearful
disbelie
indign
embed
progression
dess
buddh
blouse
pierced
rebel
risks
horns
creepy
spi
##irect
metab
skies
scul
horrified
##dan
##yers
thri
accustomed
eleanor
##ami
bacon
harold
dresses
silhou
therapeutic
mandy
temples
scand
perched
eleph
challenging
sculpt
ropes
fatig
accidentally
##wide
##giving
##ам
policies
brutal
touches
welf
tumbled
##yson
clad
##gins
copper
bc
##rise
disgusting
prohib
promote
##imental
signature
exposure
sliced
##ulu
refers
##ooping
##balls
mechanisms
obedience
unfair
dot
defence
inclined
loos
escaping
isbn
werewolf
##otherapy
depressed
stef
##inction
##amiliar
forgiven
gaining
conducted
##usal
happier
nudged
plague
yel
##inkle
sofia
stability
offended
calvin
unfamiliar
gerald
bass
italy
sooth
##bted
ledge
vessels
##via
occurs
unsp
ku
cautious
hostile
elected
corporation
adul
explode
##etics
enters
huddled
prox
whoa
independence
necessity
starving
mates
canvas
organs
evangel
damien
welfare
lodge
loan
fib
warming
bik
allison
colorful
cemet
oven
dizzy
contempor
gren
lizzie
uncertainty
woo
functional
resource
knives
globe
grie
mast
expense
survivors
links
##onica
fortunate
haze
griffin
2005
##bone
potatoes
ihr
plo
##wind
nineteen
aer
emerge
sparks
perse
interven
tomb
##mann
harbor
clinging
datab
streaming
unic
twitched
screens
jewelry
hearted
##து
cape
criminals
cemetery
skipped
strapped
overly
loop
institutions
pref
renee
##22
dive
sneered
awaiting
chir
deed
establishment
sheila
coy
assay
obeyed
revers
repeating
crumpled
wren
propped
execution
dangling
bil
potentially
carlos
cleans
difficulties
winding
presentation
talents
claiming
knob
enterpr
nail
##ου
##ersed
tablet
crooked
confessed
youngest
sleepy
phara
fantas
britain
##etor
theor
resolved
arose
##spring
ji
mt
hardened
inhabitants
04
managing
reveals
thine
groom
64
brighter
healer
tortured
graduate
univ
rescued
depri
stays
joked
##ules
arist
pushes
consequence
flashes
pas
pharaoh
chewing
toxic
shan
clint
certainty
thie
devon
shields
978
permitted
manners
hazel
anonym
##akable
##vol
08
beams
regions
thoughtfully
unin
beans
shaky
subd
disin
exploring
interpre
collecting
nurses
ralph
supposedly
metallic
ruins
##vereign
sovereign
scope
rises
embarrassing
cooperation
adventures
bruises
honesty
plunged
##foot
describes
pondered
gulped
fatal
paige
perceive
raises
madison
obama
halted
forearm
##uther
gender
##uri
involvement
backing
imaginary
gus
##lie
lunged
compartment
wary
secondary
halls
identification
rusty
##cut
disappro
treating
cupped
willingly
##bul
shri
appreciation
stroking
juan
stamm
##section
sweater
preacher
careless
experts
shay
guts
villages
##elines
##inkling
camps
##ак
##pm
sah
dated
##riers
loft
distribution
glit
decides
latin
enhanced
##rist
tourists
springs
##rell
mp3
##itative
allies
facil
##iper
mm
##57
cracks
sunk
braz
representative
frequent
confusing
masses
impatiently
thresh
outstretched
##essions
##word
mused
##uch
guardians
63
2018
freeze
03
snugg
indication
liar
guild
stumbling
relate
technically
organic
##iament
reconc
pacific
stormed
shir
educated
tensed
goose
grandparents
suitcase
##rand
frog
padd
bee
promptly
ashes
fights
levi
gum
towers
apprent
cease
colours
responding
checks
offense
superst
filed
keeper
##acular
anchor
##iblings
transf
bolted
concealed
lifts
sandra
reacted
##ем
valent
##oids
symptoms
closes
##path
monitoring
chatting
morris
marking
arou
siblings
fascinating
terrorist
spill
reed
inquis
sig
motel
##astically
stray
##ilton
throws
bury
strategies
stain
##anta
cousins
brisk
cens
sleeves
cracking
excus
strikes
trud
stench
redeem
snort
quote
monkey
resembled
pilgr
canad
radical
zack
relaxing
strands
increases
clark
##reen
##hem
limb
judged
jonah
##gage
arn
champagne
blan
blasted
seas
##zes
mamm
bumped
motorcy
flinched
spencer
morph
chapters
perimeter
subsequent
curb
primarily
prevented
participate
momentum
2004
##fs
folder
stiffened
recommended
ding
solutions
##vard
hector
humming
mocking
zh
agon
diary
##rat
practicing
astron
couples
hopeful
##di
fetch
breed
facial
reactions
##26
update
weed
rattled
bonds
flared
locations
remainder
sauce
resolution
##lasses
responsibilities
##hips
thirsty
cope
drowned
##ewell
ruff
threshold
promotion
pout
##zzle
herd
sweaty
ace
champion
phillip
nephew
garr
composure
scoffed
##ullah
balanced
authent
dresser
incorpor
serves
maintaining
tug
##rina
rim
##iona
##iko
inhibition
dunge
helena
mirac
68
ree
dent
zu
continuous
enqu
unicorn
##oken
##ес
ivy
shifts
novels
tangled
pardon
disorder
softened
##aria
inspection
slavery
razor
carries
contacts
accompany
lesser
blinding
##bish
intrigued
##osph
boards
##boards
baron
2003
lowering
proteins
07
config
nora
nib
##nas
##bird
stink
festival
babylon
audio
grunt
liberal
uncontroll
##osa
portra
dual
lemon
pierce
parliament
commandments
theater
##oys
epic
stacked
scarce
duncan
reapp
mae
bruised
sworn
vas
concert
regained
sadie
evidently
##loaded
coloured
raging
drivers
og
perple
crushing
ditch
fraction
infection
thereby
swayed
dee
complaining
pregnancy
##ouses
##ии
afterward
weighed
##ndar
battery
chak
earthqu
sew
bundle
##alp
goddamn
encouragement
hou
antonio
sunglasses
battered
##umbles
acquaint
panties
mck
##eped
trading
bending
rah
cigarettes
alist
ricky
roaring
blazing
furiously
triple
generated
franklin
eyeing
dennis
cable
umb
##worthy
newspapers
cookies
##master
anxiously
purely
frig
parag
redd
echoing
sighs
lud
teresa
gritted
rural
swirled
eerie
incap
basketball
##asted
flickering
manor
helm
##ricted
roles
jeh
oscar
smelling
involves
piper
winston
shivering
participant
porn
dani
users
attic
reid
##rice
judah
fits
##itarian
natasha
2001
tents
pirate
vag
texts
withdraw
jury
farewell
reserve
consent
abstract
goat
shaw
harper
##mel
phenomenon
wheat
vietnam
giggling
apoll
enforcement
menacing
daw
##lines
submit
warrant
yells
cran
throbbing
chan
reson
hebrews
##fare
descent
wayne
##istically
##ashri
harris
##imity
nursing
das
##liness
##ас
discou
components
contribute
proc
armies
humility
##uv
insan
regional
percept
addiction
##28
evolutionary
millenn
##ithe
##rix
aster
##hop
vend
installed
henri
handling
sarcast
crops
possessions
enhance
restore
dadashri
receiver
kimberly
sarcastically
handy
bugs
plum
creeping
envy
customs
finest
liking
inheritance
belongings
reins
67
rotten
slides
sweetie
villagers
hates
peek
awakened
rosie
hav
alistair
magazines
periods
##itage
confronted
##neys
gloss
swarm
drone
restless
slur
cia
##од
questioner
announcement
##atical
spilling
mexican
picnic
fame
##nut
upu
gasps
entitled
ner
##ahl
inevit
fewer
cue
asian
##amas
metres
##inder
auto
##akers
##ppled
sessions
overse
##ipe
momma
poster
charging
inject
grocery
volcan
furrowed
omin
mak
stride
singular
titles
owed
incon
stomped
markets
theatre
restored
curly
tavern
lynne
bryce
##llie
tram
dimensions
forests
substantial
lacking
resid
harness
motivation
naive
divide
embedded
armour
indo
frankly
narciss
vengeance
ambassador
solely
tones
admire
kenn
destined
hauled
scratching
agricultural
lawyers
daring
jules
cultures
jag
offspring
locals
pairs
lords
brim
tres
canyon
gag
naught
respectively
chelsea
cum
gloom
edged
judges
interfer
traits
ler
deception
locking
unwilling
vince
riders
una
connecting
velvet
##tr
puppy
reflecting
resembl
guru
nim
ongoing
spont
caps
##ом
ibn
aub
gover
compelled
##elly
##ucer
thumbs
rebellion
refresh
cun
gob
understands
declare
crucial
psychology
chart
voy
meaningful
readily
unsett
estimated
lass
abdom
##gments
##ор
digest
splend
condemn
procedures
passages
mmm
countered
invented
69
##ele
##inates
mn
freshly
channels
fae
##prints
cafeter
posture
sect
pickup
catches
dougl
nel
snakes
fluttered
missions
intric
abundance
appetite
viewing
##acht
##vi
##jv
vick
##mun
hairs
crop
merciful
contemporary
cot
yu
escal
serena
columb
surviving
trop
exotic
targeting
regards
##attle
outrage
tract
sobbed
gaw
##60
meets
dodge
consisted
conceal
##pat
ich
sights
fingern
##iki
heritage
##ressing
winger
infr
##emen
coughing
democratic
##getic
fou
cay
societies
pak
folding
jaws
##osexual
##ener
pouch
refrigerator
##onia
stanley
agriculture
kg
cursing
##rates
sobs
powered
quicker
declar
judgement
##omin
boundaries
cement
merch
rainbow
offensive
photographs
##ын
temporarily
##ishes
monk
cafeteria
##osity
pyram
backyard
associate
##40
chatter
##fo
vik
revised
##mail
veronica
fuss
expenses
##comes
kidnapped
eliminate
rox
retorted
predicted
##arus
planes
circuit
lonel
attent
pillows
scarf
dj
extending
shovel
pronounced
dab
resemblance
78
deserves
lining
afghan
chast
nutrition
flock
pains
slower
bastards
convenient
laurie
piles
##bury
morality
gallery
##ader
smacked
executed
tunic
fools
##ormal
goodnight
settlement
umm
lawrence
milit
##athom
muddy
##mph
fors
pupp
preaching
scales
##ubby
##fish
sweating
##isp
##ianna
volunteer
messed
##izer
casc
streams
bait
coh
commotion
honored
bever
cannon
ripping
chemistry
disgusted
sv
##ия
##quisite
shepherd
preoccup
implications
delic
##atin
nickn
##utton
circling
tak
##aid
tiff
waterfall
strap
overheard
choking
benny
##aire
lend
09
recess
slaughter
##ceded
psychiat
murders
##unching
vigil
clara
##وا
caressed
esteem
references
hound
fores
teenagers
##gor
cheerful
learnt
cram
##rational
wins
fen
scooped
converted
disguise
kon
##ione
travels
pyth
expanded
1st
hadith
preserve
##lich
slack
##weight
turk
interfere
sensitivity
mouthed
dallas
ireland
manual
resisted
rumble
label
protector
contacted
spectacular
##chal
louise
exposing
cultiv
hord
##issy
fract
stirring
reckon
nipples
cyl
excuses
guides
urgency
##phs
98
justify
permanently
render
append
cs
slowing
phosph
vacant
bedside
lugg
weeping
neared
motions
##kel
civilian
anguish
improvement
##ouched
longed
crude
orgasm
clues
grandd
##45
tourist
hurriedly
adopt
##им
mentor
shoving
diner
predic
flan
consume
skilled
hed
190
##63
prostate
fitted
glen
biology
artif
fitz
kathy
##ws
perfume
##mal
stuart
enable
messy
disgr
traitor
betrayal
tons
recognise
boulder
dia
prominent
equipped
cheered
irritation
tripped
conquer
crypt
satellite
deploy
jagged
mund
##piece
consumption
pausing
luggage
molecules
bacter
bucks
grasping
merchant
enchant
feminine
##ooking
harass
risen
aden
oun
frankie
swell
integrity
google
shrieked
deals
gel
sipping
buzzing
publication
fidget
centered
##rable
overd
captive
##buh
nearer
microphone
confirmation
amend
candidates
02
tee
paces
poking
boil
underlying
coke
stere
bellowed
static
trek
reliable
##jan
##rup
##ocy
##eted
emptied
##emption
memorial
blurred
infilt
expansion
trailing
reflex
foyer
tranqu
sco
lav
designs
regime
poorly
##enzie
undou
##eenth
summary
##zo
drill
stump
justified
yea
##alty
150
playfully
73
##rics
freaking
tanks
privilege
licking
##sl
indicates
verbal
formula
synd
borrow
ruling
roberts
plac
disagree
potent
insign
proliferation
coco
restrain
##hill
dominant
prompted
arrives
rejection
surveyed
jor
brenda
rend
strongest
graduated
wade
##zek
distributed
##agram
gleaming
pirates
heaved
policeman
##eri
dissip
meek
pc
consuming
holidays
ephes
undoubted
matches
leis
##iantly
##eters
patio
strictly
portray
popping
drowning
destructive
brazil
prejud
rival
##aza
enlightenment
stammered
frances
bombs
paragraph
posts
pon
bites
stad
linen
terrain
acute
naomi
lynn
expose
infect
micah
##ounting
welcoming
sincerely
##له
##cloth
artists
weekly
everl
pbuh
bisc
##irk
fascinated
hunched
gentiles
##ico
tennis
volunt
bernard
alfred
fossil
motive
riches
awakening
rehear
energies
##ryn
joh
lamps
euph
winner
vile
expressing
gin
agitated
unbelievable
##lu
renewed
bells
billions
commanding
assert
legacy
egyptian
77
cushion
resigned
demeanor
supervis
weakly
hr
trinity
##iti
oz
bands
chapel
alab
sterling
twil
stressed
founded
singer
widow
##oust
##ova
versus
anyways
whirl
tragic
adem
mesmer
disor
sighing
towering
##ся
blamed
foref
soda
vacu
xavier
braced
uniforms
##gate
seasons
toll
2002
##asive
incons
repro
maze
parade
ferry
category
##auc
funding
intervention
##ldom
christine
calculated
scowl
monica
62
conform
presumably
sailing
guiding
##acted
unbear
##maid
interjected
awaited
loneliness
uncom
maps
contradict
bolts
ern
spons
##erving
patches
suspiciously
coron
devour
consequently
traditions
continent
dusk
stung
banging
provision
misty
undoubtedly
dc
##otch
solved
inhibitor
mitchell
warmly
prone
chunk
ants
stumble
##ين
##atched
prud
passport
countryside
cullen
aiming
clubs
tobac
doubled
##burst
spain
kane
conservative
draws
arrogance
visibly
quart
gigantic
designer
worldwide
##கக
wax
tactics
evaluation
attributes
bah
badge
disconn
lilly
exclud
coffin
annette
trim
colum
##je
transportation
josie
##ilation
comfortably
apostles
##pling
writh
medication
fumbled
##ois
chu
glove
remorse
muster
wept
##onto
unexpectedly
shocking
##run
boiling
##itals
cooler
restrict
shutting
pauses
speakers
commonly
tac
britt
astonished
##uer
recruit
dane
manny
##amon
resistant
##etti
hipp
madam
##blem
trance
dwelling
decline
wears
steaming
##urer
88
rumm
inherited
liquor
korea
permit
robber
robots
##wick
elevated
##east
grove
marching
dip
amidst
##ndan
hades
verd
monst
skinned
xander
##ologists
wer
resign
##ema
plains
manus
vertical
blinded
tomato
thompson
85
lac
##oria
##bin
treacher
madame
trauma
06
nina
protrud
gaping
gladly
vines
battlefield
glee
dangers
douglas
worthless
unch
##ocation
lowest
everlasting
graves
stur
dew
flipping
detection
carolina
tobacco
athe
thump
verge
vivo
crystals
##ben
canadian
jax
##ед
kills
palest
sunrise
endured
seren
crest
wry
abdu
severely
cluster
##storm
disd
penis
splashed
missile
##brid
mons
fearing
suppressed
incidents
boost
discarded
protocol
vanessa
gesturing
sarcasm
bronze
##ла
nash
merry
conspiracy
acquire
ventured
whirled
loading
adjacent
diamonds
stealth
convert
lacked
radar
##mi
courses
educational
##ка
ingredients
##ados
mick
abig
ost
##gm
smallest
##etical
kurt
insides
wardrobe
heavier
nurt
dreadful
##omer
mining
activation
##keys
transcend
raymond
vigor
cheers
##alo
utmost
regulation
caves
##90
##far
suggestions
describing
unbelie
hiss
##non
slung
pedest
kitten
seattle
nie
airpl
hitler
##iami
curren
orphan
lori
##alia
##otype
suspicions
australian
proclaim
specim
keyboard
meadow
statues
dialed
clown
phar
slapping
manifestation
advertising
dominated
calendar
insec
approve
houston
misch
##bble
scam
sprinted
extension
programming
bethany
thereof
