{
  "version": "1.0",
  "truncation": null,
  "padding": null,
  "added_tokens": [
    {
      "id": 0,
      "content": "[UNK]",
      "single_word": false,
      "lstrip": false,
      "rstrip": false,
      "normalized": false,
      "special": true
    },
    {
      "id": 1,
      "content": "[CLS]",
      "single_word": false,
      "lstrip": false,
      "rstrip": false,
      "normalized": false,
      "special": true
    },
    {
      "id": 2,
      "content": "[SEP]",
      "single_word": false,
      "lstrip": false,
      "rstrip": false,
      "normalized": false,
      "special": true
    },
    {
      "id": 3,
      "content": "[PAD]",
      "single_word": false,
      "lstrip": false,
      "rstrip": false,
      "normalized": false,
      "special": true
    },
    {
      "id": 4,
      "content": "[MASK]",
      "single_word": false,
      "lstrip": false,
      "rstrip": false,
      "normalized": false,
      "special": true
    }
  ],
  "normalizer": {
    "type": "Sequence",
    "normalizers": [
      {
        "type": "NFD"
      },
      {
        "type": "Lowercase"
      },
      {
        "type": "StripAccents"
      }
    ]
  },
  "pre_tokenizer": {
    "type": "Whitespace"
  },
  "post_processor": {
    "type": "TemplateProcessing",
    "single": [
      {
        "SpecialToken": {
          "id": "[CLS]",
          "type_id": 0
        }
      },
      {
        "Sequence": {
          "id": "A",
          "type_id": 0
        }
      },
      {
        "SpecialToken": {
          "id": "[SEP]",
          "type_id": 0
        }
      }
    ],
    "pair": [
      {
        "SpecialToken": {
          "id": "[CLS]",
          "type_id": 0
        }
      },
      {
        "Sequence": {
          "id": "A",
          "type_id": 0
        }
      },
      {
        "SpecialToken": {
          "id": "[SEP]",
          "type_id": 0
        }
      },
      {
        "Sequence": {
          "id": "B",
          "type_id": 1
        }
      },
      {
        "SpecialToken": {
          "id": "[SEP]",
          "type_id": 1
        }
      }
    ],
    "special_tokens": {
      "[CLS]": {
        "id": "[CLS]",
        "ids": [
          1
        ],
        "tokens": [
          "[CLS]"
        ]
      },
      "[SEP]": {
        "id": "[SEP]",
        "ids": [
          2
        ],
        "tokens": [
          "[SEP]"
        ]
      }
    }
  },
  "decoder": {
    "type": "WordPiece",
    "prefix": "##",
    "cleanup": true
  },
  "model": {
    "type": "WordPiece",
    "unk_token": "[UNK]",
    "continuing_subword_prefix": "##",
    "max_input_chars_per_word": 100,
    "vocab": {
      "[UNK]": 0,
      "[CLS]": 1,
      "[SEP]": 2,
      "[PAD]": 3,
      "[MASK]": 4,
      "!": 5,
      "\"": 6,
      "#": 7,
      "$": 8,
      "%": 9,
      "&": 10,
      "'": 11,
      "(": 12,
      ")": 13,
      "*": 14,
      "+": 15,
      ",": 16,
      "-": 17,
      ".": 18,
      "/": 19,
      "0": 20,
      "1": 21,
      "2": 22,
      "3": 23,
      "4": 24,
      "5": 25,
      "6": 26,
      "7": 27,
      "8": 28,
      "9": 29,
      ":": 30,
      ";": 31,
      "<": 32,
      "=": 33,
      ">": 34,
      "?": 35,
      "@": 36,
      "[": 37,
      "\\": 38,
      "]": 39,
      "^": 40,
      "_": 41,
      "a": 42,
      "b": 43,
      "c": 44,
      "d": 45,
      "e": 46,
      "f": 47,
      "g": 48,
      "h": 49,
      "i": 50,
      "j": 51,
      "k": 52,
      "l": 53,
      "m": 54,
      "n": 55,
      "o": 56,
      "p": 57,
      "q": 58,
      "r": 59,
      "s": 60,
      "t": 61,
      "u": 62,
      "v": 63,
      "w": 64,
      "x": 65,
      "y": 66,
      "z": 67,
      "|": 68,
      "~": 69,
      "ı": 70,
      "α": 71,
      "ε": 72,
      "ι": 73,
      "ο": 74,
      "а": 75,
      "б": 76,
      "в": 77,
      "г": 78,
      "д": 79,
      "е": 80,
      "и": 81,
      "к": 82,
      "л": 83,
      "м": 84,
      "н": 85,
      "о": 86,
      "п": 87,
      "р": 88,
      "с": 89,
      "т": 90,
      "у": 91,
      "ы": 92,
      "я": 93,
      "і": 94,
      "ا": 95,
      "ر": 96,
      "ل": 97,
      "م": 98,
      "ن": 99,
      "ه": 100,
      "و": 101,
      "ي": 102,
      "–": 103,
      "—": 104,
      "##d": 105,
      "##_": 106,
      "##i": 107,
      "##n": 108,
      "##e": 109,
      "##x": 110,
      "##9": 111,
      "##u": 112,
      "##t": 113,
      "##h": 114,
      "##o": 115,
      "##r": 116,
      "##l": 117,
      "##a": 118,
      "##c": 119,
      "##p": 120,
      "##g": 121,
      "##v": 122,
      "##1": 123,
      "##8": 124,
      "##0": 125,
      "##k": 126,
      "##m": 127,
      "##3": 128,
      "##5": 129,
      "##6": 130,
      "##f": 131,
      "##b": 132,
      "##s": 133,
      "##а": 134,
      "##р": 135,
      "##и": 136,
      "##с": 137,
      "##м": 138,
      "##о": 139,
      "##т": 140,
      "##г": 141,
      "##н": 142,
      "##л": 143,
      "##д": 144,
      "##2": 145,
      "##7": 146,
      "##ر": 147,
      "##ا": 148,
      "##y": 149,
      "##w": 150,
      "##ы": 151,
      "##п": 152,
      "##ل": 153,
      "##ε": 154,
      "##α": 155,
      "##ο": 156,
      "##z": 157,
      "##к": 158,
      "##в": 159,
      "##б": 160,
      "##у": 161,
      "##я": 162,
      "##ı": 163,
      "##4": 164,
      "##е": 165,
      "##і": 166,
      "##q": 167,
      "##j": 168,
      "##و": 169,
      "##ي": 170,
      "##ن": 171,
      "##ه": 172,
      "##م": 173,
      "##:": 174,
      "##\"": 175,
      "##)": 176,
      "##/": 177,
      "##!": 178,
      "##,": 179,
      "##\\": 180,
      "##]": 181,
      "##ι": 182,
      "##.": 183,
      "##?": 184,
      "##<": 185,
      "##'": 186,
      "##(": 187,
      "##*": 188,
      "##>": 189,
      "##&": 190,
      "##-": 191,
      "##[": 192,
      "##@": 193,
      "###": 194,
      "##=": 195,
      "##—": 196,
      "##~": 197,
      "##|": 198,
      "##+": 199,
      "##^": 200,
      "##%": 201,
      "##$": 202,
      "##;": 203,
      "##–": 204,
      "th": 205,
      "the": 206,
      "##er": 207,
      "##in": 208,
      "##ed": 209,
      "##nd": 210,
      "##ou": 211,
      "##at": 212,
      "##ing": 213,
      "to": 214,
      "##en": 215,
      "##or": 216,
      "##on": 217,
      "##es": 218,
      "and": 219,
      "##ar": 220,
      "##is": 221,
      "##an": 222,
      "##ll": 223,
      "##as": 224,
      "of": 225,
      "##it": 226,
      "in": 227,
      "##re": 228,
      "he": 229,
      "##om": 230,
      "be": 231,
      "you": 232,
      "ha": 233,
      "sh": 234,
      "##ow": 235,
      "##le": 236,
      "wh": 237,
      "##ut": 238,
      "##ot": 239,
      "##ic": 240,
      "##id": 241,
      "it": 242,
      "##et": 243,
      "##ac": 244,
      "##ld": 245,
      "was": 246,
      "on": 247,
      "##al": 248,
      "##gh": 249,
      "##ve": 250,
      "that": 251,
      "st": 252,
      "##ly": 253,
      "her": 254,
      "##st": 255,
      "##ay": 256,
      "re": 257,
      "##im": 258,
      "##ion": 259,
      "##ent": 260,
      "##se": 261,
      "as": 262,
      "for": 263,
      "##ur": 264,
      "his": 265,
      "##ir": 266,
      "she": 267,
      "##ith": 268,
      "##ad": 269,
      "##ver": 270,
      "##oo": 271,
      "with": 272,
      ".\"": 273,
      "an": 274,
      "##ght": 275,
      "we": 276,
      "##am": 277,
      "is": 278,
      "##ould": 279,
      "##ch": 280,
      "me": 281,
      "at": 282,
      "fr": 283,
      "li": 284,
      "##ke": 285,
      "##th": 286,
      "se": 287,
      "##ter": 288,
      "##all": 289,
      "my": 290,
      "##ro": 291,
      "had": 292,
      "##ce": 293,
      "not": 294,
      "ch": 295,
      "but": 296,
      "##ill": 297,
      "do": 298,
      "##il": 299,
      "##ct": 300,
      "##ess": 301,
      "ne": 302,
      "##pp": 303,
      "##ain": 304,
      "##ere": 305,
      "they": 306,
      "##ri": 307,
      "so": 308,
      "sa": 309,
      "him": 310,
      "##el": 311,
      "this": 312,
      "##ight": 313,
      "##ked": 314,
      "##ome": 315,
      "su": 316,
      "##ant": 317,
      "##est": 318,
      "have": 319,
      "de": 320,
      "##ack": 321,
      "from": 322,
      "go": 323,
      "##us": 324,
      "##ore": 325,
      "##ust": 326,
      "what": 327,
      "all": 328,
      "up": 329,
      "out": 330,
      "##rou": 331,
      "con": 332,
      "al": 333,
      "##ers": 334,
      "ab": 335,
      "kn": 336,
      "##ie": 337,
      "##ge": 338,
      "##ra": 339,
      "?\"": 340,
      "##ard": 341,
      "##ation": 342,
      "le": 343,
      "no": 344,
      "##ul": 345,
      "##out": 346,
      "##un": 347,
      "##her": 348,
      "or": 349,
      "ex": 350,
      "are": 351,
      ",\"": 352,
      "##op": 353,
      "sp": 354,
      "##ind": 355,
      "##king": 356,
      "##one": 357,
      "wor": 358,
      "would": 359,
      "said": 360,
      "##um": 361,
      "int": 362,
      "##ab": 363,
      "##os": 364,
      "were": 365,
      "one": 366,
      "there": 367,
      "##ist": 368,
      "fe": 369,
      "##art": 370,
      "if": 371,
      "##ol": 372,
      "##and": 373,
      "com": 374,
      "tr": 375,
      "loo": 376,
      "##ate": 377,
      "can": 378,
      "##ood": 379,
      "did": 380,
      "un": 381,
      "your": 382,
      "##em": 383,
      "could": 384,
      "them": 385,
      "by": 386,
      "##ast": 387,
      "##own": 388,
      "cl": 389,
      "en": 390,
      "##ally": 391,
      "like": 392,
      "back": 393,
      "##ap": 394,
      "when": 395,
      "##if": 396,
      "pl": 397,
      "pr": 398,
      "about": 399,
      "tim": 400,
      "##ven": 401,
      "into": 402,
      "##ace": 403,
      "man": 404,
      "##ig": 405,
      "pro": 406,
      "just": 407,
      "##ong": 408,
      "##ide": 409,
      "ma": 410,
      "##ck": 411,
      "##ive": 412,
      "their": 413,
      "ag": 414,
      "ro": 415,
      "will": 416,
      "who": 417,
      "##ep": 418,
      "know": 419,
      "##hing": 420,
      "any": 421,
      "##ous": 422,
      "mo": 423,
      "##ect": 424,
      "some": 425,
      "##ame": 426,
      "##au": 427,
      "##..": 428,
      "then": 429,
      "te": 430,
      "bl": 431,
      "us": 432,
      "##way": 433,
      "##lf": 434,
      "over": 435,
      "lo": 436,
      "ar": 437,
      "##ort": 438,
      "get": 439,
      "##ity": 440,
      "time": 441,
      "ever": 442,
      "co": 443,
      "been": 444,
      "##our": 445,
      "sm": 446,
      "qu": 447,
      "how": 448,
      "##ice": 449,
      "##ach": 450,
      "##urn": 451,
      "down": 452,
      "off": 453,
      "hand": 454,
      "ta": 455,
      "more": 456,
      "##ine": 457,
      "##ry": 458,
      "bo": 459,
      "now": 460,
      "too": 461,
      "want": 462,
      "af": 463,
      "oth": 464,
      "##round": 465,
      "##ies": 466,
      "see": 467,
      "tw": 468,
      "##ment": 469,
      "thou": 470,
      "##ich": 471,
      "fl": 472,
      "##ag": 473,
      "##nder": 474,
      "don": 475,
      "sc": 476,
      "##reat": 477,
      "##ink": 478,
      "pe": 479,
      "...": 480,
      "##ved": 481,
      "br": 482,
      "##ick": 483,
      "##pl": 484,
      "##ear": 485,
      "##ound": 486,
      "##pt": 487,
      "car": 488,
      "##ure": 489,
      "again": 490,
      "than": 491,
      "am": 492,
      "##ile": 493,
      "ey": 494,
      "##ass": 495,
      "##fore": 496,
      "##ving": 497,
      "##ull": 498,
      "our": 499,
      "##other": 500,
      "im": 501,
      "bec": 502,
      "##itt": 503,
      "##ud": 504,
      "##ip": 505,
      "##ose": 506,
      "every": 507,
      "way": 508,
      "##ue": 509,
      "##act": 510,
      "##self": 511,
      "only": 512,
      "even": 513,
      "##fe": 514,
      "##ish": 515,
      "before": 516,
      "other": 517,
      "ad": 518,
      "sl": 519,
      "##ft": 520,
      "##ence": 521,
      "say": 522,
      "head": 523,
      "gr": 524,
      "##ings": 525,
      "didn": 526,
      "##ble": 527,
      "##ire": 528,
      "after": 529,
      "cont": 530,
      "##ated": 531,
      "##ite": 532,
      "ac": 533,
      "##per": 534,
      "##led": 535,
      "##ks": 536,
      "##rough": 537,
      "dis": 538,
      "##able": 539,
      "##ance": 540,
      "##ade": 541,
      "##iz": 542,
      "through": 543,
      "##ber": 544,
      "here": 545,
      "##pped": 546,
      "need": 547,
      "po": 548,
      "right": 549,
      "##ree": 550,
      "which": 551,
      "##ans": 552,
      "##age": 553,
      "##omet": 554,
      "around": 555,
      "eyes": 556,
      "res": 557,
      "##ci": 558,
      "##ell": 559,
      "day": 560,
      "##ward": 561,
      "##ang": 562,
      "has": 563,
      "somet": 564,
      "##ath": 565,
      "peop": 566,
      "two": 567,
      "fir": 568,
      "mar": 569,
      "fo": 570,
      "##ff": 571,
      "people": 572,
      "turn": 573,
      "where": 574,
      "##wn": 575,
      "##ves": 576,
      "##ak": 577,
      "good": 578,
      "think": 579,
      "##oun": 580,
      "going": 581,
      "gu": 582,
      "well": 583,
      "should": 584,
      "##qu": 585,
      "##ions": 586,
      "##ause": 587,
      "let": 588,
      "mu": 589,
      "gl": 590,
      "looked": 591,
      "thought": 592,
      "jo": 593,
      "ll": 594,
      "wat": 595,
      "comp": 596,
      "app": 597,
      "per": 598,
      "##oth": 599,
      "long": 600,
      "rem": 601,
      "still": 602,
      "str": 603,
      "under": 604,
      "##ery": 605,
      "god": 606,
      "em": 607,
      "ve": 608,
      "##ord": 609,
      "##co": 610,
      "bet": 611,
      "wa": 612,
      "may": 613,
      "##ia": 614,
      "##ather": 615,
      "##ew": 616,
      "##thing": 617,
      "##iss": 618,
      "##ild": 619,
      "##ting": 620,
      "cr": 621,
      "sw": 622,
      "something": 623,
      "##ase": 624,
      "first": 625,
      "away": 626,
      "pre": 627,
      "##ning": 628,
      "##ious": 629,
      "##ied": 630,
      "##dy": 631,
      "!\"": 632,
      "never": 633,
      "door": 634,
      "##ress": 635,
      "asked": 636,
      "##ted": 637,
      "new": 638,
      "life": 639,
      "got": 640,
      "much": 641,
      "made": 642,
      "des": 643,
      "##ave": 644,
      "ho": 645,
      "because": 646,
      "make": 647,
      "part": 648,
      "feel": 649,
      "##ened": 650,
      "face": 651,
      "call": 652,
      "##ens": 653,
      "spe": 654,
      "##ah": 655,
      "hel": 656,
      "##ough": 657,
      "come": 658,
      "op": 659,
      "##igh": 660,
      "##gg": 661,
      "ke": 662,
      "why": 663,
      "bel": 664,
      "##te": 665,
      "take": 666,
      "##orm": 667,
      "##ady": 668,
      "happ": 669,
      "wal": 670,
      "##ered": 671,
      "##are": 672,
      "look": 673,
      "##ittle": 674,
      "##iv": 675,
      "year": 676,
      "little": 677,
      "room": 678,
      "##air": 679,
      "act": 680,
      "ph": 681,
      "##so": 682,
      "##ched": 683,
      "tell": 684,
      "##ise": 685,
      "##ily": 686,
      "ear": 687,
      "##ss": 688,
      "**": 689,
      "very": 690,
      "start": 691,
      "##ents": 692,
      "##ty": 693,
      "sur": 694,
      "arm": 695,
      "##av": 696,
      "while": 697,
      "##ying": 698,
      "being": 699,
      "att": 700,
      "##be": 701,
      "##ary": 702,
      "mom": 703,
      "##ried": 704,
      "##ful": 705,
      "its": 706,
      "wr": 707,
      "##ark": 708,
      "##ook": 709,
      "##dd": 710,
      "real": 711,
      "inter": 712,
      "##ory": 713,
      "##side": 714,
      "el": 715,
      "those": 716,
      "these": 717,
      "help": 718,
      "##uck": 719,
      "##iff": 720,
      "own": 721,
      "took": 722,
      "##ness": 723,
      "find": 724,
      "rel": 725,
      "seem": 726,
      "##ical": 727,
      "tal": 728,
      "##ced": 729,
      "most": 730,
      "knew": 731,
      "##ru": 732,
      "fin": 733,
      "another": 734,
      "##ph": 735,
      "##elt": 736,
      "##tain": 737,
      "mat": 738,
      "imp": 739,
      "##cl": 740,
      "sure": 741,
      "left": 742,
      "##ub": 743,
      "##xt": 744,
      "few": 745,
      "##ign": 746,
      "ser": 747,
      "##ian": 748,
      "came": 749,
      "beg": 750,
      "##ations": 751,
      "exp": 752,
      "word": 753,
      "ev": 754,
      "old": 755,
      "work": 756,
      "end": 757,
      "##oss": 758,
      "really": 759,
      "put": 760,
      "things": 761,
      "##ons": 762,
      "wom": 763,
      "beh": 764,
      "turned": 765,
      "##ared": 766,
      "also": 767,
      "##ult": 768,
      "##get": 769,
      "does": 770,
      "felt": 771,
      "night": 772,
      "##owed": 773,
      "comm": 774,
      "##ever": 775,
      "mind": 776,
      "world": 777,
      "unt": 778,
      "##vel": 779,
      "war": 780,
      "many": 781,
      "vo": 782,
      "pers": 783,
      "light": 784,
      "##int": 785,
      "last": 786,
      "##ouse": 787,
      "##de": 788,
      "love": 789,
      "la": 790,
      "sk": 791,
      "##ail": 792,
      "gra": 793,
      "dr": 794,
      "min": 795,
      "##ys": 796,
      "##ush": 797,
      "bu": 798,
      "sin": 799,
      "wasn": 800,
      "##ool": 801,
      "##ps": 802,
      "##ower": 803,
      "told": 804,
      "cle": 805,
      "side": 806,
      "went": 807,
      "each": 808,
      "ind": 809,
      "##ors": 810,
      "ret": 811,
      "##ne": 812,
      "##ont": 813,
      "set": 814,
      "##een": 815,
      "##ways": 816,
      "##ross": 817,
      "rep": 818,
      "##iend": 819,
      "ob": 820,
      "##ible": 821,
      "##les": 822,
      "found": 823,
      "friend": 824,
      "keep": 825,
      "##ating": 826,
      "place": 827,
      "wait": 828,
      "hum": 829,
      "both": 830,
      "##ash": 831,
      "toward": 832,
      "yes": 833,
      "##og": 834,
      "hands": 835,
      "cons": 836,
      "belie": 837,
      "pull": 838,
      "must": 839,
      "nothing": 840,
      "might": 841,
      "##ition": 842,
      "##ict": 843,
      "inst": 844,
      "##cess": 845,
      "next": 846,
      ".'": 847,
      "##ual": 848,
      "##ple": 849,
      "home": 850,
      "same": 851,
      "par": 852,
      "##ib": 853,
      "dec": 854,
      "sat": 855,
      "##ually": 856,
      "diff": 857,
      "great": 858,
      "##ling": 859,
      "cor": 860,
      "years": 861,
      "body": 862,
      "che": 863,
      "against": 864,
      "saw": 865,
      "ste": 866,
      "anything": 867,
      "far": 868,
      "foll": 869,
      "ass": 870,
      "##ange": 871,
      "wanted": 872,
      "without": 873,
      "##mo": 874,
      "##iver": 875,
      "enough": 876,
      "##ial": 877,
      "hard": 878,
      "##ream": 879,
      "thing": 880,
      "though": 881,
      "once": 882,
      "##ned": 883,
      "pass": 884,
      "##ner": 885,
      "behind": 886,
      "always": 887,
      "##sp": 888,
      "fam": 889,
      "until": 890,
      "men": 891,
      "##ction": 892,
      "##ces": 893,
      "such": 894,
      "person": 895,
      "house": 896,
      "high": 897,
      "##na": 898,
      "gi": 899,
      "looking": 900,
      "##az": 901,
      "small": 902,
      "open": 903,
      "gir": 904,
      "three": 905,
      "##ently": 906,
      "bre": 907,
      "voice": 908,
      "coun": 909,
      "inf": 910,
      "child": 911,
      "ple": 912,
      "rest": 913,
      "##red": 914,
      "##cept": 915,
      "##ised": 916,
      "gre": 917,
      "##aring": 918,
      "couldn": 919,
      "##owing": 920,
      "dark": 921,
      "met": 922,
      "hop": 923,
      "##ars": 924,
      "himself": 925,
      "wo": 926,
      "sound": 927,
      "##ng": 928,
      "acc": 929,
      "hu": 930,
      "##ead": 931,
      "##uc": 932,
      "run": 933,
      "stand": 934,
      "sim": 935,
      "father": 936,
      "##aught": 937,
      "moment": 938,
      "##der": 939,
      "conf": 940,
      "mor": 941,
      "##oc": 942,
      "inv": 943,
      "heart": 944,
      "cour": 945,
      "clos": 946,
      "bed": 947,
      "ang": 948,
      "supp": 949,
      "pa": 950,
      "tra": 951,
      "##uth": 952,
      "give": 953,
      "girl": 954,
      "underst": 955,
      "cur": 956,
      "##med": 957,
      "##sw": 958,
      "dri": 959,
      "##bed": 960,
      "gen": 961,
      "front": 962,
      "contin": 963,
      "better": 964,
      "##less": 965,
      "##outh": 966,
      "##ching": 967,
      "mon": 968,
      "##ix": 969,
      "##day": 970,
      "##ken": 971,
      "resp": 972,
      "##ows": 973,
      "mean": 974,
      "smil": 975,
      "20": 976,
      "##cond": 977,
      "sy": 978,
      "betw": 979,
      "sil": 980,
      "between": 981,
      "quest": 982,
      "plan": 983,
      "care": 984,
      "chr": 985,
      "char": 986,
      "woman": 987,
      "##gn": 988,
      "dra": 989,
      "quick": 990,
      "everything": 991,
      "##ank": 992,
      "##ier": 993,
      "##ater": 994,
      "answ": 995,
      "second": 996,
      "maybe": 997,
      "pres": 998,
      "##end": 999,
      "kill": 1000,
      "ed": 1001,
      "expl": 1002,
      "rec": 1003,
      "mother": 1004,
      "someone": 1005,
      "heard": 1006,
      "wind": 1007,
      "##ember": 1008,
      "ter": 1009,
      "hold": 1010,
      "since": 1011,
      "##ense": 1012,
      "##up": 1013,
      "water": 1014,
      "read": 1015,
      "air": 1016,
      "differ": 1017,
      "reg": 1018,
      "##cer": 1019,
      "play": 1020,
      "breat": 1021,
      "##ung": 1022,
      "##ason": 1023,
      "##ret": 1024,
      "##used": 1025,
      "flo": 1026,
      "##ained": 1027,
      "big": 1028,
      "bit": 1029,
      "dist": 1030,
      "lau": 1031,
      "##ject": 1032,
      "ra": 1033,
      "inside": 1034,
      "oh": 1035,
      "started": 1036,
      "##ably": 1037,
      "near": 1038,
      "seemed": 1039,
      "bar": 1040,
      "ref": 1041,
      "miss": 1042,
      "##wh": 1043,
      "##ention": 1044,
      "black": 1045,
      "##ished": 1046,
      "yet": 1047,
      "use": 1048,
      "##ock": 1049,
      "pat": 1050,
      "red": 1051,
      "add": 1052,
      "sch": 1053,
      "chap": 1054,
      "remember": 1055,
      "##tered": 1056,
      "hair": 1057,
      "return": 1058,
      "##ready": 1059,
      "kind": 1060,
      "##ized": 1061,
      "already": 1062,
      "stood": 1063,
      "lar": 1064,
      "trying": 1065,
      "##bo": 1066,
      "ent": 1067,
      "\\\\": 1068,
      "inc": 1069,
      "called": 1070,
      "lot": 1071,
      "##most": 1072,
      "ca": 1073,
      "##ully": 1074,
      "sle": 1075,
      "poss": 1076,
      "wall": 1077,
      "laugh": 1078,
      "name": 1079,
      "power": 1080,
      "cap": 1081,
      "walked": 1082,
      "##ates": 1083,
      "reach": 1084,
      "pol": 1085,
      "done": 1086,
      "doing": 1087,
      "##ond": 1088,
      "ok": 1089,
      "##kes": 1090,
      "gave": 1091,
      "began": 1092,
      "understand": 1093,
      "##gether": 1094,
      "sub": 1095,
      "pain": 1096,
      "words": 1097,
      "stay": 1098,
      "deep": 1099,
      "##ren": 1100,
      "else": 1101,
      "19": 1102,
      "chapter": 1103,
      "##iet": 1104,
      "best": 1105,
      "across": 1106,
      "##rew": 1107,
      "form": 1108,
      "##amp": 1109,
      "blood": 1110,
      "almost": 1111,
      "##ny": 1112,
      "aw": 1113,
      "##ott": 1114,
      "##__": 1115,
      "used": 1116,
      "dire": 1117,
      "mr": 1118,
      "wonder": 1119,
      "young": 1120,
      "##pr": 1121,
      "det": 1122,
      "sn": 1123,
      "##ately": 1124,
      "col": 1125,
      "minut": 1126,
      "ide": 1127,
      "soon": 1128,
      "together": 1129,
      "vis": 1130,
      "##io": 1131,
      "##ided": 1132,
      "seen": 1133,
      "says": 1134,
      "##ined": 1135,
      "christ": 1136,
      "##ump": 1137,
      "hour": 1138,
      "bus": 1139,
      "##pping": 1140,
      "stop": 1141,
      "##als": 1142,
      "believe": 1143,
      "fact": 1144,
      "##its": 1145,
      "human": 1146,
      "##ased": 1147,
      "sto": 1148,
      "tried": 1149,
      "family": 1150,
      "##umb": 1151,
      "along": 1152,
      "comple": 1153,
      "point": 1154,
      "##ene": 1155,
      "##ts": 1156,
      "##ited": 1157,
      "##ither": 1158,
      "##ake": 1159,
      "breath": 1160,
      "sec": 1161,
      "dro": 1162,
      "repl": 1163,
      "pur": 1164,
      "##row": 1165,
      "move": 1166,
      "sign": 1167,
      "past": 1168,
      "pulled": 1169,
      "stud": 1170,
      "tri": 1171,
      "close": 1172,
      "coll": 1173,
      "list": 1174,
      "##ters": 1175,
      "##eng": 1176,
      "leave": 1177,
      "later": 1178,
      "##iness": 1179,
      "wee": 1180,
      "table": 1181,
      "##aced": 1182,
      "##itch": 1183,
      "days": 1184,
      "ye": 1185,
      "eas": 1186,
      "bri": 1187,
      "##ected": 1188,
      "##hip": 1189,
      "creat": 1190,
      "ele": 1191,
      "##ured": 1192,
      "hear": 1193,
      "feet": 1194,
      "##ued": 1195,
      "lead": 1196,
      "##ures": 1197,
      "myself": 1198,
      "slow": 1199,
      "mem": 1200,
      "others": 1201,
      "##ically": 1202,
      "##man": 1203,
      "thin": 1204,
      "meet": 1205,
      "smile": 1206,
      "leg": 1207,
      "##cy": 1208,
      "course": 1209,
      "smiled": 1210,
      "tre": 1211,
      "##sel": 1212,
      "##to": 1213,
      "sit": 1214,
      "everyone": 1215,
      "##": 1216,
      "getting": 1217,
      "fing": 1218,
      "perf": 1219,
      "##ins": 1220,
      "##uring": 1221,
      "##oy": 1222,
      "nodd": 1223,
      "##ering": 1224,
      "land": 1225,
      "bad": 1226,
      "four": 1227,
      "##ular": 1228,
      "book": 1229,
      "bro": 1230,
      "able": 1231,
      "step": 1232,
      "trans": 1233,
      "har": 1234,
      "spir": 1235,
      "prot": 1236,
      "fall": 1237,
      "##ets": 1238,
      "coming": 1239,
      "cou": 1240,
      "##olog": 1241,
      "appear": 1242,
      "different": 1243,
      "##ric": 1244,
      "hur": 1245,
      "##idd": 1246,
      "held": 1247,
      "mouth": 1248,
      "floor": 1249,
      "ap": 1250,
      "eff": 1251,
      "having": 1252,
      "nat": 1253,
      "##oke": 1254,
      "del": 1255,
      "##ities": 1256,
      "lord": 1257,
      "##ility": 1258,
      "sor": 1259,
      "##vers": 1260,
      "talk": 1261,
      "least": 1262,
      "arms": 1263,
      "##oney": 1264,
      "ground": 1265,
      "##--": 1266,
      "##aps": 1267,
      "dead": 1268,
      "half": 1269,
      "##ience": 1270,
      "##**": 1271,
      "exper": 1272,
      "loc": 1273,
      "dep": 1274,
      "white": 1275,
      "##cc": 1276,
      ").": 1277,
      "##ize": 1278,
      "school": 1279,
      "##icked": 1280,
      "##cial": 1281,
      "hor": 1282,
      "fire": 1283,
      "needed": 1284,
      "clear": 1285,
      "def": 1286,
      "med": 1287,
      "wouldn": 1288,
      "prob": 1289,
      "morning": 1290,
      "cent": 1291,
      "nodded": 1292,
      "finally": 1293,
      "dan": 1294,
      "##aking": 1295,
      "quickly": 1296,
      "##cus": 1297,
      "##ged": 1298,
      "free": 1299,
      "top": 1300,
      "##sc": 1301,
      "sun": 1302,
      "ask": 1303,
      "##iew": 1304,
      "##du": 1305,
      "times": 1306,
      "herself": 1307,
      "cer": 1308,
      "death": 1309,
      "##ten": 1310,
      "##br": 1311,
      "tom": 1312,
      "##ushed": 1313,
      "full": 1314,
      "?'": 1315,
      "...\"": 1316,
      "question": 1317,
      "large": 1318,
      "making": 1319,
      "dem": 1320,
      "##ms": 1321,
      "towards": 1322,
      "##hn": 1323,
      "hell": 1324,
      "##ific": 1325,
      "lear": 1326,
      "##ept": 1327,
      "cal": 1328,
      "build": 1329,
      "##itting": 1330,
      "okay": 1331,
      "happened": 1332,
      "jes": 1333,
      "ran": 1334,
      "##ines": 1335,
      "##ments": 1336,
      "##fully": 1337,
      "earth": 1338,
      "eng": 1339,
      "cat": 1340,
      "##ma": 1341,
      "##dden": 1342,
      "sever": 1343,
      "mus": 1344,
      "##by": 1345,
      "##uff": 1346,
      "short": 1347,
      "appro": 1348,
      "boy": 1349,
      "upon": 1350,
      "doesn": 1351,
      "sudden": 1352,
      "fa": 1353,
      "sleep": 1354,
      "##ired": 1355,
      "won": 1356,
      "reason": 1357,
      "fur": 1358,
      "##ho": 1359,
      "gone": 1360,
      "##::": 1361,
      "##ames": 1362,
      "king": 1363,
      "anyone": 1364,
      "eye": 1365,
      "try": 1366,
      "probably": 1367,
      "##ening": 1368,
      "##ield": 1369,
      "friends": 1370,
      "john": 1371,
      "less": 1372,
      "prom": 1373,
      "contro": 1374,
      "##oud": 1375,
      "feeling": 1376,
      "##ove": 1377,
      "##ird": 1378,
      "##ative": 1379,
      "within": 1380,
      "##irt": 1381,
      "cover": 1382,
      "idea": 1383,
      "fre": 1384,
      "pri": 1385,
      "##ife": 1386,
      "stopped": 1387,
      "hope": 1388,
      "fun": 1389,
      "##yp": 1390,
      "fight": 1391,
      "##eth": 1392,
      "taking": 1393,
      "stra": 1394,
      "##fort": 1395,
      "##iously": 1396,
      "tou": 1397,
      "cra": 1398,
      "opened": 1399,
      "please": 1400,
      "##gged": 1401,
      "gener": 1402,
      "fell": 1403,
      "##ants": 1404,
      "surpr": 1405,
      "mess": 1406,
      "##ane": 1407,
      "however": 1408,
      "spirit": 1409,
      "outside": 1410,
      "whole": 1411,
      "children": 1412,
      "##00": 1413,
      "certain": 1414,
      "grab": 1415,
      "##aut": 1416,
      "proble": 1417,
      "##ton": 1418,
      "grou": 1419,
      "##ient": 1420,
      "moved": 1421,
      ",'": 1422,
      "money": 1423,
      "jesus": 1424,
      "##selves": 1425,
      "nor": 1426,
      "show": 1427,
      "adv": 1428,
      "cell": 1429,
      "son": 1430,
      "lea": 1431,
      "cut": 1432,
      "##orn": 1433,
      "dam": 1434,
      "matter": 1435,
      "av": 1436,
      "sho": 1437,
      "num": 1438,
      "kiss": 1439,
      "ready": 1440,
      "##tern": 1441,
      "dou": 1442,
      "ins": 1443,
      "true": 1444,
      "reached": 1445,
      "pos": 1446,
      "dad": 1447,
      "five": 1448,
      "sorry": 1449,
      "stre": 1450,
      "##ides": 1451,
      "today": 1452,
      "##aw": 1453,
      "##head": 1454,
      "count": 1455,
      "become": 1456,
      "##att": 1457,
      "##ister": 1458,
      "consid": 1459,
      "actually": 1460,
      "sam": 1461,
      "minutes": 1462,
      "forward": 1463,
      "bring": 1464,
      "fig": 1465,
      "interest": 1466,
      "law": 1467,
      "##ards": 1468,
      "thinking": 1469,
      "inform": 1470,
      "alone": 1471,
      "truth": 1472,
      "yeah": 1473,
      "onto": 1474,
      "either": 1475,
      "##ident": 1476,
      "##app": 1477,
      "wrong": 1478,
      "living": 1479,
      "sou": 1480,
      "lost": 1481,
      "live": 1482,
      "complete": 1483,
      "kept": 1484,
      "swe": 1485,
      "sent": 1486,
      "fill": 1487,
      "imag": 1488,
      "food": 1489,
      "state": 1490,
      "ext": 1491,
      "jack": 1492,
      "mil": 1493,
      "##erg": 1494,
      "##inted": 1495,
      "several": 1496,
      "##mm": 1497,
      "continued": 1498,
      "hadn": 1499,
      "city": 1500,
      "import": 1501,
      "replied": 1502,
      "beaut": 1503,
      "phone": 1504,
      "##ches": 1505,
      "##where": 1506,
      "##que": 1507,
      "slowly": 1508,
      "##rought": 1509,
      "job": 1510,
      "whis": 1511,
      "thank": 1512,
      "##ipped": 1513,
      "change": 1514,
      "shook": 1515,
      "##gr": 1516,
      "given": 1517,
      "chang": 1518,
      "dream": 1519,
      "quite": 1520,
      "dev": 1521,
      "opp": 1522,
      "press": 1523,
      "##room": 1524,
      "shall": 1525,
      "kid": 1526,
      "mag": 1527,
      "direct": 1528,
      "sing": 1529,
      "walk": 1530,
      "##aster": 1531,
      "fear": 1532,
      "case": 1533,
      "##land": 1534,
      "cre": 1535,
      "##ists": 1536,
      "##ract": 1537,
      "##airs": 1538,
      "thr": 1539,
      "taken": 1540,
      "hot": 1541,
      "##osed": 1542,
      "##ina": 1543,
      "quiet": 1544,
      "ann": 1545,
      "##ution": 1546,
      "##esh": 1547,
      "##aces": 1548,
      "##ther": 1549,
      "##gan": 1550,
      "brought": 1551,
      "##ression": 1552,
      "story": 1553,
      "mark": 1554,
      "during": 1555,
      "##els": 1556,
      "bes": 1557,
      "##clud": 1558,
      "##lic": 1559,
      "##ored": 1560,
      "watched": 1561,
      "##ik": 1562,
      "id": 1563,
      "control": 1564,
      "##otion": 1565,
      "##ues": 1566,
      "ir": 1567,
      "talking": 1568,
      "soft": 1569,
      "##cle": 1570,
      "##ison": 1571,
      "strong": 1572,
      "break": 1573,
      "adm": 1574,
      "bur": 1575,
      "##ics": 1576,
      "sense": 1577,
      "foot": 1578,
      "##ger": 1579,
      "dress": 1580,
      "##ime": 1581,
      "dest": 1582,
      "##ien": 1583,
      "je": 1584,
      "women": 1585,
      "##enty": 1586,
      "number": 1587,
      "hall": 1588,
      "month": 1589,
      "art": 1590,
      "lay": 1591,
      "arri": 1592,
      "##ike": 1593,
      "road": 1594,
      "##stem": 1595,
      "##sh": 1596,
      "main": 1597,
      "saying": 1598,
      "win": 1599,
      "instead": 1600,
      "##ices": 1601,
      "tem": 1602,
      "answer": 1603,
      "cir": 1604,
      "suddenly": 1605,
      "##iced": 1606,
      "##ape": 1607,
      "roll": 1608,
      "occ": 1609,
      "guess": 1610,
      "ten": 1611,
      "##ism": 1612,
      "order": 1613,
      "##aned": 1614,
      "pet": 1615,
      "##aining": 1616,
      "standing": 1617,
      "sol": 1618,
      "low": 1619,
      "blue": 1620,
      "pub": 1621,
      "business": 1622,
      "ago": 1623,
      "above": 1624,
      "six": 1625,
      "reco": 1626,
      "line": 1627,
      "followed": 1628,
      "##haps": 1629,
      "system": 1630,
      "self": 1631,
      "cold": 1632,
      "##ute": 1633,
      "perhaps": 1634,
      "pay": 1635,
      "bab": 1636,
      "speak": 1637,
      "lips": 1638,
      "begin": 1639,
      "serv": 1640,
      "waiting": 1641,
      "group": 1642,
      "sal": 1643,
      "heal": 1644,
      "##not": 1645,
      "##iding": 1646,
      "brother": 1647,
      "pret": 1648,
      "##body": 1649,
      "val": 1650,
      "grand": 1651,
      "prov": 1652,
      "##ots": 1653,
      "wood": 1654,
      "exc": 1655,
      "##ze": 1656,
      "town": 1657,
      "##iting": 1658,
      "ge": 1659,
      "decided": 1660,
      "##velop": 1661,
      "##cing": 1662,
      "closed": 1663,
      "isn": 1664,
      "10": 1665,
      "glass": 1666,
      "looks": 1667,
      "chest": 1668,
      "compan": 1669,
      "perfect": 1670,
      "important": 1671,
      "hours": 1672,
      "shoulder": 1673,
      "class": 1674,
      "fine": 1675,
      "skin": 1676,
      "cross": 1677,
      "##ians": 1678,
      "##cious": 1679,
      "happy": 1680,
      "##tend": 1681,
      "hit": 1682,
      "pap": 1683,
      "gun": 1684,
      "deal": 1685,
      "rather": 1686,
      "longer": 1687,
      "attention": 1688,
      "spoke": 1689,
      "prof": 1690,
      "jud": 1691,
      "##anger": 1692,
      "working": 1693,
      "window": 1694,
      "aff": 1695,
      "entire": 1696,
      "known": 1697,
      "##aughter": 1698,
      "da": 1699,
      "disapp": 1700,
      "##iful": 1701,
      "suc": 1702,
      "sigh": 1703,
      "ship": 1704,
      "watch": 1705,
      "##ug": 1706,
      "requ": 1707,
      "whatever": 1708,
      "whisper": 1709,
      "bra": 1710,
      "laughed": 1711,
      "guy": 1712,
      "sitting": 1713,
      "possible": 1714,
      "##anced": 1715,
      "became": 1716,
      "office": 1717,
      "cry": 1718,
      "201": 1719,
      "##ising": 1720,
      "bas": 1721,
      "pretty": 1722,
      "##ror": 1723,
      "yell": 1724,
      "exact": 1725,
      "##aged": 1726,
      "sens": 1727,
      "couple": 1728,
      "##ony": 1729,
      "cond": 1730,
      "##imes": 1731,
      "seat": 1732,
      "##ational": 1733,
      "mer": 1734,
      "soul": 1735,
      "exam": 1736,
      "##ories": 1737,
      "caught": 1738,
      "hon": 1739,
      "const": 1740,
      "neck": 1741,
      "##ital": 1742,
      "partic": 1743,
      "##vern": 1744,
      "pray": 1745,
      "path": 1746,
      "##acked": 1747,
      "cho": 1748,
      "##ief": 1749,
      "##aim": 1750,
      "##ective": 1751,
      "pie": 1752,
      "warm": 1753,
      "passed": 1754,
      "mur": 1755,
      "##erv": 1756,
      "fingers": 1757,
      "enj": 1758,
      "commun": 1759,
      "##ength": 1760,
      "running": 1761,
      "view": 1762,
      "##ped": 1763,
      "##antly": 1764,
      "squ": 1765,
      "bott": 1766,
      "chair": 1767,
      "est": 1768,
      "chur": 1769,
      "test": 1770,
      "trust": 1771,
      "tight": 1772,
      "burn": 1773,
      "sir": 1774,
      "esc": 1775,
      "yourself": 1776,
      "forg": 1777,
      "includ": 1778,
      "rock": 1779,
      "scream": 1780,
      "prin": 1781,
      "##eric": 1782,
      "##ior": 1783,
      "),": 1784,
      "##read": 1785,
      "straight": 1786,
      "##ages": 1787,
      "##zy": 1788,
      "##son": 1789,
      "##medi": 1790,
      "command": 1791,
      "lift": 1792,
      "##rupt": 1793,
      "##res": 1794,
      "offic": 1795,
      "univer": 1796,
      "wife": 1797,
      "ver": 1798,
      "##ision": 1799,
      "##cent": 1800,
      "chance": 1801,
      "conn": 1802,
      "often": 1803,
      "##ef": 1804,
      "stru": 1805,
      "mir": 1806,
      "accept": 1807,
      "din": 1808,
      "stared": 1809,
      "information": 1810,
      "concer": 1811,
      "##ural": 1812,
      "nice": 1813,
      "##ection": 1814,
      "building": 1815,
      "problem": 1816,
      "green": 1817,
      "parents": 1818,
      "ale": 1819,
      "bill": 1820,
      "means": 1821,
      "##night": 1822,
      "hund": 1823,
      "gaz": 1824,
      "##ination": 1825,
      "auth": 1826,
      "##ale": 1827,
      "bag": 1828,
      "typ": 1829,
      "rece": 1830,
      "ce": 1831,
      "hundred": 1832,
      "boo": 1833,
      "er": 1834,
      "##ara": 1835,
      "week": 1836,
      "tor": 1837,
      "immedi": 1838,
      "##com": 1839,
      "##ster": 1840,
      "bene": 1841,
      "abs": 1842,
      "lim": 1843,
      "##ator": 1844,
      "cop": 1845,
      "beautiful": 1846,
      "eat": 1847,
      "space": 1848,
      "alth": 1849,
      "norm": 1850,
      "##ply": 1851,
      "##unch": 1852,
      "##ount": 1853,
      "die": 1854,
      "further": 1855,
      "##no": 1856,
      "cloth": 1857,
      "level": 1858,
      "grow": 1859,
      "thoughts": 1860,
      "produ": 1861,
      "area": 1862,
      "##ax": 1863,
      "themselves": 1864,
      "although": 1865,
      "pop": 1866,
      "meant": 1867,
      "safe": 1868,
      "ign": 1869,
      "secret": 1870,
      "stepped": 1871,
      "sort": 1872,
      "heav": 1873,
      "ben": 1874,
      "shot": 1875,
      "holding": 1876,
      "##ains": 1877,
      "slight": 1878,
      "street": 1879,
      "##my": 1880,
      "##arr": 1881,
      "##ler": 1882,
      "trou": 1883,
      "follow": 1884,
      "pract": 1885,
      "watching": 1886,
      "gri": 1887,
      "exist": 1888,
      "develop": 1889,
      "sex": 1890,
      "present": 1891,
      "hurt": 1892,
      "shut": 1893,
      "lu": 1894,
      "ord": 1895,
      "americ": 1896,
      "##ones": 1897,
      "apart": 1898,
      "spec": 1899,
      "doub": 1900,
      "##ctor": 1901,
      "makes": 1902,
      "cannot": 1903,
      "prev": 1904,
      "##ob": 1905,
      "fast": 1906,
      "##bing": 1907,
      "returned": 1908,
      "##aching": 1909,
      "cam": 1910,
      "##ork": 1911,
      "##____": 1912,
      "var": 1913,
      "ill": 1914,
      "church": 1915,
      "among": 1916,
      "##me": 1917,
      "guard": 1918,
      "##unt": 1919,
      "ant": 1920,
      "jump": 1921,
      "##ety": 1922,
      "grin": 1923,
      "prep": 1924,
      "drink": 1925,
      "##ement": 1926,
      "##ift": 1927,
      "using": 1928,
      "hung": 1929,
      "mad": 1930,
      "sear": 1931,
      "late": 1932,
      "sold": 1933,
      "fut": 1934,
      "leaving": 1935,
      "##cri": 1936,
      "##ote": 1937,
      "##empt": 1938,
      "mill": 1939,
      "12": 1940,
      "situ": 1941,
      "pal": 1942,
      "##ming": 1943,
      "noticed": 1944,
      "expect": 1945,
      "seeing": 1946,
      "event": 1947,
      "grabbed": 1948,
      "sad": 1949,
      "exactly": 1950,
      "moving": 1951,
      "sometimes": 1952,
      "##ee": 1953,
      "walking": 1954,
      "##ances": 1955,
      "##vin": 1956,
      "filled": 1957,
      "equ": 1958,
      "closer": 1959,
      "kitch": 1960,
      "sky": 1961,
      "shout": 1962,
      "team": 1963,
      "##iny": 1964,
      "led": 1965,
      "happen": 1966,
      "govern": 1967,
      "early": 1968,
      "super": 1969,
      "treat": 1970,
      "div": 1971,
      "--": 1972,
      "faith": 1973,
      "obv": 1974,
      "energ": 1975,
      "##ude": 1976,
      "##iddle": 1977,
      "except": 1978,
      "dav": 1979,
      "gold": 1980,
      "legs": 1981,
      "pan": 1982,
      "11": 1983,
      "##ili": 1984,
      "##ilt": 1985,
      "##ert": 1986,
      "attack": 1987,
      "twenty": 1988,
      "dog": 1989,
      "##ived": 1990,
      "suff": 1991,
      "kitchen": 1992,
      "shad": 1993,
      "agre": 1994,
      "lit": 1995,
      "bare": 1996,
      "send": 1997,
      "process": 1998,
      "appeared": 1999,
      "hist": 2000,
      "phys": 2001,
      "##lect": 2002,
      "##ledge": 2003,
      "news": 2004,
      "##ether": 2005,
      "anim": 2006,
      "lives": 2007,
      "mich": 2008,
      "sister": 2009,
      "##mb": 2010,
      "##ey": 2011,
      "##cially": 2012,
      "##ats": 2013,
      "convers": 2014,
      "##ley": 2015,
      "raised": 2016,
      "completely": 2017,
      "anyway": 2018,
      "sight": 2019,
      "pict": 2020,
      "simply": 2021,
      "##ann": 2022,
      "##od": 2023,
      "##acing": 2024,
      "##bs": 2025,
      "report": 2026,
      "rose": 2027,
      "##itive": 2028,
      "esp": 2029,
      "##ha": 2030,
      "approach": 2031,
      "comes": 2032,
      "empt": 2033,
      "##idence": 2034,
      "author": 2035,
      "age": 2036,
      "desp": 2037,
      "##use": 2038,
      "thro": 2039,
      "box": 2040,
      "crow": 2041,
      "##ives": 2042,
      "baby": 2043,
      "force": 2044,
      "##ggest": 2045,
      "suggest": 2046,
      "middle": 2047,
      "##dom": 2048,
      "pot": 2049,
      "loud": 2050,
      "immediately": 2051,
      "tech": 2052,
      "tears": 2053,
      "##gin": 2054,
      "strange": 2055,
      "wish": 2056,
      "rele": 2057,
      "fail": 2058,
      "mine": 2059,
      "answered": 2060,
      "personal": 2061,
      "rub": 2062,
      "realized": 2063,
      "##sy": 2064,
      "fle": 2065,
      "rich": 2066,
      "hea": 2067,
      "rev": 2068,
      "bright": 2069,
      "##light": 2070,
      "cast": 2071,
      "easy": 2072,
      "enter": 2073,
      "##ek": 2074,
      "##right": 2075,
      "following": 2076,
      "clim": 2077,
      "worry": 2078,
      "comfort": 2079,
      "sand": 2080,
      "##lly": 2081,
      "##ney": 2082,
      "thanks": 2083,
      "maj": 2084,
      "result": 2085,
      "arr": 2086,
      "stuff": 2087,
      "killed": 2088,
      "check": 2089,
      "silence": 2090,
      "star": 2091,
      "smell": 2092,
      "wide": 2093,
      "##cover": 2094,
      "enjoy": 2095,
      "##ified": 2096,
      "future": 2097,
      "mist": 2098,
      "pushed": 2099,
      "##aled": 2100,
      "expression": 2101,
      "den": 2102,
      "18": 2103,
      "moun": 2104,
      "##ael": 2105,
      "knows": 2106,
      "##unk": 2107,
      "giving": 2108,
      "##amed": 2109,
      "knowing": 2110,
      "energy": 2111,
      "worked": 2112,
      "shar": 2113,
      "paul": 2114,
      "tree": 2115,
      "corner": 2116,
      "recogn": 2117,
      "support": 2118,
      "picked": 2119,
      "tar": 2120,
      "##iam": 2121,
      "peace": 2122,
      "police": 2123,
      "##ring": 2124,
      "stri": 2125,
      "batt": 2126,
      "##erm": 2127,
      "alex": 2128,
      "##ffe": 2129,
      "weap": 2130,
      "single": 2131,
      "relations": 2132,
      "##zz": 2133,
      "vi": 2134,
      "spot": 2135,
      "pen": 2136,
      "itself": 2137,
      "lady": 2138,
      "whether": 2139,
      "gas": 2140,
      "position": 2141,
      "figure": 2142,
      "seems": 2143,
      "girls": 2144,
      "##ology": 2145,
      "pleas": 2146,
      "round": 2147,
      "field": 2148,
      "hang": 2149,
      "susp": 2150,
      "fair": 2151,
      "proper": 2152,
      "questions": 2153,
      "experience": 2154,
      "vict": 2155,
      "##ashed": 2156,
      "stone": 2157,
      "loved": 2158,
      "bey": 2159,
      "mass": 2160,
      "clean": 2161,
      "mel": 2162,
      "##fer": 2163,
      "months": 2164,
      "ones": 2165,
      "espe": 2166,
      "rad": 2167,
      "touch": 2168,
      "##acy": 2169,
      "hus": 2170,
      "##und": 2171,
      "enc": 2172,
      "##ries": 2173,
      "mut": 2174,
      "##irty": 2175,
      "##par": 2176,
      "crowd": 2177,
      "beside": 2178,
      "danger": 2179,
      "luck": 2180,
      "gar": 2181,
      "beyond": 2182,
      "##ocked": 2183,
      "country": 2184,
      "draw": 2185,
      "attempt": 2186,
      "##ope": 2187,
      "##band": 2188,
      "fav": 2189,
      "special": 2190,
      "especially": 2191,
      "drive": 2192,
      "##ging": 2193,
      "whispered": 2194,
      "learn": 2195,
      "obs": 2196,
      "pick": 2197,
      "fly": 2198,
      "died": 2199,
      "ahead": 2200,
      "ru": 2201,
      "surv": 2202,
      "south": 2203,
      "cy": 2204,
      "invol": 2205,
      "##cuss": 2206,
      "##con": 2207,
      "camp": 2208,
      "pointed": 2209,
      "##ern": 2210,
      "diffic": 2211,
      "imm": 2212,
      "cas": 2213,
      "dropped": 2214,
      "sett": 2215,
      "sword": 2216,
      "ball": 2217,
      "allah": 2218,
      "placed": 2219,
      "ori": 2220,
      "direction": 2221,
      "clothes": 2222,
      "15": 2223,
      "leaned": 2224,
      "##bers": 2225,
      "books": 2226,
      "ur": 2227,
      "mis": 2228,
      "non": 2229,
      "changed": 2230,
      "game": 2231,
      "glanced": 2232,
      "finished": 2233,
      "##aded": 2234,
      "##isted": 2235,
      "eight": 2236,
      "##ana": 2237,
      "##ousand": 2238,
      "thousand": 2239,
      "ris": 2240,
      "rob": 2241,
      "fil": 2242,
      "jer": 2243,
      "##itted": 2244,
      "heaven": 2245,
      "paper": 2246,
      "##rib": 2247,
      "turning": 2248,
      "guys": 2249,
      "lab": 2250,
      "na": 2251,
      "edge": 2252,
      "incre": 2253,
      "shru": 2254,
      "##ously": 2255,
      "situation": 2256,
      "company": 2257,
      "wra": 2258,
      "added": 2259,
      "coffe": 2260,
      "summ": 2261,
      "drag": 2262,
      "sar": 2263,
      "waited": 2264,
      "mod": 2265,
      "mention": 2266,
      "none": 2267,
      "covered": 2268,
      "wondered": 2269,
      "telling": 2270,
      "disappear": 2271,
      "port": 2272,
      "knowledge": 2273,
      "empty": 2274,
      "captain": 2275,
      "public": 2276,
      "haven": 2277,
      "desk": 2278,
      "fore": 2279,
      "save": 2280,
      "nearly": 2281,
      "daughter": 2282,
      "techn": 2283,
      "angel": 2284,
      "carry": 2285,
      "van": 2286,
      "relig": 2287,
      "tonight": 2288,
      "##orrow": 2289,
      "respond": 2290,
      "##rif": 2291,
      "bir": 2292,
      "arrived": 2293,
      "supposed": 2294,
      "reve": 2295,
      "coffee": 2296,
      "##go": 2297,
      "magic": 2298,
      "invest": 2299,
      "##raid": 2300,
      "trees": 2301,
      "success": 2302,
      "tall": 2303,
      "david": 2304,
      "fif": 2305,
      "##oid": 2306,
      "relationship": 2307,
      "discover": 2308,
      "spent": 2309,
      "shirt": 2310,
      "stom": 2311,
      "##....": 2312,
      "throat": 2313,
      "elect": 2314,
      "master": 2315,
      "visit": 2316,
      "earl": 2317,
      "##more": 2318,
      "inde": 2319,
      "##usion": 2320,
      "##eren": 2321,
      "organ": 2322,
      "afraid": 2323,
      "##let": 2324,
      "particular": 2325,
      "evil": 2326,
      "##ishing": 2327,
      "##port": 2328,
      "sighed": 2329,
      "priv": 2330,
      "activ": 2331,
      "##uly": 2332,
      "meeting": 2333,
      "ident": 2334,
      "effect": 2335,
      "tot": 2336,
      "husband": 2337,
      "##ips": 2338,
      "gather": 2339,
      "discuss": 2340,
      "##atic": 2341,
      "kids": 2342,
      "##osp": 2343,
      "bal": 2344,
      "general": 2345,
      "pack": 2346,
      "##ena": 2347,
      "shoulders": 2348,
      "##eless": 2349,
      "minute": 2350,
      "13": 2351,
      "##::::": 2352,
      "200": 2353,
      "surprised": 2354,
      "wants": 2355,
      "bath": 2356,
      "river": 2357,
      "dar": 2358,
      "oper": 2359,
      "hey": 2360,
      "16": 2361,
      "remind": 2362,
      "worth": 2363,
      "arg": 2364,
      "und": 2365,
      "threat": 2366,
      "conversation": 2367,
      "compl": 2368,
      "##ental": 2369,
      "heavy": 2370,
      "##ees": 2371,
      "needs": 2372,
      "nature": 2373,
      "brown": 2374,
      "surround": 2375,
      "shit": 2376,
      "##ruct": 2377,
      "doctor": 2378,
      "purp": 2379,
      "calm": 2380,
      "jour": 2381,
      "mountain": 2382,
      "party": 2383,
      "gaze": 2384,
      "record": 2385,
      "##how": 2386,
      "headed": 2387,
      "comput": 2388,
      "##lish": 2389,
      "evening": 2390,
      "##ivid": 2391,
      "##ration": 2392,
      "poor": 2393,
      "doubt": 2394,
      "frown": 2395,
      "sounds": 2396,
      "rid": 2397,
      "james": 2398,
      "iss": 2399,
      "cause": 2400,
      "tomorrow": 2401,
      "music": 2402,
      "##ency": 2403,
      "##lo": 2404,
      "brain": 2405,
      "alive": 2406,
      "##cked": 2407,
      "listen": 2408,
      "lie": 2409,
      "weeks": 2410,
      "##urity": 2411,
      "possib": 2412,
      "intern": 2413,
      "##ining": 2414,
      "descri": 2415,
      "vol": 2416,
      "circ": 2417,
      "spend": 2418,
      "darkness": 2419,
      "##oring": 2420,
      "14": 2421,
      "strength": 2422,
      "##come": 2423,
      "note": 2424,
      "##ron": 2425,
      "##ressed": 2426,
      "pock": 2427,
      "steps": 2428,
      "##he": 2429,
      "##ples": 2430,
      "post": 2431,
      "staring": 2432,
      "##wards": 2433,
      "wild": 2434,
      "distance": 2435,
      "##itten": 2436,
      "hosp": 2437,
      "smo": 2438,
      "##oof": 2439,
      "government": 2440,
      "weak": 2441,
      "detail": 2442,
      "##ral": 2443,
      "protect": 2444,
      "##roy": 2445,
      "trouble": 2446,
      "##ought": 2447,
      "difficult": 2448,
      "third": 2449,
      "consider": 2450,
      "mid": 2451,
      "strugg": 2452,
      "sweet": 2453,
      "pun": 2454,
      "holy": 2455,
      "subject": 2456,
      "huge": 2457,
      "claim": 2458,
      "gro": 2459,
      "mal": 2460,
      "lived": 2461,
      "finger": 2462,
      "proph": 2463,
      "##ury": 2464,
      "##iel": 2465,
      "necess": 2466,
      "entered": 2467,
      "major": 2468,
      "showed": 2469,
      "simple": 2470,
      "##icking": 2471,
      "thick": 2472,
      "##ushing": 2473,
      "michael": 2474,
      "dinner": 2475,
      "##ires": 2476,
      "becom": 2477,
      "cool": 2478,
      "key": 2479,
      "object": 2480,
      "below": 2481,
      "##ume": 2482,
      "di": 2483,
      "##iling": 2484,
      "health": 2485,
      "rain": 2486,
      "fuck": 2487,
      "history": 2488,
      "battle": 2489,
      "##ask": 2490,
      "vill": 2491,
      "reading": 2492,
      "##une": 2493,
      "##ises": 2494,
      "##ilar": 2495,
      "rom": 2496,
      "##rect": 2497,
      "normal": 2498,
      "##ession": 2499,
      "##inite": 2500,
      "forget": 2501,
      "beginning": 2502,
      "travel": 2503,
      "slightly": 2504,
      "takes": 2505,
      "effort": 2506,
      "contact": 2507,
      "dom": 2508,
      "center": 2509,
      "##ham": 2510,
      "##uel": 2511,
      "tow": 2512,
      "mot": 2513,
      "piece": 2514,
      "certainly": 2515,
      "accord": 2516,
      "##umbled": 2517,
      "##yn": 2518,
      "broken": 2519,
      "##action": 2520,
      "enem": 2521,
      "usually": 2522,
      "somewhere": 2523,
      "##gram": 2524,
      "ways": 2525,
      "forest": 2526,
      "determ": 2527,
      "sick": 2528,
      "univers": 2529,
      "##udd": 2530,
      "_th": 2531,
      "sna": 2532,
      "ble": 2533,
      "glad": 2534,
      "perform": 2535,
      "brief": 2536,
      "design": 2537,
      "##ingly": 2538,
      "mrs": 2539,
      "sea": 2540,
      "##iled": 2541,
      "sour": 2542,
      "beat": 2543,
      "walls": 2544,
      "##aff": 2545,
      "doors": 2546,
      "ah": 2547,
      "choice": 2548,
      "neg": 2549,
      "bull": 2550,
      "nose": 2551,
      "despite": 2552,
      "stomach": 2553,
      "horse": 2554,
      "respons": 2555,
      "seven": 2556,
      "ash": 2557,
      "gent": 2558,
      "managed": 2559,
      "barely": 2560,
      "sque": 2561,
      "##essed": 2562,
      "suit": 2563,
      "##teen": 2564,
      "ut": 2565,
      "##bert": 2566,
      "allowed": 2567,
      "appar": 2568,
      "amaz": 2569,
      "17": 2570,
      "individ": 2571,
      "stup": 2572,
      "rolled": 2573,
      "born": 2574,
      "catch": 2575,
      "##la": 2576,
      "cab": 2577,
      "##ett": 2578,
      "wearing": 2579,
      "serious": 2580,
      "ring": 2581,
      "viol": 2582,
      "clearly": 2583,
      "hill": 2584,
      "project": 2585,
      "boys": 2586,
      "damn": 2587,
      "##gs": 2588,
      "charac": 2589,
      "scre": 2590,
      "common": 2591,
      "worse": 2592,
      "##ager": 2593,
      "soci": 2594,
      "security": 2595,
      "##yle": 2596,
      "##ges": 2597,
      "notice": 2598,
      "et": 2599,
      "spread": 2600,
      "curr": 2601,
      "surprise": 2602,
      "expected": 2603,
      "spl": 2604,
      "goes": 2605,
      "polit": 2606,
      "##ald": 2607,
      "north": 2608,
      "##ai": 2609,
      "hospital": 2610,
      "##akes": 2611,
      "##ential": 2612,
      "##onse": 2613,
      "##ality": 2614,
      "luc": 2615,
      "scr": 2616,
      "earlier": 2617,
      "surf": 2618,
      "aren": 2619,
      "therefore": 2620,
      "somehow": 2621,
      "##por": 2622,
      "focus": 2623,
      "bow": 2624,
      "hun": 2625,
      "wound": 2626,
      "cancer": 2627,
      "##ented": 2628,
      "lifted": 2629,
      "fort": 2630,
      "agreed": 2631,
      "repe": 2632,
      "origin": 2633,
      "wel": 2634,
      "stro": 2635,
      "explain": 2636,
      "jen": 2637,
      "chuck": 2638,
      "max": 2639,
      "##pper": 2640,
      "program": 2641,
      "demand": 2642,
      "cloud": 2643,
      "##owers": 2644,
      "weren": 2645,
      "##iliar": 2646,
      "##rodu": 2647,
      "planet": 2648,
      "pu": 2649,
      "anger": 2650,
      "continue": 2651,
      "##ulation": 2652,
      "jul": 2653,
      "bod": 2654,
      "mary": 2655,
      "conscious": 2656,
      "##atter": 2657,
      "\\|": 2658,
      "##using": 2659,
      "mach": 2660,
      "social": 2661,
      "demon": 2662,
      "dru": 2663,
      "teeth": 2664,
      "##idden": 2665,
      "created": 2666,
      "comb": 2667,
      "explained": 2668,
      "##ption": 2669,
      "##ization": 2670,
      "message": 2671,
      "lang": 2672,
      "##itions": 2673,
      "##old": 2674,
      "reality": 2675,
      "share": 2676,
      "inn": 2677,
      "response": 2678,
      "eventually": 2679,
      "regard": 2680,
      "dear": 2681,
      "##aint": 2682,
      "hol": 2683,
      "tone": 2684,
      "birth": 2685,
      "dim": 2686,
      "purpose": 2687,
      "##apt": 2688,
      "individual": 2689,
      "##uct": 2690,
      "playing": 2691,
      "remembered": 2692,
      "jew": 2693,
      "seconds": 2694,
      "##sed": 2695,
      "ol": 2696,
      "stupid": 2697,
      "track": 2698,
      "easily": 2699,
      "##iers": 2700,
      "##val": 2701,
      "helped": 2702,
      "accom": 2703,
      "##orge": 2704,
      "local": 2705,
      "##gress": 2706,
      "stret": 2707,
      "##==": 2708,
      "##ium": 2709,
      "anymore": 2710,
      "cost": 2711,
      "jim": 2712,
      "phot": 2713,
      "allow": 2714,
      "speed": 2715,
      "broke": 2716,
      "neither": 2717,
      "presence": 2718,
      "stat": 2719,
      "##izing": 2720,
      "likely": 2721,
      "emotion": 2722,
      "##miss": 2723,
      "lad": 2724,
      "aut": 2725,
      "anal": 2726,
      "##idge": 2727,
      "##ceed": 2728,
      "tired": 2729,
      "station": 2730,
      "##iction": 2731,
      "silent": 2732,
      "defe": 2733,
      "deb": 2734,
      "fuc": 2735,
      "fresh": 2736,
      "##ball": 2737,
      "park": 2738,
      "rul": 2739,
      "##uit": 2740,
      "kar": 2741,
      "##form": 2742,
      "similar": 2743,
      "##igg": 2744,
      "offered": 2745,
      "##aped": 2746,
      "##ama": 2747,
      "angry": 2748,
      "final": 2749,
      "emb": 2750,
      "offer": 2751,
      "##ya": 2752,
      "—\"": 2753,
      "hide": 2754,
      "remained": 2755,
      "destroy": 2756,
      "##ata": 2757,
      "coo": 2758,
      "works": 2759,
      "tele": 2760,
      "gets": 2761,
      "intell": 2762,
      "shrugged": 2763,
      "court": 2764,
      "##cil": 2765,
      "!'": 2766,
      "##ds": 2767,
      "grace": 2768,
      "threw": 2769,
      "including": 2770,
      "##olution": 2771,
      "learned": 2772,
      "##ploy": 2773,
      "unl": 2774,
      "##tt": 2775,
      "colle": 2776,
      "nerv": 2777,
      "bedroom": 2778,
      "beneath": 2779,
      "##etic": 2780,
      "service": 2781,
      "moon": 2782,
      "action": 2783,
      "frank": 2784,
      "stairs": 2785,
      "forced": 2786,
      "truck": 2787,
      "asking": 2788,
      "indeed": 2789,
      "fit": 2790,
      "speaking": 2791,
      "computer": 2792,
      "study": 2793,
      "tong": 2794,
      "##ensive": 2795,
      "separ": 2796,
      "humans": 2797,
      "considered": 2798,
      "truly": 2799,
      "los": 2800,
      "opport": 2801,
      "##erial": 2802,
      "liked": 2803,
      "promise": 2804,
      "##men": 2805,
      "tiny": 2806,
      "tast": 2807,
      "natural": 2808,
      "bottom": 2809,
      "grew": 2810,
      "worried": 2811,
      "##str": 2812,
      "members": 2813,
      "##oved": 2814,
      "written": 2815,
      "handed": 2816,
      "motion": 2817,
      "shouted": 2818,
      "wit": 2819,
      "resear": 2820,
      "gently": 2821,
      "picture": 2822,
      "places": 2823,
      "band": 2824,
      "phil": 2825,
      "bell": 2826,
      "opportun": 2827,
      "##erved": 2828,
      "lying": 2829,
      "drew": 2830,
      "##ify": 2831,
      "##lt": 2832,
      "##ette": 2833,
      "due": 2834,
      "harm": 2835,
      "favor": 2836,
      "arch": 2837,
      "cult": 2838,
      "experien": 2839,
      "pocket": 2840,
      "memory": 2841,
      "paused": 2842,
      "respect": 2843,
      "cup": 2844,
      "keeping": 2845,
      "\".": 2846,
      "pulling": 2847,
      "aware": 2848,
      "afterno": 2849,
      "##icle": 2850,
      "based": 2851,
      "disc": 2852,
      "relax": 2853,
      "gard": 2854,
      "hes": 2855,
      "##ended": 2856,
      "fix": 2857,
      "quietly": 2858,
      "##rible": 2859,
      "example": 2860,
      "cells": 2861,
      "langu": 2862,
      "physical": 2863,
      "depart": 2864,
      "##rit": 2865,
      "env": 2866,
      "type": 2867,
      "weight": 2868,
      "ger": 2869,
      "states": 2870,
      "imagine": 2871,
      "hat": 2872,
      "prop": 2873,
      "jumped": 2874,
      "ach": 2875,
      "##-+": 2876,
      "familiar": 2877,
      "deliver": 2878,
      "oppos": 2879,
      "##ences": 2880,
      "meaning": 2881,
      "thus": 2882,
      "hom": 2883,
      "escape": 2884,
      "spo": 2885,
      "sounded": 2886,
      "material": 2887,
      "older": 2888,
      "base": 2889,
      "dust": 2890,
      "dressed": 2891,
      "sac": 2892,
      "unf": 2893,
      "30": 2894,
      "whe": 2895,
      "teach": 2896,
      "##ez": 2897,
      "san": 2898,
      "##oned": 2899,
      "##ension": 2900,
      "##...": 2901,
      "song": 2902,
      "odd": 2903,
      "##ils": 2904,
      "##hood": 2905,
      "blank": 2906,
      "##ja": 2907,
      "tum": 2908,
      "lights": 2909,
      "inh": 2910,
      "powerful": 2911,
      "bird": 2912,
      "carried": 2913,
      "pair": 2914,
      "honest": 2915,
      "desire": 2916,
      "army": 2917,
      "vers": 2918,
      "metal": 2919,
      "kissed": 2920,
      "##urs": 2921,
      "afternoon": 2922,
      "lou": 2923,
      "peter": 2924,
      "board": 2925,
      "target": 2926,
      "insp": 2927,
      "christian": 2928,
      "lose": 2929,
      "##line": 2930,
      "joy": 2931,
      "choo": 2932,
      "##inct": 2933,
      "##icated": 2934,
      "cand": 2935,
      "##asion": 2936,
      "'.": 2937,
      "carefully": 2938,
      "stick": 2939,
      "##isf": 2940,
      "card": 2941,
      "##reme": 2942,
      "west": 2943,
      "psy": 2944,
      "##rage": 2945,
      "##erve": 2946,
      ".,": 2947,
      "wol": 2948,
      "##aling": 2949,
      "##zen": 2950,
      "silver": 2951,
      "aud": 2952,
      "##ky": 2953,
      "##osh": 2954,
      "##uss": 2955,
      "##gar": 2956,
      "##cient": 2957,
      "##rie": 2958,
      "buy": 2959,
      "##rap": 2960,
      "appre": 2961,
      "forth": 2962,
      "counter": 2963,
      "according": 2964,
      "thirty": 2965,
      "mart": 2966,
      "moments": 2967,
      "##ray": 2968,
      "fool": 2969,
      "##gging": 2970,
      "ban": 2971,
      "writing": 2972,
      "forever": 2973,
      "##olute": 2974,
      "research": 2975,
      "correct": 2976,
      "snow": 2977,
      "crazy": 2978,
      "chall": 2979,
      "dry": 2980,
      "hoped": 2981,
      "dig": 2982,
      "adam": 2983,
      "##ius": 2984,
      "link": 2985,
      "prison": 2986,
      "hesit": 2987,
      "screen": 2988,
      "neigh": 2989,
      "american": 2990,
      "trip": 2991,
      "married": 2992,
      "ears": 2993,
      "entr": 2994,
      "understanding": 2995,
      "lower": 2996,
      "##amb": 2997,
      "cheek": 2998,
      "infl": 2999,
      "##ex": 3000,
      "##ially": 3001,
      "firm": 3002,
      "pressed": 3003,
      "hoping": 3004,
      "decl": 3005,
      "whom": 3006,
      "color": 3007,
      "##set": 3008,
      "problems": 3009,
      "lock": 3010,
      "##min": 3011,
      "flesh": 3012,
      "obviously": 3013,
      "directly": 3014,
      "mult": 3015,
      "##usted": 3016,
      "cust": 3017,
      "##\\\\": 3018,
      "##ench": 3019,
      "neighb": 3020,
      "##itude": 3021,
      "tun": 3022,
      "shoot": 3023,
      "knees": 3024,
      "store": 3025,
      "##wise": 3026,
      "##we": 3027,
      "talked": 3028,
      "smiling": 3029,
      "##itary": 3030,
      "numb": 3031,
      "##ica": 3032,
      "gentle": 3033,
      "convin": 3034,
      "shop": 3035,
      "wip": 3036,
      "whose": 3037,
      "realize": 3038,
      "##work": 3039,
      "dut": 3040,
      "##cles": 3041,
      "bob": 3042,
      "heat": 3043,
      "##ades": 3044,
      "##mer": 3045,
      "psych": 3046,
      "##bel": 3047,
      "##raph": 3048,
      "busy": 3049,
      "shif": 3050,
      "starting": 3051,
      "block": 3052,
      "belong": 3053,
      "##ability": 3054,
      "involved": 3055,
      "##ipp": 3056,
      "##ests": 3057,
      "mission": 3058,
      "pour": 3059,
      "bodies": 3060,
      "jan": 3061,
      "apartment": 3062,
      "image": 3063,
      "##astic": 3064,
      "bear": 3065,
      "society": 3066,
      "doll": 3067,
      "wis": 3068,
      "shaking": 3069,
      "sharp": 3070,
      "##ilities": 3071,
      "unto": 3072,
      "mike": 3073,
      "bi": 3074,
      "fro": 3075,
      "##lin": 3076,
      "capt": 3077,
      "hate": 3078,
      "##gy": 3079,
      "ell": 3080,
      "witness": 3081,
      "hy": 3082,
      "camer": 3083,
      "##ival": 3084,
      "extra": 3085,
      "##ique": 3086,
      "##soci": 3087,
      "desper": 3088,
      "officer": 3089,
      "##ature": 3090,
      "##riage": 3091,
      "definite": 3092,
      "##asing": 3093,
      "touched": 3094,
      "growing": 3095,
      "stories": 3096,
      "avail": 3097,
      "opening": 3098,
      "fal": 3099,
      "unless": 3100,
      "vision": 3101,
      "vamp": 3102,
      "##umed": 3103,
      "satisf": 3104,
      "imposs": 3105,
      "ended": 3106,
      "##ners": 3107,
      "21": 3108,
      "absolute": 3109,
      "remain": 3110,
      "fat": 3111,
      "flat": 3112,
      "finding": 3113,
      "decision": 3114,
      "matt": 3115,
      "turns": 3116,
      "....": 3117,
      "understood": 3118,
      "fold": 3119,
      "lean": 3120,
      "write": 3121,
      "##cend": 3122,
      "wed": 3123,
      "necessary": 3124,
      "uncle": 3125,
      "surface": 3126,
      "##ls": 3127,
      "25": 3128,
      "prim": 3129,
      "murder": 3130,
      "queen": 3131,
      "associ": 3132,
      "letter": 3133,
      "events": 3134,
      "ice": 3135,
      "join": 3136,
      "##hy": 3137,
      "##acher": 3138,
      "##ipping": 3139,
      "spiritual": 3140,
      "##ov": 3141,
      "##ients": 3142,
      "charl": 3143,
      "fac": 3144,
      "lunch": 3145,
      "handle": 3146,
      "gate": 3147,
      "ancient": 3148,
      "engine": 3149,
      "refer": 3150,
      "fighting": 3151,
      "besides": 3152,
      "##bit": 3153,
      "fucking": 3154,
      "ess": 3155,
      "##play": 3156,
      "drove": 3157,
      "wrapped": 3158,
      "feed": 3159,
      "trad": 3160,
      "blind": 3161,
      "male": 3162,
      "##ites": 3163,
      "tongue": 3164,
      "putting": 3165,
      "ya": 3166,
      "ty": 3167,
      "storm": 3168,
      "##riend": 3169,
      "jon": 3170,
      "evidence": 3171,
      "character": 3172,
      "stayed": 3173,
      "higher": 3174,
      "date": 3175,
      "doc": 3176,
      "soldiers": 3177,
      "fully": 3178,
      "##ec": 3179,
      "##ested": 3180,
      "lack": 3181,
      "##ground": 3182,
      "scient": 3183,
      "employ": 3184,
      "eth": 3185,
      "island": 3186,
      "calling": 3187,
      "##yal": 3188,
      "##anted": 3189,
      "dragon": 3190,
      "mere": 3191,
      "miles": 3192,
      "##ables": 3193,
      "asks": 3194,
      "introdu": 3195,
      "search": 3196,
      "received": 3197,
      "jake": 3198,
      "concern": 3199,
      "pred": 3200,
      "push": 3201,
      "missing": 3202,
      "feelings": 3203,
      "built": 3204,
      "bother": 3205,
      "mov": 3206,
      "believed": 3207,
      "repres": 3208,
      "staff": 3209,
      "drop": 3210,
      "university": 3211,
      "##aks": 3212,
      "##rael": 3213,
      "various": 3214,
      "##arily": 3215,
      "president": 3216,
      "usual": 3217,
      "##inking": 3218,
      "##ding": 3219,
      "slid": 3220,
      "ride": 3221,
      "perio": 3222,
      "paid": 3223,
      "sell": 3224,
      "##well": 3225,
      "caused": 3226,
      "##istic": 3227,
      "##lled": 3228,
      "##attered": 3229,
      "access": 3230,
      "pill": 3231,
      "willing": 3232,
      "train": 3233,
      "hidden": 3234,
      "##inting": 3235,
      "jac": 3236,
      "nick": 3237,
      "skill": 3238,
      "##ument": 3239,
      "bible": 3240,
      "size": 3241,
      "investig": 3242,
      "##cr": 3243,
      "science": 3244,
      "locked": 3245,
      "meas": 3246,
      "gon": 3247,
      "smoke": 3248,
      "bank": 3249,
      "private": 3250,
      "##others": 3251,
      "benef": 3252,
      "hen": 3253,
      "##af": 3254,
      "##//": 3255,
      "beast": 3256,
      "pound": 3257,
      "##ication": 3258,
      "approached": 3259,
      "guards": 3260,
      "falling": 3261,
      "host": 3262,
      "000": 3263,
      "stuck": 3264,
      "grass": 3265,
      "ry": 3266,
      "cried": 3267,
      "nobody": 3268,
      "##oint": 3269,
      "breast": 3270,
      "##ively": 3271,
      "##ship": 3272,
      "tu": 3273,
      "creature": 3274,
      "avoid": 3275,
      "laughing": 3276,
      "bound": 3277,
      "happening": 3278,
      "attract": 3279,
      "hearing": 3280,
      "##fast": 3281,
      "risk": 3282,
      "##itor": 3283,
      "wand": 3284,
      "flash": 3285,
      "mic": 3286,
      "##nday": 3287,
      "log": 3288,
      "played": 3289,
      "language": 3290,
      "ep": 3291,
      "fema": 3292,
      "veh": 3293,
      "wash": 3294,
      "pleasure": 3295,
      "shock": 3296,
      "daniel": 3297,
      "thom": 3298,
      "tit": 3299,
      "du": 3300,
      "aside": 3301,
      "impossible": 3302,
      "female": 3303,
      "civ": 3304,
      "kingdom": 3305,
      "metho": 3306,
      "yelled": 3307,
      "training": 3308,
      "scar": 3309,
      "universe": 3310,
      "22": 3311,
      "wore": 3312,
      "laid": 3313,
      "lines": 3314,
      "enemy": 3315,
      "israel": 3316,
      "scene": 3317,
      "attend": 3318,
      "ability": 3319,
      "crack": 3320,
      "obvious": 3321,
      "##cho": 3322,
      "ray": 3323,
      "fish": 3324,
      "##ids": 3325,
      "shadow": 3326,
      "disappeared": 3327,
      "##ston": 3328,
      "##ura": 3329,
      "william": 3330,
      "init": 3331,
      "prepared": 3332,
      "entrance": 3333,
      "##iah": 3334,
      "definitely": 3335,
      "24": 3336,
      "opportunity": 3337,
      "wet": 3338,
      "freed": 3339,
      "stage": 3340,
      "##alth": 3341,
      "swall": 3342,
      "bathroom": 3343,
      "gest": 3344,
      "kat": 3345,
      "students": 3346,
      "sarah": 3347,
      "nar": 3348,
      "rap": 3349,
      "crossed": 3350,
      "military": 3351,
      "##ounced": 3352,
      "quar": 3353,
      "##omb": 3354,
      "slam": 3355,
      "journey": 3356,
      "slipped": 3357,
      "apparently": 3358,
      "mas": 3359,
      "##ruction": 3360,
      "gab": 3361,
      "interrupt": 3362,
      "grinned": 3363,
      "\",": 3364,
      "summer": 3365,
      "gray": 3366,
      "##imin": 3367,
      "##roud": 3368,
      "crew": 3369,
      "toss": 3370,
      "inj": 3371,
      "driver": 3372,
      "luke": 3373,
      "educ": 3374,
      "##icate": 3375,
      "##ores": 3376,
      "##nel": 3377,
      "village": 3378,
      "hole": 3379,
      "unc": 3380,
      "copy": 3381,
      "weapons": 3382,
      "##leep": 3383,
      "east": 3384,
      "vir": 3385,
      "estab": 3386,
      "wake": 3387,
      "data": 3388,
      "wid": 3389,
      "missed": 3390,
      "shouldn": 3391,
      "##anna": 3392,
      "tax": 3393,
      "manage": 3394,
      "dangerous": 3395,
      "market": 3396,
      "custom": 3397,
      "##ashing": 3398,
      "htt": 3399,
      "appreci": 3400,
      "##----": 3401,
      "199": 3402,
      "rand": 3403,
      "interesting": 3404,
      "softly": 3405,
      "disp": 3406,
      "frowned": 3407,
      "##conom": 3408,
      "weapon": 3409,
      "mort": 3410,
      "finish": 3411,
      "://": 3412,
      "create": 3413,
      "##gu": 3414,
      "asleep": 3415,
      "noise": 3416,
      "sla": 3417,
      "addition": 3418,
      "##book": 3419,
      "hotel": 3420,
      "uns": 3421,
      "depend": 3422,
      "clock": 3423,
      "##otten": 3424,
      "confused": 3425,
      "eric": 3426,
      "##ancy": 3427,
      "suppose": 3428,
      "available": 3429,
      "gives": 3430,
      "dance": 3431,
      "occur": 3432,
      "heads": 3433,
      "college": 3434,
      "knife": 3435,
      "tur": 3436,
      "resist": 3437,
      "product": 3438,
      "burst": 3439,
      "rout": 3440,
      "agree": 3441,
      "loss": 3442,
      "##oses": 3443,
      "beach": 3444,
      "##aked": 3445,
      "ourselves": 3446,
      "breathing": 3447,
      "animal": 3448,
      "george": 3449,
      "##ulf": 3450,
      "##ker": 3451,
      "faces": 3452,
      "signific": 3453,
      "gotten": 3454,
      "windows": 3455,
      "##ases": 3456,
      "scared": 3457,
      "bottle": 3458,
      "happens": 3459,
      "movement": 3460,
      "positive": 3461,
      "practice": 3462,
      "##anda": 3463,
      "##arm": 3464,
      "amb": 3465,
      "english": 3466,
      "##ev": 3467,
      "length": 3468,
      "display": 3469,
      "##ndon": 3470,
      "##cking": 3471,
      "ordered": 3472,
      "council": 3473,
      "leader": 3474,
      "club": 3475,
      "##ading": 3476,
      "pin": 3477,
      "econom": 3478,
      "dreams": 3479,
      "boat": 3480,
      "spell": 3481,
      "fed": 3482,
      "opposite": 3483,
      "##claim": 3484,
      "sen": 3485,
      "results": 3486,
      "animals": 3487,
      "wine": 3488,
      "text": 3489,
      "adj": 3490,
      "##anged": 3491,
      "comment": 3492,
      "##orted": 3493,
      "occasion": 3494,
      "breakfast": 3495,
      "surely": 3496,
      "23": 3497,
      "civil": 3498,
      "yellow": 3499,
      "der": 3500,
      "etern": 3501,
      "eating": 3502,
      "prayer": 3503,
      "##iter": 3504,
      "relief": 3505,
      "wondering": 3506,
      "assist": 3507,
      "concerned": 3508,
      "##ological": 3509,
      "garden": 3510,
      "source": 3511,
      "letting": 3512,
      "##host": 3513,
      "sav": 3514,
      "_w": 3515,
      "##iday": 3516,
      "stream": 3517,
      "joined": 3518,
      "impro": 3519,
      "plans": 3520,
      "hanging": 3521,
      "gal": 3522,
      "wonderful": 3523,
      "struct": 3524,
      "eld": 3525,
      "##rel": 3526,
      "pil": 3527,
      "ly": 3528,
      "ghost": 3529,
      "mostly": 3530,
      "behav": 3531,
      "mirror": 3532,
      "listening": 3533,
      "sleeping": 3534,
      "period": 3535,
      "bran": 3536,
      "gonna": 3537,
      "##lished": 3538,
      "##iron": 3539,
      "tea": 3540,
      "welcome": 3541,
      "hers": 3542,
      "##u_": 3543,
      "screamed": 3544,
      "flight": 3545,
      "leading": 3546,
      "amount": 3547,
      "existence": 3548,
      "national": 3549,
      "interested": 3550,
      "net": 3551,
      "sweat": 3552,
      "throughout": 3553,
      "saved": 3554,
      "settled": 3555,
      "judge": 3556,
      "##ki": 3557,
      "careful": 3558,
      "medical": 3559,
      "##ww": 3560,
      "prefer": 3561,
      "##elle": 3562,
      "ken": 3563,
      "broad": 3564,
      "extreme": 3565,
      "aim": 3566,
      "##sequ": 3567,
      "##eness": 3568,
      "million": 3569,
      "##here": 3570,
      "current": 3571,
      "nervous": 3572,
      "\\-": 3573,
      "saf": 3574,
      "leaves": 3575,
      "concent": 3576,
      "tend": 3577,
      "##rid": 3578,
      "confir": 3579,
      "robert": 3580,
      "##stairs": 3581,
      "grad": 3582,
      "##tle": 3583,
      "##key": 3584,
      "lin": 3585,
      "yours": 3586,
      "achie": 3587,
      "##rated": 3588,
      "moder": 3589,
      "##cul": 3590,
      "unable": 3591,
      "sne": 3592,
      "mentioned": 3593,
      "por": 3594,
      "account": 3595,
      "lif": 3596,
      "terror": 3597,
      "greet": 3598,
      "otherwise": 3599,
      "gift": 3600,
      "hi": 3601,
      "flying": 3602,
      "***": 3603,
      "york": 3604,
      "choose": 3605,
      "lucky": 3606,
      "##eral": 3607,
      "##ograph": 3608,
      "##unately": 3609,
      "snapped": 3610,
      "forehead": 3611,
      "##ping": 3612,
      "##gen": 3613,
      "mech": 3614,
      "##ators": 3615,
      "##for": 3616,
      "lip": 3617,
      "chin": 3618,
      "series": 3619,
      "wooden": 3620,
      "##asm": 3621,
      "becoming": 3622,
      "##den": 3623,
      "##ta": 3624,
      ".)": 3625,
      "fallen": 3626,
      "smooth": 3627,
      "possibly": 3628,
      "influ": 3629,
      "wear": 3630,
      "contr": 3631,
      "##aur": 3632,
      "interv": 3633,
      "##otions": 3634,
      "united": 3635,
      "****": 3636,
      "lat": 3637,
      "##ague": 3638,
      "##inary": 3639,
      "##cise": 3640,
      "names": 3641,
      "mix": 3642,
      "removed": 3643,
      "intellig": 3644,
      "eur": 3645,
      "##iving": 3646,
      "##omed": 3647,
      "##ese": 3648,
      "difference": 3649,
      "##iment": 3650,
      "fund": 3651,
      "proud": 3652,
      "checked": 3653,
      "pieces": 3654,
      "trick": 3655,
      "farm": 3656,
      "rough": 3657,
      "##athan": 3658,
      "##imate": 3659,
      "##-+-+": 3660,
      "##board": 3661,
      "spr": 3662,
      "belief": 3663,
      "waved": 3664,
      "numbers": 3665,
      "driving": 3666,
      "role": 3667,
      "instruct": 3668,
      "##asons": 3669,
      "community": 3670,
      "condition": 3671,
      "parts": 3672,
      "ens": 3673,
      "pure": 3674,
      "##ca": 3675,
      "cabin": 3676,
      "details": 3677,
      "figured": 3678,
      "wheel": 3679,
      "anywhere": 3680,
      "comfortable": 3681,
      "repeated": 3682,
      "memories": 3683,
      "',": 3684,
      "innoc": 3685,
      "##roll": 3686,
      "tent": 3687,
      "wave": 3688,
      "anx": 3689,
      "emp": 3690,
      "throw": 3691,
      "opt": 3692,
      "page": 3693,
      "excited": 3694,
      "##ols": 3695,
      "##bb": 3696,
      "charge": 3697,
      "trail": 3698,
      "##ram": 3699,
      "sides": 3700,
      "##mas": 3701,
      "stars": 3702,
      "encou": 3703,
      "tour": 3704,
      "provide": 3705,
      "reflect": 3706,
      "josh": 3707,
      "joe": 3708,
      "scan": 3709,
      "select": 3710,
      "##ico": 3711,
      "hallway": 3712,
      "extend": 3713,
      "##eks": 3714,
      "##ibility": 3715,
      "feels": 3716,
      "address": 3717,
      "reply": 3718,
      "##lam": 3719,
      "hous": 3720,
      "aust": 3721,
      "##ached": 3722,
      "##ka": 3723,
      "emotions": 3724,
      "value": 3725,
      "##illed": 3726,
      "##what": 3727,
      "wrote": 3728,
      "development": 3729,
      "asp": 3730,
      "glance": 3731,
      "frust": 3732,
      "aunt": 3733,
      "##uing": 3734,
      "aid": 3735,
      "nine": 3736,
      "double": 3737,
      "recall": 3738,
      "pra": 3739,
      "freedom": 3740,
      "chief": 3741,
      "##wor": 3742,
      "##aming": 3743,
      "thomas": 3744,
      "##itation": 3745,
      "machine": 3746,
      "##iot": 3747,
      "##iple": 3748,
      "lung": 3749,
      "wolf": 3750,
      "blond": 3751,
      "##icious": 3752,
      "discovered": 3753,
      "complex": 3754,
      "que": 3755,
      "##rop": 3756,
      "##ocking": 3757,
      "##oted": 3758,
      "##han": 3759,
      "buck": 3760,
      "shower": 3761,
      "rum": 3762,
      "lake": 3763,
      "tells": 3764,
      "pool": 3765,
      "scri": 3766,
      "##uce": 3767,
      "##under": 3768,
      "circum": 3769,
      "boss": 3770,
      "nearby": 3771,
      "##ception": 3772,
      "cla": 3773,
      "cred": 3774,
      "jason": 3775,
      "hardly": 3776,
      "echo": 3777,
      "distract": 3778,
      "reb": 3779,
      "##arrass": 3780,
      "actions": 3781,
      "bridge": 3782,
      "##ios": 3783,
      "environ": 3784,
      "embarrass": 3785,
      "religion": 3786,
      "##ims": 3787,
      "hors": 3788,
      "funny": 3789,
      "learning": 3790,
      "heading": 3791,
      "alright": 3792,
      "taught": 3793,
      "##now": 3794,
      "warri": 3795,
      "ze": 3796,
      "exh": 3797,
      "bless": 3798,
      "elev": 3799,
      "bay": 3800,
      "##nds": 3801,
      "circle": 3802,
      "tan": 3803,
      "suggested": 3804,
      "burning": 3805,
      "##izz": 3806,
      "jam": 3807,
      "grey": 3808,
      "mental": 3809,
      "bud": 3810,
      "stare": 3811,
      "wanting": 3812,
      "showing": 3813,
      "exch": 3814,
      "conv": 3815,
      "prince": 3816,
      "previous": 3817,
      "unfort": 3818,
      "decide": 3819,
      "prophet": 3820,
      "marriage": 3821,
      "foc": 3822,
      "brothers": 3823,
      "gathered": 3824,
      "manner": 3825,
      "##uses": 3826,
      "rise": 3827,
      "ju": 3828,
      "deg": 3829,
      "responded": 3830,
      "beauty": 3831,
      "##ost": 3832,
      "dirt": 3833,
      "function": 3834,
      "pit": 3835,
      "term": 3836,
      "react": 3837,
      "golden": 3838,
      "gras": 3839,
      "specific": 3840,
      "##uted": 3841,
      "wisdom": 3842,
      "row": 3843,
      "crit": 3844,
      "named": 3845,
      "##atory": 3846,
      "hello": 3847,
      "smart": 3848,
      "compet": 3849,
      "naked": 3850,
      "mac": 3851,
      "mum": 3852,
      "magn": 3853,
      "promised": 3854,
      "maintain": 3855,
      "dece": 3856,
      "beer": 3857,
      "craw": 3858,
      "iron": 3859,
      "www": 3860,
      "passing": 3861,
      "drift": 3862,
      "##umped": 3863,
      "waist": 3864,
      "##eds": 3865,
      "##yl": 3866,
      "admit": 3867,
      "shape": 3868,
      "##ucked": 3869,
      "##reek": 3870,
      "consciousness": 3871,
      "##othing": 3872,
      "ren": 3873,
      "tv": 3874,
      "pad": 3875,
      "killing": 3876,
      "greater": 3877,
      "flew": 3878,
      "america": 3879,
      "section": 3880,
      "jess": 3881,
      "loose": 3882,
      "jaw": 3883,
      "required": 3884,
      "sher": 3885,
      "##ament": 3886,
      "##nes": 3887,
      "narr": 3888,
      "totally": 3889,
      "forgotten": 3890,
      "pretend": 3891,
      "russ": 3892,
      "pale": 3893,
      "released": 3894,
      "couch": 3895,
      "climbed": 3896,
      "cheeks": 3897,
      "answers": 3898,
      "ideas": 3899,
      "item": 3900,
      "##mar": 3901,
      "purch": 3902,
      "teaching": 3903,
      "##enge": 3904,
      "shared": 3905,
      "grim": 3906,
      "mechan": 3907,
      "progress": 3908,
      "cit": 3909,
      "polic": 3910,
      "gods": 3911,
      "failed": 3912,
      "cham": 3913,
      "cele": 3914,
      "rang": 3915,
      "rare": 3916,
      "shoes": 3917,
      "plate": 3918,
      "crying": 3919,
      "##mp": 3920,
      "potential": 3921,
      "nur": 3922,
      "domin": 3923,
      "teacher": 3924,
      "blade": 3925,
      "pink": 3926,
      "safety": 3927,
      "accident": 3928,
      "helping": 3929,
      "horses": 3930,
      "liter": 3931,
      "cu": 3932,
      "nod": 3933,
      "_i": 3934,
      "kr": 3935,
      "emer": 3936,
      "##enger": 3937,
      "frey": 3938,
      "##comfort": 3939,
      "focused": 3940,
      "jose": 3941,
      "terrible": 3942,
      "qur": 3943,
      "##ora": 3944,
      "grip": 3945,
      "##bi": 3946,
      "##pan": 3947,
      "stated": 3948,
      "reaching": 3949,
      "total": 3950,
      "easier": 3951,
      "yester": 3952,
      "hero": 3953,
      "leather": 3954,
      "changes": 3955,
      "##________": 3956,
      "obl": 3957,
      "script": 3958,
      "carrying": 3959,
      "race": 3960,
      "bent": 3961,
      "rules": 3962,
      "##illy": 3963,
      "creatures": 3964,
      "##house": 3965,
      "aver": 3966,
      "calls": 3967,
      "theory": 3968,
      "reminded": 3969,
      "seek": 3970,
      "##asy": 3971,
      "recover": 3972,
      "yesterday": 3973,
      "##iven": 3974,
      "celebr": 3975,
      "##mon": 3976,
      "gigg": 3977,
      "wished": 3978,
      "taste": 3979,
      "leaders": 3980,
      "transl": 3981,
      "blow": 3982,
      "cass": 3983,
      "struck": 3984,
      "oce": 3985,
      "evolution": 3986,
      "charlie": 3987,
      "hiding": 3988,
      "listened": 3989,
      "incred": 3990,
      "tumor": 3991,
      "task": 3992,
      "##ech": 3993,
      "##ada": 3994,
      "feat": 3995,
      "shield": 3996,
      "shake": 3997,
      "freyja": 3998,
      "solid": 3999,
      "temper": 4000,
      "accepted": 4001,
      "notes": 4002,
      "radio": 4003,
      "bought": 4004,
      "##reg": 4005,
      "plat": 4006,
      "setting": 4007,
      "absolutely": 4008,
      "##kn": 4009,
      "laughter": 4010,
      "aband": 4011,
      "wealth": 4012,
      "##oying": 4013,
      "ult": 4014,
      "worst": 4015,
      "mood": 4016,
      "bol": 4017,
      "thor": 4018,
      "pleased": 4019,
      "fault": 4020,
      "environment": 4021,
      "exha": 4022,
      "twice": 4023,
      "chuckled": 4024,
      "##aging": 4025,
      "cow": 4026,
      "mc": 4027,
      "libr": 4028,
      "shadows": 4029,
      "amazing": 4030,
      "##lyn": 4031,
      "fran": 4032,
      "younger": 4033,
      "ron": 4034,
      "cook": 4035,
      "member": 4036,
      "purs": 4037,
      "shel": 4038,
      "deck": 4039,
      "henry": 4040,
      "original": 4041,
      "##hold": 4042,
      "weird": 4043,
      "wes": 4044,
      "vide": 4045,
      "meal": 4046,
      "roof": 4047,
      "pointing": 4048,
      "ceiling": 4049,
      "##ification": 4050,
      "model": 4051,
      "26": 4052,
      "##eter": 4053,
      "sha": 4054,
      "regular": 4055,
      "media": 4056,
      "modern": 4057,
      "cock": 4058,
      "rushed": 4059,
      "fright": 4060,
      "express": 4061,
      "political": 4062,
      "_d": 4063,
      "squeez": 4064,
      "##ita": 4065,
      "cryst": 4066,
      "##ns": 4067,
      "fought": 4068,
      "negative": 4069,
      "temple": 4070,
      "##vey": 4071,
      "##lies": 4072,
      "pul": 4073,
      "embr": 4074,
      "receive": 4075,
      "streets": 4076,
      "unlike": 4077,
      "##isa": 4078,
      "jacob": 4079,
      "twel": 4080,
      "seriously": 4081,
      "pushing": 4082,
      "faced": 4083,
      "acqu": 4084,
      "cave": 4085,
      "##osen": 4086,
      "##onscious": 4087,
      "planned": 4088,
      "plant": 4089,
      "signs": 4090,
      "issue": 4091,
      "sacrif": 4092,
      "emerg": 4093,
      "profess": 4094,
      "reasons": 4095,
      "pier": 4096,
      "opin": 4097,
      "upset": 4098,
      "knock": 4099,
      "everywhere": 4100,
      "faster": 4101,
      "ms": 4102,
      "dise": 4103,
      "species": 4104,
      "hated": 4105,
      "trave": 4106,
      "pressure": 4107,
      "27": 4108,
      "lap": 4109,
      "giant": 4110,
      "points": 4111,
      "grown": 4112,
      "fifty": 4113,
      "orders": 4114,
      "_the": 4115,
      "former": 4116,
      "198": 4117,
      "##nie": 4118,
      "determined": 4119,
      "matth": 4120,
      "islam": 4121,
      "perfectly": 4122,
      "price": 4123,
      "coat": 4124,
      "tick": 4125,
      "prior": 4126,
      "cars": 4127,
      "myst": 4128,
      "woke": 4129,
      "symb": 4130,
      "##tering": 4131,
      "colon": 4132,
      "pants": 4133,
      "victor": 4134,
      "spring": 4135,
      "terms": 4136,
      "revealed": 4137,
      "profession": 4138,
      "bringing": 4139,
      "uh": 4140,
      "match": 4141,
      "thinks": 4142,
      "religious": 4143,
      "##acle": 4144,
      "##pet": 4145,
      "serve": 4146,
      "provided": 4147,
      "28": 4148,
      "breaking": 4149,
      "movie": 4150,
      "enjoyed": 4151,
      "impl": 4152,
      "false": 4153,
      "sev": 4154,
      "##gest": 4155,
      "concept": 4156,
      "fol": 4157,
      "witch": 4158,
      "frame": 4159,
      "frequ": 4160,
      "##iety": 4161,
      "formed": 4162,
      "fant": 4163,
      "spin": 4164,
      "creation": 4165,
      "causing": 4166,
      "weather": 4167,
      "_y": 4168,
      "percent": 4169,
      "button": 4170,
      "vac": 4171,
      "##wood": 4172,
      "colour": 4173,
      "##antic": 4174,
      "treatment": 4175,
      "##antage": 4176,
      "##ects": 4177,
      "till": 4178,
      "agent": 4179,
      "thy": 4180,
      "ack": 4181,
      "rights": 4182,
      "ba": 4183,
      "technology": 4184,
      "##ointed": 4185,
      "http": 4186,
      "landed": 4187,
      "sof": 4188,
      "powers": 4189,
      "hungry": 4190,
      "nav": 4191,
      "jacket": 4192,
      "divine": 4193,
      "square": 4194,
      "rule": 4195,
      "##rick": 4196,
      "##mission": 4197,
      "circumst": 4198,
      "warning": 4199,
      "carl": 4200,
      "favorite": 4201,
      "novel": 4202,
      "jane": 4203,
      "adult": 4204,
      "eliz": 4205,
      "wise": 4206,
      "doorway": 4207,
      "duty": 4208,
      "dish": 4209,
      "deeply": 4210,
      "property": 4211,
      "rush": 4212,
      "impact": 4213,
      "##pe": 4214,
      "soph": 4215,
      "rach": 4216,
      "patients": 4217,
      "massive": 4218,
      "bloody": 4219,
      "##iance": 4220,
      "##sing": 4221,
      "verse": 4222,
      "reaction": 4223,
      "castle": 4224,
      "##ero": 4225,
      "##aries": 4226,
      "passion": 4227,
      "dawn": 4228,
      "##ulous": 4229,
      "represent": 4230,
      "excuse": 4231,
      "##ira": 4232,
      "woods": 4233,
      "jay": 4234,
      "europe": 4235,
      "twelve": 4236,
      "waves": 4237,
      "##nal": 4238,
      "forces": 4239,
      "rever": 4240,
      "revel": 4241,
      "dirty": 4242,
      "ram": 4243,
      "activity": 4244,
      "ignored": 4245,
      "##off": 4246,
      "##lessly": 4247,
      "##ander": 4248,
      "fifteen": 4249,
      "##inging": 4250,
      "teen": 4251,
      "resc": 4252,
      "brit": 4253,
      "narrow": 4254,
      "pattern": 4255,
      "occup": 4256,
      "##iant": 4257,
      "chris": 4258,
      "rising": 4259,
      "honor": 4260,
      "proceed": 4261,
      "winter": 4262,
      "chem": 4263,
      "##riel": 4264,
      "groups": 4265,
      "laws": 4266,
      "christmas": 4267,
      "restaur": 4268,
      "##ulated": 4269,
      "cleared": 4270,
      "##ifer": 4271,
      "regret": 4272,
      "surrounded": 4273,
      "entirely": 4274,
      ":**": 4275,
      "review": 4276,
      "cart": 4277,
      "everybody": 4278,
      "prove": 4279,
      "richard": 4280,
      "disci": 4281,
      "wil": 4282,
      "losing": 4283,
      "##ishment": 4284,
      "meat": 4285,
      "ow": 4286,
      "cig": 4287,
      "ocean": 4288,
      "eyed": 4289,
      "bul": 4290,
      "chosen": 4291,
      "dying": 4292,
      "burned": 4293,
      "twisted": 4294,
      "##hol": 4295,
      "damage": 4296,
      "matthew": 4297,
      "fruit": 4298,
      "harder": 4299,
      "##ails": 4300,
      "content": 4301,
      "balance": 4302,
      "50": 4303,
      "plane": 4304,
      "refused": 4305,
      "nut": 4306,
      "systems": 4307,
      "becomes": 4308,
      "##isters": 4309,
      "ay": 4310,
      "release": 4311,
      "parking": 4312,
      "##cell": 4313,
      "wings": 4314,
      "stretched": 4315,
      "searching": 4316,
      "plenty": 4317,
      "vall": 4318,
      "pictures": 4319,
      "rubbed": 4320,
      "drawn": 4321,
      "studied": 4322,
      "drug": 4323,
      "kicked": 4324,
      "whenever": 4325,
      "##iana": 4326,
      "lowered": 4327,
      "instantly": 4328,
      "##ule": 4329,
      "##back": 4330,
      "##iles": 4331,
      "##icing": 4332,
      "scrat": 4333,
      "washing": 4334,
      "um": 4335,
      "descend": 4336,
      "daily": 4337,
      "interp": 4338,
      "planning": 4339,
      "analys": 4340,
      "range": 4341,
      "##........": 4342,
      "exer": 4343,
      "bree": 4344,
      "##icles": 4345,
      "honey": 4346,
      "clouds": 4347,
      "defend": 4348,
      "hyp": 4349,
      "drinking": 4350,
      "leaning": 4351,
      "spoken": 4352,
      "gut": 4353,
      "mistake": 4354,
      "##claimed": 4355,
      "iv": 4356,
      "facing": 4357,
      "chick": 4358,
      "glo": 4359,
      "##ider": 4360,
      "ros": 4361,
      "##mit": 4362,
      "##====": 4363,
      "particularly": 4364,
      "pip": 4365,
      "dun": 4366,
      "plus": 4367,
      "sus": 4368,
      "happiness": 4369,
      "german": 4370,
      "musl": 4371,
      "justice": 4372,
      "mi": 4373,
      "##inger": 4374,
      "consequ": 4375,
      "rapid": 4376,
      "##mber": 4377,
      "simon": 4378,
      "beth": 4379,
      "instinct": 4380,
      "unif": 4381,
      "inner": 4382,
      "subst": 4383,
      "larger": 4384,
      "##gment": 4385,
      "gasped": 4386,
      "fate": 4387,
      "ii": 4388,
      "##bled": 4389,
      "acknow": 4390,
      "thousands": 4391,
      "##yer": 4392,
      "transform": 4393,
      "knocked": 4394,
      "resour": 4395,
      "medic": 4396,
      "related": 4397,
      "recognized": 4398,
      "exec": 4399,
      "gall": 4400,
      "map": 4401,
      "##vation": 4402,
      "_s": 4403,
      "interview": 4404,
      "century": 4405,
      "##igned": 4406,
      "relie": 4407,
      "muttered": 4408,
      "mountains": 4409,
      "speech": 4410,
      "sending": 4411,
      "kick": 4412,
      "shows": 4413,
      "##ua": 4414,
      "london": 4415,
      "anna": 4416,
      "instit": 4417,
      "vampire": 4418,
      "strate": 4419,
      "##hr": 4420,
      "stun": 4421,
      "##erson": 4422,
      "tradition": 4423,
      "guide": 4424,
      "tail": 4425,
      "blur": 4426,
      "authority": 4427,
      "oil": 4428,
      "click": 4429,
      "steve": 4430,
      "loving": 4431,
      "drip": 4432,
      "priest": 4433,
      "patient": 4434,
      "remains": 4435,
      "worship": 4436,
      "advent": 4437,
      "forty": 4438,
      "es": 4439,
      "vehicle": 4440,
      "lies": 4441,
      "starts": 4442,
      "cigar": 4443,
      "tied": 4444,
      "bush": 4445,
      "lor": 4446,
      "explan": 4447,
      "growth": 4448,
      "fred": 4449,
      "197": 4450,
      "clut": 4451,
      "panic": 4452,
      "suffering": 4453,
      "awake": 4454,
      "##rate": 4455,
      "lots": 4456,
      "##eps": 4457,
      "somebody": 4458,
      "hurry": 4459,
      "concl": 4460,
      "cha": 4461,
      "100": 4462,
      "wedding": 4463,
      "famil": 4464,
      "remaining": 4465,
      "location": 4466,
      "fash": 4467,
      "##ses": 4468,
      "##asc": 4469,
      "29": 4470,
      "excit": 4471,
      "##bl": 4472,
      "##ancing": 4473,
      "nation": 4474,
      "holl": 4475,
      "##kin": 4476,
      "bat": 4477,
      "glory": 4478,
      "screaming": 4479,
      "survive": 4480,
      "recently": 4481,
      "scale": 4482,
      "unkn": 4483,
      "connect": 4484,
      "contract": 4485,
      "anti": 4486,
      "citiz": 4487,
      "shiver": 4488,
      "staying": 4489,
      "merely": 4490,
      "encoun": 4491,
      "code": 4492,
      "statement": 4493,
      "cro": 4494,
      "virt": 4495,
      "shifted": 4496,
      "interrupted": 4497,
      "##athy": 4498,
      "french": 4499,
      "countries": 4500,
      "ate": 4501,
      "marry": 4502,
      "##lection": 4503,
      "bread": 4504,
      "levels": 4505,
      "devil": 4506,
      "##abeth": 4507,
      "minds": 4508,
      "00": 4509,
      "chose": 4510,
      "silently": 4511,
      "##ino": 4512,
      "effective": 4513,
      "waste": 4514,
      "egg": 4515,
      "therap": 4516,
      "brand": 4517,
      "student": 4518,
      "##eg": 4519,
      "smaller": 4520,
      "slept": 4521,
      "delight": 4522,
      "rear": 4523,
      "##agon": 4524,
      "instant": 4525,
      "soldier": 4526,
      "uniform": 4527,
      "palm": 4528,
      "eager": 4529,
      "unfortunately": 4530,
      "royal": 4531,
      "fist": 4532,
      "##eous": 4533,
      "tightly": 4534,
      "connection": 4535,
      "ber": 4536,
      "princ": 4537,
      "sees": 4538,
      "indust": 4539,
      "changing": 4540,
      "excitement": 4541,
      "forms": 4542,
      "swung": 4543,
      "##istan": 4544,
      "40": 4545,
      "rot": 4546,
      "shown": 4547,
      "smir": 4548,
      "nowhere": 4549,
      "##iently": 4550,
      "issues": 4551,
      "hearts": 4552,
      "##aken": 4553,
      "bast": 4554,
      "##over": 4555,
      "fan": 4556,
      "##isions": 4557,
      "require": 4558,
      "particip": 4559,
      "steel": 4560,
      "danny": 4561,
      "##ille": 4562,
      "corrid": 4563,
      "department": 4564,
      "experienced": 4565,
      "rooms": 4566,
      "voices": 4567,
      "weeke": 4568,
      "conc": 4569,
      "fashion": 4570,
      "sunday": 4571,
      "games": 4572,
      "##ded": 4573,
      "cases": 4574,
      "##inese": 4575,
      "sexual": 4576,
      "rick": 4577,
      "faint": 4578,
      "expecting": 4579,
      "shocked": 4580,
      "##cast": 4581,
      "afric": 4582,
      "flow": 4583,
      "appearance": 4584,
      "jeff": 4585,
      "pm": 4586,
      "liqu": 4587,
      "bigger": 4588,
      "hurried": 4589,
      "official": 4590,
      "collect": 4591,
      "blast": 4592,
      "##iring": 4593,
      "height": 4594,
      "##ris": 4595,
      "stands": 4596,
      "boots": 4597,
      "clar": 4598,
      "##ibly": 4599,
      "apolog": 4600,
      "fellow": 4601,
      "drunk": 4602,
      "swim": 4603,
      "##umbling": 4604,
      "accompl": 4605,
      "partner": 4606,
      "closing": 4607,
      "quality": 4608,
      "##oma": 4609,
      "liber": 4610,
      "distur": 4611,
      "matters": 4612,
      "##uries": 4613,
      "##iest": 4614,
      "education": 4615,
      "camera": 4616,
      "transport": 4617,
      "fab": 4618,
      "stir": 4619,
      "##ivity": 4620,
      "##uous": 4621,
      "flood": 4622,
      "uncomfort": 4623,
      "eve": 4624,
      "library": 4625,
      "##uments": 4626,
      "contain": 4627,
      "hug": 4628,
      "challenge": 4629,
      "contents": 4630,
      "beings": 4631,
      "intense": 4632,
      "##ga": 4633,
      "tossed": 4634,
      "deeper": 4635,
      "developed": 4636,
      "spark": 4637,
      "slammed": 4638,
      "plain": 4639,
      "flowers": 4640,
      "curious": 4641,
      "destroyed": 4642,
      "bord": 4643,
      "##ym": 4644,
      "##ado": 4645,
      "families": 4646,
      "foreign": 4647,
      "unw": 4648,
      "grate": 4649,
      "##rog": 4650,
      "princess": 4651,
      "buildings": 4652,
      "org": 4653,
      "bite": 4654,
      "rib": 4655,
      "imagined": 4656,
      "cash": 4657,
      "crime": 4658,
      "compared": 4659,
      "math": 4660,
      "butt": 4661,
      "tear": 4662,
      "##eping": 4663,
      "glow": 4664,
      "returning": 4665,
      "sport": 4666,
      "fulf": 4667,
      "ast": 4668,
      "clin": 4669,
      "professor": 4670,
      "wiped": 4671,
      "somewhat": 4672,
      "background": 4673,
      "andrew": 4674,
      "glasses": 4675,
      "swallowed": 4676,
      "brad": 4677,
      "advantage": 4678,
      "##icip": 4679,
      "served": 4680,
      "abc": 4681,
      "orange": 4682,
      "behavior": 4683,
      "structure": 4684,
      "chinese": 4685,
      "responsible": 4686,
      "coin": 4687,
      "awk": 4688,
      "vin": 4689,
      "mob": 4690,
      "style": 4691,
      "houses": 4692,
      "##ubb": 4693,
      "kim": 4694,
      "neighbor": 4695,
      "joseph": 4696,
      "autom": 4697,
      "awkward": 4698,
      "nin": 4699,
      "method": 4700,
      "##ato": 4701,
      "forgive": 4702,
      "goal": 4703,
      "video": 4704,
      "apr": 4705,
      "##iation": 4706,
      "micro": 4707,
      "protection": 4708,
      "unknown": 4709,
      "inqu": 4710,
      "ax": 4711,
      "##iber": 4712,
      "ara": 4713,
      "ment": 4714,
      "##oph": 4715,
      "season": 4716,
      "helen": 4717,
      "##ulate": 4718,
      "##case": 4719,
      "international": 4720,
      "jeans": 4721,
      "ryan": 4722,
      "##fl": 4723,
      "murm": 4724,
      "mercy": 4725,
      "commander": 4726,
      "terrif": 4727,
      "elizabeth": 4728,
      "prevent": 4729,
      "demanded": 4730,
      "reject": 4731,
      "huh": 4732,
      "gain": 4733,
      "upper": 4734,
      "31": 4735,
      "extremely": 4736,
      "##any": 4737,
      "labor": 4738,
      "##vision": 4739,
      "##def": 4740,
      "sink": 4741,
      "knight": 4742,
      "##ford": 4743,
      "confusion": 4744,
      "righteous": 4745,
      "##org": 4746,
      "isa": 4747,
      "smiles": 4748,
      "##illing": 4749,
      "##issa": 4750,
      "officers": 4751,
      "tip": 4752,
      "papers": 4753,
      "flick": 4754,
      "appl": 4755,
      "features": 4756,
      "greek": 4757,
      "spun": 4758,
      "finan": 4759,
      "hast": 4760,
      "_u_": 4761,
      "jap": 4762,
      "relative": 4763,
      "kh": 4764,
      "circumstances": 4765,
      "mate": 4766,
      "aug": 4767,
      "##time": 4768,
      "##oon": 4769,
      "_h": 4770,
      "philos": 4771,
      "##ein": 4772,
      "##enched": 4773,
      "nik": 4774,
      "rail": 4775,
      "satur": 4776,
      "disg": 4777,
      "##phone": 4778,
      "knee": 4779,
      "hal": 4780,
      "legal": 4781,
      "tunnel": 4782,
      "##erves": 4783,
      "##ella": 4784,
      "cru": 4785,
      "agreement": 4786,
      "ox": 4787,
      "puzz": 4788,
      "billy": 4789,
      "tony": 4790,
      "struggled": 4791,
      "doct": 4792,
      "ain": 4793,
      "##epend": 4794,
      "##esis": 4795,
      "intent": 4796,
      "##uced": 4797,
      "buried": 4798,
      "rocks": 4799,
      "alien": 4800,
      "central": 4801,
      "passage": 4802,
      "stronger": 4803,
      "paint": 4804,
      "##icient": 4805,
      "site": 4806,
      "stock": 4807,
      "bon": 4808,
      "settle": 4809,
      "yard": 4810,
      "wrist": 4811,
      "stranger": 4812,
      "bones": 4813,
      "possess": 4814,
      "restaurant": 4815,
      "bitch": 4816,
      "recognize": 4817,
      "rolling": 4818,
      "ali": 4819,
      "tort": 4820,
      "dozen": 4821,
      "traff": 4822,
      "##whel": 4823,
      "highly": 4824,
      "##zed": 4825,
      "poured": 4826,
      "increased": 4827,
      "blame": 4828,
      "##eline": 4829,
      "march": 4830,
      "muscles": 4831,
      "lovely": 4832,
      "services": 4833,
      "fired": 4834,
      "file": 4835,
      "##mos": 4836,
      "areas": 4837,
      "kell": 4838,
      "conce": 4839,
      "shift": 4840,
      "##iveness": 4841,
      "breathe": 4842,
      "##atives": 4843,
      "##exp": 4844,
      "stan": 4845,
      "greatest": 4846,
      "annoy": 4847,
      "##tha": 4848,
      "plastic": 4849,
      "thir": 4850,
      "emotional": 4851,
      "scott": 4852,
      "distant": 4853,
      "chase": 4854,
      "dragged": 4855,
      "##wal": 4856,
      "connected": 4857,
      "##bey": 4858,
      "overwhel": 4859,
      "letters": 4860,
      "pace": 4861,
      "kate": 4862,
      "claw": 4863,
      "godd": 4864,
      "innocent": 4865,
      "nurse": 4866,
      "##can": 4867,
      "##lling": 4868,
      "charles": 4869,
      "raise": 4870,
      "chamber": 4871,
      "trade": 4872,
      "corpor": 4873,
      "angels": 4874,
      "amy": 4875,
      "drawing": 4876,
      "acts": 4877,
      "##::::::::": 4878,
      "satan": 4879,
      "beck": 4880,
      "normally": 4881,
      "abcdef": 4882,
      "abcdefgh": 4883,
      "[::::::::": 4884,
      "skills": 4885,
      "[::::::::]": 4886,
      "steady": 4887,
      "tremb": 4888,
      "##omm": 4889,
      "actual": 4890,
      "scen": 4891,
      "clothing": 4892,
      "dogs": 4893,
      "##oh": 4894,
      "ward": 4895,
      "explos": 4896,
      "analysis": 4897,
      "harry": 4898,
      "##aper": 4899,
      "hundreds": 4900,
      "##vert": 4901,
      "\"...": 4902,
      "birds": 4903,
      "confidence": 4904,
      "dave": 4905,
      "status": 4906,
      "##bow": 4907,
      "rate": 4908,
      "population": 4909,
      "wow": 4910,
      "les": 4911,
      "pride": 4912,
      "crystal": 4913,
      "equip": 4914,
      "##vis": 4915,
      "admitted": 4916,
      "friendly": 4917,
      "ships": 4918,
      "belt": 4919,
      "rif": 4920,
      "horror": 4921,
      "recent": 4922,
      "chain": 4923,
      "valley": 4924,
      "##cks": 4925,
      "thumb": 4926,
      "flu": 4927,
      "request": 4928,
      "mud": 4929,
      "alco": 4930,
      "intended": 4931,
      "separate": 4932,
      "stiff": 4933,
      "surrounding": 4934,
      "bone": 4935,
      "challeng": 4936,
      "martin": 4937,
      "insisted": 4938,
      "excell": 4939,
      "brow": 4940,
      "loudly": 4941,
      "##---": 4942,
      "marcus": 4943,
      "##ggie": 4944,
      "effects": 4945,
      "sons": 4946,
      "fixed": 4947,
      "convinced": 4948,
      "##raft": 4949,
      "influence": 4950,
      "##ari": 4951,
      "thrust": 4952,
      "##sec": 4953,
      "constant": 4954,
      "shame": 4955,
      "##~~": 4956,
      "souls": 4957,
      "successful": 4958,
      "dare": 4959,
      "keys": 4960,
      "##ales": 4961,
      "birthday": 4962,
      "##rier": 4963,
      "japan": 4964,
      "jere": 4965,
      "##win": 4966,
      "ham": 4967,
      "##acks": 4968,
      "capable": 4969,
      "opinion": 4970,
      "split": 4971,
      "images": 4972,
      "##isible": 4973,
      "considering": 4974,
      "##jo": 4975,
      "cycle": 4976,
      "ari": 4977,
      "youth": 4978,
      "stress": 4979,
      "##lor": 4980,
      "tempt": 4981,
      "##mother": 4982,
      "##olic": 4983,
      "##hen": 4984,
      "sake": 4985,
      "smith": 4986,
      "electric": 4987,
      "assumed": 4988,
      "rachel": 4989,
      "tough": 4990,
      "independ": 4991,
      "culture": 4992,
      "glob": 4993,
      "##bur": 4994,
      "advice": 4995,
      "chat": 4996,
      "anticip": 4997,
      "tower": 4998,
      "##istry": 4999,
      "##while": 5000,
      "version": 5001,
      "parked": 5002,
      "rage": 5003,
      "##father": 5004,
      "begins": 5005,
      "blanket": 5006,
      "##inda": 5007,
      "judgment": 5008,
      "pile": 5009,
      "bitter": 5010,
      "inhib": 5011,
      "cous": 5012,
      "thrown": 5013,
      "monster": 5014,
      "achieve": 5015,
      "thigh": 5016,
      "whoever": 5017,
      "throwing": 5018,
      "admin": 5019,
      "diss": 5020,
      "heavily": 5021,
      "##inked": 5022,
      "greg": 5023,
      "##pri": 5024,
      "dollars": 5025,
      "owner": 5026,
      "ethan": 5027,
      "eternal": 5028,
      "described": 5029,
      "detective": 5030,
      "##oms": 5031,
      "gle": 5032,
      "treated": 5033,
      "##ords": 5034,
      "##atically": 5035,
      "une": 5036,
      "hasn": 5037,
      "etc": 5038,
      "scent": 5039,
      "disease": 5040,
      "##ivers": 5041,
      "trib": 5042,
      "##eled": 5043,
      "##da": 5044,
      "pregn": 5045,
      "##inn": 5046,
      "##uary": 5047,
      "persp": 5048,
      "##otic": 5049,
      "title": 5050,
      "altern": 5051,
      "serge": 5052,
      "piss": 5053,
      "fer": 5054,
      "cott": 5055,
      "associated": 5056,
      "equipment": 5057,
      "appears": 5058,
      "humanity": 5059,
      "rat": 5060,
      "television": 5061,
      "observed": 5062,
      "faded": 5063,
      "##ads": 5064,
      "increase": 5065,
      "accompan": 5066,
      "announced": 5067,
      "##rey": 5068,
      "##unted": 5069,
      "lone": 5070,
      "explanation": 5071,
      "guilt": 5072,
      "vent": 5073,
      "oct": 5074,
      "qual": 5075,
      "acting": 5076,
      "measure": 5077,
      "vib": 5078,
      "fiction": 5079,
      "##ен": 5080,
      "troo": 5081,
      "christians": 5082,
      "firmly": 5083,
      "guil": 5084,
      "landing": 5085,
      "furn": 5086,
      "contrib": 5087,
      "##ault": 5088,
      "included": 5089,
      "##rant": 5090,
      "##alous": 5091,
      "196": 5092,
      "contem": 5093,
      "##oe": 5094,
      "gang": 5095,
      "squeezed": 5096,
      "##ache": 5097,
      "loves": 5098,
      "hips": 5099,
      "entertain": 5100,
      "jun": 5101,
      "enth": 5102,
      "demonstr": 5103,
      "##ctions": 5104,
      "cath": 5105,
      "weekend": 5106,
      "haw": 5107,
      "dancing": 5108,
      "popular": 5109,
      "##hh": 5110,
      "tam": 5111,
      "syn": 5112,
      "rested": 5113,
      "useful": 5114,
      "credit": 5115,
      "##agger": 5116,
      "basic": 5117,
      "##aron": 5118,
      "##ocol": 5119,
      "unus": 5120,
      "blinked": 5121,
      "##pse": 5122,
      "emma": 5123,
      "drugs": 5124,
      "spotted": 5125,
      "bang": 5126,
      "##friend": 5127,
      "##rain": 5128,
      "##imately": 5129,
      "items": 5130,
      "avo": 5131,
      "relaxed": 5132,
      "revelation": 5133,
      "##umin": 5134,
      "alice": 5135,
      "##ounce": 5136,
      "sched": 5137,
      "journal": 5138,
      "ven": 5139,
      "career": 5140,
      "dread": 5141,
      "clo": 5142,
      "desperate": 5143,
      "thunder": 5144,
      "betray": 5145,
      "##itched": 5146,
      "retrie": 5147,
      "##ani": 5148,
      "sequ": 5149,
      "swear": 5150,
      "extended": 5151,
      "reluct": 5152,
      "sole": 5153,
      "ignore": 5154,
      "appreciate": 5155,
      "chann": 5156,
      "glor": 5157,
      "intelligence": 5158,
      "elevator": 5159,
      "emily": 5160,
      "responsibility": 5161,
      "limited": 5162,
      "bry": 5163,
      "ladies": 5164,
      "rod": 5165,
      "guns": 5166,
      "coast": 5167,
      "studies": 5168,
      "continues": 5169,
      "til": 5170,
      "proof": 5171,
      "##ointment": 5172,
      "##agged": 5173,
      "flashed": 5174,
      "ps": 5175,
      "spirits": 5176,
      "##arian": 5177,
      "walks": 5178,
      "pause": 5179,
      "disbel": 5180,
      "blessed": 5181,
      "stopping": 5182,
      "forgot": 5183,
      "flames": 5184,
      "folded": 5185,
      "unconscious": 5186,
      "##?\"": 5187,
      "treas": 5188,
      "paying": 5189,
      "warmth": 5190,
      "traffic": 5191,
      "healing": 5192,
      "ease": 5193,
      "afford": 5194,
      "western": 5195,
      "unit": 5196,
      "arrange": 5197,
      "##umps": 5198,
      "degree": 5199,
      "dw": 5200,
      "utter": 5201,
      "bond": 5202,
      "bags": 5203,
      "gabriel": 5204,
      "vast": 5205,
      "relieved": 5206,
      "##aly": 5207,
      "?!": 5208,
      "possibility": 5209,
      "strike": 5210,
      "33": 5211,
      "##elled": 5212,
      "exclaimed": 5213,
      "defense": 5214,
      "hoo": 5215,
      "##****": 5216,
      "reported": 5217,
      "brian": 5218,
      "rab": 5219,
      "allowing": 5220,
      "conditions": 5221,
      "activities": 5222,
      "capital": 5223,
      "##ket": 5224,
      "senses": 5225,
      "horiz": 5226,
      "gif": 5227,
      "bowl": 5228,
      "survival": 5229,
      "standard": 5230,
      "glared": 5231,
      "shell": 5232,
      "ug": 5233,
      "sed": 5234,
      "##ints": 5235,
      "significant": 5236,
      "ou": 5237,
      "stair": 5238,
      "offering": 5239,
      "saturday": 5240,
      "briefly": 5241,
      "##met": 5242,
      "appropri": 5243,
      "manif": 5244,
      "thee": 5245,
      "picking": 5246,
      "chairs": 5247,
      "##lict": 5248,
      "colored": 5249,
      "habit": 5250,
      "hugged": 5251,
      "##urance": 5252,
      "corridor": 5253,
      "closely": 5254,
      "surre": 5255,
      "lucy": 5256,
      "lee": 5257,
      "##ware": 5258,
      "occurred": 5259,
      "glim": 5260,
      "spect": 5261,
      "resources": 5262,
      "sob": 5263,
      "lic": 5264,
      "daddy": 5265,
      "region": 5266,
      "exit": 5267,
      "ends": 5268,
      "##field": 5269,
      "pages": 5270,
      "cris": 5271,
      "cough": 5272,
      "guilty": 5273,
      "gosp": 5274,
      "##ila": 5275,
      "attached": 5276,
      "ded": 5277,
      "##reh": 5278,
      "joke": 5279,
      "cream": 5280,
      "confident": 5281,
      "uncomfortable": 5282,
      "32": 5283,
      "device": 5284,
      "##aping": 5285,
      "##athers": 5286,
      "friday": 5287,
      "yan": 5288,
      "applic": 5289,
      "internet": 5290,
      "screw": 5291,
      "##brows": 5292,
      "##ан": 5293,
      "##rin": 5294,
      "option": 5295,
      "##ij": 5296,
      "cliff": 5297,
      "approaching": 5298,
      "audience": 5299,
      "##eding": 5300,
      "35": 5301,
      "suffer": 5302,
      "sisters": 5303,
      "crimin": 5304,
      "frag": 5305,
      "grave": 5306,
      "courage": 5307,
      "johnny": 5308,
      "grateful": 5309,
      "centre": 5310,
      "las": 5311,
      "eyebrows": 5312,
      "##neath": 5313,
      "reass": 5314,
      "realised": 5315,
      "elder": 5316,
      "hunter": 5317,
      "underneath": 5318,
      "##urally": 5319,
      "hood": 5320,
      "##iley": 5321,
      "indic": 5322,
      "slip": 5323,
      "remove": 5324,
      "##lfriend": 5325,
      "ves": 5326,
      "##ona": 5327,
      "carol": 5328,
      "stab": 5329,
      "efforts": 5330,
      "enjoying": 5331,
      "breeze": 5332,
      "creating": 5333,
      "upstairs": 5334,
      "##va": 5335,
      "##ays": 5336,
      "attacked": 5337,
      "precious": 5338,
      "alcohol": 5339,
      "constantly": 5340,
      "wing": 5341,
      "girlfriend": 5342,
      "##enth": 5343,
      "nights": 5344,
      "gear": 5345,
      "intention": 5346,
      "china": 5347,
      "financial": 5348,
      "##ode": 5349,
      "##uk": 5350,
      "collaps": 5351,
      "craft": 5352,
      "badly": 5353,
      "dart": 5354,
      "surprising": 5355,
      "cheer": 5356,
      "##agg": 5357,
      "swift": 5358,
      "####": 5359,
      "keeps": 5360,
      "informed": 5361,
      "##stand": 5362,
      "visible": 5363,
      "reward": 5364,
      "cere": 5365,
      "depth": 5366,
      "secure": 5367,
      "warned": 5368,
      "replaced": 5369,
      "goodby": 5370,
      "grant": 5371,
      "blonde": 5372,
      "enemies": 5373,
      "ted": 5374,
      "ske": 5375,
      "platform": 5376,
      "random": 5377,
      "ridic": 5378,
      "pleasant": 5379,
      "touching": 5380,
      "skull": 5381,
      "_t": 5382,
      "discussion": 5383,
      "##ucle": 5384,
      "cos": 5385,
      "benefit": 5386,
      "grandmother": 5387,
      "##col": 5388,
      "bench": 5389,
      "az": 5390,
      "##utions": 5391,
      "inher": 5392,
      "newsp": 5393,
      "claire": 5394,
      "tables": 5395,
      "##nda": 5396,
      "histor": 5397,
      "core": 5398,
      "covering": 5399,
      "unb": 5400,
      "myster": 5401,
      "reveal": 5402,
      "unique": 5403,
      "belly": 5404,
      "analy": 5405,
      "abrupt": 5406,
      "consum": 5407,
      "grav": 5408,
      "##gger": 5409,
      "web": 5410,
      "##olved": 5411,
      "torn": 5412,
      "retreat": 5413,
      "curtain": 5414,
      "bru": 5415,
      "article": 5416,
      "commit": 5417,
      "rope": 5418,
      "shr": 5419,
      "climb": 5420,
      "leads": 5421,
      "fourth": 5422,
      "satisfied": 5423,
      "include": 5424,
      "inch": 5425,
      "struggle": 5426,
      "py": 5427,
      "grandfather": 5428,
      "##iated": 5429,
      "ped": 5430,
      "slee": 5431,
      "##bie": 5432,
      "adop": 5433,
      "##rian": 5434,
      "assume": 5435,
      "##zing": 5436,
      "designed": 5437,
      "impress": 5438,
      "roman": 5439,
      "anybody": 5440,
      "jimmy": 5441,
      "##erence": 5442,
      "purple": 5443,
      "sust": 5444,
      "worn": 5445,
      "milk": 5446,
      "boyfriend": 5447,
      "dismiss": 5448,
      "alt": 5449,
      "professional": 5450,
      "shoved": 5451,
      "envelop": 5452,
      "brushed": 5453,
      "brush": 5454,
      "horrible": 5455,
      "##itable": 5456,
      "invited": 5457,
      "stal": 5458,
      "arrive": 5459,
      "asse": 5460,
      "moves": 5461,
      "##oles": 5462,
      "encoura": 5463,
      "##coming": 5464,
      "lesson": 5465,
      "egy": 5466,
      "interpret": 5467,
      "healthy": 5468,
      "element": 5469,
      "backed": 5470,
      "improve": 5471,
      "violence": 5472,
      "sem": 5473,
      "conduct": 5474,
      "sara": 5475,
      "assum": 5476,
      "nations": 5477,
      "palace": 5478,
      "##ody": 5479,
      "imper": 5480,
      "poison": 5481,
      "assured": 5482,
      "wicked": 5483,
      "ian": 5484,
      "wiz": 5485,
      "blew": 5486,
      "hesitated": 5487,
      "##pers": 5488,
      "##izes": 5489,
      "attitude": 5490,
      "...'": 5491,
      "servant": 5492,
      "fields": 5493,
      "warrior": 5494,
      "inches": 5495,
      "egypt": 5496,
      "##alu": 5497,
      "compass": 5498,
      "prepare": 5499,
      "solution": 5500,
      "brick": 5501,
      "##xic": 5502,
      "##i_": 5503,
      "scientific": 5504,
      "plants": 5505,
      "45": 5506,
      "irrit": 5507,
      "##usi": 5508,
      "hay": 5509,
      "desert": 5510,
      "jenny": 5511,
      "##do": 5512,
      "##iqu": 5513,
      "stones": 5514,
      "##phere": 5515,
      "strang": 5516,
      "liquid": 5517,
      "silly": 5518,
      "ak": 5519,
      "tempor": 5520,
      "saving": 5521,
      "##rete": 5522,
      "##cies": 5523,
      "breathed": 5524,
      "appe": 5525,
      "types": 5526,
      "excellent": 5527,
      "##fall": 5528,
      "transfer": 5529,
      "ec": 5530,
      "##li": 5531,
      "lan": 5532,
      "rh": 5533,
      "frozen": 5534,
      "emph": 5535,
      "ignor": 5536,
      "##ission": 5537,
      "unp": 5538,
      "pow": 5539,
      "cooper": 5540,
      "brill": 5541,
      "ling": 5542,
      "smash": 5543,
      "##amm": 5544,
      "imagination": 5545,
      "##ula": 5546,
      "sergeant": 5547,
      "sniff": 5548,
      "dick": 5549,
      "amongst": 5550,
      "quant": 5551,
      "succeed": 5552,
      "cher": 5553,
      "bio": 5554,
      "british": 5555,
      "kyle": 5556,
      "nic": 5557,
      "pant": 5558,
      "regarding": 5559,
      "##arsh": 5560,
      "searched": 5561,
      "washed": 5562,
      "checking": 5563,
      "marsh": 5564,
      "noted": 5565,
      "nucle": 5566,
      "painful": 5567,
      "suspic": 5568,
      "##enn": 5569,
      "##certain": 5570,
      "sheep": 5571,
      "throne": 5572,
      "butter": 5573,
      "begun": 5574,
      "groaned": 5575,
      "##place": 5576,
      "seth": 5577,
      "demons": 5578,
      "brings": 5579,
      "jealous": 5580,
      "recomm": 5581,
      "salvation": 5582,
      "handsome": 5583,
      "resting": 5584,
      "holds": 5585,
      "exchange": 5586,
      "destruction": 5587,
      "liz": 5588,
      "tay": 5589,
      "##adem": 5590,
      "workers": 5591,
      "dna": 5592,
      "economic": 5593,
      "nathan": 5594,
      "buzz": 5595,
      "##ran": 5596,
      "trained": 5597,
      "##uine": 5598,
      "demo": 5599,
      "supply": 5600,
      "decor": 5601,
      "global": 5602,
      "lam": 5603,
      "kissing": 5604,
      "##cher": 5605,
      "established": 5606,
      "seated": 5607,
      ".**": 5608,
      "unexp": 5609,
      "escaped": 5610,
      "stern": 5611,
      "porch": 5612,
      "##ayed": 5613,
      "riding": 5614,
      "football": 5615,
      "mystery": 5616,
      "jews": 5617,
      "experiences": 5618,
      "tang": 5619,
      "bunch": 5620,
      "ath": 5621,
      "exhausted": 5622,
      "bor": 5623,
      "abandoned": 5624,
      "##rom": 5625,
      "rust": 5626,
      "dining": 5627,
      "tie": 5628,
      "magaz": 5629,
      "##ban": 5630,
      "span": 5631,
      "victim": 5632,
      "india": 5633,
      "switch": 5634,
      "likes": 5635,
      "servants": 5636,
      "##bby": 5637,
      "##abor": 5638,
      "famous": 5639,
      "august": 5640,
      "alarm": 5641,
      "aaron": 5642,
      "cale": 5643,
      "##mn": 5644,
      "hopefully": 5645,
      "incident": 5646,
      "inte": 5647,
      "ank": 5648,
      "twist": 5649,
      "##ops": 5650,
      "##cis": 5651,
      "##ida": 5652,
      "waters": 5653,
      "permission": 5654,
      "##sey": 5655,
      "startled": 5656,
      "stumbled": 5657,
      "unexpected": 5658,
      "resem": 5659,
      "##acles": 5660,
      "##uten": 5661,
      "seeking": 5662,
      "mask": 5663,
      "##orter": 5664,
      "##mad": 5665,
      "##che": 5666,
      "rode": 5667,
      "gradu": 5668,
      "swir": 5669,
      "jean": 5670,
      "trem": 5671,
      "driven": 5672,
      "armed": 5673,
      "sins": 5674,
      "##ounts": 5675,
      "##ok": 5676,
      "limit": 5677,
      "genuine": 5678,
      "admir": 5679,
      "argument": 5680,
      "##gl": 5681,
      "emerged": 5682,
      "conflict": 5683,
      "citizens": 5684,
      "produced": 5685,
      "constit": 5686,
      "gospel": 5687,
      "beam": 5688,
      "shooting": 5689,
      "hamm": 5690,
      "packed": 5691,
      "guests": 5692,
      "susan": 5693,
      "production": 5694,
      "##lement": 5695,
      "published": 5696,
      "barn": 5697,
      "embrace": 5698,
      "budd": 5699,
      "coach": 5700,
      "spending": 5701,
      "establish": 5702,
      "growled": 5703,
      "##annah": 5704,
      "failure": 5705,
      "##arch": 5706,
      "##asha": 5707,
      "exposed": 5708,
      "observ": 5709,
      "hover": 5710,
      "bowed": 5711,
      "disgust": 5712,
      "##resp": 5713,
      "louis": 5714,
      "##ront": 5715,
      "sentence": 5716,
      "medicine": 5717,
      "clearing": 5718,
      "suspect": 5719,
      "bullet": 5720,
      "dumb": 5721,
      "polite": 5722,
      "produce": 5723,
      "##ст": 5724,
      "pist": 5725,
      "lightly": 5726,
      "nap": 5727,
      "mail": 5728,
      "accur": 5729,
      "prec": 5730,
      "##ums": 5731,
      "##ulted": 5732,
      "menu": 5733,
      "generally": 5734,
      "intellect": 5735,
      "breasts": 5736,
      "##aud": 5737,
      "ib": 5738,
      "rein": 5739,
      "##aker": 5740,
      "##ulations": 5741,
      "_p": 5742,
      "enthusi": 5743,
      "##rict": 5744,
      "earn": 5745,
      "confirmed": 5746,
      "drinks": 5747,
      "academ": 5748,
      "currently": 5749,
      "rig": 5750,
      "basis": 5751,
      "multiple": 5752,
      "##uls": 5753,
      "sean": 5754,
      "introduced": 5755,
      "purchase": 5756,
      "tex": 5757,
      "desperately": 5758,
      "symp": 5759,
      "##uf": 5760,
      "lieuten": 5761,
      "pitch": 5762,
      "cd": 5763,
      "management": 5764,
      "dang": 5765,
      "falls": 5766,
      "gazed": 5767,
      "champ": 5768,
      "enorm": 5769,
      "sacrifice": 5770,
      "mole": 5771,
      "fence": 5772,
      "chew": 5773,
      "rescue": 5774,
      "ka": 5775,
      "ky": 5776,
      "quarter": 5777,
      "##utes": 5778,
      "vessel": 5779,
      "dwell": 5780,
      "36": 5781,
      "##ige": 5782,
      "virgin": 5783,
      "runs": 5784,
      "peered": 5785,
      "obey": 5786,
      "##11": 5787,
      "blaz": 5788,
      "swept": 5789,
      "unusual": 5790,
      "cared": 5791,
      "invisible": 5792,
      "operation": 5793,
      "##inity": 5794,
      "##oll": 5795,
      "conclusion": 5796,
      "sadd": 5797,
      "jobs": 5798,
      "fasc": 5799,
      "##iy": 5800,
      "murd": 5801,
      "frustration": 5802,
      "corrupt": 5803,
      "tab": 5804,
      "arth": 5805,
      "average": 5806,
      "directions": 5807,
      "il": 5808,
      "_b": 5809,
      "moral": 5810,
      "kinds": 5811,
      "cards": 5812,
      "pilot": 5813,
      "grabbing": 5814,
      "exercise": 5815,
      "##oul": 5816,
      "##iable": 5817,
      "raising": 5818,
      "advanced": 5819,
      "_m": 5820,
      "nan": 5821,
      "located": 5822,
      "decisions": 5823,
      "dor": 5824,
      "manager": 5825,
      "integr": 5826,
      "communication": 5827,
      "april": 5828,
      "individuals": 5829,
      "union": 5830,
      "##idents": 5831,
      "##osis": 5832,
      "veget": 5833,
      "lisa": 5834,
      "garage": 5835,
      "route": 5836,
      "maria": 5837,
      "34": 5838,
      "bun": 5839,
      "resistance": 5840,
      "protest": 5841,
      "convince": 5842,
      "shade": 5843,
      "lev": 5844,
      "harsh": 5845,
      "moses": 5846,
      "goodbye": 5847,
      "expensive": 5848,
      "incl": 5849,
      "obtain": 5850,
      "struggling": 5851,
      "##eling": 5852,
      "killer": 5853,
      "adjust": 5854,
      "victory": 5855,
      "##raw": 5856,
      "lyn": 5857,
      "reven": 5858,
      "##kind": 5859,
      "literally": 5860,
      "lined": 5861,
      "tap": 5862,
      "hind": 5863,
      "contained": 5864,
      "##thy": 5865,
      "##ppy": 5866,
      "sooner": 5867,
      "diam": 5868,
      "merc": 5869,
      "democr": 5870,
      "##idding": 5871,
      "emergency": 5872,
      "loyal": 5873,
      "signal": 5874,
      "fi": 5875,
      "eu": 5876,
      "##lock": 5877,
      "##elia": 5878,
      "washington": 5879,
      "bomb": 5880,
      "online": 5881,
      "branches": 5882,
      "shortly": 5883,
      "volume": 5884,
      "yards": 5885,
      "anne": 5886,
      "appropriate": 5887,
      "trapped": 5888,
      "##rection": 5889,
      "minor": 5890,
      "consist": 5891,
      "mixed": 5892,
      "dealing": 5893,
      "stepping": 5894,
      "conclud": 5895,
      "policy": 5896,
      "methods": 5897,
      "properly": 5898,
      "##ih": 5899,
      "cutting": 5900,
      "##osure": 5901,
      "tension": 5902,
      "rome": 5903,
      "realm": 5904,
      "mand": 5905,
      "hint": 5906,
      "generation": 5907,
      "holiday": 5908,
      "studying": 5909,
      "dial": 5910,
      "##-+-+-+-+": 5911,
      "lightning": 5912,
      "guest": 5913,
      "honestly": 5914,
      "apply": 5915,
      "favour": 5916,
      "email": 5917,
      "##bor": 5918,
      "minim": 5919,
      "bart": 5920,
      "sept": 5921,
      "grasp": 5922,
      "equal": 5923,
      "##rating": 5924,
      "numer": 5925,
      "hills": 5926,
      "naturally": 5927,
      "assemb": 5928,
      "seb": 5929,
      "##pless": 5930,
      "kevin": 5931,
      "##sters": 5932,
      "##rol": 5933,
      "entry": 5934,
      "vul": 5935,
      "crash": 5936,
      "backwards": 5937,
      "explod": 5938,
      "rhy": 5939,
      "barb": 5940,
      "gathering": 5941,
      "via": 5942,
      "glowing": 5943,
      "##|---": 5944,
      "foolish": 5945,
      "awa": 5946,
      "presented": 5947,
      "photo": 5948,
      "punishment": 5949,
      "calif": 5950,
      "reports": 5951,
      "##za": 5952,
      "beating": 5953,
      "flor": 5954,
      "austral": 5955,
      "affect": 5956,
      "ugly": 5957,
      "importance": 5958,
      "##craft": 5959,
      "believers": 5960,
      "england": 5961,
      "lungs": 5962,
      "perman": 5963,
      "airport": 5964,
      "tender": 5965,
      "caut": 5966,
      "homes": 5967,
      "tank": 5968,
      "singing": 5969,
      "june": 5970,
      "##erted": 5971,
      "secrets": 5972,
      "rapidly": 5973,
      "2013": 5974,
      "precise": 5975,
      "goo": 5976,
      "crown": 5977,
      "arrival": 5978,
      "fabric": 5979,
      "##nat": 5980,
      "sel": 5981,
      "administ": 5982,
      "intr": 5983,
      "collection": 5984,
      "identity": 5985,
      "shopping": 5986,
      "additional": 5987,
      "downstairs": 5988,
      "##ola": 5989,
      "bastard": 5990,
      "laur": 5991,
      "##ante": 5992,
      "footst": 5993,
      "julia": 5994,
      "##umn": 5995,
      "tucked": 5996,
      "od": 5997,
      "withd": 5998,
      "dropping": 5999,
      "sofa": 6000,
      "ensure": 6001,
      "##agn": 6002,
      "gates": 6003,
      "##ros": 6004,
      "describe": 6005,
      "hitting": 6006,
      "##20": 6007,
      "##ications": 6008,
      "jar": 6009,
      "dug": 6010,
      "rit": 6011,
      "awful": 6012,
      "californ": 6013,
      "expand": 6014,
      "primary": 6015,
      "facts": 6016,
      "##lar": 6017,
      "painted": 6018,
      "shed": 6019,
      "pulls": 6020,
      "delivered": 6021,
      "##uits": 6022,
      "lieutenant": 6023,
      "idiot": 6024,
      "##usive": 6025,
      "instructions": 6026,
      "spar": 6027,
      "engage": 6028,
      "motor": 6029,
      "compreh": 6030,
      "##mond": 6031,
      "cigarette": 6032,
      "sid": 6033,
      "entering": 6034,
      "concrete": 6035,
      "southern": 6036,
      "kay": 6037,
      "curse": 6038,
      "chocol": 6039,
      "spare": 6040,
      "greeted": 6041,
      "teachers": 6042,
      "mile": 6043,
      "ripped": 6044,
      "minister": 6045,
      "snat": 6046,
      "stall": 6047,
      "##load": 6048,
      "sharing": 6049,
      "seed": 6050,
      "shaped": 6051,
      "absor": 6052,
      "bind": 6053,
      "ignoring": 6054,
      "##alt": 6055,
      "##ucing": 6056,
      "##cca": 6057,
      "biggest": 6058,
      "elements": 6059,
      "alley": 6060,
      "chill": 6061,
      "trial": 6062,
      "##irts": 6063,
      "##wich": 6064,
      "amanda": 6065,
      "holly": 6066,
      "curled": 6067,
      "##ulty": 6068,
      "stops": 6069,
      "pup": 6070,
      "ordinary": 6071,
      "sip": 6072,
      "uncertain": 6073,
      "cracked": 6074,
      "defin": 6075,
      "fel": 6076,
      "sliding": 6077,
      "##50": 6078,
      "##aph": 6079,
      "##char": 6080,
      "upright": 6081,
      "tristan": 6082,
      "-\"": 6083,
      "placing": 6084,
      "personally": 6085,
      "stunned": 6086,
      "ga": 6087,
      "active": 6088,
      "spine": 6089,
      "anth": 6090,
      "manip": 6091,
      "disappointed": 6092,
      "##bon": 6093,
      "heels": 6094,
      "slave": 6095,
      "mama": 6096,
      "bored": 6097,
      "sensed": 6098,
      "charged": 6099,
      "remark": 6100,
      "files": 6101,
      "magical": 6102,
      "2012": 6103,
      "curios": 6104,
      "##ifying": 6105,
      "maggie": 6106,
      "lily": 6107,
      "declared": 6108,
      "##aine": 6109,
      "closet": 6110,
      "deserve": 6111,
      "expert": 6112,
      "cities": 6113,
      "filling": 6114,
      "scattered": 6115,
      "distinct": 6116,
      "##acity": 6117,
      "flame": 6118,
      "performance": 6119,
      "bend": 6120,
      "classes": 6121,
      "monday": 6122,
      "supplies": 6123,
      "combination": 6124,
      "foundation": 6125,
      "cousin": 6126,
      "colonel": 6127,
      "superior": 6128,
      "photograph": 6129,
      "webs": 6130,
      "morgan": 6131,
      "embarrassed": 6132,
      "catching": 6133,
      "dod": 6134,
      "dull": 6135,
      "cole": 6136,
      "compar": 6137,
      "urg": 6138,
      "attempted": 6139,
      "california": 6140,
      "##bles": 6141,
      "_v": 6142,
      "vampires": 6143,
      "seats": 6144,
      "gripped": 6145,
      "perce": 6146,
      "initial": 6147,
      "urge": 6148,
      "armor": 6149,
      "##lla": 6150,
      "cruel": 6151,
      "mos": 6152,
      "sheriff": 6153,
      "tools": 6154,
      "claimed": 6155,
      "popped": 6156,
      "##olve": 6157,
      "spear": 6158,
      "lands": 6159,
      "millions": 6160,
      "jenn": 6161,
      ".*": 6162,
      "guid": 6163,
      "fairy": 6164,
      "##brow": 6165,
      "neat": 6166,
      "drank": 6167,
      "emphas": 6168,
      "gem": 6169,
      "_f": 6170,
      "instr": 6171,
      "##vest": 6172,
      "completed": 6173,
      "tale": 6174,
      "evalu": 6175,
      "kings": 6176,
      "##words": 6177,
      "highest": 6178,
      "cub": 6179,
      "ego": 6180,
      "##ini": 6181,
      "##mosphere": 6182,
      "tracks": 6183,
      "clenched": 6184,
      "prompt": 6185,
      "perspective": 6186,
      "francis": 6187,
      "drown": 6188,
      "director": 6189,
      "##itors": 6190,
      "hunting": 6191,
      "mumbled": 6192,
      "##atherine": 6193,
      "sought": 6194,
      "tiss": 6195,
      "horizon": 6196,
      "empire": 6197,
      "raced": 6198,
      "performed": 6199,
      "basket": 6200,
      "fairly": 6201,
      "whist": 6202,
      "tub": 6203,
      "motioned": 6204,
      "existed": 6205,
      "lur": 6206,
      "##pa": 6207,
      "assess": 6208,
      "jail": 6209,
      "crap": 6210,
      "sheet": 6211,
      "chicken": 6212,
      "records": 6213,
      "encourage": 6214,
      "brave": 6215,
      "rifle": 6216,
      "pear": 6217,
      "film": 6218,
      "friendship": 6219,
      "eyebrow": 6220,
      "fuel": 6221,
      "organization": 6222,
      "beard": 6223,
      "arab": 6224,
      "curiosity": 6225,
      "##areness": 6226,
      "shore": 6227,
      "drifted": 6228,
      "nervously": 6229,
      "scow": 6230,
      "##enced": 6231,
      "##unte": 6232,
      "childhood": 6233,
      "atmosphere": 6234,
      "##umber": 6235,
      "##lan": 6236,
      "##outs": 6237,
      "glancing": 6238,
      "pregnant": 6239,
      "abruptly": 6240,
      "coinc": 6241,
      "causes": 6242,
      "suspected": 6243,
      "##sect": 6244,
      "sup": 6245,
      "branch": 6246,
      "##oning": 6247,
      "ending": 6248,
      "alan": 6249,
      "footsteps": 6250,
      "scanned": 6251,
      "sunlight": 6252,
      "##--------": 6253,
      "enormous": 6254,
      "senior": 6255,
      "fears": 6256,
      "directed": 6257,
      "##otted": 6258,
      "impat": 6259,
      "tapped": 6260,
      "commer": 6261,
      "desires": 6262,
      "unh": 6263,
      "##erable": 6264,
      "murmured": 6265,
      "symbol": 6266,
      "frightened": 6267,
      "intens": 6268,
      "zach": 6269,
      "figures": 6270,
      "echoed": 6271,
      "gene": 6272,
      "lust": 6273,
      "hid": 6274,
      "contempl": 6275,
      "sits": 6276,
      "sensation": 6277,
      "##kins": 6278,
      "gifts": 6279,
      "praise": 6280,
      "narrowed": 6281,
      "endless": 6282,
      "impression": 6283,
      "##asty": 6284,
      "nich": 6285,
      "##rous": 6286,
      "hunt": 6287,
      "compassion": 6288,
      "practically": 6289,
      "previously": 6290,
      "volunte": 6291,
      "passenger": 6292,
      "38": 6293,
      "impressed": 6294,
      "arrow": 6295,
      "ruth": 6296,
      "jill": 6297,
      "liam": 6298,
      "tommy": 6299,
      "distrib": 6300,
      "slowed": 6301,
      "trap": 6302,
      "committed": 6303,
      "awareness": 6304,
      "majority": 6305,
      "collapsed": 6306,
      "hmm": 6307,
      "dur": 6308,
      "questioned": 6309,
      "identify": 6310,
      "severe": 6311,
      "inspect": 6312,
      "chaos": 6313,
      "##osition": 6314,
      "agents": 6315,
      "raven": 6316,
      "electron": 6317,
      "sant": 6318,
      "##cular": 6319,
      "##pass": 6320,
      "os": 6321,
      "):": 6322,
      "oblig": 6323,
      "routine": 6324,
      "estate": 6325,
      "forb": 6326,
      "messenger": 6327,
      "##otes": 6328,
      "##gue": 6329,
      "snar": 6330,
      "abra": 6331,
      "pig": 6332,
      "feared": 6333,
      "immediate": 6334,
      "##stone": 6335,
      "fet": 6336,
      "pressing": 6337,
      "immort": 6338,
      "flower": 6339,
      "rebe": 6340,
      "nove": 6341,
      "philosop": 6342,
      "rubbing": 6343,
      "motiv": 6344,
      "prod": 6345,
      "flipped": 6346,
      "eaten": 6347,
      "##mitted": 6348,
      "smelled": 6349,
      "speaks": 6350,
      "##ndered": 6351,
      "internal": 6352,
      "reflection": 6353,
      "mall": 6354,
      "kal": 6355,
      "laura": 6356,
      "muse": 6357,
      "threatened": 6358,
      "dism": 6359,
      "finds": 6360,
      "options": 6361,
      "guessed": 6362,
      "shuff": 6363,
      "##ole": 6364,
      "cops": 6365,
      "suffered": 6366,
      "pete": 6367,
      "##attering": 6368,
      "##agers": 6369,
      "copyright": 6370,
      "territ": 6371,
      "##put": 6372,
      "lance": 6373,
      "37": 6374,
      "numerous": 6375,
      "bin": 6376,
      "glare": 6377,
      "manifest": 6378,
      "gesture": 6379,
      "sally": 6380,
      "##pled": 6381,
      "disciples": 6382,
      "whir": 6383,
      "floating": 6384,
      "##ggy": 6385,
      "gotta": 6386,
      "incom": 6387,
      "vit": 6388,
      "calcul": 6389,
      "remar": 6390,
      "visited": 6391,
      "##osing": 6392,
      "investigation": 6393,
      "sway": 6394,
      "cute": 6395,
      "##amin": 6396,
      "boxes": 6397,
      "remote": 6398,
      "construct": 6399,
      "##aa": 6400,
      "argue": 6401,
      "puts": 6402,
      "prol": 6403,
      "_you": 6404,
      "adventure": 6405,
      "jerked": 6406,
      "chocolate": 6407,
      "prime": 6408,
      "##entially": 6409,
      "remembering": 6410,
      "essential": 6411,
      "tyler": 6412,
      "jeremy": 6413,
      "parent": 6414,
      "detect": 6415,
      "sugar": 6416,
      "colors": 6417,
      "##greg": 6418,
      "louder": 6419,
      "eleven": 6420,
      "alph": 6421,
      "##isc": 6422,
      "vanished": 6423,
      "patience": 6424,
      "border": 6425,
      "boun": 6426,
      "##ties": 6427,
      "bars": 6428,
      "thorough": 6429,
      "nurs": 6430,
      "##hole": 6431,
      "essence": 6432,
      "slide": 6433,
      "pillow": 6434,
      "##isher": 6435,
      "sales": 6436,
      "consequences": 6437,
      "fleet": 6438,
      "insist": 6439,
      "proved": 6440,
      "reck": 6441,
      "##vant": 6442,
      "fists": 6443,
      "ridiculous": 6444,
      "dram": 6445,
      "fake": 6446,
      "amber": 6447,
      "nest": 6448,
      "trusted": 6449,
      "shakes": 6450,
      "##unched": 6451,
      "relationships": 6452,
      "nuclear": 6453,
      "##ugg": 6454,
      "resur": 6455,
      "slapped": 6456,
      "stol": 6457,
      "noble": 6458,
      "deny": 6459,
      "##ae": 6460,
      "inev": 6461,
      "worlds": 6462,
      "isol": 6463,
      "pir": 6464,
      "##iture": 6465,
      "realizing": 6466,
      "warn": 6467,
      "roger": 6468,
      "gran": 6469,
      "mig": 6470,
      "determine": 6471,
      "brilliant": 6472,
      "purse": 6473,
      "##erie": 6474,
      "sail": 6475,
      "##iate": 6476,
      "##ville": 6477,
      "identified": 6478,
      "##ias": 6479,
      "##itter": 6480,
      "regardless": 6481,
      "kil": 6482,
      "shouting": 6483,
      "shy": 6484,
      "cursed": 6485,
      "mighty": 6486,
      "tray": 6487,
      "folks": 6488,
      "conver": 6489,
      "##irm": 6490,
      "##inks": 6491,
      "pee": 6492,
      "disbelief": 6493,
      "russian": 6494,
      "##amped": 6495,
      "violent": 6496,
      "##ago": 6497,
      "critical": 6498,
      "heb": 6499,
      "reference": 6500,
      "##ал": 6501,
      "##alem": 6502,
      "##gun": 6503,
      "lun": 6504,
      "tore": 6505,
      "movements": 6506,
      "assass": 6507,
      "apost": 6508,
      "lonely": 6509,
      "sank": 6510,
      "revolution": 6511,
      "raw": 6512,
      "gul": 6513,
      "##roph": 6514,
      "painting": 6515,
      "fier": 6516,
      "towel": 6517,
      "deliber": 6518,
      "characters": 6519,
      "marked": 6520,
      "july": 6521,
      "outer": 6522,
      "tas": 6523,
      "##ika": 6524,
      "writer": 6525,
      "psal": 6526,
      "stead": 6527,
      "highway": 6528,
      "flowing": 6529,
      "joshua": 6530,
      "dere": 6531,
      "player": 6532,
      "traditional": 6533,
      "widened": 6534,
      "coven": 6535,
      "ting": 6536,
      "remo": 6537,
      "intim": 6538,
      "anxious": 6539,
      "crou": 6540,
      "lifting": 6541,
      "occasionally": 6542,
      "fox": 6543,
      "##uled": 6544,
      "advance": 6545,
      "sandwich": 6546,
      "poet": 6547,
      "personality": 6548,
      "##uge": 6549,
      "scripture": 6550,
      "terrified": 6551,
      "cleaning": 6552,
      "##icted": 6553,
      "clay": 6554,
      "abilities": 6555,
      "##ulating": 6556,
      "apple": 6557,
      "pd": 6558,
      "froze": 6559,
      "parties": 6560,
      "arthur": 6561,
      "##oting": 6562,
      "salt": 6563,
      "centuries": 6564,
      "nods": 6565,
      "schol": 6566,
      "grief": 6567,
      "vic": 6568,
      "zomb": 6569,
      "trace": 6570,
      "combat": 6571,
      "sounding": 6572,
      "damned": 6573,
      "swing": 6574,
      "messages": 6575,
      "#\\\\": 6576,
      "document": 6577,
      "uses": 6578,
      "warriors": 6579,
      "divor": 6580,
      "viv": 6581,
      "physically": 6582,
      "##elling": 6583,
      "corn": 6584,
      "jamie": 6585,
      "values": 6586,
      "toile": 6587,
      "##hi": 6588,
      "helpless": 6589,
      "recon": 6590,
      "companion": 6591,
      "kelly": 6592,
      "diet": 6593,
      "conference": 6594,
      "sets": 6595,
      "jackson": 6596,
      "!!": 6597,
      "##asper": 6598,
      "lucas": 6599,
      "annie": 6600,
      "companies": 6601,
      "quarters": 6602,
      "waving": 6603,
      "puff": 6604,
      "network": 6605,
      "latest": 6606,
      "lawyer": 6607,
      "myth": 6608,
      "knocking": 6609,
      "##andra": 6610,
      "##ba": 6611,
      "proced": 6612,
      "lifet": 6613,
      "vel": 6614,
      "continuing": 6615,
      "separated": 6616,
      "pistol": 6617,
      "abraham": 6618,
      "indian": 6619,
      "..": 6620,
      "dried": 6621,
      "sale": 6622,
      "prepar": 6623,
      "arranged": 6624,
      "vague": 6625,
      "suic": 6626,
      "lege": 6627,
      "194": 6628,
      "overcome": 6629,
      "##ordin": 6630,
      "jonathan": 6631,
      "follows": 6632,
      "trembling": 6633,
      "phen": 6634,
      "##force": 6635,
      "destiny": 6636,
      "goddess": 6637,
      "income": 6638,
      "ratt": 6639,
      "rarely": 6640,
      "steal": 6641,
      "wounds": 6642,
      "survived": 6643,
      "prayed": 6644,
      "exception": 6645,
      "boot": 6646,
      "opens": 6647,
      "muscle": 6648,
      "soil": 6649,
      "bike": 6650,
      "load": 6651,
      "assign": 6652,
      "hissed": 6653,
      "carpet": 6654,
      "hook": 6655,
      "fu": 6656,
      "valu": 6657,
      "##ext": 6658,
      "string": 6659,
      "leon": 6660,
      "stretch": 6661,
      "incredible": 6662,
      "##enses": 6663,
      "quit": 6664,
      "casual": 6665,
      "wounded": 6666,
      "scientists": 6667,
      "serving": 6668,
      "overl": 6669,
      "bern": 6670,
      "karen": 6671,
      "forcing": 6672,
      "revealing": 6673,
      "##usions": 6674,
      "termin": 6675,
      "60": 6676,
      "##mark": 6677,
      "majest": 6678,
      "halfway": 6679,
      "eh": 6680,
      "edward": 6681,
      "damp": 6682,
      "confirm": 6683,
      "reception": 6684,
      "han": 6685,
      "grade": 6686,
      "logic": 6687,
      "injured": 6688,
      "nearest": 6689,
      "patted": 6690,
      "##alled": 6691,
      "september": 6692,
      "repair": 6693,
      "gur": 6694,
      "smashwords": 6695,
      "tool": 6696,
      "believing": 6697,
      "##of": 6698,
      "##illa": 6699,
      "##nic": 6700,
      "diamond": 6701,
      "_c": 6702,
      "cord": 6703,
      "applied": 6704,
      "marks": 6705,
      "##rees": 6706,
      "mason": 6707,
      "spinning": 6708,
      "trunk": 6709,
      "sucked": 6710,
      "##umping": 6711,
      "blocks": 6712,
      "eggs": 6713,
      "%\\\\": 6714,
      "jessica": 6715,
      "##omy": 6716,
      "##acon": 6717,
      "companions": 6718,
      "preparing": 6719,
      "africa": 6720,
      "wherever": 6721,
      "gestured": 6722,
      "weakness": 6723,
      "anc": 6724,
      "photos": 6725,
      "publ": 6726,
      "bobby": 6727,
      "wre": 6728,
      "##---+": 6729,
      "_____": 6730,
      "rebecca": 6731,
      "signed": 6732,
      "controlled": 6733,
      "customers": 6734,
      "owned": 6735,
      "sensitive": 6736,
      "discussed": 6737,
      "captured": 6738,
      "patrick": 6739,
      "useless": 6740,
      "anxiety": 6741,
      "mes": 6742,
      "helps": 6743,
      "##walk": 6744,
      "collar": 6745,
      "gw": 6746,
      "snake": 6747,
      "distracted": 6748,
      "bothered": 6749,
      "##fire": 6750,
      "commanded": 6751,
      "jewish": 6752,
      "midnight": 6753,
      "acknowled": 6754,
      "##hammad": 6755,
      "loaded": 6756,
      "neighborhood": 6757,
      "##ala": 6758,
      "##azz": 6759,
      "newspaper": 6760,
      "bapt": 6761,
      "toler": 6762,
      "tries": 6763,
      "sports": 6764,
      "##mes": 6765,
      "##unate": 6766,
      "##ober": 6767,
      "safely": 6768,
      "testament": 6769,
      "marie": 6770,
      "accent": 6771,
      "muslim": 6772,
      "##nis": 6773,
      "trev": 6774,
      "##ii": 6775,
      "seemingly": 6776,
      "margar": 6777,
      "ing": 6778,
      "jerus": 6779,
      "annoyed": 6780,
      "blake": 6781,
      "au": 6782,
      "indicated": 6783,
      "##ox": 6784,
      "##rily": 6785,
      "pounding": 6786,
      "giggled": 6787,
      "##isms": 6788,
      "beats": 6789,
      "driveway": 6790,
      "ritual": 6791,
      "##onation": 6792,
      "holes": 6793,
      "wizard": 6794,
      "peaceful": 6795,
      "gorge": 6796,
      "goodness": 6797,
      "_l": 6798,
      "equally": 6799,
      "products": 6800,
      "andre": 6801,
      "lover": 6802,
      "##10": 6803,
      "ras": 6804,
      "rip": 6805,
      "october": 6806,
      "clue": 6807,
      "jerusalem": 6808,
      "bleeding": 6809,
      "spat": 6810,
      "cheap": 6811,
      "loun": 6812,
      "movies": 6813,
      "##ela": 6814,
      "tact": 6815,
      "candid": 6816,
      "##ublic": 6817,
      "alert": 6818,
      "##cere": 6819,
      "infinite": 6820,
      "writ": 6821,
      "**.": 6822,
      "rhyth": 6823,
      "nodding": 6824,
      "hopes": 6825,
      "austin": 6826,
      "##uish": 6827,
      "choices": 6828,
      "cooking": 6829,
      "fishing": 6830,
      "shining": 6831,
      "stor": 6832,
      "flag": 6833,
      "kit": 6834,
      "edd": 6835,
      "illeg": 6836,
      "edition": 6837,
      "beloved": 6838,
      "punch": 6839,
      "conqu": 6840,
      "defeat": 6841,
      "panel": 6842,
      "##ordan": 6843,
      "federal": 6844,
      "##iour": 6845,
      "cad": 6846,
      "shelter": 6847,
      "troops": 6848,
      "squad": 6849,
      "kisses": 6850,
      "creator": 6851,
      "strategy": 6852,
      "sorrow": 6853,
      "december": 6854,
      "##ibl": 6855,
      "screams": 6856,
      "repeat": 6857,
      "##onent": 6858,
      "lied": 6859,
      "42": 6860,
      "sadness": 6861,
      "##rison": 6862,
      "selfish": 6863,
      "parad": 6864,
      "##ria": 6865,
      "apparent": 6866,
      "outl": 6867,
      "closest": 6868,
      "selling": 6869,
      "traveling": 6870,
      "attractive": 6871,
      "kir": 6872,
      "vig": 6873,
      "blessing": 6874,
      "##inkled": 6875,
      "connor": 6876,
      "lion": 6877,
      "phr": 6878,
      "happily": 6879,
      "noah": 6880,
      "memor": 6881,
      "stolen": 6882,
      "wandered": 6883,
      "haz": 6884,
      "samples": 6885,
      "independent": 6886,
      "americans": 6887,
      "context": 6888,
      "sneak": 6889,
      "granted": 6890,
      "heavens": 6891,
      "bold": 6892,
      "##arn": 6893,
      "collected": 6894,
      "unbel": 6895,
      "fog": 6896,
      "grandma": 6897,
      "pockets": 6898,
      "objects": 6899,
      "encounter": 6900,
      "sacred": 6901,
      "##ilst": 6902,
      "##engers": 6903,
      "criminal": 6904,
      "prosp": 6905,
      "nu": 6906,
      "##ooked": 6907,
      "paris": 6908,
      "stephen": 6909,
      "owners": 6910,
      "##och": 6911,
      "verses": 6912,
      "fancy": 6913,
      "creative": 6914,
      "lessons": 6915,
      "ages": 6916,
      "guar": 6917,
      "lane": 6918,
      "erupt": 6919,
      "georg": 6920,
      "jones": 6921,
      "crossing": 6922,
      "aston": 6923,
      "worthy": 6924,
      "protected": 6925,
      "scramb": 6926,
      "covers": 6927,
      "balls": 6928,
      "maid": 6929,
      "mysterious": 6930,
      "compound": 6931,
      "39": 6932,
      "kne": 6933,
      "2014": 6934,
      "engaged": 6935,
      "sadly": 6936,
      "##rial": 6937,
      "yah": 6938,
      "republic": 6939,
      "haired": 6940,
      "weigh": 6941,
      "drops": 6942,
      "taylor": 6943,
      "reaches": 6944,
      "collective": 6945,
      "beliefs": 6946,
      "sanct": 6947,
      "##ensed": 6948,
      "sheets": 6949,
      "##ulting": 6950,
      "prost": 6951,
      "##mare": 6952,
      "lux": 6953,
      "eternity": 6954,
      "fierce": 6955,
      "dwar": 6956,
      "creep": 6957,
      "luci": 6958,
      "calmly": 6959,
      "landsc": 6960,
      "spray": 6961,
      "##rors": 6962,
      "##istics": 6963,
      "persons": 6964,
      "melan": 6965,
      "vincent": 6966,
      "debt": 6967,
      "industry": 6968,
      "january": 6969,
      "examined": 6970,
      "prayers": 6971,
      "blo": 6972,
      "##ending": 6973,
      "furniture": 6974,
      "doctors": 6975,
      "pod": 6976,
      "knelt": 6977,
      "mah": 6978,
      "instance": 6979,
      "....\"": 6980,
      "fantasy": 6981,
      "faithful": 6982,
      "##ар": 6983,
      "tatt": 6984,
      "pastor": 6985,
      "muslims": 6986,
      "##zer": 6987,
      "anton": 6988,
      "krist": 6989,
      "pity": 6990,
      "sang": 6991,
      "gh": 6992,
      "ct": 6993,
      "cel": 6994,
      "bust": 6995,
      "##ов": 6996,
      "palms": 6997,
      "##iger": 6998,
      "wagon": 6999,
      "threatening": 7000,
      "##isha": 7001,
      "absence": 7002,
      "greed": 7003,
      "rent": 7004,
      "##ifically": 7005,
      "cage": 7006,
      "strip": 7007,
      "samuel": 7008,
      "##mic": 7009,
      "shots": 7010,
      "acknowledge": 7011,
      "##iments": 7012,
      "ministry": 7013,
      "recip": 7014,
      "adding": 7015,
      "exists": 7016,
      "gradually": 7017,
      "interact": 7018,
      "november": 7019,
      "mankind": 7020,
      "##down": 7021,
      "backp": 7022,
      "##ffin": 7023,
      "##die": 7024,
      "##essa": 7025,
      "destination": 7026,
      "contrast": 7027,
      "insane": 7028,
      "vulner": 7029,
      "climbing": 7030,
      "##the": 7031,
      "##bre": 7032,
      "sized": 7033,
      "##point": 7034,
      "whilst": 7035,
      "sexy": 7036,
      "44": 7037,
      "zero": 7038,
      "mobile": 7039,
      "norther": 7040,
      "ought": 7041,
      "nasty": 7042,
      "subtle": 7043,
      "decent": 7044,
      "humor": 7045,
      "strateg": 7046,
      "nightmare": 7047,
      "basement": 7048,
      "commission": 7049,
      "chances": 7050,
      "upd": 7051,
      "reflected": 7052,
      "bom": 7053,
      "overhead": 7054,
      "refuse": 7055,
      "protein": 7056,
      "scru": 7057,
      "hut": 7058,
      "swords": 7059,
      "diana": 7060,
      "thread": 7061,
      "julie": 7062,
      "mont": 7063,
      "benefits": 7064,
      "flee": 7065,
      "pulse": 7066,
      "mitch": 7067,
      "gym": 7068,
      "jet": 7069,
      "valid": 7070,
      "experiment": 7071,
      "skirt": 7072,
      "belonged": 7073,
      "mount": 7074,
      "fled": 7075,
      "magazine": 7076,
      "corin": 7077,
      "cake": 7078,
      "nerves": 7079,
      "##cs": 7080,
      "illumin": 7081,
      "discipl": 7082,
      "subjects": 7083,
      "construction": 7084,
      "pac": 7085,
      "praying": 7086,
      "##anor": 7087,
      "ira": 7088,
      "##iev": 7089,
      "elbow": 7090,
      "katie": 7091,
      "obst": 7092,
      "attacks": 7093,
      "players": 7094,
      "##ogue": 7095,
      "aimed": 7096,
      "tightened": 7097,
      "mentally": 7098,
      "rushing": 7099,
      "todd": 7100,
      "##gression": 7101,
      "affection": 7102,
      "answering": 7103,
      "racing": 7104,
      "temperature": 7105,
      "##inal": 7106,
      "##imm": 7107,
      "despair": 7108,
      "##encies": 7109,
      "predict": 7110,
      "jumping": 7111,
      "cate": 7112,
      "2011": 7113,
      "surg": 7114,
      "negot": 7115,
      "assistant": 7116,
      "##rence": 7117,
      "crawled": 7118,
      "clan": 7119,
      "wire": 7120,
      "hip": 7121,
      "overall": 7122,
      "twin": 7123,
      "robe": 7124,
      "sincere": 7125,
      "traveled": 7126,
      "fortune": 7127,
      "toes": 7128,
      "spite": 7129,
      "##cers": 7130,
      "##oop": 7131,
      "hunger": 7132,
      "puzzled": 7133,
      "partners": 7134,
      "claims": 7135,
      "index": 7136,
      "explosion": 7137,
      "##aning": 7138,
      "zone": 7139,
      "##oot": 7140,
      "enh": 7141,
      "valuable": 7142,
      "testing": 7143,
      "jesse": 7144,
      "lifetime": 7145,
      "underground": 7146,
      "intelligent": 7147,
      "assault": 7148,
      "##ares": 7149,
      "increasing": 7150,
      "hence": 7151,
      "county": 7152,
      "##0s": 7153,
      "retire": 7154,
      "cheese": 7155,
      "troll": 7156,
      "tape": 7157,
      "eag": 7158,
      "description": 7159,
      "mia": 7160,
      "variety": 7161,
      "possessed": 7162,
      "scra": 7163,
      "##rah": 7164,
      "leapt": 7165,
      "revenge": 7166,
      "mortal": 7167,
      "straw": 7168,
      "practical": 7169,
      "topic": 7170,
      "crept": 7171,
      "toilet": 7172,
      "aven": 7173,
      "##iolet": 7174,
      "laughs": 7175,
      "boring": 7176,
      "dimension": 7177,
      "conven": 7178,
      "hebrew": 7179,
      "secretary": 7180,
      "france": 7181,
      "funeral": 7182,
      "cind": 7183,
      "unsure": 7184,
      "involve": 7185,
      "client": 7186,
      "maxim": 7187,
      "interf": 7188,
      "handful": 7189,
      "##olas": 7190,
      "recru": 7191,
      "##inent": 7192,
      "alternative": 7193,
      "##boy": 7194,
      "horrif": 7195,
      "##ooped": 7196,
      "gap": 7197,
      "##utation": 7198,
      "sandy": 7199,
      "exhaust": 7200,
      "politics": 7201,
      "dies": 7202,
      "dyn": 7203,
      "snorted": 7204,
      "alongside": 7205,
      "circles": 7206,
      "session": 7207,
      "lately": 7208,
      "ancest": 7209,
      "43": 7210,
      "mouse": 7211,
      "gown": 7212,
      "therapy": 7213,
      "steam": 7214,
      "##ooks": 7215,
      "patch": 7216,
      "insect": 7217,
      "instructed": 7218,
      "website": 7219,
      "unre": 7220,
      "flut": 7221,
      "suck": 7222,
      "complicated": 7223,
      "##========": 7224,
      "steven": 7225,
      "gav": 7226,
      "smoking": 7227,
      "acted": 7228,
      "extent": 7229,
      "chemical": 7230,
      "atl": 7231,
      "channel": 7232,
      "capacity": 7233,
      "darwin": 7234,
      "decre": 7235,
      "aged": 7236,
      "principle": 7237,
      "oak": 7238,
      "interpretation": 7239,
      "grat": 7240,
      "campa": 7241,
      "sorts": 7242,
      "decades": 7243,
      "lod": 7244,
      "''": 7245,
      "cassie": 7246,
      "typical": 7247,
      "expressed": 7248,
      "##ат": 7249,
      "ker": 7250,
      "##natural": 7251,
      "##ylan": 7252,
      "##othy": 7253,
      "schedule": 7254,
      "formal": 7255,
      "##|---|---": 7256,
      "northern": 7257,
      "##cel": 7258,
      "mans": 7259,
      "basically": 7260,
      "aiden": 7261,
      "##ours": 7262,
      "pissed": 7263,
      "burden": 7264,
      "arrog": 7265,
      "##ashes": 7266,
      "ebook": 7267,
      "##isation": 7268,
      "visual": 7269,
      "reader": 7270,
      "ultimate": 7271,
      "uk": 7272,
      "backs": 7273,
      "##rent": 7274,
      "danced": 7275,
      "bald": 7276,
      "hath": 7277,
      "cloak": 7278,
      "##eze": 7279,
      "slaves": 7280,
      "reduced": 7281,
      "concerning": 7282,
      "blocked": 7283,
      "tin": 7284,
      "lon": 7285,
      "nud": 7286,
      "trigger": 7287,
      "goods": 7288,
      "larry": 7289,
      "tattoo": 7290,
      "brid": 7291,
      "hatred": 7292,
      "len": 7293,
      "interests": 7294,
      "attempts": 7295,
      "models": 7296,
      "##theless": 7297,
      "satisfaction": 7298,
      "##icial": 7299,
      "genetic": 7300,
      "dat": 7301,
      "##nam": 7302,
      "feb": 7303,
      "nevertheless": 7304,
      "insight": 7305,
      "scrap": 7306,
      "dil": 7307,
      "vehicles": 7308,
      "##eman": 7309,
      "treasure": 7310,
      "miracle": 7311,
      "exploded": 7312,
      "ideal": 7313,
      "kin": 7314,
      "isaac": 7315,
      "persu": 7316,
      "corners": 7317,
      "swimming": 7318,
      "ic": 7319,
      "eddie": 7320,
      "_g": 7321,
      "occupied": 7322,
      "eastern": 7323,
      "buying": 7324,
      "lapt": 7325,
      "eyel": 7326,
      "nico": 7327,
      "behold": 7328,
      "aspects": 7329,
      "lil": 7330,
      "recommend": 7331,
      "waking": 7332,
      "prophets": 7333,
      "molly": 7334,
      "songs": 7335,
      "outf": 7336,
      "district": 7337,
      "pounds": 7338,
      "tilted": 7339,
      "requires": 7340,
      "wishes": 7341,
      "clinical": 7342,
      "stu": 7343,
      "stable": 7344,
      "obsc": 7345,
      "ais": 7346,
      "##vet": 7347,
      "mild": 7348,
      "preferred": 7349,
      "##ko": 7350,
      "##xed": 7351,
      "twins": 7352,
      "lect": 7353,
      "billion": 7354,
      "justin": 7355,
      "prem": 7356,
      "squir": 7357,
      "schem": 7358,
      "cleaned": 7359,
      "fest": 7360,
      "receiving": 7361,
      "##rod": 7362,
      "##itated": 7363,
      "silk": 7364,
      "obser": 7365,
      "##aneously": 7366,
      "sie": 7367,
      "assigned": 7368,
      "rac": 7369,
      "plot": 7370,
      "multi": 7371,
      "48": 7372,
      "rational": 7373,
      "eighteen": 7374,
      "mins": 7375,
      "consp": 7376,
      "affected": 7377,
      "##acious": 7378,
      "##lying": 7379,
      "##berg": 7380,
      "buff": 7381,
      "arrest": 7382,
      "forgiveness": 7383,
      "hem": 7384,
      "##ni": 7385,
      "##78": 7386,
      "brut": 7387,
      "intonation": 7388,
      "##umph": 7389,
      "ny": 7390,
      "wanna": 7391,
      "assistance": 7392,
      "##eem": 7393,
      "mit": 7394,
      "outs": 7395,
      "mane": 7396,
      "upwards": 7397,
      "deadly": 7398,
      "alm": 7399,
      "combined": 7400,
      "##---+---+": 7401,
      "##53": 7402,
      "attempting": 7403,
      "##itar": 7404,
      "newly": 7405,
      "straightened": 7406,
      "yelling": 7407,
      "nons": 7408,
      "##ician": 7409,
      "fifth": 7410,
      "backpack": 7411,
      "clever": 7412,
      "suspicious": 7413,
      "tense": 7414,
      "abuse": 7415,
      "##но": 7416,
      "committ": 7417,
      ");": 7418,
      "mistakes": 7419,
      "##armed": 7420,
      "logan": 7421,
      "##itty": 7422,
      "tribe": 7423,
      "situations": 7424,
      "gained": 7425,
      "angle": 7426,
      "ti": 7427,
      "rude": 7428,
      "goals": 7429,
      "princip": 7430,
      "envelope": 7431,
      "afterwards": 7432,
      "visiting": 7433,
      "exciting": 7434,
      "##apes": 7435,
      "bits": 7436,
      "dian": 7437,
      "nam": 7438,
      "attrib": 7439,
      "eb": 7440,
      "sophie": 7441,
      "surroundings": 7442,
      "##________________": 7443,
      "princi": 7444,
      "##12": 7445,
      "grinning": 7446,
      "angela": 7447,
      "pros": 7448,
      "gay": 7449,
      "schools": 7450,
      "agency": 7451,
      "forming": 7452,
      "phase": 7453,
      "hannah": 7454,
      "optim": 7455,
      "ultimately": 7456,
      "catholic": 7457,
      "##bling": 7458,
      "meanwhile": 7459,
      "jung": 7460,
      "laying": 7461,
      "supreme": 7462,
      "philosophy": 7463,
      "underw": 7464,
      "adults": 7465,
      "victims": 7466,
      "gentleman": 7467,
      "##icia": 7468,
      "caleb": 7469,
      "thirst": 7470,
      "##lights": 7471,
      "righteousness": 7472,
      "##ол": 7473,
      "##ano": 7474,
      "dragons": 7475,
      "penet": 7476,
      "portal": 7477,
      "dollar": 7478,
      "##isy": 7479,
      "survey": 7480,
      "condem": 7481,
      "frustrated": 7482,
      "kidding": 7483,
      "helmet": 7484,
      "recalled": 7485,
      "grounds": 7486,
      "pizz": 7487,
      "lobby": 7488,
      "##wol": 7489,
      "followers": 7490,
      "root": 7491,
      "lamp": 7492,
      "_n": 7493,
      "violet": 7494,
      "guided": 7495,
      "oliver": 7496,
      "pam": 7497,
      "dagger": 7498,
      "iran": 7499,
      "gravity": 7500,
      "surrender": 7501,
      "developing": 7502,
      "agric": 7503,
      "approval": 7504,
      "reserved": 7505,
      "murdered": 7506,
      "campaign": 7507,
      "gn": 7508,
      "strode": 7509,
      "complain": 7510,
      "limbs": 7511,
      "halt": 7512,
      "##celer": 7513,
      "clas": 7514,
      "trash": 7515,
      "##lers": 7516,
      "roads": 7517,
      "feast": 7518,
      "employees": 7519,
      "inhab": 7520,
      "torture": 7521,
      "##ario": 7522,
      "license": 7523,
      "muhammad": 7524,
      "refuge": 7525,
      "contrary": 7526,
      "ours": 7527,
      "tests": 7528,
      "##istered": 7529,
      "shattered": 7530,
      "andy": 7531,
      "principles": 7532,
      "gorgeous": 7533,
      "sore": 7534,
      "immun": 7535,
      "##chant": 7536,
      "dylan": 7537,
      "trump": 7538,
      "insurance": 7539,
      "disappointment": 7540,
      "portion": 7541,
      "##cience": 7542,
      "##rim": 7543,
      "introduction": 7544,
      "winning": 7545,
      "fond": 7546,
      "accompanied": 7547,
      "suicide": 7548,
      "reasonable": 7549,
      "economy": 7550,
      "reluctantly": 7551,
      "oliv": 7552,
      "relatively": 7553,
      "excl": 7554,
      "romantic": 7555,
      "rings": 7556,
      "backward": 7557,
      "emper": 7558,
      "plates": 7559,
      "ts": 7560,
      "##har": 7561,
      "fury": 7562,
      "aloud": 7563,
      "sebast": 7564,
      "##agan": 7565,
      "obed": 7566,
      "crowded": 7567,
      "romans": 7568,
      "pron": 7569,
      "delicate": 7570,
      "_sh": 7571,
      "mars": 7572,
      "overwhelming": 7573,
      "storage": 7574,
      "scot": 7575,
      "##don": 7576,
      "descended": 7577,
      "46": 7578,
      "47": 7579,
      "som": 7580,
      "interior": 7581,
      "##bits": 7582,
      "wrap": 7583,
      "##umble": 7584,
      "##bal": 7585,
      "toy": 7586,
      "effic": 7587,
      "keen": 7588,
      "2015": 7589,
      "acceler": 7590,
      "##enz": 7591,
      "##oming": 7592,
      "dict": 7593,
      "fascin": 7594,
      "crashed": 7595,
      "wars": 7596,
      "41": 7597,
      "gasp": 7598,
      "enlight": 7599,
      "confront": 7600,
      "specifically": 7601,
      "aggress": 7602,
      "##mate": 7603,
      "switched": 7604,
      "##bell": 7605,
      "promises": 7606,
      "##aughters": 7607,
      "household": 7608,
      "patterns": 7609,
      "##inations": 7610,
      "stagg": 7611,
      "deserved": 7612,
      "questioning": 7613,
      "defined": 7614,
      "isab": 7615,
      "junior": 7616,
      "ال": 7617,
      "laptop": 7618,
      "witnessed": 7619,
      "barry": 7620,
      "carriage": 7621,
      "jennifer": 7622,
      "edges": 7623,
      "strict": 7624,
      "gary": 7625,
      "territory": 7626,
      "elf": 7627,
      "scarlet": 7628,
      "##osal": 7629,
      "roots": 7630,
      "bish": 7631,
      "##tor": 7632,
      "##aky": 7633,
      "repent": 7634,
      "intri": 7635,
      "native": 7636,
      "##ubble": 7637,
      "steep": 7638,
      "wolves": 7639,
      "2010": 7640,
      "dre": 7641,
      "awak": 7642,
      "bliss": 7643,
      "##mates": 7644,
      "earned": 7645,
      "##ogen": 7646,
      "ava": 7647,
      "michelle": 7648,
      "farther": 7649,
      "derek": 7650,
      "jerry": 7651,
      "operations": 7652,
      "artist": 7653,
      "readers": 7654,
      "jordan": 7655,
      "##ji": 7656,
      "jab": 7657,
      "exhib": 7658,
      "hired": 7659,
      "melissa": 7660,
      "##ota": 7661,
      "##icians": 7662,
      "##icit": 7663,
      "duke": 7664,
      "snap": 7665,
      "digging": 7666,
      "##is_": 7667,
      "competition": 7668,
      "prisoner": 7669,
      "https": 7670,
      "leadership": 7671,
      "escort": 7672,
      "##rowed": 7673,
      "limits": 7674,
      "blowing": 7675,
      "genes": 7676,
      "stuffed": 7677,
      "application": 7678,
      "baseball": 7679,
      "sixteen": 7680,
      "teams": 7681,
      "jewel": 7682,
      "##very": 7683,
      "allows": 7684,
      "rejo": 7685,
      "jol": 7686,
      "harmony": 7687,
      "_up": 7688,
      "sixty": 7689,
      "ladder": 7690,
      "telephone": 7691,
      "##oen": 7692,
      "returns": 7693,
      "##idently": 7694,
      "##lle": 7695,
      "thighs": 7696,
      "chic": 7697,
      "##mod": 7698,
      "dean": 7699,
      "comments": 7700,
      "kicking": 7701,
      "immune": 7702,
      "claws": 7703,
      "ja": 7704,
      "dub": 7705,
      "##mony": 7706,
      "##cript": 7707,
      "costs": 7708,
      "rav": 7709,
      "machines": 7710,
      "commercial": 7711,
      "margaret": 7712,
      "awes": 7713,
      "glimpse": 7714,
      "commented": 7715,
      "drum": 7716,
      "bride": 7717,
      "whispers": 7718,
      "##town": 7719,
      "sideways": 7720,
      "amazed": 7721,
      "solar": 7722,
      "ware": 7723,
      "?!\"": 7724,
      "buddy": 7725,
      "##iar": 7726,
      "cries": 7727,
      "whim": 7728,
      "rene": 7729,
      "##opes": 7730,
      "sevent": 7731,
      "spider": 7732,
      "shudd": 7733,
      "referred": 7734,
      "hank": 7735,
      "alf": 7736,
      "##oured": 7737,
      "monitor": 7738,
      "guardian": 7739,
      "reprodu": 7740,
      "helic": 7741,
      "elimin": 7742,
      "))": 7743,
      "greatly": 7744,
      "alb": 7745,
      "delicious": 7746,
      "lawn": 7747,
      "epis": 7748,
      "winked": 7749,
      "ruin": 7750,
      "victoria": 7751,
      "##rical": 7752,
      "si": 7753,
      "european": 7754,
      "diver": 7755,
      "leaf": 7756,
      "latter": 7757,
      "swiftly": 7758,
      "stole": 7759,
      "mayor": 7760,
      "punched": 7761,
      "unfold": 7762,
      "agricult": 7763,
      "alpha": 7764,
      "explore": 7765,
      "shiny": 7766,
      "reputation": 7767,
      "awe": 7768,
      "capture": 7769,
      "discovery": 7770,
      "selected": 7771,
      "counsel": 7772,
      "joint": 7773,
      "slipping": 7774,
      "nate": 7775,
      "mini": 7776,
      "kur": 7777,
      "##onic": 7778,
      "triumph": 7779,
      "##pent": 7780,
      "chim": 7781,
      "extract": 7782,
      "owe": 7783,
      "##ер": 7784,
      "tissue": 7785,
      "priests": 7786,
      "flin": 7787,
      "paw": 7788,
      "sufficient": 7789,
      "believes": 7790,
      "va": 7791,
      "torment": 7792,
      "barrier": 7793,
      "subs": 7794,
      "galax": 7795,
      "definition": 7796,
      "bolt": 7797,
      "##tm": 7798,
      "witnesses": 7799,
      "chuckle": 7800,
      "casually": 7801,
      "positions": 7802,
      "cann": 7803,
      "thanked": 7804,
      "muff": 7805,
      "guidance": 7806,
      "bund": 7807,
      "universal": 7808,
      "daughters": 7809,
      "differences": 7810,
      "bottles": 7811,
      "sebastian": 7812,
      "vote": 7813,
      "simpl": 7814,
      "heather": 7815,
      "roared": 7816,
      "factor": 7817,
      "breaths": 7818,
      "permanent": 7819,
      "booth": 7820,
      "bore": 7821,
      "renew": 7822,
      "planted": 7823,
      "wishing": 7824,
      "##iner": 7825,
      "meetings": 7826,
      "error": 7827,
      "largest": 7828,
      "profile": 7829,
      "awesome": 7830,
      "sum": 7831,
      "duties": 7832,
      "dragging": 7833,
      "conserv": 7834,
      "drake": 7835,
      "concentration": 7836,
      "##keep": 7837,
      "vital": 7838,
      "sequence": 7839,
      "##ito": 7840,
      "linda": 7841,
      "difficulty": 7842,
      "kidna": 7843,
      "noticing": 7844,
      "categ": 7845,
      "accomplish": 7846,
      "##ras": 7847,
      "roy": 7848,
      "##iration": 7849,
      "batter": 7850,
      "##iece": 7851,
      "announce": 7852,
      "flaw": 7853,
      "saint": 7854,
      "##rik": 7855,
      "##jected": 7856,
      "stubb": 7857,
      "drawer": 7858,
      "landscape": 7859,
      "##ador": 7860,
      "cafe": 7861,
      "dude": 7862,
      "spit": 7863,
      "explains": 7864,
      "juice": 7865,
      "##itate": 7866,
      "smirked": 7867,
      "perpet": 7868,
      "concerns": 7869,
      "providing": 7870,
      "overt": 7871,
      "provides": 7872,
      "materials": 7873,
      "angrily": 7874,
      "phenom": 7875,
      "scree": 7876,
      "darling": 7877,
      "##ester": 7878,
      "tube": 7879,
      "tested": 7880,
      "helicop": 7881,
      "ster": 7882,
      "protective": 7883,
      "profit": 7884,
      "ticket": 7885,
      "trevor": 7886,
      "fortunately": 7887,
      "midst": 7888,
      "##van": 7889,
      "impressive": 7890,
      "emperor": 7891,
      "critic": 7892,
      "hammer": 7893,
      "---": 7894,
      "##iser": 7895,
      "joey": 7896,
      "corps": 7897,
      "##umes": 7898,
      "sidewalk": 7899,
      "##hand": 7900,
      "stained": 7901,
      "institute": 7902,
      "feeding": 7903,
      "outcome": 7904,
      "amused": 7905,
      "surge": 7906,
      "abby": 7907,
      "fee": 7908,
      "evident": 7909,
      "chlo": 7910,
      "print": 7911,
      "occasional": 7912,
      ";\\\\": 7913,
      "caring": 7914,
      "yanked": 7915,
      "talent": 7916,
      "invent": 7917,
      "psalm": 7918,
      "leo": 7919,
      "navy": 7920,
      "unse": 7921,
      "deeds": 7922,
      "bye": 7923,
      "grunted": 7924,
      "tugged": 7925,
      "surprisingly": 7926,
      "behaviour": 7927,
      "recorded": 7928,
      "riley": 7929,
      "##oard": 7930,
      "duck": 7931,
      "hatch": 7932,
      "stem": 7933,
      "paradise": 7934,
      "observe": 7935,
      "avoiding": 7936,
      "dating": 7937,
      "winds": 7938,
      "canada": 7939,
      "legend": 7940,
      "aspect": 7941,
      "aura": 7942,
      "##igning": 7943,
      "extern": 7944,
      "execut": 7945,
      "yourselves": 7946,
      "temporary": 7947,
      "yield": 7948,
      "spreading": 7949,
      "incor": 7950,
      "sustain": 7951,
      "49": 7952,
      "stack": 7953,
      "generations": 7954,
      "ceremony": 7955,
      "babies": 7956,
      "covenant": 7957,
      "upward": 7958,
      "flashing": 7959,
      "illegal": 7960,
      "alexander": 7961,
      "supported": 7962,
      "##antha": 7963,
      "roar": 7964,
      "slim": 7965,
      "nonsense": 7966,
      "facility": 7967,
      "purposes": 7968,
      "hollow": 7969,
      "scary": 7970,
      "oxy": 7971,
      "##ui": 7972,
      "crisis": 7973,
      "apologize": 7974,
      "##ighty": 7975,
      "offers": 7976,
      "##19": 7977,
      "neut": 7978,
      "rag": 7979,
      "incredibly": 7980,
      "adjusted": 7981,
      "wy": 7982,
      "investment": 7983,
      "candle": 7984,
      "fulfill": 7985,
      "fires": 7986,
      "##ounded": 7987,
      "illusion": 7988,
      "package": 7989,
      "aliens": 7990,
      "concentrate": 7991,
      "bubb": 7992,
      "cottage": 7993,
      "##uddled": 7994,
      "gavin": 7995,
      "##nders": 7996,
      "dana": 7997,
      "customer": 7998,
      "ginger": 7999,
      "banks": 8000,
      "examine": 8001,
      "ul": 8002,
      "shorts": 8003,
      "##rations": 8004,
      "bearing": 8005,
      "joan": 8006,
      "exchanged": 8007,
      "##fr": 8008,
      "prisoners": 8009,
      "aye": 8010,
      "firing": 8011,
      "##uh": 8012,
      "facebook": 8013,
      "implement": 8014,
      "obliv": 8015,
      "healed": 8016,
      "##retched": 8017,
      "sources": 8018,
      "joining": 8019,
      "significantly": 8020,
      "eased": 8021,
      "sleeve": 8022,
      "chloe": 8023,
      "werewol": 8024,
      "##ruary": 8025,
      "shouts": 8026,
      "##izations": 8027,
      "squeeze": 8028,
      "smirk": 8029,
      "lace": 8030,
      "ramp": 8031,
      "dishes": 8032,
      "kindness": 8033,
      "freely": 8034,
      "digital": 8035,
      "70": 8036,
      "poll": 8037,
      "ignorance": 8038,
      "pizza": 8039,
      "##................": 8040,
      "##rine": 8041,
      "consumed": 8042,
      "veins": 8043,
      "##agues": 8044,
      "frequently": 8045,
      "aqu": 8046,
      "february": 8047,
      "stubborn": 8048,
      "surve": 8049,
      "johnson": 8050,
      "attor": 8051,
      "##bes": 8052,
      "historical": 8053,
      "draft": 8054,
      "era": 8055,
      "ribs": 8056,
      "advert": 8057,
      "gord": 8058,
      "avoided": 8059,
      "##unting": 8060,
      "tack": 8061,
      "texas": 8062,
      "germany": 8063,
      "association": 8064,
      "slumped": 8065,
      "dock": 8066,
      "launch": 8067,
      "almighty": 8068,
      "anticipation": 8069,
      "nails": 8070,
      "##tenance": 8071,
      "##amental": 8072,
      "stroked": 8073,
      "plas": 8074,
      "aboard": 8075,
      "software": 8076,
      "glances": 8077,
      "abund": 8078,
      "prey": 8079,
      "##ın": 8080,
      "cultural": 8081,
      "iraq": 8082,
      "tooth": 8083,
      "##alf": 8084,
      "degrees": 8085,
      "sharply": 8086,
      "mister": 8087,
      "##ailed": 8088,
      "wrest": 8089,
      "pouring": 8090,
      "##iders": 8091,
      "australia": 8092,
      "neur": 8093,
      "proceeded": 8094,
      "carter": 8095,
      "breaks": 8096,
      "determination": 8097,
      "##beat": 8098,
      "affairs": 8099,
      "yawn": 8100,
      "mug": 8101,
      "meditation": 8102,
      "demands": 8103,
      "visitors": 8104,
      "eg": 8105,
      "void": 8106,
      "hits": 8107,
      "begged": 8108,
      "swinging": 8109,
      "respective": 8110,
      "concluded": 8111,
      "protecting": 8112,
      "stares": 8113,
      "formation": 8114,
      "illness": 8115,
      "##cia": 8116,
      "realization": 8117,
      "amuse": 8118,
      "confess": 8119,
      "striking": 8120,
      "helpful": 8121,
      "miserable": 8122,
      "bullets": 8123,
      "standards": 8124,
      "pu_": 8125,
      "fourteen": 8126,
      "conversations": 8127,
      "lounge": 8128,
      "intellectual": 8129,
      "intend": 8130,
      "natal": 8131,
      "potato": 8132,
      "excess": 8133,
      "lid": 8134,
      "simult": 8135,
      "revol": 8136,
      "horn": 8137,
      "agony": 8138,
      "flicked": 8139,
      "193": 8140,
      "##ribly": 8141,
      "counted": 8142,
      "mainly": 8143,
      "carved": 8144,
      "ripp": 8145,
      "restr": 8146,
      "addressed": 8147,
      "committee": 8148,
      "delivery": 8149,
      "olivia": 8150,
      "##sa": 8151,
      "talks": 8152,
      "replies": 8153,
      "sheer": 8154,
      "disaster": 8155,
      "##asingly": 8156,
      "neighbors": 8157,
      "cautiously": 8158,
      "yog": 8159,
      "shelf": 8160,
      "illust": 8161,
      "##hin": 8162,
      "julian": 8163,
      "brows": 8164,
      "russia": 8165,
      "##13": 8166,
      "division": 8167,
      "bushes": 8168,
      "ital": 8169,
      "syl": 8170,
      "##nn": 8171,
      "exhaled": 8172,
      "phoen": 8173,
      "##asant": 8174,
      "candy": 8175,
      "stim": 8176,
      "encouraged": 8177,
      "ruined": 8178,
      "neckl": 8179,
      "accounts": 8180,
      "500": 8181,
      "poly": 8182,
      "intensity": 8183,
      "samantha": 8184,
      "gabe": 8185,
      "lets": 8186,
      "devast": 8187,
      "ashamed": 8188,
      "explaining": 8189,
      "jin": 8190,
      "linked": 8191,
      "mice": 8192,
      "solve": 8193,
      "controls": 8194,
      "throb": 8195,
      "navig": 8196,
      "penny": 8197,
      "furious": 8198,
      "authorities": 8199,
      "rack": 8200,
      "alter": 8201,
      "lind": 8202,
      "cler": 8203,
      "rank": 8204,
      "electricity": 8205,
      "pp": 8206,
      "subc": 8207,
      "african": 8208,
      "toast": 8209,
      "electronic": 8210,
      "charges": 8211,
      "intently": 8212,
      "mour": 8213,
      "seal": 8214,
      "defensive": 8215,
      "opportunities": 8216,
      "disag": 8217,
      "sf": 8218,
      "classroom": 8219,
      "gig": 8220,
      "depths": 8221,
      "sym": 8222,
      "score": 8223,
      "blessings": 8224,
      "80": 8225,
      "sticking": 8226,
      "taller": 8227,
      "moaned": 8228,
      "stew": 8229,
      "governor": 8230,
      "##inter": 8231,
      "computers": 8232,
      "crushed": 8233,
      "huff": 8234,
      "monsters": 8235,
      "tues": 8236,
      "divers": 8237,
      "staircase": 8238,
      "dreaming": 8239,
      "intentions": 8240,
      "wasted": 8241,
      "##apse": 8242,
      "logical": 8243,
      "zo": 8244,
      "sealed": 8245,
      "cats": 8246,
      "mechanism": 8247,
      "documents": 8248,
      "trailed": 8249,
      "cavern": 8250,
      "aj": 8251,
      "glorious": 8252,
      "ador": 8253,
      "raz": 8254,
      "##аи": 8255,
      "sometime": 8256,
      "introduce": 8257,
      "gentlemen": 8258,
      "factors": 8259,
      "##iques": 8260,
      "rocky": 8261,
      "swallow": 8262,
      "vulnerable": 8263,
      "unaw": 8264,
      "suits": 8265,
      "pipe": 8266,
      "tuesday": 8267,
      "beaten": 8268,
      "52": 8269,
      "##onents": 8270,
      "##uma": 8271,
      "pent": 8272,
      "casey": 8273,
      "displayed": 8274,
      "communicate": 8275,
      "rows": 8276,
      "flowed": 8277,
      "originally": 8278,
      "wipe": 8279,
      "##berry": 8280,
      "privacy": 8281,
      "magnific": 8282,
      "##rr": 8283,
      "privile": 8284,
      "clicked": 8285,
      "soaked": 8286,
      "strangers": 8287,
      "##atively": 8288,
      "beasts": 8289,
      "99": 8290,
      "damaged": 8291,
      "_wh": 8292,
      "stella": 8293,
      "curt": 8294,
      "genesis": 8295,
      "naz": 8296,
      "deaf": 8297,
      "hurting": 8298,
      "_what": 8299,
      "##o_": 8300,
      "anch": 8301,
      "thirteen": 8302,
      "rhythm": 8303,
      "yep": 8304,
      "chains": 8305,
      "congreg": 8306,
      "shifting": 8307,
      "diane": 8308,
      "depression": 8309,
      "pine": 8310,
      "projects": 8311,
      "barrel": 8312,
      "lex": 8313,
      "hyd": 8314,
      "cameras": 8315,
      "##shit": 8316,
      "aircraft": 8317,
      "garb": 8318,
      "goss": 8319,
      "##sole": 8320,
      "injury": 8321,
      "dorm": 8322,
      "semi": 8323,
      "acid": 8324,
      "parted": 8325,
      "differently": 8326,
      "hesitation": 8327,
      "scare": 8328,
      "floated": 8329,
      "examples": 8330,
      "charity": 8331,
      "views": 8332,
      "fundamental": 8333,
      "arc": 8334,
      "churches": 8335,
      "realise": 8336,
      "##grat": 8337,
      "spanish": 8338,
      "blog": 8339,
      "mex": 8340,
      "##igen": 8341,
      "alto": 8342,
      "##icity": 8343,
      "tumors": 8344,
      "dared": 8345,
      "oxygen": 8346,
      "shaft": 8347,
      "##like": 8348,
      "lew": 8349,
      "90": 8350,
      "chip": 8351,
      "conscience": 8352,
      "flung": 8353,
      "cav": 8354,
      "estim": 8355,
      "depends": 8356,
      "shone": 8357,
      "automatically": 8358,
      "chasing": 8359,
      "##ел": 8360,
      "frequency": 8361,
      "spy": 8362,
      "pic": 8363,
      "tara": 8364,
      "medium": 8365,
      "##zzy": 8366,
      "countless": 8367,
      "recovered": 8368,
      "elders": 8369,
      "regarded": 8370,
      "crim": 8371,
      "snatched": 8372,
      "burnt": 8373,
      "replace": 8374,
      "delay": 8375,
      "yer": 8376,
      "##arded": 8377,
      "divorce": 8378,
      "soup": 8379,
      "##urd": 8380,
      "##xture": 8381,
      "blown": 8382,
      "phoenix": 8383,
      "adrian": 8384,
      "strongly": 8385,
      "tel": 8386,
      "dynam": 8387,
      "##sell": 8388,
      "japanese": 8389,
      "precisely": 8390,
      "practices": 8391,
      "cameron": 8392,
      "##aya": 8393,
      "htm": 8394,
      "reh": 8395,
      "frost": 8396,
      "ringing": 8397,
      "].": 8398,
      "purchased": 8399,
      "unst": 8400,
      "tales": 8401,
      "wander": 8402,
      "##ет": 8403,
      "external": 8404,
      "##gers": 8405,
      "dele": 8406,
      "##kers": 8407,
      "marched": 8408,
      "shivered": 8409,
      "##asses": 8410,
      "poetry": 8411,
      "courty": 8412,
      "arriving": 8413,
      "##etta": 8414,
      "bron": 8415,
      "##antically": 8416,
      "util": 8417,
      "clam": 8418,
      "##angel": 8419,
      "mim": 8420,
      "mack": 8421,
      "##add": 8422,
      "vacation": 8423,
      "immortal": 8424,
      "depos": 8425,
      "shuddered": 8426,
      "taxi": 8427,
      "pretending": 8428,
      "continu": 8429,
      "awoke": 8430,
      "doz": 8431,
      "##lon": 8432,
      "brandon": 8433,
      "objective": 8434,
      "##14": 8435,
      "whereas": 8436,
      "##dia": 8437,
      "utterly": 8438,
      "lighting": 8439,
      "gloves": 8440,
      "wrath": 8441,
      "irre": 8442,
      "subsequ": 8443,
      "climate": 8444,
      "tid": 8445,
      "eleg": 8446,
      "55": 8447,
      "plays": 8448,
      "dealt": 8449,
      "scrambled": 8450,
      "bounced": 8451,
      "elb": 8452,
      "##ulously": 8453,
      "_that": 8454,
      "affair": 8455,
      "cyn": 8456,
      "wandering": 8457,
      "transition": 8458,
      "existing": 8459,
      "toby": 8460,
      "possession": 8461,
      "prosper": 8462,
      "gil": 8463,
      "whipped": 8464,
      "scor": 8465,
      "##esa": 8466,
      "wiping": 8467,
      "_i_": 8468,
      "exited": 8469,
      "elsewhere": 8470,
      "spots": 8471,
      "marc": 8472,
      "nancy": 8473,
      "mounted": 8474,
      "tasted": 8475,
      "sung": 8476,
      "stool": 8477,
      "roughly": 8478,
      "strangely": 8479,
      "cargo": 8480,
      "thurs": 8481,
      "abandon": 8482,
      "colin": 8483,
      "matching": 8484,
      "thankfully": 8485,
      "nerve": 8486,
      "##vy": 8487,
      "arrested": 8488,
      "clients": 8489,
      "wilson": 8490,
      "##ettes": 8491,
      "##cha": 8492,
      "stirred": 8493,
      "anthony": 8494,
      "achieved": 8495,
      "statue": 8496,
      "##rose": 8497,
      "torch": 8498,
      "##sen": 8499,
      "##stein": 8500,
      "programs": 8501,
      "kel": 8502,
      "handing": 8503,
      "appointment": 8504,
      "deaths": 8505,
      "laz": 8506,
      "includes": 8507,
      "thursday": 8508,
      "fbi": 8509,
      "##ounted": 8510,
      "voc": 8511,
      "folk": 8512,
      "licked": 8513,
      "##udes": 8514,
      "chicago": 8515,
      "sham": 8516,
      "moist": 8517,
      "domain": 8518,
      "mexico": 8519,
      "bark": 8520,
      "dign": 8521,
      "scout": 8522,
      "notion": 8523,
      "mant": 8524,
      "supper": 8525,
      "resurrection": 8526,
      "scratched": 8527,
      "##cling": 8528,
      "knuck": 8529,
      "passes": 8530,
      "recognition": 8531,
      "wrists": 8532,
      "crad": 8533,
      "dusty": 8534,
      "ko": 8535,
      "cotton": 8536,
      "referring": 8537,
      "thoroughly": 8538,
      "##otte": 8539,
      "drained": 8540,
      "sector": 8541,
      "dash": 8542,
      "selection": 8543,
      "thankful": 8544,
      "##otyp": 8545,
      "corpse": 8546,
      "ade": 8547,
      "##ava": 8548,
      "mistress": 8549,
      "##edge": 8550,
      "conj": 8551,
      "invitation": 8552,
      "##omeday": 8553,
      "courtyard": 8554,
      "saddle": 8555,
      "cabinet": 8556,
      "finishing": 8557,
      "ducked": 8558,
      "##olo": 8559,
      "2016": 8560,
      "rud": 8561,
      "##azed": 8562,
      "reform": 8563,
      "devices": 8564,
      "bew": 8565,
      "lump": 8566,
      "principal": 8567,
      "mode": 8568,
      "amid": 8569,
      "necessarily": 8570,
      "teased": 8571,
      "argued": 8572,
      "grasped": 8573,
      "invite": 8574,
      "dripping": 8575,
      "challenges": 8576,
      "##icy": 8577,
      "ranch": 8578,
      "albert": 8579,
      "##cony": 8580,
      "gau": 8581,
      "##ensions": 8582,
      "nipp": 8583,
      "someday": 8584,
      "meters": 8585,
      "##ufact": 8586,
      "fathers": 8587,
      "elderly": 8588,
      "_j": 8589,
      "bucket": 8590,
      "surgery": 8591,
      "desired": 8592,
      "rounded": 8593,
      "doubted": 8594,
      "enthusiasm": 8595,
      "evan": 8596,
      "cul": 8597,
      "##uction": 8598,
      "attracted": 8599,
      "##lands": 8600,
      "nicole": 8601,
      "##veled": 8602,
      "crush": 8603,
      "fever": 8604,
      "shallow": 8605,
      "unlikely": 8606,
      "eva": 8607,
      "##eland": 8608,
      "celest": 8609,
      "overwhelmed": 8610,
      "##ин": 8611,
      "comparison": 8612,
      "manufact": 8613,
      "nh": 8614,
      "roo": 8615,
      "balcony": 8616,
      "retrieved": 8617,
      "bunk": 8618,
      "meg": 8619,
      "inevitable": 8620,
      "appearing": 8621,
      "corinth": 8622,
      "phrase": 8623,
      "catherine": 8624,
      "possibilities": 8625,
      "megan": 8626,
      "scholars": 8627,
      "freak": 8628,
      "poem": 8629,
      "momentarily": 8630,
      "195": 8631,
      "eph": 8632,
      "--\"": 8633,
      "immense": 8634,
      "##tery": 8635,
      "disgu": 8636,
      "sample": 8637,
      "blades": 8638,
      "darted": 8639,
      "perception": 8640,
      "launched": 8641,
      "##iating": 8642,
      "##bar": 8643,
      "scratch": 8644,
      "depending": 8645,
      "##eart": 8646,
      "limp": 8647,
      "toe": 8648,
      "stroke": 8649,
      "arrows": 8650,
      "smells": 8651,
      "substance": 8652,
      "sue": 8653,
      "##wa": 8654,
      "investigate": 8655,
      "slightest": 8656,
      "layer": 8657,
      "##vas": 8658,
      "quiver": 8659,
      "cups": 8660,
      "administration": 8661,
      "ankle": 8662,
      "##ipher": 8663,
      "brightly": 8664,
      "##yard": 8665,
      "curtains": 8666,
      "appeal": 8667,
      "ald": 8668,
      "ruby": 8669,
      "willow": 8670,
      "islamic": 8671,
      "##то": 8672,
      "bullshit": 8673,
      "intimid": 8674,
      "##going": 8675,
      "mp": 8676,
      "dressing": 8677,
      "stake": 8678,
      "brains": 8679,
      "download": 8680,
      "whispering": 8681,
      "##esy": 8682,
      "biological": 8683,
      "wheels": 8684,
      "##after": 8685,
      "sarc": 8686,
      "inspired": 8687,
      "admiral": 8688,
      "speaker": 8689,
      "##rum": 8690,
      "perfection": 8691,
      "rebu": 8692,
      "miller": 8693,
      "##box": 8694,
      "prize": 8695,
      "humble": 8696,
      "assure": 8697,
      "##16": 8698,
      "##respond": 8699,
      "sophia": 8700,
      "fork": 8701,
      "##des": 8702,
      "jared": 8703,
      "hans": 8704,
      "crashing": 8705,
      "##ography": 8706,
      "parker": 8707,
      "bills": 8708,
      "##shine": 8709,
      "league": 8710,
      "eagle": 8711,
      "intu": 8712,
      "papa": 8713,
      "plung": 8714,
      "elabor": 8715,
      "comprom": 8716,
      "patrol": 8717,
      "guitar": 8718,
      "flushed": 8719,
      "robin": 8720,
      "marble": 8721,
      "пр": 8722,
      "53": 8723,
      "grandpa": 8724,
      "grind": 8725,
      "remarked": 8726,
      "blend": 8727,
      "##away": 8728,
      "waitress": 8729,
      "necklace": 8730,
      "##encing": 8731,
      "museum": 8732,
      "tips": 8733,
      "wealthy": 8734,
      "vice": 8735,
      "clutched": 8736,
      "correspond": 8737,
      "##omon": 8738,
      "nad": 8739,
      "accurate": 8740,
      "cuts": 8741,
      "guarant": 8742,
      "relevant": 8743,
      "rus": 8744,
      "pearl": 8745,
      "##isk": 8746,
      "worker": 8747,
      "stretching": 8748,
      "nah": 8749,
      "christop": 8750,
      "##17": 8751,
      "dozens": 8752,
      "injuries": 8753,
      "surviv": 8754,
      "##ainted": 8755,
      "bishop": 8756,
      "##iat": 8757,
      "disting": 8758,
      "humili": 8759,
      "ghosts": 8760,
      "##pit": 8761,
      "romance": 8762,
      "vain": 8763,
      "pleaded": 8764,
      "approx": 8765,
      "jos": 8766,
      "moreover": 8767,
      "lamb": 8768,
      "targets": 8769,
      "divided": 8770,
      "viet": 8771,
      "dal": 8772,
      "##inge": 8773,
      "unne": 8774,
      "convention": 8775,
      "proven": 8776,
      "##ouch": 8777,
      "2009": 8778,
      "florida": 8779,
      "attended": 8780,
      "unaware": 8781,
      "allahu": 8782,
      "assuming": 8783,
      "sunny": 8784,
      "melted": 8785,
      "darkened": 8786,
      "dump": 8787,
      "##ologist": 8788,
      "##ima": 8789,
      "altar": 8790,
      "##iya": 8791,
      "quran": 8792,
      "choked": 8793,
      "ellen": 8794,
      "jungle": 8795,
      "dependent": 8796,
      "indicate": 8797,
      "fucked": 8798,
      "smashed": 8799,
      "clust": 8800,
      "shep": 8801,
      "_______": 8802,
      "violently": 8803,
      "_he": 8804,
      "luckily": 8805,
      "requested": 8806,
      "embarrassment": 8807,
      "54": 8808,
      "##αι": 8809,
      "##standing": 8810,
      "patiently": 8811,
      "charm": 8812,
      "heavenly": 8813,
      "tina": 8814,
      "robot": 8815,
      "suz": 8816,
      "generous": 8817,
      "##iency": 8818,
      "crouched": 8819,
      "moonlight": 8820,
      "misery": 8821,
      "##bra": 8822,
      "mcc": 8823,
      "jerk": 8824,
      "masters": 8825,
      "caress": 8826,
      "accommod": 8827,
      "suspicion": 8828,
      "cush": 8829,
      "atop": 8830,
      "##pson": 8831,
      "blocking": 8832,
      "##ugs": 8833,
      "tag": 8834,
      "processes": 8835,
      "##see": 8836,
      "##ati": 8837,
      "inherit": 8838,
      "##iac": 8839,
      "philip": 8840,
      "frantically": 8841,
      "para": 8842,
      "destro": 8843,
      "nas": 8844,
      "trous": 8845,
      "foul": 8846,
      "retired": 8847,
      "primitive": 8848,
      "##works": 8849,
      "resolve": 8850,
      "fingert": 8851,
      "vest": 8852,
      "tune": 8853,
      "accomplished": 8854,
      "hyper": 8855,
      "hopeless": 8856,
      "##tion": 8857,
      "units": 8858,
      "defeated": 8859,
      "dy": 8860,
      "joking": 8861,
      "alle": 8862,
      "amusement": 8863,
      "##oman": 8864,
      "constitution": 8865,
      "pole": 8866,
      "##rich": 8867,
      "majesty": 8868,
      "##world": 8869,
      "##ountain": 8870,
      "counting": 8871,
      "deput": 8872,
      "##wing": 8873,
      "accus": 8874,
      "grabs": 8875,
      "profound": 8876,
      "charlotte": 8877,
      "archit": 8878,
      "twisting": 8879,
      "##од": 8880,
      "reduce": 8881,
      "appreh": 8882,
      "suitable": 8883,
      "##ilda": 8884,
      "increasingly": 8885,
      "ninet": 8886,
      "denied": 8887,
      "choosing": 8888,
      "deer": 8889,
      "commands": 8890,
      "##unks": 8891,
      "ot": 8892,
      "##iva": 8893,
      "sympath": 8894,
      "##ifully": 8895,
      "wilder": 8896,
      "spaces": 8897,
      "artific": 8898,
      "congress": 8899,
      "cure": 8900,
      "gy": 8901,
      "maneu": 8902,
      "##nesday": 8903,
      "repeatedly": 8904,
      "noises": 8905,
      "attorney": 8906,
      "insult": 8907,
      "suggestion": 8908,
      "assignment": 8909,
      "##لا": 8910,
      "jade": 8911,
      "shrug": 8912,
      "paths": 8913,
      "heir": 8914,
      "odds": 8915,
      "chant": 8916,
      "asshole": 8917,
      "wednesday": 8918,
      "whit": 8919,
      "vari": 8920,
      "##verty": 8921,
      "matched": 8922,
      "ascend": 8923,
      "janet": 8924,
      "eli": 8925,
      "transformed": 8926,
      "recording": 8927,
      "##ит": 8928,
      "swore": 8929,
      "sunshine": 8930,
      "##angs": 8931,
      "register": 8932,
      "pond": 8933,
      "appointed": 8934,
      "blushed": 8935,
      "ein": 8936,
      "accepting": 8937,
      "factory": 8938,
      "warehouse": 8939,
      "gill": 8940,
      "tro": 8941,
      "blankets": 8942,
      "poverty": 8943,
      "dwarf": 8944,
      "downwards": 8945,
      "makeup": 8946,
      "hears": 8947,
      "mun": 8948,
      "entertainment": 8949,
      "pave": 8950,
      "bruce": 8951,
      "proport": 8952,
      "explo": 8953,
      "gazing": 8954,
      "organized": 8955,
      "passengers": 8956,
      "unnecess": 8957,
      "##stream": 8958,
      "virus": 8959,
      "terry": 8960,
      "congrat": 8961,
      "##aline": 8962,
      "cert": 8963,
      "theat": 8964,
      "shrie": 8965,
      "orch": 8966,
      "mik": 8967,
      "operating": 8968,
      "effectively": 8969,
      "davis": 8970,
      "wildly": 8971,
      "containing": 8972,
      "outfit": 8973,
      "adopted": 8974,
      "publishing": 8975,
      "helicopter": 8976,
      "buttons": 8977,
      "rolls": 8978,
      "forear": 8979,
      "tat": 8980,
      "cindy": 8981,
      "##ecy": 8982,
      "mol": 8983,
      "##immed": 8984,
      "dimin": 8985,
      "scientist": 8986,
      "honour": 8987,
      "##rep": 8988,
      "unhapp": 8989,
      "thorn": 8990,
      "hurts": 8991,
      "discer": 8992,
      "distress": 8993,
      "fountain": 8994,
      "tuck": 8995,
      "marine": 8996,
      "##itching": 8997,
      "mattress": 8998,
      "prest": 8999,
      "creek": 9000,
      "recept": 9001,
      "visions": 9002,
      "acceptance": 9003,
      "seam": 9004,
      "winced": 9005,
      "campus": 9006,
      "##y_": 9007,
      "kilomet": 9008,
      "lighter": 9009,
      "erin": 9010,
      "wreck": 9011,
      "civilization": 9012,
      "noon": 9013,
      "gor": 9014,
      "blink": 9015,
      "episode": 9016,
      "yo": 9017,
      "contains": 9018,
      "swam": 9019,
      "functions": 9020,
      "stored": 9021,
      "metast": 9022,
      "consult": 9023,
      "_not": 9024,
      "gardens": 9025,
      "complained": 9026,
      "initially": 9027,
      "clutching": 9028,
      "minded": 9029,
      "mixture": 9030,
      "##asions": 9031,
      "wives": 9032,
      "boston": 9033,
      "christianity": 9034,
      "##uts": 9035,
      "dreamed": 9036,
      "removing": 9037,
      "commitment": 9038,
      "academy": 9039,
      "##ista": 9040,
      "geo": 9041,
      "##tail": 9042,
      "surat": 9043,
      "tasks": 9044,
      "lana": 9045,
      "theo": 9046,
      "rice": 9047,
      "bould": 9048,
      "dismissed": 9049,
      "##ando": 9050,
      "sipped": 9051,
      "##ijah": 9052,
      "coordin": 9053,
      "boats": 9054,
      "suite": 9055,
      "wrapping": 9056,
      "shimm": 9057,
      "mathem": 9058,
      "irish": 9059,
      "rejected": 9060,
      "simultaneously": 9061,
      "altogether": 9062,
      "rounds": 9063,
      "junk": 9064,
      "properties": 9065,
      "\\~": 9066,
      "wend": 9067,
      "payment": 9068,
      "encountered": 9069,
      "adren": 9070,
      "prick": 9071,
      "belongs": 9072,
      "demonstrated": 9073,
      "welcom": 9074,
      "infant": 9075,
      "gossip": 9076,
      "worries": 9077,
      "flour": 9078,
      "structures": 9079,
      "reporter": 9080,
      "wield": 9081,
      "craig": 9082,
      "##aver": 9083,
      "editor": 9084,
      "substant": 9085,
      "sphere": 9086,
      "\"'": 9087,
      "keith": 9088,
      "troubled": 9089,
      "lifest": 9090,
      "heated": 9091,
      "meals": 9092,
      "prophecy": 9093,
      "phill": 9094,
      "##asis": 9095,
      "maintained": 9096,
      "##omic": 9097,
      "##onym": 9098,
      "articles": 9099,
      "disord": 9100,
      "##arts": 9101,
      "##ghan": 9102,
      "induced": 9103,
      "monit": 9104,
      "##hou": 9105,
      "nostr": 9106,
      "prote": 9107,
      "reign": 9108,
      "fitting": 9109,
      "tighter": 9110,
      "modest": 9111,
      "needing": 9112,
      "tearing": 9113,
      "tinted": 9114,
      "nope": 9115,
      "##chief": 9116,
      "walt": 9117,
      "ambul": 9118,
      "beds": 9119,
      "crimes": 9120,
      "fisher": 9121,
      "##25": 9122,
      "technical": 9123,
      "celebrate": 9124,
      "seventeen": 9125,
      "vom": 9126,
      "gust": 9127,
      "genius": 9128,
      "shine": 9129,
      "##anging": 9130,
      "importantly": 9131,
      "fade": 9132,
      "##eration": 9133,
      "##99": 9134,
      "butterf": 9135,
      "owen": 9136,
      "italian": 9137,
      "shoe": 9138,
      "fid": 9139,
      "industrial": 9140,
      "succ": 9141,
      "harvest": 9142,
      "floors": 9143,
      "##18": 9144,
      "detailed": 9145,
      "subconscious": 9146,
      "gordon": 9147,
      "dipl": 9148,
      "neglect": 9149,
      "_k": 9150,
      "magnificent": 9151,
      "twitter": 9152,
      "observation": 9153,
      "wigg": 9154,
      "##aka": 9155,
      "annoying": 9156,
      "crawl": 9157,
      "pend": 9158,
      "planets": 9159,
      "worrying": 9160,
      "martha": 9161,
      "suppress": 9162,
      "acquired": 9163,
      "stores": 9164,
      "caution": 9165,
      "fem": 9166,
      "testim": 9167,
      "neph": 9168,
      "galaxy": 9169,
      "fluid": 9170,
      "contrad": 9171,
      "diagn": 9172,
      "marty": 9173,
      "drain": 9174,
      "betrayed": 9175,
      "ching": 9176,
      "56": 9177,
      "##rest": 9178,
      "collapse": 9179,
      "rebell": 9180,
      "wallet": 9181,
      "hopped": 9182,
      "brace": 9183,
      "leap": 9184,
      "assassin": 9185,
      "drama": 9186,
      "intimate": 9187,
      "shops": 9188,
      "##shot": 9189,
      "indicating": 9190,
      "ellie": 9191,
      "madness": 9192,
      "thief": 9193,
      "asia": 9194,
      "seventy": 9195,
      "orph": 9196,
      "debate": 9197,
      "unlocked": 9198,
      "weary": 9199,
      "greeting": 9200,
      "towns": 9201,
      "pounded": 9202,
      "##iors": 9203,
      "studio": 9204,
      "biz": 9205,
      "fantastic": 9206,
      "mage": 9207,
      "adapt": 9208,
      "##bris": 9209,
      "pathway": 9210,
      "mothers": 9211,
      "##vere": 9212,
      "doubts": 9213,
      "parall": 9214,
      "discussing": 9215,
      "philosoph": 9216,
      "nuts": 9217,
      "begging": 9218,
      "rays": 9219,
      "pel": 9220,
      "icy": 9221,
      "2008": 9222,
      "gram": 9223,
      "tipped": 9224,
      "punish": 9225,
      "arts": 9226,
[...]
