{
  "version": "1.0",
  "truncation": null,
  "padding": null,
  "added_tokens": [
    {
      "id": 0,
      "content": "[UNK]",
      "single_word": false,
      "lstrip": false,
      "rstrip": false,
      "normalized": false,
      "special": true
    },
    {
      "id": 1,
      "content": "[CLS]",
      "single_word": false,
      "lstrip": false,
      "rstrip": false,
      "normalized": false,
      "special": true
    },
    {
      "id": 2,
      "content": "[SEP]",
      "single_word": false,
      "lstrip": false,
      "rstrip": false,
      "normalized": false,
      "special": true
    },
    {
      "id": 3,
      "content": "[PAD]",
      "single_word": false,
      "lstrip": false,
      "rstrip": false,
      "normalized": false,
      "special": true
    },
    {
      "id": 4,
      "content": "[MASK]",
      "single_word": false,
      "lstrip": false,
      "rstrip": false,
      "normalized": false,
      "special": true
    }
  ],
  "normalizer": {
    "type": "Sequence",
    "normalizers": [
      {
        "type": "NFD"
      },
      {
        "type": "Lowercase"
      },
      {
        "type": "StripAccents"
      }
    ]
  },
  "pre_tokenizer": {
    "type": "Whitespace"
  },
  "post_processor": {
    "type": "TemplateProcessing",
    "single": [
      {
        "SpecialToken": {
          "id": "[CLS]",
          "type_id": 0
        }
      },
      {
        "Sequence": {
          "id": "A",
          "type_id": 0
        }
      },
      {
        "SpecialToken": {
          "id": "[SEP]",
          "type_id": 0
        }
      }
    ],
    "pair": [
      {
        "SpecialToken": {
          "id": "[CLS]",
          "type_id": 0
        }
      },
      {
        "Sequence": {
          "id": "A",
          "type_id": 0
        }
      },
      {
        "SpecialToken": {
          "id": "[SEP]",
          "type_id": 0
        }
      },
      {
        "Sequence": {
          "id": "B",
          "type_id": 1
        }
      },
      {
        "SpecialToken": {
          "id": "[SEP]",
          "type_id": 1
        }
      }
    ],
    "special_tokens": {
      "[CLS]": {
        "id": "[CLS]",
        "ids": [
          1
        ],
        "tokens": [
          "[CLS]"
        ]
      },
      "[SEP]": {
        "id": "[SEP]",
        "ids": [
          2
        ],
        "tokens": [
          "[SEP]"
        ]
      }
    }
  },
  "decoder": {
    "type": "WordPiece",
    "prefix": "##",
    "cleanup": true
  },
  "model": {
    "type": "WordPiece",
    "unk_token": "[UNK]",
    "continuing_subword_prefix": "##",
    "max_input_chars_per_word": 100,
    "vocab": {
      "[UNK]": 0,
      "[CLS]": 1,
      "[SEP]": 2,
      "[PAD]": 3,
      "[MASK]": 4,
      "!": 5,
      "\"": 6,
      "#": 7,
      "$": 8,
      "%": 9,
      "&": 10,
      "'": 11,
      "(": 12,
      ")": 13,
      "*": 14,
      "+": 15,
      ",": 16,
      "-": 17,
      ".": 18,
      "/": 19,
      "0": 20,
      "1": 21,
      "2": 22,
      "3": 23,
      "4": 24,
      "5": 25,
      "6": 26,
      "7": 27,
      "8": 28,
      "9": 29,
      ":": 30,
      ";": 31,
      "<": 32,
      "=": 33,
      ">": 34,
      "?": 35,
      "@": 36,
      "[": 37,
      "\\": 38,
      "]": 39,
      "^": 40,
      "_": 41,
      "`": 42,
      "a": 43,
      "b": 44,
      "c": 45,
      "d": 46,
      "e": 47,
      "f": 48,
      "g": 49,
      "h": 50,
      "i": 51,
      "j": 52,
      "k": 53,
      "l": 54,
      "m": 55,
      "n": 56,
      "o": 57,
      "p": 58,
      "q": 59,
      "r": 60,
      "s": 61,
      "t": 62,
      "u": 63,
      "v": 64,
      "w": 65,
      "x": 66,
      "y": 67,
      "z": 68,
      "{": 69,
      "|": 70,
      "}": 71,
      "~": 72,
      "¡": 73,
      "¢": 74,
      "£": 75,
      "¤": 76,
      "¥": 77,
      "¦": 78,
      "§": 79,
      "¨": 80,
      "©": 81,
      "ª": 82,
      "«": 83,
      "¬": 84,
      "­": 85,
      "®": 86,
      "¯": 87,
      "°": 88,
      "±": 89,
      "²": 90,
      "³": 91,
      "´": 92,
      "µ": 93,
      "¶": 94,
      "·": 95,
      "¸": 96,
      "¹": 97,
      "º": 98,
      "»": 99,
      "¼": 100,
      "½": 101,
      "¾": 102,
      "¿": 103,
      "×": 104,
      "ß": 105,
      "æ": 106,
      "ð": 107,
      "÷": 108,
      "ø": 109,
      "þ": 110,
      "đ": 111,
      "ħ": 112,
      "ı": 113,
      "ĸ": 114,
      "ł": 115,
      "ŋ": 116,
      "œ": 117,
      "ſ": 118,
      "ƒ": 119,
      "ǁ": 120,
      "ǂ": 121,
      "ȝ": 122,
      "ɑ": 123,
      "ɔ": 124,
      "ə": 125,
      "ɛ": 126,
      "ɡ": 127,
      "ɣ": 128,
      "ɨ": 129,
      "ɪ": 130,
      "ɸ": 131,
      "ɹ": 132,
      "ʃ": 133,
      "ʘ": 134,
      "ʹ": 135,
      "ʻ": 136,
      "ʽ": 137,
      "ʾ": 138,
      "ʿ": 139,
      "˂": 140,
      "˃": 141,
      "ˆ": 142,
      "ˈ": 143,
      "ˌ": 144,
      "ː": 145,
      "˗": 146,
      "˙": 147,
      "˚": 148,
      "˝": 149,
      "ˮ": 150,
      "΄": 151,
      "α": 152,
      "β": 153,
      "γ": 154,
      "δ": 155,
      "ε": 156,
      "ζ": 157,
      "η": 158,
      "θ": 159,
      "ι": 160,
      "κ": 161,
      "λ": 162,
      "μ": 163,
      "ν": 164,
      "ξ": 165,
      "ο": 166,
      "π": 167,
      "ρ": 168,
      "ς": 169,
      "σ": 170,
      "τ": 171,
      "υ": 172,
      "φ": 173,
      "χ": 174,
      "ψ": 175,
      "ω": 176,
      "ϕ": 177,
      "ϙ": 178,
      "ϸ": 179,
      "а": 180,
      "б": 181,
      "в": 182,
      "г": 183,
      "д": 184,
      "е": 185,
      "ж": 186,
      "з": 187,
      "и": 188,
      "к": 189,
      "л": 190,
      "м": 191,
      "н": 192,
      "о": 193,
      "п": 194,
      "р": 195,
      "с": 196,
      "т": 197,
      "у": 198,
      "ф": 199,
      "х": 200,
      "ц": 201,
      "ч": 202,
      "ш": 203,
      "щ": 204,
      "ъ": 205,
      "ы": 206,
      "ь": 207,
      "э": 208,
      "ю": 209,
      "я": 210,
      "є": 211,
      "ѕ": 212,
      "і": 213,
      "ј": 214,
      "љ": 215,
      "ћ": 216,
      "ѵ": 217,
      "ғ": 218,
      "қ": 219,
      "ң": 220,
      "ү": 221,
      "ұ": 222,
      "ҳ": 223,
      "һ": 224,
      "ә": 225,
      "ө": 226,
      "ԛ": 227,
      "־": 228,
      "א": 229,
      "ב": 230,
      "ג": 231,
      "ד": 232,
      "ה": 233,
      "ו": 234,
      "ז": 235,
      "ח": 236,
      "ט": 237,
      "י": 238,
      "ך": 239,
      "כ": 240,
      "ל": 241,
      "ם": 242,
      "מ": 243,
      "ן": 244,
      "נ": 245,
      "ס": 246,
      "ע": 247,
      "ף": 248,
      "פ": 249,
      "ץ": 250,
      "צ": 251,
      "ק": 252,
      "ר": 253,
      "ש": 254,
      "ת": 255,
      "״": 256,
      "،": 257,
      "؛": 258,
      "؟": 259,
      "ء": 260,
      "ا": 261,
      "ب": 262,
      "ة": 263,
      "ت": 264,
      "ث": 265,
      "ج": 266,
      "ح": 267,
      "خ": 268,
      "د": 269,
      "ذ": 270,
      "ر": 271,
      "ز": 272,
      "س": 273,
      "ش": 274,
      "ص": 275,
      "ض": 276,
      "ط": 277,
      "ظ": 278,
      "ع": 279,
      "غ": 280,
      "ـ": 281,
      "ف": 282,
      "ق": 283,
      "ك": 284,
      "ل": 285,
      "م": 286,
      "ن": 287,
      "ه": 288,
      "و": 289,
      "ى": 290,
      "ي": 291,
      "٠": 292,
      "١": 293,
      "٢": 294,
      "٣": 295,
      "٤": 296,
      "٥": 297,
      "٦": 298,
      "٧": 299,
      "٭": 300,
      "ٱ": 301,
      "ٴ": 302,
      "پ": 303,
      "څ": 304,
      "چ": 305,
      "ژ": 306,
      "ک": 307,
      "گ": 308,
      "ھ": 309,
      "ڿ": 310,
      "ہ": 311,
      "ی": 312,
      "۔": 313,
      "ە": 314,
      "۞": 315,
      "ۥ": 316,
      "ۦ": 317,
      "۩": 318,
      "۰": 319,
      "۱": 320,
      "۲": 321,
      "۳": 322,
      "۴": 323,
      "۵": 324,
      "۶": 325,
      "۷": 326,
      "۸": 327,
      "۹": 328,
      "अ": 329,
      "आ": 330,
      "इ": 331,
      "ई": 332,
      "उ": 333,
      "ऊ": 334,
      "ए": 335,
      "ऐ": 336,
      "ओ": 337,
      "औ": 338,
      "क": 339,
      "ख": 340,
      "ग": 341,
      "घ": 342,
      "ङ": 343,
      "च": 344,
      "छ": 345,
      "ज": 346,
      "झ": 347,
      "ञ": 348,
      "ट": 349,
      "ठ": 350,
      "ड": 351,
      "ढ": 352,
      "ण": 353,
      "त": 354,
      "थ": 355,
      "द": 356,
      "ध": 357,
      "न": 358,
      "प": 359,
      "फ": 360,
      "ब": 361,
      "भ": 362,
      "म": 363,
      "य": 364,
      "र": 365,
      "ल": 366,
      "व": 367,
      "श": 368,
      "ष": 369,
      "स": 370,
      "ह": 371,
      "ऽ": 372,
      "ॐ": 373,
      "ॠ": 374,
      "।": 375,
      "॥": 376,
      "०": 377,
      "१": 378,
      "२": 379,
      "३": 380,
      "४": 381,
      "५": 382,
      "६": 383,
      "७": 384,
      "८": 385,
      "९": 386,
      "অ": 387,
      "আ": 388,
      "ই": 389,
      "ঈ": 390,
      "উ": 391,
      "এ": 392,
      "ও": 393,
      "ক": 394,
      "খ": 395,
      "গ": 396,
      "ঘ": 397,
      "ঙ": 398,
      "চ": 399,
      "ছ": 400,
      "জ": 401,
      "ঝ": 402,
      "ঞ": 403,
      "ট": 404,
      "ঠ": 405,
      "ড": 406,
      "ঢ": 407,
      "ণ": 408,
      "ত": 409,
      "থ": 410,
      "দ": 411,
      "ধ": 412,
      "ন": 413,
      "প": 414,
      "ফ": 415,
      "ব": 416,
      "ভ": 417,
      "ম": 418,
      "য": 419,
      "র": 420,
      "ল": 421,
      "শ": 422,
      "ষ": 423,
      "স": 424,
      "হ": 425,
      "ৎ": 426,
      "০": 427,
      "১": 428,
      "২": 429,
      "৩": 430,
      "৪": 431,
      "৫": 432,
      "৬": 433,
      "৭": 434,
      "৮": 435,
      "৯": 436,
      "ਉ": 437,
      "ਕ": 438,
      "ਗ": 439,
      "ਤ": 440,
      "ਨ": 441,
      "ਪ": 442,
      "ਮ": 443,
      "ਰ": 444,
      "ਸ": 445,
      "ஃ": 446,
      "அ": 447,
      "ஆ": 448,
      "இ": 449,
      "ஈ": 450,
      "உ": 451,
      "ஊ": 452,
      "எ": 453,
      "ஏ": 454,
      "ஐ": 455,
      "ஒ": 456,
      "ஓ": 457,
      "க": 458,
      "ங": 459,
      "ச": 460,
      "ஜ": 461,
      "ஞ": 462,
      "ட": 463,
      "ண": 464,
      "த": 465,
      "ந": 466,
      "ன": 467,
      "ப": 468,
      "ம": 469,
      "ய": 470,
      "ர": 471,
      "ற": 472,
      "ல": 473,
      "ள": 474,
      "ழ": 475,
      "வ": 476,
      "ஸ": 477,
      "༅": 478,
      "ᄀ": 479,
      "ᄂ": 480,
      "ᄃ": 481,
      "ᄅ": 482,
      "ᄆ": 483,
      "ᄇ": 484,
      "ᄉ": 485,
      "ᄋ": 486,
      "ᄌ": 487,
      "ᄎ": 488,
      "ᄏ": 489,
      "ᄒ": 490,
      "ᅡ": 491,
      "ᅢ": 492,
      "ᅥ": 493,
      "ᅧ": 494,
      "ᅩ": 495,
      "ᅪ": 496,
      "ᅮ": 497,
      "ᅳ": 498,
      "ᅵ": 499,
      "ᆨ": 500,
      "ᆫ": 501,
      "ᆯ": 502,
      "ᆷ": 503,
      "ᆸ": 504,
      "ᆼ": 505,
      "ᴥ": 506,
      "᾽": 507,
      "῾": 508,
      "​": 509,
      "‌": 510,
      "‍": 511,
      "‎": 512,
      "‏": 513,
      "‐": 514,
      "‑": 515,
      "‒": 516,
      "–": 517,
      "—": 518,
      "―": 519,
      "‖": 520,
      "‗": 521,
      "†": 522,
      "‡": 523,
      "•": 524,
      "‧": 525,
      "‪": 526,
      "‬": 527,
      "‭": 528,
      "‮": 529,
      "‰": 530,
      "′": 531,
      "″": 532,
      "‹": 533,
      "›": 534,
      "※": 535,
      "‽": 536,
      "⁄": 537,
      "⁠": 538,
      "⁰": 539,
      "⁴": 540,
      "⁵": 541,
      "⁶": 542,
      "⁷": 543,
      "⁸": 544,
      "⁹": 545,
      "⁺": 546,
      "₂": 547,
      "₤": 548,
      "₦": 549,
      "₪": 550,
      "€": 551,
      "℃": 552,
      "ℌ": 553,
      "ℎ": 554,
      "ℏ": 555,
      "ℓ": 556,
      "№": 557,
      "™": 558,
      "⅓": 559,
      "⅔": 560,
      "⅛": 561,
      "←": 562,
      "↑": 563,
      "→": 564,
      "↓": 565,
      "↔": 566,
      "↩": 567,
      "↵": 568,
      "⇒": 569,
      "⇔": 570,
      "⇧": 571,
      "∂": 572,
      "∆": 573,
      "∑": 574,
      "−": 575,
      "∓": 576,
      "∗": 577,
      "∘": 578,
      "∙": 579,
      "√": 580,
      "∞": 581,
      "∟": 582,
      "∧": 583,
      "∨": 584,
      "∩": 585,
      "∫": 586,
      "∴": 587,
      "∼": 588,
      "≈": 589,
      "≋": 590,
      "≒": 591,
      "≡": 592,
      "≤": 593,
      "≥": 594,
      "≧": 595,
      "⊕": 596,
      "⊗": 597,
      "⊢": 598,
      "⋄": 599,
      "⋆": 600,
      "⋯": 601,
      "⌘": 602,
      "⍟": 603,
      "⎛": 604,
      "⎯": 605,
      "①": 606,
      "②": 607,
      "③": 608,
      "④": 609,
      "⑤": 610,
      "⑥": 611,
      "─": 612,
      "│": 613,
      "└": 614,
      "├": 615,
      "┼": 616,
      "═": 617,
      "║": 618,
      "╖": 619,
      "╦": 620,
      "█": 621,
      "▌": 622,
      "■": 623,
      "□": 624,
      "▪": 625,
      "▫": 626,
      "▲": 627,
      "▶": 628,
      "▸": 629,
      "►": 630,
      "▼": 631,
      "◄": 632,
      "◆": 633,
      "◇": 634,
      "◉": 635,
      "◊": 636,
      "○": 637,
      "◍": 638,
      "●": 639,
      "◐": 640,
      "◑": 641,
      "◦": 642,
      "☀": 643,
      "★": 644,
      "☆": 645,
      "☑": 646,
      "☜": 647,
      "☞": 648,
      "☠": 649,
      "☣": 650,
      "☮": 651,
      "☯": 652,
      "☹": 653,
      "☺": 654,
      "☼": 655,
      "♀": 656,
      "♂": 657,
      "♕": 658,
      "♛": 659,
      "♠": 660,
      "♡": 661,
      "♣": 662,
      "♥": 663,
      "♦": 664,
      "♪": 665,
      "♫": 666,
      "♬": 667,
      "⚔": 668,
      "⚜": 669,
      "⚡": 670,
      "⛴": 671,
      "✅": 672,
      "✈": 673,
      "✓": 674,
      "✔": 675,
      "✗": 676,
      "✘": 677,
      "✝": 678,
      "✦": 679,
      "✧": 680,
      "✨": 681,
      "✪": 682,
      "✯": 683,
      "✽": 684,
      "❃": 685,
      "❄": 686,
      "❊": 687,
      "❋": 688,
      "❎": 689,
      "❑": 690,
      "❖": 691,
      "❝": 692,
      "❞": 693,
      "❤": 694,
      "❦": 695,
      "➔": 696,
      "➢": 697,
      "⭐": 698,
      "⺄": 699,
      "⺈": 700,
      "⺊": 701,
      "⺌": 702,
      "⺍": 703,
      "⺕": 704,
      "⺧": 705,
      "⺶": 706,
      "⺷": 707,
      "⺻": 708,
      "⺼": 709,
      "⻊": 710,
      "⻏": 711,
      "⻖": 712,
      "、": 713,
      "。": 714,
      "々": 715,
      "〈": 716,
      "〉": 717,
      "《": 718,
      "》": 719,
      "「": 720,
      "」": 721,
      "『": 722,
      "』": 723,
      "〜": 724,
      "ぁ": 725,
      "あ": 726,
      "ぃ": 727,
      "い": 728,
      "ぅ": 729,
      "う": 730,
      "ぇ": 731,
      "え": 732,
      "ぉ": 733,
      "お": 734,
      "か": 735,
      "き": 736,
      "く": 737,
      "け": 738,
      "こ": 739,
      "さ": 740,
      "し": 741,
      "す": 742,
      "せ": 743,
      "そ": 744,
      "た": 745,
      "ち": 746,
      "っ": 747,
      "つ": 748,
      "て": 749,
      "と": 750,
      "な": 751,
      "に": 752,
      "ぬ": 753,
      "ね": 754,
      "の": 755,
      "は": 756,
      "ひ": 757,
      "ふ": 758,
      "へ": 759,
      "ほ": 760,
      "ま": 761,
      "み": 762,
      "む": 763,
      "め": 764,
      "も": 765,
      "ゃ": 766,
      "や": 767,
      "ゅ": 768,
      "ゆ": 769,
      "ょ": 770,
      "よ": 771,
      "ら": 772,
      "り": 773,
      "る": 774,
      "れ": 775,
      "ろ": 776,
      "わ": 777,
      "を": 778,
      "ん": 779,
      "ァ": 780,
      "ア": 781,
      "ィ": 782,
      "イ": 783,
      "ゥ": 784,
      "ウ": 785,
      "ェ": 786,
      "エ": 787,
      "ォ": 788,
      "オ": 789,
      "カ": 790,
      "キ": 791,
      "ク": 792,
      "ケ": 793,
      "コ": 794,
      "サ": 795,
      "シ": 796,
      "ス": 797,
      "セ": 798,
      "ソ": 799,
      "タ": 800,
      "チ": 801,
      "ッ": 802,
      "ツ": 803,
      "テ": 804,
      "ト": 805,
      "ナ": 806,
      "ニ": 807,
      "ヌ": 808,
      "ネ": 809,
      "ノ": 810,
      "ハ": 811,
      "ヒ": 812,
      "フ": 813,
      "ヘ": 814,
      "ホ": 815,
      "マ": 816,
      "ミ": 817,
      "ム": 818,
      "メ": 819,
      "モ": 820,
      "ャ": 821,
      "ヤ": 822,
      "ュ": 823,
      "ユ": 824,
      "ョ": 825,
      "ヨ": 826,
      "ラ": 827,
      "リ": 828,
      "ル": 829,
      "レ": 830,
      "ロ": 831,
      "ワ": 832,
      "ヰ": 833,
      "ン": 834,
      "・": 835,
      "ー": 836,
      "ㄅ": 837,
      "㇀": 838,
      "㇂": 839,
      "㐂": 840,
      "㐫": 841,
      "㐬": 842,
      "㐭": 843,
      "㐱": 844,
      "㐴": 845,
      "㑒": 846,
      "㑨": 847,
      "㑹": 848,
      "㒒": 849,
      "㒵": 850,
      "㓁": 851,
      "㔟": 852,
      "㔬": 853,
      "㔾": 854,
      "㕜": 855,
      "㕣": 856,
      "㗊": 857,
      "㗿": 858,
      "㙵": 859,
      "㙹": 860,
      "㚇": 861,
      "㚒": 862,
      "㚔": 863,
      "㚢": 864,
      "㚣": 865,
      "㚳": 866,
      "㚶": 867,
      "㚻": 868,
      "㚼": 869,
      "㛂": 870,
      "㛒": 871,
      "㛕": 872,
      "㛺": 873,
      "㝉": 874,
      "㞐": 875,
      "㞓": 876,
      "㞢": 877,
      "㞧": 878,
      "㠪": 879,
      "㠯": 880,
      "㡯": 881,
      "㡰": 882,
      "㣺": 883,
      "㥐": 884,
      "㫕": 885,
      "㫺": 886,
      "㬎": 887,
      "㬚": 888,
      "㯃": 889,
      "㯎": 890,
      "㲋": 891,
      "㳒": 892,
      "㶚": 893,
      "㷔": 894,
      "䁧": 895,
      "䂓": 896,
      "䅏": 897,
      "䆓": 898,
      "䉤": 899,
      "䍃": 900,
      "䏍": 901,
      "䏶": 902,
      "䐅": 903,
      "䐈": 904,
      "䐉": 905,
      "䐗": 906,
      "䐜": 907,
      "䐵": 908,
      "䑓": 909,
      "䑛": 910,
      "䒑": 911,
      "䒭": 912,
      "䒳": 913,
      "䒶": 914,
      "䔬": 915,
      "䖝": 916,
      "䖤": 917,
      "䖵": 918,
      "䙴": 919,
      "䚏": 920,
      "䚰": 921,
      "䜌": 922,
      "䜡": 923,
      "䜭": 924,
      "䜵": 925,
      "䜸": 926,
      "䠑": 927,
      "䦥": 928,
      "䯊": 929,
      "䳄": 930,
      "一": 931,
      "丁": 932,
      "丂": 933,
      "七": 934,
      "丄": 935,
      "丅": 936,
      "丆": 937,
      "万": 938,
      "丈": 939,
      "三": 940,
      "上": 941,
      "下": 942,
      "丌": 943,
      "不": 944,
      "与": 945,
      "丑": 946,
      "专": 947,
      "且": 948,
      "世": 949,
      "丗": 950,
      "丘": 951,
      "丙": 952,
      "业": 953,
      "丛": 954,
      "东": 955,
      "丝": 956,
      "丟": 957,
      "両": 958,
      "丣": 959,
      "两": 960,
      "严": 961,
      "並": 962,
      "丨": 963,
      "丩": 964,
      "个": 965,
      "丫": 966,
      "丬": 967,
      "中": 968,
      "丮": 969,
      "丯": 970,
      "丰": 971,
      "丱": 972,
      "串": 973,
      "临": 974,
      "丵": 975,
      "丶": 976,
      "丷": 977,
      "丸": 978,
      "丹": 979,
      "为": 980,
      "主": 981,
      "丽": 982,
      "举": 983,
      "丿": 984,
      "乀": 985,
      "乁": 986,
      "乂": 987,
      "乃": 988,
      "久": 989,
      "乇": 990,
      "么": 991,
      "义": 992,
      "之": 993,
      "乌": 994,
      "乍": 995,
      "乎": 996,
      "乏": 997,
      "乐": 998,
      "乑": 999,
      "乔": 1000,
      "乕": 1001,
      "乖": 1002,
      "乗": 1003,
      "乘": 1004,
      "乙": 1005,
      "乚": 1006,
      "乛": 1007,
      "乜": 1008,
      "九": 1009,
      "乞": 1010,
      "也": 1011,
      "习": 1012,
      "乡": 1013,
      "书": 1014,
      "买": 1015,
      "乱": 1016,
      "乳": 1017,
      "乹": 1018,
      "乾": 1019,
      "亀": 1020,
      "亂": 1021,
      "亅": 1022,
      "了": 1023,
      "予": 1024,
      "争": 1025,
      "亊": 1026,
      "事": 1027,
      "二": 1028,
      "亍": 1029,
      "于": 1030,
      "亏": 1031,
      "云": 1032,
      "互": 1033,
      "五": 1034,
      "井": 1035,
      "亘": 1036,
      "亚": 1037,
      "些": 1038,
      "亜": 1039,
      "亞": 1040,
      "亟": 1041,
      "亠": 1042,
      "亡": 1043,
      "亢": 1044,
      "交": 1045,
      "亥": 1046,
      "亦": 1047,
      "产": 1048,
      "亨": 1049,
      "享": 1050,
      "京": 1051,
      "亭": 1052,
      "亮": 1053,
      "亲": 1054,
      "亶": 1055,
      "人": 1056,
      "亻": 1057,
      "亼": 1058,
      "亽": 1059,
      "亿": 1060,
      "什": 1061,
      "仁": 1062,
      "仅": 1063,
      "仆": 1064,
      "仇": 1065,
      "仈": 1066,
      "今": 1067,
      "介": 1068,
      "仍": 1069,
      "从": 1070,
      "仏": 1071,
      "仑": 1072,
      "仓": 1073,
      "仔": 1074,
      "仕": 1075,
      "他": 1076,
      "付": 1077,
      "仙": 1078,
      "仟": 1079,
      "代": 1080,
      "令": 1081,
      "以": 1082,
      "仪": 1083,
      "们": 1084,
      "仮": 1085,
      "仰": 1086,
      "仲": 1087,
      "件": 1088,
      "价": 1089,
      "任": 1090,
      "份": 1091,
      "仿": 1092,
      "企": 1093,
      "伊": 1094,
      "伍": 1095,
      "伎": 1096,
      "伏": 1097,
      "伐": 1098,
      "休": 1099,
      "众": 1100,
      "伙": 1101,
      "会": 1102,
      "伝": 1103,
      "伟": 1104,
      "传": 1105,
      "伤": 1106,
      "伦": 1107,
      "伧": 1108,
      "伯": 1109,
      "估": 1110,
      "伴": 1111,
      "伸": 1112,
      "似": 1113,
      "伽": 1114,
      "但": 1115,
      "佈": 1116,
      "佉": 1117,
      "位": 1118,
      "低": 1119,
      "住": 1120,
      "佐": 1121,
      "佑": 1122,
      "体": 1123,
      "佔": 1124,
      "何": 1125,
      "余": 1126,
      "佚": 1127,
      "佛": 1128,
      "作": 1129,
      "佞": 1130,
      "你": 1131,
      "佩": 1132,
      "佰": 1133,
      "佱": 1134,
      "佳": 1135,
      "併": 1136,
      "佶": 1137,
      "佸": 1138,
      "使": 1139,
      "來": 1140,
      "例": 1141,
      "侌": 1142,
      "侍": 1143,
      "侏": 1144,
      "侖": 1145,
      "侗": 1146,
      "供": 1147,
      "依": 1148,
      "価": 1149,
      "侧": 1150,
      "侮": 1151,
      "侯": 1152,
      "便": 1153,
      "係": 1154,
      "促": 1155,
      "俄": 1156,
      "俊": 1157,
      "俎": 1158,
      "俔": 1159,
      "俗": 1160,
      "俚": 1161,
      "保": 1162,
      "俞": 1163,
      "信": 1164,
      "俣": 1165,
      "俭": 1166,
      "修": 1167,
      "俱": 1168,
      "俲": 1169,
      "俸": 1170,
      "俼": 1171,
      "俾": 1172,
      "倄": 1173,
      "倉": 1174,
      "個": 1175,
      "倌": 1176,
      "倍": 1177,
      "們": 1178,
      "倒": 1179,
      "倖": 1180,
      "候": 1181,
      "倚": 1182,
      "倝": 1183,
      "借": 1184,
      "倡": 1185,
      "倣": 1186,
      "値": 1187,
      "倦": 1188,
      "倫": 1189,
      "倭": 1190,
      "倮": 1191,
      "值": 1192,
      "倾": 1193,
      "偃": 1194,
      "偅": 1195,
      "假": 1196,
      "偉": 1197,
      "偏": 1198,
      "做": 1199,
      "停": 1200,
      "偠": 1201,
      "偢": 1202,
      "健": 1203,
      "偲": 1204,
      "側": 1205,
      "偶": 1206,
      "偽": 1207,
      "傅": 1208,
      "傈": 1209,
      "傍": 1210,
      "傎": 1211,
      "傑": 1212,
      "傘": 1213,
      "備": 1214,
      "傢": 1215,
      "催": 1216,
      "傲": 1217,
      "傳": 1218,
      "債": 1219,
      "傷": 1220,
      "傻": 1221,
      "傾": 1222,
      "僂": 1223,
      "僅": 1224,
      "僉": 1225,
      "僊": 1226,
      "働": 1227,
      "像": 1228,
      "僕": 1229,
      "僖": 1230,
      "僚": 1231,
      "僥": 1232,
      "僧": 1233,
      "僨": 1234,
      "僲": 1235,
      "僵": 1236,
      "價": 1237,
      "僺": 1238,
      "僻": 1239,
      "儀": 1240,
      "億": 1241,
      "儆": 1242,
      "儉": 1243,
      "儐": 1244,
      "儒": 1245,
      "儓": 1246,
      "償": 1247,
      "優": 1248,
      "儭": 1249,
      "儲": 1250,
      "儿": 1251,
      "兀": 1252,
      "允": 1253,
      "兂": 1254,
      "元": 1255,
      "兄": 1256,
      "充": 1257,
      "兆": 1258,
      "兇": 1259,
      "先": 1260,
      "光": 1261,
      "克": 1262,
      "兌": 1263,
      "免": 1264,
      "兎": 1265,
      "児": 1266,
      "兑": 1267,
      "兒": 1268,
      "兔": 1269,
      "兕": 1270,
      "党": 1271,
      "兜": 1272,
      "入": 1273,
      "內": 1274,
      "全": 1275,
      "兩": 1276,
      "八": 1277,
      "公": 1278,
      "六": 1279,
      "兰": 1280,
      "共": 1281,
      "关": 1282,
      "兴": 1283,
      "兵": 1284,
      "其": 1285,
      "具": 1286,
      "典": 1287,
      "兹": 1288,
      "养": 1289,
      "兼": 1290,
      "冀": 1291,
      "冂": 1292,
      "冃": 1293,
      "冄": 1294,
      "内": 1295,
      "円": 1296,
      "冈": 1297,
      "冉": 1298,
      "冊": 1299,
      "冋": 1300,
      "册": 1301,
      "再": 1302,
      "冎": 1303,
      "冏": 1304,
      "冒": 1305,
      "冓": 1306,
      "冖": 1307,
      "冗": 1308,
      "冘": 1309,
      "写": 1310,
      "军": 1311,
      "农": 1312,
      "冠": 1313,
      "冤": 1314,
      "冥": 1315,
      "冫": 1316,
      "冬": 1317,
      "冯": 1318,
      "冰": 1319,
      "冲": 1320,
      "决": 1321,
      "况": 1322,
      "冷": 1323,
      "冽": 1324,
      "凄": 1325,
      "准": 1326,
      "凉": 1327,
      "凋": 1328,
      "凌": 1329,
      "凍": 1330,
      "减": 1331,
      "凑": 1332,
      "凝": 1333,
      "凞": 1334,
      "几": 1335,
      "凡": 1336,
      "凤": 1337,
      "凥": 1338,
      "処": 1339,
      "凯": 1340,
      "凱": 1341,
      "凵": 1342,
      "凶": 1343,
      "凷": 1344,
      "凸": 1345,
      "凹": 1346,
      "出": 1347,
      "击": 1348,
      "函": 1349,
      "刀": 1350,
      "刁": 1351,
      "刂": 1352,
      "刃": 1353,
      "分": 1354,
      "切": 1355,
      "刈": 1356,
      "刊": 1357,
      "刑": 1358,
      "划": 1359,
      "列": 1360,
      "刘": 1361,
      "则": 1362,
      "刚": 1363,
      "创": 1364,
      "初": 1365,
      "判": 1366,
      "別": 1367,
      "利": 1368,
      "别": 1369,
      "刮": 1370,
      "到": 1371,
      "制": 1372,
      "刷": 1373,
      "券": 1374,
      "刺": 1375,
      "刻": 1376,
      "剂": 1377,
      "剃": 1378,
      "則": 1379,
      "削": 1380,
      "剋": 1381,
      "剌": 1382,
      "前": 1383,
      "剖": 1384,
      "剛": 1385,
      "剣": 1386,
      "剧": 1387,
      "剩": 1388,
      "剪": 1389,
      "副": 1390,
      "剰": 1391,
      "割": 1392,
      "創": 1393,
      "劃": 1394,
      "劇": 1395,
      "劉": 1396,
      "劍": 1397,
      "劑": 1398,
      "力": 1399,
      "办": 1400,
      "功": 1401,
      "加": 1402,
      "务": 1403,
      "劣": 1404,
      "劦": 1405,
      "动": 1406,
      "助": 1407,
      "努": 1408,
      "劫": 1409,
      "励": 1410,
      "劳": 1411,
      "労": 1412,
      "劷": 1413,
      "効": 1414,
      "劾": 1415,
      "势": 1416,
      "勁": 1417,
      "勃": 1418,
      "勅": 1419,
      "勇": 1420,
      "勉": 1421,
      "勒": 1422,
      "動": 1423,
      "勘": 1424,
      "務": 1425,
      "勝": 1426,
      "勞": 1427,
      "募": 1428,
      "勢": 1429,
      "勤": 1430,
      "勧": 1431,
      "勲": 1432,
      "勳": 1433,
      "勴": 1434,
      "勵": 1435,
      "勸": 1436,
      "勹": 1437,
      "勺": 1438,
      "勻": 1439,
      "勾": 1440,
      "勿": 1441,
      "匀": 1442,
      "匃": 1443,
      "包": 1444,
      "匋": 1445,
      "匍": 1446,
      "匐": 1447,
      "匕": 1448,
      "化": 1449,
      "北": 1450,
      "匙": 1451,
      "匚": 1452,
      "匯": 1453,
      "匸": 1454,
      "匹": 1455,
      "区": 1456,
      "医": 1457,
      "匼": 1458,
      "匽": 1459,
      "區": 1460,
      "十": 1461,
      "卂": 1462,
      "千": 1463,
      "卄": 1464,
      "卅": 1465,
      "卆": 1466,
      "升": 1467,
      "午": 1468,
      "卉": 1469,
      "半": 1470,
      "华": 1471,
      "协": 1472,
      "卑": 1473,
      "卒": 1474,
      "卓": 1475,
      "協": 1476,
      "单": 1477,
      "卖": 1478,
      "南": 1479,
      "単": 1480,
      "博": 1481,
      "卜": 1482,
      "卝": 1483,
      "占": 1484,
      "卡": 1485,
      "卦": 1486,
      "卧": 1487,
      "卩": 1488,
      "卫": 1489,
      "卬": 1490,
      "卯": 1491,
      "印": 1492,
      "危": 1493,
      "即": 1494,
      "却": 1495,
      "卵": 1496,
      "卷": 1497,
      "卸": 1498,
      "卻": 1499,
      "卿": 1500,
      "厂": 1501,
      "厃": 1502,
      "历": 1503,
      "厉": 1504,
      "压": 1505,
      "厘": 1506,
      "厚": 1507,
      "原": 1508,
      "厤": 1509,
      "厦": 1510,
      "厩": 1511,
      "厭": 1512,
      "厲": 1513,
      "厳": 1514,
      "厶": 1515,
      "去": 1516,
      "县": 1517,
      "叀": 1518,
      "参": 1519,
      "參": 1520,
      "又": 1521,
      "叉": 1522,
      "及": 1523,
      "友": 1524,
      "双": 1525,
      "反": 1526,
      "収": 1527,
      "叏": 1528,
      "叐": 1529,
      "发": 1530,
      "叓": 1531,
      "叔": 1532,
      "取": 1533,
      "受": 1534,
      "变": 1535,
      "叙": 1536,
      "叚": 1537,
      "叛": 1538,
      "叟": 1539,
      "叢": 1540,
      "口": 1541,
      "古": 1542,
      "句": 1543,
      "另": 1544,
      "叩": 1545,
      "只": 1546,
      "叫": 1547,
      "召": 1548,
      "叮": 1549,
      "可": 1550,
      "台": 1551,
      "叱": 1552,
      "史": 1553,
      "右": 1554,
      "叶": 1555,
      "号": 1556,
      "司": 1557,
      "叹": 1558,
      "吃": 1559,
      "各": 1560,
      "吅": 1561,
      "合": 1562,
      "吉": 1563,
      "吊": 1564,
      "吋": 1565,
      "同": 1566,
      "名": 1567,
      "后": 1568,
      "吏": 1569,
      "吐": 1570,
      "向": 1571,
      "吕": 1572,
      "君": 1573,
      "吞": 1574,
      "吟": 1575,
      "吣": 1576,
      "否": 1577,
      "吧": 1578,
      "吩": 1579,
      "含": 1580,
      "听": 1581,
      "启": 1582,
      "吳": 1583,
      "吴": 1584,
      "吵": 1585,
      "吸": 1586,
      "吹": 1587,
      "吻": 1588,
      "吾": 1589,
      "呀": 1590,
      "呂": 1591,
      "呆": 1592,
      "呈": 1593,
      "呉": 1594,
      "告": 1595,
      "呑": 1596,
      "员": 1597,
      "呢": 1598,
      "呤": 1599,
      "周": 1600,
      "呪": 1601,
      "味": 1602,
      "呵": 1603,
      "呶": 1604,
      "呼": 1605,
      "命": 1606,
      "咅": 1607,
      "咋": 1608,
      "和": 1609,
      "咒": 1610,
      "咕": 1611,
      "咖": 1612,
      "咤": 1613,
      "咨": 1614,
      "咬": 1615,
      "咮": 1616,
      "咱": 1617,
      "咲": 1618,
      "咳": 1619,
      "咸": 1620,
      "咼": 1621,
      "咽": 1622,
      "哀": 1623,
      "品": 1624,
      "哆": 1625,
      "哈": 1626,
      "哉": 1627,
      "响": 1628,
      "員": 1629,
      "哢": 1630,
      "哥": 1631,
      "哦": 1632,
      "哨": 1633,
      "哪": 1634,
      "哭": 1635,
      "哲": 1636,
      "唄": 1637,
      "唇": 1638,
      "唐": 1639,
      "唕": 1640,
      "唯": 1641,
      "唱": 1642,
      "唳": 1643,
      "唸": 1644,
      "唼": 1645,
      "唾": 1646,
      "啄": 1647,
      "商": 1648,
      "啇": 1649,
      "啉": 1650,
      "啊": 1651,
      "問": 1652,
      "啓": 1653,
      "啖": 1654,
      "啗": 1655,
      "啟": 1656,
      "啡": 1657,
      "啤": 1658,
      "啽": 1659,
      "喀": 1660,
      "喃": 1661,
      "善": 1662,
      "喉": 1663,
      "喑": 1664,
      "喓": 1665,
      "喘": 1666,
      "喚": 1667,
      "喜": 1668,
      "喝": 1669,
      "喟": 1670,
      "喤": 1671,
      "喧": 1672,
      "喩": 1673,
      "喪": 1674,
      "喫": 1675,
      "喬": 1676,
      "單": 1677,
      "営": 1678,
      "喷": 1679,
      "喻": 1680,
      "喿": 1681,
      "嗅": 1682,
      "嗇": 1683,
      "嗎": 1684,
      "嗔": 1685,
      "嗜": 1686,
      "嗣": 1687,
      "嗶": 1688,
      "嗹": 1689,
      "嗾": 1690,
      "嘆": 1691,
      "嘉": 1692,
      "嘍": 1693,
      "嘗": 1694,
      "嘘": 1695,
      "嘛": 1696,
      "嘩": 1697,
      "嘬": 1698,
      "嘱": 1699,
      "嘲": 1700,
      "嘴": 1701,
      "嘻": 1702,
      "嘽": 1703,
      "噂": 1704,
      "噃": 1705,
      "噌": 1706,
      "噎": 1707,
      "噓": 1708,
      "噤": 1709,
      "器": 1710,
      "噩": 1711,
      "噪": 1712,
      "噴": 1713,
      "噵": 1714,
      "噹": 1715,
      "噼": 1716,
      "嚀": 1717,
      "嚇": 1718,
      "嚊": 1719,
      "嚔": 1720,
      "嚝": 1721,
      "嚢": 1722,
      "嚥": 1723,
      "嚫": 1724,
      "嚭": 1725,
      "嚳": 1726,
      "嚴": 1727,
      "嚼": 1728,
      "囊": 1729,
      "囍": 1730,
      "囏": 1731,
      "囗": 1732,
      "囚": 1733,
      "四": 1734,
      "回": 1735,
      "囟": 1736,
      "因": 1737,
      "囡": 1738,
      "团": 1739,
      "団": 1740,
      "囪": 1741,
      "囬": 1742,
      "园": 1743,
      "困": 1744,
      "囱": 1745,
      "囲": 1746,
      "図": 1747,
      "囶": 1748,
      "固": 1749,
      "国": 1750,
      "图": 1751,
      "圀": 1752,
      "圃": 1753,
      "圆": 1754,
      "圈": 1755,
      "圉": 1756,
      "國": 1757,
      "圍": 1758,
      "圏": 1759,
      "園": 1760,
      "圓": 1761,
      "圖": 1762,
      "團": 1763,
      "土": 1764,
      "圠": 1765,
      "圡": 1766,
      "圢": 1767,
      "圣": 1768,
      "圥": 1769,
      "圧": 1770,
      "在": 1771,
      "圭": 1772,
      "圯": 1773,
      "地": 1774,
      "场": 1775,
      "址": 1776,
      "坂": 1777,
      "均": 1778,
      "坊": 1779,
      "坌": 1780,
      "坎": 1781,
      "坐": 1782,
      "坑": 1783,
      "块": 1784,
      "坚": 1785,
      "坡": 1786,
      "坤": 1787,
      "坥": 1788,
      "坦": 1789,
      "坪": 1790,
      "坴": 1791,
      "坷": 1792,
      "垂": 1793,
      "型": 1794,
      "垔": 1795,
      "垚": 1796,
      "垢": 1797,
      "垣": 1798,
      "埀": 1799,
      "埃": 1800,
      "埋": 1801,
      "城": 1802,
      "埔": 1803,
      "埜": 1804,
      "域": 1805,
      "埤": 1806,
      "埶": 1807,
      "執": 1808,
      "培": 1809,
      "基": 1810,
      "堀": 1811,
      "堂": 1812,
      "堃": 1813,
      "堅": 1814,
      "堆": 1815,
      "堇": 1816,
      "堕": 1817,
      "堠": 1818,
      "堡": 1819,
      "堤": 1820,
      "堪": 1821,
      "堭": 1822,
      "堯": 1823,
      "報": 1824,
      "場": 1825,
      "堵": 1826,
      "堹": 1827,
      "塀": 1828,
      "塁": 1829,
      "塊": 1830,
      "塌": 1831,
      "塍": 1832,
      "塒": 1833,
      "塔": 1834,
      "塗": 1835,
      "塚": 1836,
      "塞": 1837,
      "塢": 1838,
      "塩": 1839,
      "填": 1840,
      "塰": 1841,
      "塵": 1842,
      "塾": 1843,
      "境": 1844,
      "墉": 1845,
      "墊": 1846,
      "墓": 1847,
      "墖": 1848,
      "増": 1849,
      "墜": 1850,
      "增": 1851,
      "墨": 1852,
      "墮": 1853,
      "墳": 1854,
      "墺": 1855,
      "墻": 1856,
      "墾": 1857,
      "壁": 1858,
      "壂": 1859,
      "壇": 1860,
      "壊": 1861,
      "壍": 1862,
      "壎": 1863,
      "壓": 1864,
      "壘": 1865,
      "壞": 1866,
      "壩": 1867,
      "士": 1868,
      "壬": 1869,
      "壮": 1870,
      "壯": 1871,
      "声": 1872,
      "壱": 1873,
      "売": 1874,
      "壳": 1875,
      "壴": 1876,
      "壹": 1877,
      "壺": 1878,
      "壽": 1879,
      "夂": 1880,
      "处": 1881,
      "夅": 1882,
      "夆": 1883,
      "备": 1884,
      "変": 1885,
      "夊": 1886,
      "夋": 1887,
      "夌": 1888,
      "复": 1889,
      "夏": 1890,
      "夔": 1891,
      "夕": 1892,
      "外": 1893,
      "夗": 1894,
      "夘": 1895,
      "夙": 1896,
      "多": 1897,
      "夜": 1898,
      "够": 1899,
      "夠": 1900,
      "夢": 1901,
      "夣": 1902,
      "夤": 1903,
      "夥": 1904,
      "大": 1905,
      "夨": 1906,
      "天": 1907,
      "太": 1908,
      "夫": 1909,
      "夬": 1910,
      "夭": 1911,
      "央": 1912,
      "夰": 1913,
      "失": 1914,
      "夲": 1915,
      "头": 1916,
      "夵": 1917,
      "夷": 1918,
      "夸": 1919,
      "夹": 1920,
      "夽": 1921,
      "夾": 1922,
      "夿": 1923,
      "奂": 1924,
      "奄": 1925,
      "奇": 1926,
      "奈": 1927,
      "奉": 1928,
      "奎": 1929,
      "奏": 1930,
      "奐": 1931,
      "契": 1932,
      "奔": 1933,
      "套": 1934,
      "奚": 1935,
      "奛": 1936,
      "奞": 1937,
      "奠": 1938,
      "奥": 1939,
      "奧": 1940,
      "奨": 1941,
      "奪": 1942,
      "奮": 1943,
      "女": 1944,
      "奴": 1945,
      "奶": 1946,
      "奸": 1947,
      "她": 1948,
      "好": 1949,
      "如": 1950,
      "妄": 1951,
      "妇": 1952,
      "妈": 1953,
      "妒": 1954,
      "妓": 1955,
      "妕": 1956,
      "妖": 1957,
      "妗": 1958,
      "妙": 1959,
      "妛": 1960,
      "妝": 1961,
      "妟": 1962,
      "妥": 1963,
      "妨": 1964,
      "妬": 1965,
      "妯": 1966,
      "妲": 1967,
      "妳": 1968,
      "妷": 1969,
      "妹": 1970,
      "妻": 1971,
      "妾": 1972,
      "姆": 1973,
      "姉": 1974,
      "姊": 1975,
      "始": 1976,
      "姐": 1977,
      "姑": 1978,
      "姒": 1979,
      "姓": 1980,
      "委": 1981,
      "姜": 1982,
      "姝": 1983,
      "姞": 1984,
      "姣": 1985,
      "姤": 1986,
      "姥": 1987,
      "姦": 1988,
      "姨": 1989,
      "姫": 1990,
      "姻": 1991,
      "姿": 1992,
      "威": 1993,
      "娃": 1994,
      "娄": 1995,
      "娉": 1996,
      "娌": 1997,
      "娓": 1998,
      "娘": 1999,
      "娚": 2000,
      "娜": 2001,
      "娟": 2002,
      "娣": 2003,
      "娯": 2004,
      "娵": 2005,
      "娶": 2006,
      "婀": 2007,
      "婁": 2008,
      "婄": 2009,
      "婆": 2010,
      "婇": 2011,
      "婉": 2012,
      "婐": 2013,
      "婚": 2014,
      "婞": 2015,
      "婢": 2016,
      "婦": 2017,
      "婬": 2018,
      "婿": 2019,
      "媋": 2020,
      "媒": 2021,
      "媖": 2022,
      "媚": 2023,
      "媛": 2024,
      "媧": 2025,
      "媬": 2026,
      "媱": 2027,
      "媵": 2028,
      "媾": 2029,
      "嫁": 2030,
      "嫂": 2031,
      "嫉": 2032,
      "嫋": 2033,
      "嫌": 2034,
      "嫐": 2035,
      "嫜": 2036,
      "嫡": 2037,
      "嫥": 2038,
      "嫩": 2039,
      "嬉": 2040,
      "嬌": 2041,
      "嬖": 2042,
      "嬙": 2043,
      "嬛": 2044,
      "嬡": 2045,
      "嬢": 2046,
      "嬪": 2047,
      "嬰": 2048,
      "嬲": 2049,
      "嬴": 2050,
      "嬶": 2051,
      "嬸": 2052,
      "嬾": 2053,
      "子": 2054,
      "孑": 2055,
      "孒": 2056,
      "孔": 2057,
      "字": 2058,
      "存": 2059,
      "孙": 2060,
      "孚": 2061,
      "孜": 2062,
      "孝": 2063,
      "孟": 2064,
      "季": 2065,
      "孤": 2066,
      "孥": 2067,
      "学": 2068,
      "孩": 2069,
      "孫": 2070,
      "孰": 2071,
      "學": 2072,
      "孺": 2073,
      "孽": 2074,
      "孾": 2075,
      "宀": 2076,
      "宁": 2077,
      "它": 2078,
      "宅": 2079,
      "宇": 2080,
      "守": 2081,
      "安": 2082,
      "宋": 2083,
      "完": 2084,
      "宏": 2085,
      "宑": 2086,
      "宕": 2087,
      "宗": 2088,
      "官": 2089,
      "宙": 2090,
      "定": 2091,
      "宛": 2092,
      "宜": 2093,
      "宝": 2094,
      "实": 2095,
      "実": 2096,
      "审": 2097,
      "客": 2098,
      "宣": 2099,
      "室": 2100,
      "宫": 2101,
      "宮": 2102,
      "宰": 2103,
      "害": 2104,
      "宴": 2105,
      "宵": 2106,
      "家": 2107,
      "容": 2108,
      "宽": 2109,
      "宿": 2110,
      "寂": 2111,
      "寄": 2112,
      "寅": 2113,
      "密": 2114,
      "寇": 2115,
      "富": 2116,
      "寐": 2117,
      "寒": 2118,
      "寓": 2119,
      "寔": 2120,
      "寚": 2121,
      "寛": 2122,
      "寝": 2123,
      "寞": 2124,
      "察": 2125,
      "寡": 2126,
      "寢": 2127,
      "實": 2128,
      "寧": 2129,
      "寨": 2130,
      "審": 2131,
      "寫": 2132,
      "寬": 2133,
      "寳": 2134,
      "寵": 2135,
      "寶": 2136,
      "寸": 2137,
      "对": 2138,
      "寺": 2139,
      "寻": 2140,
      "导": 2141,
      "対": 2142,
      "寿": 2143,
      "封": 2144,
      "専": 2145,
      "尃": 2146,
      "射": 2147,
      "将": 2148,
      "將": 2149,
      "專": 2150,
      "尉": 2151,
      "尊": 2152,
      "尋": 2153,
      "尌": 2154,
      "對": 2155,
      "導": 2156,
      "小": 2157,
      "少": 2158,
      "尒": 2159,
      "尓": 2160,
      "尔": 2161,
      "尖": 2162,
      "尗": 2163,
      "尚": 2164,
      "尞": 2165,
      "尢": 2166,
      "尤": 2167,
      "尧": 2168,
      "尭": 2169,
      "就": 2170,
      "尸": 2171,
      "尹": 2172,
      "尺": 2173,
      "尻": 2174,
      "尼": 2175,
      "尽": 2176,
      "尾": 2177,
      "尿": 2178,
      "局": 2179,
      "屁": 2180,
      "层": 2181,
      "屄": 2182,
      "居": 2183,
      "屆": 2184,
      "屈": 2185,
      "届": 2186,
      "屋": 2187,
      "屍": 2188,
      "屎": 2189,
      "屏": 2190,
      "屑": 2191,
      "展": 2192,
      "屙": 2193,
      "属": 2194,
      "屡": 2195,
      "屢": 2196,
      "屣": 2197,
      "層": 2198,
      "履": 2199,
      "屬": 2200,
      "屮": 2201,
      "屯": 2202,
      "山": 2203,
      "岁": 2204,
      "岂": 2205,
      "岐": 2206,
      "岗": 2207,
      "岛": 2208,
      "岟": 2209,
      "岡": 2210,
      "岩": 2211,
      "岫": 2212,
      "岭": 2213,
      "岱": 2214,
      "岳": 2215,
      "岸": 2216,
      "峒": 2217,
      "峙": 2218,
      "峠": 2219,
      "峡": 2220,
      "峰": 2221,
      "島": 2222,
      "峻": 2223,
      "峽": 2224,
      "崇": 2225,
      "崋": 2226,
      "崎": 2227,
      "崔": 2228,
      "崖": 2229,
      "崗": 2230,
      "崚": 2231,
      "崛": 2232,
      "崦": 2233,
      "崩": 2234,
      "崽": 2235,
      "嵌": 2236,
      "嶴": 2237,
      "嶹": 2238,
      "嶺": 2239,
      "嶽": 2240,
      "巌": 2241,
      "巍": 2242,
      "巑": 2243,
      "巖": 2244,
      "巛": 2245,
      "巜": 2246,
      "川": 2247,
      "州": 2248,
      "巠": 2249,
      "巡": 2250,
      "巢": 2251,
      "巣": 2252,
      "工": 2253,
      "左": 2254,
      "巧": 2255,
      "巨": 2256,
      "巫": 2257,
      "差": 2258,
      "己": 2259,
      "已": 2260,
      "巳": 2261,
      "巴": 2262,
      "巻": 2263,
      "巾": 2264,
      "巿": 2265,
      "帀": 2266,
      "市": 2267,
      "布": 2268,
      "帆": 2269,
      "师": 2270,
      "希": 2271,
      "帐": 2272,
      "帕": 2273,
      "帖": 2274,
      "帘": 2275,
      "帙": 2276,
      "帚": 2277,
      "帛": 2278,
      "帝": 2279,
      "帥": 2280,
      "带": 2281,
      "師": 2282,
      "席": 2283,
      "帮": 2284,
      "帯": 2285,
      "帰": 2286,
      "帳": 2287,
      "帶": 2288,
      "常": 2289,
      "帽": 2290,
      "幃": 2291,
      "幅": 2292,
      "幌": 2293,
      "幐": 2294,
      "幕": 2295,
      "幗": 2296,
      "幟": 2297,
      "幡": 2298,
      "幣": 2299,
      "幫": 2300,
      "幮": 2301,
      "干": 2302,
      "平": 2303,
      "年": 2304,
      "幵": 2305,
      "并": 2306,
      "幸": 2307,
      "幹": 2308,
      "幺": 2309,
      "幻": 2310,
      "幼": 2311,
      "幽": 2312,
      "幾": 2313,
      "广": 2314,
      "庁": 2315,
      "広": 2316,
      "庄": 2317,
      "庆": 2318,
      "床": 2319,
      "序": 2320,
      "库": 2321,
      "应": 2322,
      "底": 2323,
      "庖": 2324,
      "店": 2325,
      "庙": 2326,
      "庚": 2327,
      "府": 2328,
      "废": 2329,
      "庢": 2330,
      "度": 2331,
      "座": 2332,
      "庪": 2333,
      "庫": 2334,
      "庭": 2335,
      "庶": 2336,
      "康": 2337,
      "庸": 2338,
      "庽": 2339,
      "庿": 2340,
      "廁": 2341,
      "廈": 2342,
      "廉": 2343,
      "廊": 2344,
      "廌": 2345,
      "廏": 2346,
      "廐": 2347,
      "廑": 2348,
      "廓": 2349,
      "廚": 2350,
      "廟": 2351,
      "廠": 2352,
      "廢": 2353,
      "廣": 2354,
      "廳": 2355,
      "廴": 2356,
      "延": 2357,
      "廷": 2358,
      "建": 2359,
      "廻": 2360,
      "廾": 2361,
      "廿": 2362,
      "开": 2363,
      "弁": 2364,
      "异": 2365,
      "弃": 2366,
      "弄": 2367,
      "弊": 2368,
      "弋": 2369,
      "式": 2370,
      "弓": 2371,
      "弔": 2372,
      "引": 2373,
      "弗": 2374,
      "弘": 2375,
      "弟": 2376,
      "张": 2377,
      "弥": 2378,
      "弦": 2379,
      "弧": 2380,
      "弩": 2381,
      "弱": 2382,
      "弴": 2383,
      "張": 2384,
      "強": 2385,
      "弹": 2386,
      "强": 2387,
      "弻": 2388,
      "弼": 2389,
      "弾": 2390,
      "彈": 2391,
      "彌": 2392,
      "彎": 2393,
      "彐": 2394,
      "归": 2395,
      "当": 2396,
      "录": 2397,
      "彙": 2398,
      "彛": 2399,
      "彝": 2400,
      "彡": 2401,
      "形": 2402,
      "彥": 2403,
      "彦": 2404,
      "彩": 2405,
      "彬": 2406,
      "彭": 2407,
      "彰": 2408,
      "影": 2409,
      "彳": 2410,
      "役": 2411,
      "彼": 2412,
      "彿": 2413,
      "往": 2414,
      "征": 2415,
      "徃": 2416,
      "径": 2417,
      "待": 2418,
      "很": 2419,
      "律": 2420,
      "後": 2421,
      "徐": 2422,
      "徑": 2423,
      "徒": 2424,
      "従": 2425,
      "得": 2426,
      "從": 2427,
      "御": 2428,
      "復": 2429,
      "循": 2430,
      "微": 2431,
      "徳": 2432,
      "徴": 2433,
      "徵": 2434,
      "德": 2435,
      "徹": 2436,
      "徽": 2437,
      "心": 2438,
      "忄": 2439,
      "必": 2440,
      "忌": 2441,
      "忍": 2442,
      "志": 2443,
      "忘": 2444,
      "忙": 2445,
      "応": 2446,
      "忝": 2447,
      "忠": 2448,
      "忩": 2449,
      "快": 2450,
      "念": 2451,
      "忽": 2452,
      "忿": 2453,
      "怀": 2454,
      "态": 2455,
      "怎": 2456,
      "怒": 2457,
      "怕": 2458,
      "怖": 2459,
      "怘": 2460,
      "怙": 2461,
      "怜": 2462,
      "思": 2463,
      "怠": 2464,
      "怡": 2465,
      "急": 2466,
      "性": 2467,
      "怨": 2468,
      "怪": 2469,
      "怯": 2470,
      "总": 2471,
      "恃": 2472,
      "恋": 2473,
      "恐": 2474,
      "恒": 2475,
      "恕": 2476,
      "恢": 2477,
      "恥": 2478,
      "恨": 2479,
      "恩": 2480,
      "恭": 2481,
      "息": 2482,
      "恰": 2483,
      "恵": 2484,
      "恶": 2485,
      "悅": 2486,
      "悌": 2487,
      "悔": 2488,
      "悟": 2489,
      "悠": 2490,
      "患": 2491,
      "悦": 2492,
      "您": 2493,
      "悪": 2494,
      "悬": 2495,
      "悲": 2496,
      "悳": 2497,
      "情": 2498,
      "惊": 2499,
      "惑": 2500,
      "惕": 2501,
      "惚": 2502,
      "惜": 2503,
      "惟": 2504,
      "惠": 2505,
      "惡": 2506,
      "惨": 2507,
      "惩": 2508,
      "惮": 2509,
      "想": 2510,
      "惶": 2511,
      "惹": 2512,
      "愁": 2513,
      "愈": 2514,
      "愉": 2515,
      "意": 2516,
      "愑": 2517,
      "愚": 2518,
      "愛": 2519,
      "感": 2520,
      "愣": 2521,
      "愧": 2522,
      "慈": 2523,
      "態": 2524,
      "慌": 2525,
      "慎": 2526,
      "慕": 2527,
      "慘": 2528,
      "慙": 2529,
      "慟": 2530,
      "慢": 2531,
      "慣": 2532,
      "慥": 2533,
      "慧": 2534,
      "慨": 2535,
      "慮": 2536,
      "慰": 2537,
      "慶": 2538,
      "憂": 2539,
      "憎": 2540,
      "憐": 2541,
      "憘": 2542,
      "憙": 2543,
      "憚": 2544,
      "憤": 2545,
      "憧": 2546,
      "憩": 2547,
      "憲": 2548,
      "憶": 2549,
      "憾": 2550,
      "懂": 2551,
      "懇": 2552,
      "懈": 2553,
      "應": 2554,
      "懌": 2555,
      "懐": 2556,
      "懬": 2557,
      "懲": 2558,
      "懶": 2559,
      "懷": 2560,
      "懸": 2561,
      "懺": 2562,
      "懽": 2563,
      "戀": 2564,
      "戁": 2565,
      "戈": 2566,
      "戉": 2567,
      "戊": 2568,
      "戋": 2569,
      "戌": 2570,
      "戍": 2571,
      "戎": 2572,
      "成": 2573,
      "我": 2574,
      "戒": 2575,
      "戔": 2576,
      "或": 2577,
      "战": 2578,
      "戚": 2579,
      "戛": 2580,
      "戟": 2581,
      "戠": 2582,
      "戦": 2583,
      "戯": 2584,
      "戰": 2585,
      "戲": 2586,
      "戳": 2587,
      "戴": 2588,
      "戶": 2589,
      "户": 2590,
      "戸": 2591,
      "房": 2592,
      "所": 2593,
      "扁": 2594,
      "扇": 2595,
      "手": 2596,
      "扌": 2597,
      "才": 2598,
      "扎": 2599,
      "扑": 2600,
      "扒": 2601,
      "打": 2602,
      "扔": 2603,
      "払": 2604,
      "托": 2605,
      "扣": 2606,
      "执": 2607,
      "扩": 2608,
      "扫": 2609,
      "扮": 2610,
      "扯": 2611,
      "扱": 2612,
      "扳": 2613,
      "扶": 2614,
      "批": 2615,
      "找": 2616,
      "承": 2617,
      "技": 2618,
      "抄": 2619,
      "把": 2620,
      "抑": 2621,
      "抓": 2622,
      "投": 2623,
      "抗": 2624,
      "折": 2625,
      "抛": 2626,
      "抜": 2627,
      "报": 2628,
      "披": 2629,
      "抱": 2630,
      "抵": 2631,
      "抹": 2632,
      "押": 2633,
      "抽": 2634,
      "拂": 2635,
      "担": 2636,
      "拆": 2637,
      "拈": 2638,
      "拉": 2639,
      "拍": 2640,
      "拐": 2641,
      "拒": 2642,
      "拓": 2643,
      "拔": 2644,
      "拘": 2645,
      "拙": 2646,
      "招": 2647,
      "拜": 2648,
      "拝": 2649,
      "拟": 2650,
      "拠": 2651,
      "拡": 2652,
      "括": 2653,
      "拭": 2654,
      "拯": 2655,
      "拳": 2656,
      "拶": 2657,
      "拷": 2658,
      "拼": 2659,
      "拾": 2660,
      "拿": 2661,
      "持": 2662,
      "指": 2663,
      "按": 2664,
      "挑": 2665,
      "挖": 2666,
      "挙": 2667,
      "挟": 2668,
      "挤": 2669,
      "挥": 2670,
      "挨": 2671,
      "挪": 2672,
      "振": 2673,
      "挲": 2674,
      "挺": 2675,
      "挼": 2676,
      "挽": 2677,
      "挿": 2678,
      "捉": 2679,
      "捐": 2680,
      "捕": 2681,
      "捜": 2682,
      "换": 2683,
      "捧": 2684,
      "捨": 2685,
      "据": 2686,
      "捲": 2687,
      "捷": 2688,
      "掃": 2689,
      "授": 2690,
      "掉": 2691,
      "掌": 2692,
      "掎": 2693,
      "排": 2694,
      "掘": 2695,
      "掙": 2696,
      "掛": 2697,
      "採": 2698,
      "探": 2699,
      "掣": 2700,
      "接": 2701,
      "控": 2702,
      "推": 2703,
      "掩": 2704,
      "措": 2705,
      "掫": 2706,
      "掵": 2707,
      "揀": 2708,
      "揉": 2709,
      "描": 2710,
      "提": 2711,
      "插": 2712,
      "揕": 2713,
      "揚": 2714,
      "換": 2715,
      "握": 2716,
      "揭": 2717,
      "揮": 2718,
      "援": 2719,
      "損": 2720,
      "搐": 2721,
      "搖": 2722,
      "搜": 2723,
      "搬": 2724,
      "搭": 2725,
      "携": 2726,
      "搽": 2727,
      "摂": 2728,
      "摘": 2729,
      "摟": 2730,
      "摩": 2731,
      "摯": 2732,
      "摶": 2733,
      "摸": 2734,
      "摹": 2735,
      "撃": 2736,
      "撇": 2737,
      "撈": 2738,
      "撐": 2739,
      "撒": 2740,
      "撞": 2741,
      "撤": 2742,
      "撫": 2743,
      "播": 2744,
      "撮": 2745,
      "撰": 2746,
      "撲": 2747,
      "擁": 2748,
      "擂": 2749,
      "擇": 2750,
      "擊": 2751,
      "操": 2752,
      "擒": 2753,
      "擔": 2754,
      "據": 2755,
      "擠": 2756,
      "擡": 2757,
      "擢": 2758,
      "擣": 2759,
      "擦": 2760,
      "擬": 2761,
      "擴": 2762,
      "擺": 2763,
      "擾": 2764,
      "攀": 2765,
      "攏": 2766,
      "攜": 2767,
      "攝": 2768,
      "攤": 2769,
      "支": 2770,
      "攴": 2771,
      "攵": 2772,
      "收": 2773,
      "攸": 2774,
      "改": 2775,
      "攻": 2776,
      "放": 2777,
      "政": 2778,
      "敄": 2779,
      "故": 2780,
      "效": 2781,
      "敌": 2782,
      "敏": 2783,
      "救": 2784,
      "敖": 2785,
      "敗": 2786,
      "教": 2787,
      "敝": 2788,
      "敢": 2789,
      "散": 2790,
      "敦": 2791,
      "敫": 2792,
      "敬": 2793,
      "数": 2794,
      "整": 2795,
      "敵": 2796,
      "敷": 2797,
      "數": 2798,
      "斅": 2799,
      "文": 2800,
      "斉": 2801,
      "斐": 2802,
      "斑": 2803,
      "斗": 2804,
      "料": 2805,
      "斜": 2806,
      "斤": 2807,
      "斥": 2808,
      "斧": 2809,
      "斬": 2810,
      "断": 2811,
      "斯": 2812,
      "新": 2813,
      "斷": 2814,
      "方": 2815,
      "於": 2816,
      "施": 2817,
      "斿": 2818,
      "旁": 2819,
      "旄": 2820,
      "旅": 2821,
      "旈": 2822,
      "旉": 2823,
      "旋": 2824,
      "族": 2825,
      "旒": 2826,
      "旗": 2827,
      "旛": 2828,
      "无": 2829,
      "旡": 2830,
      "既": 2831,
      "日": 2832,
      "旦": 2833,
      "旧": 2834,
      "旨": 2835,
      "早": 2836,
      "旬": 2837,
      "旭": 2838,
      "旱": 2839,
      "时": 2840,
      "旺": 2841,
      "旾": 2842,
      "旿": 2843,
      "昂": 2844,
      "昆": 2845,
      "昇": 2846,
      "昉": 2847,
      "昊": 2848,
      "昌": 2849,
      "明": 2850,
      "昏": 2851,
      "易": 2852,
      "昔": 2853,
      "昜": 2854,
      "星": 2855,
      "映": 2856,
      "春": 2857,
      "昦": 2858,
      "昧": 2859,
      "昨": 2860,
      "昭": 2861,
      "是": 2862,
      "昱": 2863,
      "昺": 2864,
      "昼": 2865,
      "显": 2866,
      "時": 2867,
      "晃": 2868,
      "晄": 2869,
      "晉": 2870,
      "晋": 2871,
      "晌": 2872,
      "晏": 2873,
      "晒": 2874,
      "晓": 2875,
      "晗": 2876,
      "晚": 2877,
      "晜": 2878,
      "晝": 2879,
      "晢": 2880,
      "晦": 2881,
      "晧": 2882,
      "晨": 2883,
      "晩": 2884,
      "普": 2885,
      "景": 2886,
      "晴": 2887,
      "晶": 2888,
      "晸": 2889,
      "智": 2890,
      "暁": 2891,
      "暇": 2892,
      "暈": 2893,
      "暉": 2894,
      "暐": 2895,
      "暑": 2896,
      "暖": 2897,
      "暗": 2898,
      "暤": 2899,
      "暦": 2900,
      "暫": 2901,
      "暭": 2902,
      "暮": 2903,
      "暲": 2904,
      "暴": 2905,
      "暵": 2906,
      "暻": 2907,
      "暾": 2908,
      "曀": 2909,
      "曂": 2910,
      "曄": 2911,
      "曆": 2912,
      "曇": 2913,
      "曈": 2914,
      "曉": 2915,
      "曙": 2916,
      "曜": 2917,
      "曠": 2918,
      "曨": 2919,
      "曬": 2920,
      "曰": 2921,
      "曲": 2922,
      "曳": 2923,
      "更": 2924,
      "書": 2925,
      "曹": 2926,
      "曼": 2927,
      "曽": 2928,
      "曾": 2929,
      "替": 2930,
      "最": 2931,
      "會": 2932,
      "月": 2933,
      "有": 2934,
      "朋": 2935,
      "服": 2936,
      "朔": 2937,
      "朕": 2938,
      "朗": 2939,
      "望": 2940,
      "朝": 2941,
      "期": 2942,
      "朠": 2943,
      "朧": 2944,
      "木": 2945,
      "朩": 2946,
      "未": 2947,
      "末": 2948,
      "本": 2949,
      "札": 2950,
      "朮": 2951,
      "术": 2952,
      "朱": 2953,
      "朳": 2954,
      "朴": 2955,
      "朵": 2956,
      "朶": 2957,
      "机": 2958,
      "朽": 2959,
      "朾": 2960,
      "朿": 2961,
      "杀": 2962,
      "杂": 2963,
      "权": 2964,
      "杉": 2965,
      "李": 2966,
      "杏": 2967,
      "材": 2968,
      "村": 2969,
      "杔": 2970,
      "杜": 2971,
      "束": 2972,
      "条": 2973,
      "来": 2974,
      "杨": 2975,
      "杭": 2976,
      "杯": 2977,
      "杰": 2978,
      "東": 2979,
      "杲": 2980,
      "杳": 2981,
      "杷": 2982,
      "松": 2983,
      "板": 2984,
      "极": 2985,
      "构": 2986,
      "枉": 2987,
      "析": 2988,
      "枕": 2989,
      "林": 2990,
      "枚": 2991,
      "果": 2992,
      "枝": 2993,
      "枠": 2994,
      "枪": 2995,
      "枯": 2996,
      "架": 2997,
      "枷": 2998,
      "枼": 2999,
      "柄": 3000,
      "柏": 3001,
      "某": 3002,
      "柒": 3003,
      "染": 3004,
      "柔": 3005,
      "柛": 3006,
      "柜": 3007,
      "查": 3008,
      "柬": 3009,
      "柯": 3010,
      "柰": 3011,
      "柱": 3012,
      "柳": 3013,
      "柴": 3014,
      "査": 3015,
      "柿": 3016,
      "栄": 3017,
      "标": 3018,
      "树": 3019,
      "栖": 3020,
      "栗": 3021,
      "栝": 3022,
      "栞": 3023,
      "校": 3024,
      "株": 3025,
      "样": 3026,
      "核": 3027,
      "根": 3028,
      "格": 3029,
      "栽": 3030,
      "栿": 3031,
      "桀": 3032,
      "桂": 3033,
      "桃": 3034,
      "框": 3035,
      "案": 3036,
      "桌": 3037,
      "桐": 3038,
      "桑": 3039,
      "桜": 3040,
      "桝": 3041,
      "档": 3042,
      "桥": 3043,
      "桰": 3044,
      "桵": 3045,
      "桶": 3046,
      "桼": 3047,
      "梁": 3048,
      "梅": 3049,
      "梓": 3050,
      "梗": 3051,
      "條": 3052,
      "梦": 3053,
      "梧": 3054,
      "梨": 3055,
      "梯": 3056,
      "械": 3057,
      "梳": 3058,
      "梵": 3059,
      "梶": 3060,
      "梼": 3061,
      "棄": 3062,
      "棋": 3063,
      "棌": 3064,
      "棒": 3065,
      "棕": 3066,
      "棘": 3067,
      "棚": 3068,
      "棟": 3069,
      "棠": 3070,
      "棥": 3071,
      "森": 3072,
      "棱": 3073,
      "棲": 3074,
      "棵": 3075,
      "棺": 3076,
      "棼": 3077,
      "椅": 3078,
      "植": 3079,
      "椏": 3080,
      "椒": 3081,
      "椖": 3082,
      "検": 3083,
      "椰": 3084,
      "椿": 3085,
      "楂": 3086,
      "楊": 3087,
      "楓": 3088,
      "楕": 3089,
      "楚": 3090,
      "楞": 3091,
      "楠": 3092,
      "業": 3093,
      "極": 3094,
      "楸": 3095,
      "楼": 3096,
      "楽": 3097,
      "概": 3098,
      "榘": 3099,
      "榜": 3100,
      "榭": 3101,
      "榮": 3102,
      "榴": 3103,
      "構": 3104,
      "槌": 3105,
      "槍": 3106,
      "様": 3107,
      "槙": 3108,
      "槯": 3109,
      "樂": 3110,
      "樊": 3111,
      "樋": 3112,
      "樓": 3113,
      "標": 3114,
      "樟": 3115,
      "模": 3116,
      "樣": 3117,
      "樤": 3118,
      "権": 3119,
      "横": 3120,
      "樷": 3121,
      "樹": 3122,
      "樺": 3123,
      "樽": 3124,
      "橄": 3125,
      "橋": 3126,
      "橐": 3127,
      "橘": 3128,
      "橙": 3129,
      "機": 3130,
      "橪": 3131,
      "橫": 3132,
      "橲": 3133,
      "檀": 3134,
      "檄": 3135,
      "檎": 3136,
      "檑": 3137,
      "檝": 3138,
      "檢": 3139,
      "檬": 3140,
      "檮": 3141,
      "檯": 3142,
      "檳": 3143,
      "檸": 3144,
      "櫃": 3145,
      "櫉": 3146,
      "櫔": 3147,
      "櫖": 3148,
      "櫚": 3149,
      "櫛": 3150,
      "櫜": 3151,
      "櫬": 3152,
      "櫻": 3153,
      "欂": 3154,
      "欄": 3155,
      "欉": 3156,
      "權": 3157,
      "欖": 3158,
      "欠": 3159,
      "次": 3160,
      "欢": 3161,
      "欣": 3162,
      "欧": 3163,
      "欲": 3164,
      "欺": 3165,
      "欽": 3166,
      "款": 3167,
      "歌": 3168,
      "歎": 3169,
      "歐": 3170,
      "歓": 3171,
      "歡": 3172,
      "止": 3173,
      "正": 3174,
      "此": 3175,
      "步": 3176,
      "武": 3177,
      "歧": 3178,
      "歩": 3179,
      "歪": 3180,
      "歯": 3181,
      "歲": 3182,
      "歳": 3183,
      "歴": 3184,
      "歷": 3185,
      "歸": 3186,
      "歹": 3187,
      "歺": 3188,
      "死": 3189,
      "殆": 3190,
      "殊": 3191,
      "残": 3192,
      "殖": 3193,
      "殘": 3194,
      "殰": 3195,
      "殳": 3196,
      "段": 3197,
      "殸": 3198,
      "殺": 3199,
      "殻": 3200,
      "殼": 3201,
      "殾": 3202,
      "殿": 3203,
      "毀": 3204,
      "毋": 3205,
      "毌": 3206,
      "母": 3207,
      "毎": 3208,
      "每": 3209,
      "毐": 3210,
      "毒": 3211,
      "比": 3212,
      "毕": 3213,
      "毗": 3214,
      "毘": 3215,
      "毛": 3216,
      "毫": 3217,
      "氈": 3218,
      "氎": 3219,
      "氏": 3220,
      "氐": 3221,
      "民": 3222,
      "气": 3223,
      "気": 3224,
      "氣": 3225,
      "水": 3226,
      "氵": 3227,
      "氶": 3228,
      "氷": 3229,
      "永": 3230,
      "氺": 3231,
      "氿": 3232,
      "汀": 3233,
      "汁": 3234,
      "求": 3235,
      "汉": 3236,
      "汏": 3237,
      "汕": 3238,
      "汗": 3239,
      "汙": 3240,
      "汚": 3241,
      "汝": 3242,
      "江": 3243,
      "池": 3244,
      "污": 3245,
      "汢": 3246,
      "汤": 3247,
      "汲": 3248,
      "決": 3249,
      "汽": 3250,
      "汾": 3251,
      "沃": 3252,
      "沄": 3253,
      "沈": 3254,
      "沉": 3255,
      "沐": 3256,
      "沒": 3257,
      "沖": 3258,
      "沙": 3259,
      "沟": 3260,
      "没": 3261,
      "沢": 3262,
      "沪": 3263,
      "沫": 3264,
      "河": 3265,
      "油": 3266,
      "沺": 3267,
      "治": 3268,
      "沼": 3269,
      "沽": 3270,
      "沾": 3271,
      "沿": 3272,
      "況": 3273,
      "泉": 3274,
      "泌": 3275,
      "法": 3276,
      "泚": 3277,
      "泛": 3278,
      "泡": 3279,
      "波": 3280,
      "泣": 3281,
      "泥": 3282,
      "注": 3283,
      "泫": 3284,
      "泰": 3285,
      "泳": 3286,
      "泽": 3287,
      "洋": 3288,
      "洏": 3289,
      "洑": 3290,
      "洗": 3291,
      "洙": 3292,
      "洛": 3293,
      "洞": 3294,
      "津": 3295,
      "洪": 3296,
      "洱": 3297,
      "洲": 3298,
      "洳": 3299,
      "洵": 3300,
      "洸": 3301,
      "活": 3302,
      "派": 3303,
      "流": 3304,
      "浄": 3305,
      "浅": 3306,
      "测": 3307,
      "济": 3308,
      "浜": 3309,
      "浥": 3310,
      "浦": 3311,
      "浩": 3312,
      "浪": 3313,
      "浬": 3314,
      "浮": 3315,
      "浴": 3316,
      "海": 3317,
      "浸": 3318,
      "涂": 3319,
      "涅": 3320,
      "消": 3321,
      "涉": 3322,
      "涑": 3323,
      "涓": 3324,
      "涔": 3325,
      "涕": 3326,
      "涙": 3327,
      "润": 3328,
      "涯": 3329,
      "液": 3330,
      "涵": 3331,
      "涸": 3332,
      "涼": 3333,
      "涽": 3334,
      "淄": 3335,
      "淋": 3336,
      "淏": 3337,
      "淒": 3338,
      "淕": 3339,
      "淖": 3340,
      "淚": 3341,
      "淡": 3342,
      "淨": 3343,
      "淫": 3344,
      "淰": 3345,
      "深": 3346,
      "淳": 3347,
      "淵": 3348,
      "混": 3349,
      "淹": 3350,
      "淺": 3351,
      "添": 3352,
      "清": 3353,
      "済": 3354,
      "渉": 3355,
      "渊": 3356,
      "渗": 3357,
      "渚": 3358,
      "減": 3359,
      "渠": 3360,
      "渡": 3361,
      "渣": 3362,
      "渥": 3363,
      "渦": 3364,
      "温": 3365,
      "測": 3366,
      "港": 3367,
      "渴": 3368,
      "游": 3369,
      "渾": 3370,
      "湅": 3371,
      "湖": 3372,
      "湘": 3373,
      "湛": 3374,
      "湟": 3375,
      "湢": 3376,
      "湧": 3377,
      "湫": 3378,
      "湯": 3379,
      "湾": 3380,
      "湿": 3381,
      "満": 3382,
      "源": 3383,
      "準": 3384,
      "溘": 3385,
      "溜": 3386,
      "溝": 3387,
      "溟": 3388,
      "溢": 3389,
      "溥": 3390,
      "溪": 3391,
      "溫": 3392,
      "溶": 3393,
      "溺": 3394,
      "滄": 3395,
      "滅": 3396,
      "滇": 3397,
      "滊": 3398,
      "滋": 3399,
      "滌": 3400,
      "滑": 3401,
      "滔": 3402,
      "滕": 3403,
      "滝": 3404,
      "滞": 3405,
      "满": 3406,
      "滬": 3407,
      "滴": 3408,
      "滷": 3409,
      "滸": 3410,
      "滿": 3411,
      "漁": 3412,
      "漆": 3413,
      "漌": 3414,
      "漏": 3415,
      "漐": 3416,
      "演": 3417,
      "漖": 3418,
      "漠": 3419,
      "漢": 3420,
      "漣": 3421,
      "漦": 3422,
      "漫": 3423,
      "漬": 3424,
      "漱": 3425,
      "漲": 3426,
      "漳": 3427,
      "漸": 3428,
      "漿": 3429,
      "潓": 3430,
      "潔": 3431,
      "潘": 3432,
      "潛": 3433,
      "潜": 3434,
      "潟": 3435,
      "潢": 3436,
      "潤": 3437,
      "潬": 3438,
      "潮": 3439,
      "潰": 3440,
      "潼": 3441,
      "澆": 3442,
      "澎": 3443,
      "澘": 3444,
      "澡": 3445,
      "澤": 3446,
      "澳": 3447,
      "澾": 3448,
      "激": 3449,
      "濁": 3450,
      "濃": 3451,
      "濇": 3452,
      "濕": 3453,
      "濟": 3454,
      "濡": 3455,
      "濫": 3456,
      "濮": 3457,
      "濯": 3458,
      "濱": 3459,
      "濶": 3460,
      "瀋": 3461,
      "瀕": 3462,
      "瀝": 3463,
      "瀣": 3464,
      "瀬": 3465,
      "瀷": 3466,
      "瀾": 3467,
      "灇": 3468,
      "灋": 3469,
      "灌": 3470,
      "灎": 3471,
      "灘": 3472,
      "灣": 3473,
      "灩": 3474,
      "火": 3475,
      "灬": 3476,
      "灮": 3477,
      "灯": 3478,
      "灰": 3479,
      "灵": 3480,
      "災": 3481,
      "炅": 3482,
      "炉": 3483,
      "炊": 3484,
      "炎": 3485,
      "炒": 3486,
      "炗": 3487,
      "炤": 3488,
      "炬": 3489,
      "炭": 3490,
      "炯": 3491,
      "炳": 3492,
      "点": 3493,
      "為": 3494,
      "烈": 3495,
      "烏": 3496,
      "烜": 3497,
      "烟": 3498,
      "烤": 3499,
      "烧": 3500,
      "热": 3501,
      "烯": 3502,
      "烱": 3503,
      "烽": 3504,
      "焆": 3505,
      "焉": 3506,
      "焔": 3507,
      "焚": 3508,
      "無": 3509,
      "焦": 3510,
      "焰": 3511,
      "然": 3512,
      "焼": 3513,
      "煇": 3514,
      "煉": 3515,
      "煌": 3516,
      "煎": 3517,
      "煒": 3518,
      "煙": 3519,
      "煜": 3520,
      "煥": 3521,
      "照": 3522,
      "煩": 3523,
      "煮": 3524,
      "煽": 3525,
      "熊": 3526,
      "熏": 3527,
      "熖": 3528,
      "熙": 3529,
      "熟": 3530,
      "熠": 3531,
      "熨": 3532,
      "熯": 3533,
      "熱": 3534,
      "熹": 3535,
      "熾": 3536,
      "熿": 3537,
      "燁": 3538,
      "燃": 3539,
      "燈": 3540,
      "燉": 3541,
      "燌": 3542,
      "燎": 3543,
      "燒": 3544,
      "燓": 3545,
      "燔": 3546,
      "燕": 3547,
      "燗": 3548,
      "營": 3549,
      "燥": 3550,
      "燦": 3551,
      "燭": 3552,
      "燻": 3553,
      "爆": 3554,
      "爈": 3555,
      "爍": 3556,
      "爐": 3557,
      "爓": 3558,
      "爚": 3559,
      "爛": 3560,
      "爪": 3561,
      "爫": 3562,
      "爬": 3563,
      "爭": 3564,
      "爰": 3565,
      "爱": 3566,
      "爲": 3567,
      "爵": 3568,
      "父": 3569,
      "爸": 3570,
      "爹": 3571,
      "爺": 3572,
      "爻": 3573,
      "爽": 3574,
      "爾": 3575,
      "爿": 3576,
      "牆": 3577,
      "片": 3578,
      "版": 3579,
      "牌": 3580,
      "牘": 3581,
      "牙": 3582,
      "牛": 3583,
      "牜": 3584,
      "牝": 3585,
      "牡": 3586,
      "牢": 3587,
      "牧": 3588,
      "物": 3589,
      "牯": 3590,
      "牲": 3591,
      "牵": 3592,
      "牸": 3593,
      "特": 3594,
      "牽": 3595,
      "牿": 3596,
      "犀": 3597,
      "犁": 3598,
      "犎": 3599,
      "犧": 3600,
      "犬": 3601,
      "犭": 3602,
      "犮": 3603,
      "犯": 3604,
      "状": 3605,
      "犹": 3606,
      "狀": 3607,
      "狂": 3608,
      "狄": 3609,
      "狐": 3610,
      "狗": 3611,
      "狡": 3612,
      "独": 3613,
      "狭": 3614,
      "狹": 3615,
      "狼": 3616,
      "猎": 3617,
      "猖": 3618,
      "猛": 3619,
      "猩": 3620,
      "猪": 3621,
      "猫": 3622,
      "献": 3623,
      "猴": 3624,
      "猶": 3625,
      "猹": 3626,
      "猿": 3627,
      "獃": 3628,
      "獄": 3629,
      "獅": 3630,
      "獎": 3631,
      "獏": 3632,
      "獣": 3633,
      "獨": 3634,
      "獬": 3635,
      "獲": 3636,
      "獵": 3637,
      "獸": 3638,
      "獻": 3639,
      "玄": 3640,
      "玆": 3641,
      "率": 3642,
      "玉": 3643,
      "王": 3644,
      "玛": 3645,
      "玩": 3646,
      "环": 3647,
      "现": 3648,
      "玷": 3649,
      "玻": 3650,
      "珊": 3651,
      "珍": 3652,
      "珠": 3653,
      "珥": 3654,
      "珪": 3655,
      "班": 3656,
      "珱": 3657,
      "現": 3658,
      "琀": 3659,
      "球": 3660,
      "理": 3661,
      "琉": 3662,
      "琢": 3663,
      "琰": 3664,
      "琲": 3665,
      "琳": 3666,
      "琴": 3667,
      "琺": 3668,
      "瑕": 3669,
      "瑚": 3670,
      "瑛": 3671,
      "瑜": 3672,
      "瑞": 3673,
      "瑟": 3674,
      "瑠": 3675,
      "瑣": 3676,
      "瑤": 3677,
      "瑪": 3678,
      "瑰": 3679,
      "瑶": 3680,
      "瑾": 3681,
      "璀": 3682,
      "璃": 3683,
      "璣": 3684,
      "璪": 3685,
      "環": 3686,
      "瓊": 3687,
      "瓜": 3688,
      "瓦": 3689,
      "瓴": 3690,
      "瓶": 3691,
      "甄": 3692,
      "甌": 3693,
      "甓": 3694,
      "甕": 3695,
      "甗": 3696,
      "甘": 3697,
      "甚": 3698,
      "甜": 3699,
      "生": 3700,
      "產": 3701,
      "産": 3702,
      "甥": 3703,
      "甦": 3704,
      "用": 3705,
      "甩": 3706,
      "甪": 3707,
      "甫": 3708,
      "甬": 3709,
      "甯": 3710,
      "田": 3711,
      "由": 3712,
      "甲": 3713,
      "申": 3714,
      "电": 3715,
      "甶": 3716,
      "男": 3717,
      "甸": 3718,
      "町": 3719,
      "画": 3720,
      "畀": 3721,
      "畄": 3722,
      "界": 3723,
      "畎": 3724,
      "畏": 3725,
      "畐": 3726,
      "畑": 3727,
      "畔": 3728,
      "畗": 3729,
      "留": 3730,
      "畜": 3731,
      "畝": 3732,
      "畢": 3733,
      "略": 3734,
      "番": 3735,
      "畫": 3736,
      "畯": 3737,
      "異": 3738,
      "畱": 3739,
      "畳": 3740,
      "當": 3741,
      "畸": 3742,
      "畺": 3743,
      "畻": 3744,
      "畾": 3745,
      "畿": 3746,
      "疆": 3747,
      "疇": 3748,
      "疌": 3749,
      "疎": 3750,
      "疏": 3751,
      "疑": 3752,
      "疒": 3753,
      "疫": 3754,
      "疵": 3755,
      "疼": 3756,
      "疾": 3757,
      "病": 3758,
      "症": 3759,
      "痛": 3760,
      "痞": 3761,
      "痩": 3762,
      "痳": 3763,
      "痴": 3764,
      "瘇": 3765,
      "瘋": 3766,
      "瘌": 3767,
      "瘘": 3768,
      "瘴": 3769,
      "瘼": 3770,
      "療": 3771,
      "癒": 3772,
      "癘": 3773,
      "癶": 3774,
      "癸": 3775,
      "発": 3776,
      "登": 3777,
      "發": 3778,
      "白": 3779,
      "百": 3780,
      "皀": 3781,
      "皁": 3782,
      "的": 3783,
      "皆": 3784,
      "皇": 3785,
      "皋": 3786,
      "皎": 3787,
      "皐": 3788,
      "皓": 3789,
      "皚": 3790,
      "皞": 3791,
      "皡": 3792,
      "皤": 3793,
      "皥": 3794,
      "皪": 3795,
      "皮": 3796,
      "皺": 3797,
      "皿": 3798,
      "盆": 3799,
      "盈": 3800,
      "益": 3801,
      "盍": 3802,
      "监": 3803,
      "盒": 3804,
      "盖": 3805,
      "盗": 3806,
      "盘": 3807,
      "盛": 3808,
      "盜": 3809,
      "盟": 3810,
      "盡": 3811,
      "監": 3812,
      "盤": 3813,
      "盧": 3814,
      "目": 3815,
      "盰": 3816,
      "盲": 3817,
      "直": 3818,
      "相": 3819,
      "盼": 3820,
      "省": 3821,
      "眉": 3822,
      "看": 3823,
      "県": 3824,
      "眞": 3825,
      "真": 3826,
      "眠": 3827,
      "眨": 3828,
      "眩": 3829,
      "眵": 3830,
      "眷": 3831,
      "眼": 3832,
      "眾": 3833,
      "着": 3834,
      "睆": 3835,
      "睘": 3836,
      "睛": 3837,
      "睜": 3838,
      "睡": 3839,
      "督": 3840,
      "睤": 3841,
      "睦": 3842,
      "睪": 3843,
      "睹": 3844,
      "睾": 3845,
      "瞋": 3846,
      "瞌": 3847,
      "瞎": 3848,
      "瞚": 3849,
      "瞢": 3850,
      "瞥": 3851,
      "瞬": 3852,
      "瞭": 3853,
      "瞮": 3854,
      "瞱": 3855,
      "瞳": 3856,
      "瞹": 3857,
      "瞻": 3858,
      "瞽": 3859,
      "瞾": 3860,
      "矃": 3861,
      "矇": 3862,
      "矗": 3863,
      "矛": 3864,
      "矞": 3865,
      "矢": 3866,
      "矣": 3867,
      "知": 3868,
      "矩": 3869,
      "矫": 3870,
      "短": 3871,
      "矮": 3872,
      "矯": 3873,
      "矱": 3874,
      "石": 3875,
      "码": 3876,
      "砂": 3877,
      "砉": 3878,
      "砌": 3879,
      "研": 3880,
      "砕": 3881,
      "砖": 3882,
      "砚": 3883,
      "砝": 3884,
      "砥": 3885,
      "砦": 3886,
      "砮": 3887,
      "砲": 3888,
      "破": 3889,
      "硝": 3890,
      "硨": 3891,
      "硫": 3892,
      "硬": 3893,
      "确": 3894,
      "硯": 3895,
      "硴": 3896,
      "碍": 3897,
      "碎": 3898,
      "碑": 3899,
      "碓": 3900,
      "碗": 3901,
      "碧": 3902,
      "確": 3903,
      "碼": 3904,
      "碾": 3905,
      "磁": 3906,
      "磐": 3907,
      "磚": 3908,
      "磨": 3909,
      "磯": 3910,
      "磲": 3911,
      "磷": 3912,
      "礁": 3913,
      "礎": 3914,
      "礙": 3915,
      "礦": 3916,
      "礮": 3917,
      "礰": 3918,
      "礴": 3919,
      "示": 3920,
      "礻": 3921,
      "礼": 3922,
      "社": 3923,
      "祀": 3924,
      "祁": 3925,
      "祂": 3926,
      "祇": 3927,
      "祈": 3928,
      "祉": 3929,
      "祊": 3930,
      "祋": 3931,
      "祐": 3932,
      "祖": 3933,
      "祗": 3934,
      "祜": 3935,
      "祝": 3936,
      "神": 3937,
      "祠": 3938,
      "祥": 3939,
      "票": 3940,
      "祩": 3941,
      "祭": 3942,
      "祷": 3943,
      "祸": 3944,
      "祹": 3945,
      "祺": 3946,
      "祻": 3947,
      "祾": 3948,
      "祿": 3949,
      "禁": 3950,
      "禄": 3951,
      "禅": 3952,
      "禋": 3953,
      "禍": 3954,
      "禎": 3955,
      "福": 3956,
      "禔": 3957,
      "禧": 3958,
      "禨": 3959,
      "禩": 3960,
      "禪": 3961,
      "禫": 3962,
      "禮": 3963,
      "禱": 3964,
      "禳": 3965,
      "禸": 3966,
      "禹": 3967,
      "禺": 3968,
      "离": 3969,
      "禽": 3970,
      "禾": 3971,
      "禿": 3972,
      "秀": 3973,
      "私": 3974,
      "秂": 3975,
      "秇": 3976,
      "秊": 3977,
      "秋": 3978,
      "种": 3979,
      "科": 3980,
      "秒": 3981,
      "秘": 3982,
      "租": 3983,
      "秦": 3984,
      "秩": 3985,
      "积": 3986,
      "称": 3987,
      "秱": 3988,
      "移": 3989,
      "秼": 3990,
      "稀": 3991,
      "稃": 3992,
      "稅": 3993,
      "程": 3994,
      "稍": 3995,
      "税": 3996,
      "稙": 3997,
      "稚": 3998,
      "稜": 3999,
      "稟": 4000,
      "稣": 4001,
      "種": 4002,
      "稱": 4003,
      "稲": 4004,
      "稻": 4005,
      "稼": 4006,
      "稽": 4007,
      "稿": 4008,
      "穀": 4009,
      "穂": 4010,
      "穄": 4011,
      "穆": 4012,
      "穈": 4013,
      "積": 4014,
      "穎": 4015,
      "穏": 4016,
      "穗": 4017,
      "穢": 4018,
      "穣": 4019,
      "穩": 4020,
      "穫": 4021,
      "穰": 4022,
      "穴": 4023,
      "究": 4024,
      "穷": 4025,
      "穹": 4026,
      "空": 4027,
      "穿": 4028,
      "突": 4029,
      "窃": 4030,
      "窄": 4031,
      "窅": 4032,
      "窒": 4033,
      "窓": 4034,
      "窔": 4035,
      "窗": 4036,
      "窞": 4037,
      "窟": 4038,
      "窦": 4039,
      "窩": 4040,
      "窪": 4041,
      "窬": 4042,
      "窮": 4043,
      "窺": 4044,
      "竃": 4045,
      "竅": 4046,
      "竆": 4047,
      "竇": 4048,
      "竈": 4049,
      "竊": 4050,
      "立": 4051,
      "竒": 4052,
      "竖": 4053,
      "站": 4054,
      "竜": 4055,
      "竞": 4056,
      "竟": 4057,
      "章": 4058,
      "童": 4059,
      "端": 4060,
      "競": 4061,
      "竹": 4062,
      "竺": 4063,
      "竿": 4064,
      "笂": 4065,
      "笑": 4066,
      "笔": 4067,
      "笛": 4068,
      "笞": 4069,
      "笠": 4070,
      "符": 4071,
      "第": 4072,
      "筆": 4073,
      "筈": 4074,
      "等": 4075,
      "筋": 4076,
      "筑": 4077,
      "筒": 4078,
      "答": 4079,
      "策": 4080,
      "筥": 4081,
      "筭": 4082,
      "筯": 4083,
      "筵": 4084,
      "筹": 4085,
      "筺": 4086,
      "简": 4087,
      "箇": 4088,
      "箔": 4089,
      "算": 4090,
      "管": 4091,
      "箥": 4092,
      "箭": 4093,
      "箱": 4094,
      "箴": 4095,
      "箸": 4096,
      "箺": 4097,
      "節": 4098,
      "範": 4099,
      "篇": 4100,
      "築": 4101,
      "篠": 4102,
      "簇": 4103,
      "簗": 4104,
      "簡": 4105,
      "簿": 4106,
      "籀": 4107,
      "籌": 4108,
      "籍": 4109,
      "籐": 4110,
      "籒": 4111,
      "籓": 4112,
      "籕": 4113,
      "籠": 4114,
      "籩": 4115,
      "籬": 4116,
      "米": 4117,
      "籹": 4118,
      "类": 4119,
      "籽": 4120,
      "粉": 4121,
      "粐": 4122,
      "粒": 4123,
      "粗": 4124,
      "粥": 4125,
      "粦": 4126,
      "粧": 4127,
      "粪": 4128,
      "粮": 4129,
      "粱": 4130,
      "粲": 4131,
      "粹": 4132,
      "精": 4133,
      "糇": 4134,
      "糊": 4135,
      "糏": 4136,
      "糕": 4137,
      "糖": 4138,
      "糞": 4139,
      "糟": 4140,
      "糠": 4141,
      "糢": 4142,
      "糧": 4143,
      "糸": 4144,
      "系": 4145,
      "糾": 4146,
      "紀": 4147,
      "約": 4148,
      "紅": 4149,
      "紋": 4150,
      "納": 4151,
      "純": 4152,
      "紗": 4153,
      "紙": 4154,
      "級": 4155,
      "紛": 4156,
      "素": 4157,
      "紡": 4158,
      "索": 4159,
      "紧": 4160,
      "紫": 4161,
      "紮": 4162,
      "累": 4163,
      "細": 4164,
      "紳": 4165,
      "紹": 4166,
      "紺": 4167,
      "終": 4168,
      "絃": 4169,
      "組": 4170,
      "絆": 4171,
      "経": 4172,
      "結": 4173,
      "絑": 4174,
      "絕": 4175,
      "絜": 4176,
      "絞": 4177,
      "絡": 4178,
      "絢": 4179,
      "給": 4180,
      "絨": 4181,
      "絮": 4182,
      "統": 4183,
      "絲": 4184,
      "絵": 4185,
      "絶": 4186,
      "絹": 4187,
      "綁": 4188,
      "綃": 4189,
      "經": 4190,
      "綖": 4191,
      "継": 4192,
      "続": 4193,
      "綜": 4194,
      "綠": 4195,
      "維": 4196,
      "綱": 4197,
      "網": 4198,
      "綺": 4199,
      "綾": 4200,
      "綿": 4201,
      "緊": 4202,
      "緌": 4203,
      "総": 4204,
      "緑": 4205,
      "緒": 4206,
      "線": 4207,
      "締": 4208,
      "緡": 4209,
      "緣": 4210,
      "緦": 4211,
      "編": 4212,
      "緩": 4213,
      "緬": 4214,
      "緯": 4215,
      "練": 4216,
      "緻": 4217,
      "縁": 4218,
      "縄": 4219,
      "縛": 4220,
      "縜": 4221,
      "縝": 4222,
      "縞": 4223,
      "縣": 4224,
      "縧": 4225,
      "縫": 4226,
      "縮": 4227,
      "縯": 4228,
      "縱": 4229,
      "縶": 4230,
      "縺": 4231,
      "總": 4232,
      "績": 4233,
      "繁": 4234,
      "繃": 4235,
      "繅": 4236,
      "繊": 4237,
      "繋": 4238,
      "繎": 4239,
      "織": 4240,
      "繕": 4241,
      "繚": 4242,
      "繞": 4243,
      "繦": 4244,
      "繪": 4245,
      "繰": 4246,
      "繳": 4247,
      "繹": 4248,
      "繼": 4249,
      "纊": 4250,
      "續": 4251,
      "纏": 4252,
      "纐": 4253,
      "纒": 4254,
      "纖": 4255,
      "红": 4256,
      "约": 4257,
      "级": 4258,
      "纪": 4259,
      "纯": 4260,
      "纲": 4261,
      "纳": 4262,
      "纸": 4263,
      "线": 4264,
      "组": 4265,
      "细": 4266,
      "织": 4267,
      "终": 4268,
      "经": 4269,
      "结": 4270,
      "给": 4271,
      "络": 4272,
      "统": 4273,
      "绩": 4274,
      "绪": 4275,
      "维": 4276,
      "综": 4277,
      "绿": 4278,
      "缓": 4279,
      "缔": 4280,
      "编": 4281,
      "缘": 4282,
      "缭": 4283,
      "缶": 4284,
      "缸": 4285,
      "缺": 4286,
      "罐": 4287,
      "网": 4288,
      "罒": 4289,
      "罔": 4290,
      "罕": 4291,
      "罗": 4292,
      "罢": 4293,
      "罪": 4294,
      "置": 4295,
      "罰": 4296,
      "署": 4297,
      "罷": 4298,
      "羅": 4299,
      "羊": 4300,
      "羋": 4301,
      "羌": 4302,
      "羍": 4303,
      "美": 4304,
      "羏": 4305,
      "羔": 4306,
      "羖": 4307,
      "羚": 4308,
      "羜": 4309,
      "羞": 4310,
      "羡": 4311,
      "羢": 4312,
      "群": 4313,
      "羨": 4314,
      "義": 4315,
      "羲": 4316,
      "羶": 4317,
      "羽": 4318,
      "翁": 4319,
      "翅": 4320,
      "翌": 4321,
      "習": 4322,
      "翔": 4323,
      "翟": 4324,
      "翠": 4325,
      "翰": 4326,
      "翻": 4327,
      "翼": 4328,
      "耀": 4329,
      "老": 4330,
      "耂": 4331,
      "考": 4332,
      "者": 4333,
      "耆": 4334,
      "耊": 4335,
      "耋": 4336,
      "而": 4337,
      "耐": 4338,
      "耑": 4339,
      "耒": 4340,
      "耕": 4341,
      "耖": 4342,
      "耗": 4343,
      "耙": 4344,
      "耳": 4345,
      "耶": 4346,
      "耻": 4347,
      "耽": 4348,
      "耿": 4349,
      "聊": 4350,
      "职": 4351,
      "联": 4352,
      "聖": 4353,
      "聚": 4354,
      "聞": 4355,
      "聟": 4356,
      "聡": 4357,
      "聯": 4358,
      "聰": 4359,
      "聲": 4360,
      "聳": 4361,
      "聴": 4362,
      "職": 4363,
      "聻": 4364,
      "聽": 4365,
      "聾": 4366,
      "聿": 4367,
      "肀": 4368,
      "肃": 4369,
      "肅": 4370,
      "肇": 4371,
      "肉": 4372,
      "肋": 4373,
      "肌": 4374,
      "肏": 4375,
      "肖": 4376,
      "肙": 4377,
      "肚": 4378,
      "肛": 4379,
      "肝": 4380,
      "肞": 4381,
      "股": 4382,
      "肢": 4383,
      "肤": 4384,
      "肥": 4385,
      "肩": 4386,
      "肪": 4387,
      "肯": 4388,
      "肰": 4389,
      "肱": 4390,
      "育": 4391,
      "肴": 4392,
      "肺": 4393,
      "肿": 4394,
      "胃": 4395,
      "胅": 4396,
      "胆": 4397,
      "胈": 4398,
      "背": 4399,
      "胎": 4400,
      "胏": 4401,
      "胖": 4402,
      "胘": 4403,
      "胜": 4404,
      "胞": 4405,
      "胡": 4406,
      "胥": 4407,
      "胦": 4408,
      "胯": 4409,
      "胲": 4410,
      "胴": 4411,
      "胵": 4412,
      "胶": 4413,
      "胸": 4414,
      "胻": 4415,
      "能": 4416,
      "脂": 4417,
      "脈": 4418,
      "脉": 4419,
      "脊": 4420,
      "脋": 4421,
      "脑": 4422,
      "脚": 4423,
      "脛": 4424,
      "脩": 4425,
      "脫": 4426,
      "脱": 4427,
      "脳": 4428,
      "脵": 4429,
      "脽": 4430,
      "脾": 4431,
      "腊": 4432,
      "腐": 4433,
      "腑": 4434,
      "腓": 4435,
      "腔": 4436,
      "腕": 4437,
      "腥": 4438,
      "腦": 4439,
      "腩": 4440,
      "腫": 4441,
      "腰": 4442,
      "腳": 4443,
      "腸": 4444,
      "腹": 4445,
      "腺": 4446,
      "腿": 4447,
      "膀": 4448,
      "膏": 4449,
      "膐": 4450,
      "膜": 4451,
      "膝": 4452,
      "膠": 4453,
      "膢": 4454,
      "膨": 4455,
      "膩": 4456,
      "膺": 4457,
      "膻": 4458,
      "膽": 4459,
      "膾": 4460,
      "臀": 4461,
      "臁": 4462,
      "臂": 4463,
      "臃": 4464,
      "臆": 4465,
      "臉": 4466,
      "臋": 4467,
      "臍": 4468,
      "臓": 4469,
      "臘": 4470,
      "臛": 4471,
      "臞": 4472,
      "臠": 4473,
      "臡": 4474,
      "臣": 4475,
      "臤": 4476,
      "臥": 4477,
      "臨": 4478,
      "自": 4479,
      "臭": 4480,
      "至": 4481,
      "致": 4482,
      "臺": 4483,
      "臼": 4484,
      "舁": 4485,
      "舅": 4486,
      "與": 4487,
      "興": 4488,
      "舉": 4489,
      "舊": 4490,
      "舌": 4491,
      "舍": 4492,
      "舎": 4493,
      "舒": 4494,
      "舔": 4495,
      "舖": 4496,
      "舗": 4497,
      "舛": 4498,
      "舜": 4499,
      "舞": 4500,
      "舟": 4501,
      "航": 4502,
      "般": 4503,
      "舰": 4504,
      "船": 4505,
      "艇": 4506,
      "艦": 4507,
      "艮": 4508,
      "良": 4509,
      "艱": 4510,
      "色": 4511,
      "艶": 4512,
      "艸": 4513,
      "艹": 4514,
      "艾": 4515,
      "节": 4516,
      "芉": 4517,
      "芋": 4518,
      "芒": 4519,
      "芔": 4520,
      "芖": 4521,
      "芝": 4522,
      "芥": 4523,
      "芦": 4524,
      "芬": 4525,
      "芭": 4526,
      "芮": 4527,
      "花": 4528,
      "芳": 4529,
      "芸": 4530,
      "芹": 4531,
      "芻": 4532,
      "芽": 4533,
      "苏": 4534,
      "苑": 4535,
      "苗": 4536,
      "苚": 4537,
      "苛": 4538,
      "苜": 4539,
      "苞": 4540,
      "苟": 4541,
      "若": 4542,
      "苦": 4543,
      "苪": 4544,
      "英": 4545,
      "苴": 4546,
      "苶": 4547,
      "茂": 4548,
      "范": 4549,
      "茄": 4550,
      "茅": 4551,
      "茆": 4552,
      "茍": 4553,
      "茎": 4554,
      "茜": 4555,
      "茰": 4556,
      "茱": 4557,
      "茲": 4558,
      "茴": 4559,
      "茶": 4560,
      "茸": 4561,
      "茻": 4562,
      "荀": 4563,
      "荆": 4564,
      "草": 4565,
      "荊": 4566,
      "荏": 4567,
      "荒": 4568,
      "荘": 4569,
      "荣": 4570,
      "药": 4571,
      "荳": 4572,
      "荷": 4573,
      "荼": 4574,
      "莇": 4575,
      "莉": 4576,
      "莊": 4577,
      "莎": 4578,
      "莓": 4579,
      "莧": 4580,
      "莩": 4581,
      "莫": 4582,
      "莱": 4583,
      "莲": 4584,
      "莵": 4585,
      "获": 4586,
      "菇": 4587,
      "菊": 4588,
      "菌": 4589,
      "菐": 4590,
      "菓": 4591,
      "菖": 4592,
      "菜": 4593,
      "菟": 4594,
      "菠": 4595,
      "菩": 4596,
      "菫": 4597,
      "華": 4598,
      "菱": 4599,
      "菲": 4600,
      "菽": 4601,
      "萄": 4602,
      "萊": 4603,
      "萑": 4604,
      "萝": 4605,
      "萧": 4606,
      "萨": 4607,
      "萩": 4608,
      "萬": 4609,
      "萱": 4610,
      "萸": 4611,
      "落": 4612,
      "葈": 4613,
      "葉": 4614,
      "葍": 4615,
      "著": 4616,
      "葛": 4617,
      "葡": 4618,
      "董": 4619,
      "葦": 4620,
      "葩": 4621,
      "葬": 4622,
      "葵": 4623,
      "葷": 4624,
      "蒁": 4625,
      "蒋": 4626,
      "蒔": 4627,
      "蒙": 4628,
      "蒦": 4629,
      "蒪": 4630,
      "蒲": 4631,
      "蒸": 4632,
      "蒼": 4633,
      "蒾": 4634,
      "蓄": 4635,
      "蓉": 4636,
      "蓋": 4637,
      "蓜": 4638,
      "蓮": 4639,
      "蓴": 4640,
      "蓿": 4641,
      "蔑": 4642,
      "蔓": 4643,
      "蔔": 4644,
      "蔟": 4645,
      "蔡": 4646,
      "蔣": 4647,
      "蔦": 4648,
      "蔬": 4649,
      "蔭": 4650,
      "蔵": 4651,
      "蔽": 4652,
      "蕃": 4653,
      "蕈": 4654,
      "蕊": 4655,
      "蕎": 4656,
      "蕏": 4657,
      "蕐": 4658,
      "蕓": 4659,
      "蕝": 4660,
      "蕡": 4661,
      "蕢": 4662,
      "蕩": 4663,
      "蕪": 4664,
      "蕭": 4665,
      "蕾": 4666,
      "薁": 4667,
      "薄": 4668,
      "薏": 4669,
      "薑": 4670,
      "薗": 4671,
      "薛": 4672,
      "薦": 4673,
      "薩": 4674,
      "薪": 4675,
      "薫": 4676,
      "薬": 4677,
      "薮": 4678,
      "薰": 4679,
      "薽": 4680,
      "藁": 4681,
      "藉": 4682,
      "藍": 4683,
      "藏": 4684,
      "藐": 4685,
      "藚": 4686,
      "藜": 4687,
      "藝": 4688,
      "藟": 4689,
      "藡": 4690,
      "藤": 4691,
      "藥": 4692,
      "藩": 4693,
      "藶": 4694,
      "藷": 4695,
      "藻": 4696,
      "藿": 4697,
      "蘆": 4698,
      "蘇": 4699,
      "蘋": 4700,
      "蘖": 4701,
      "蘛": 4702,
      "蘭": 4703,
      "蘶": 4704,
      "蘽": 4705,
      "蘿": 4706,
      "虆": 4707,
      "虍": 4708,
      "虎": 4709,
      "虐": 4710,
      "虑": 4711,
      "虔": 4712,
      "處": 4713,
      "虚": 4714,
      "虛": 4715,
      "虜": 4716,
      "虞": 4717,
      "號": 4718,
      "虧": 4719,
      "虫": 4720,
      "虺": 4721,
      "虾": 4722,
      "蚊": 4723,
      "蚌": 4724,
      "蚕": 4725,
      "蚖": 4726,
      "蚨": 4727,
      "蚵": 4728,
      "蛆": 4729,
      "蛇": 4730,
      "蛉": 4731,
      "蛋": 4732,
      "蛙": 4733,
      "蛟": 4734,
      "蛮": 4735,
      "蜀": 4736,
      "蜆": 4737,
      "蜎": 4738,
      "蜜": 4739,
      "蜟": 4740,
      "蜷": 4741,
      "蜼": 4742,
      "蜿": 4743,
      "蝠": 4744,
      "蝣": 4745,
      "蝦": 4746,
      "蝶": 4747,
      "蝻": 4748,
      "融": 4749,
      "螯": 4750,
      "螱": 4751,
      "螺": 4752,
      "螾": 4753,
      "蟆": 4754,
      "蟇": 4755,
      "蟠": 4756,
      "蟯": 4757,
      "蟲": 4758,
      "蟹": 4759,
      "蠆": 4760,
      "蠏": 4761,
      "蠙": 4762,
      "蠟": 4763,
      "蠣": 4764,
      "蠶": 4765,
      "蠹": 4766,
      "血": 4767,
      "衆": 4768,
      "行": 4769,
      "衍": 4770,
      "術": 4771,
      "衕": 4772,
      "街": 4773,
      "衙": 4774,
      "衛": 4775,
      "衝": 4776,
      "衡": 4777,
      "衣": 4778,
      "衤": 4779,
      "表": 4780,
      "衫": 4781,
      "衯": 4782,
      "衰": 4783,
      "衷": 4784,
      "袁": 4785,
      "袋": 4786,
      "袖": 4787,
      "袟": 4788,
      "袠": 4789,
      "被": 4790,
      "裁": 4791,
      "裂": 4792,
      "装": 4793,
      "裏": 4794,
      "裔": 4795,
      "裕": 4796,
      "裛": 4797,
      "補": 4798,
      "裝": 4799,
      "裡": 4800,
      "裳": 4801,
      "裸": 4802,
      "裹": 4803,
      "製": 4804,
      "褁": 4805,
      "複": 4806,
      "褌": 4807,
      "褐": 4808,
      "褒": 4809,
      "褚": 4810,
      "褰": 4811,
      "褲": 4812,
      "褸": 4813,
      "褹": 4814,
      "褺": 4815,
      "褻": 4816,
      "褽": 4817,
      "襄": 4818,
      "襖": 4819,
      "襛": 4820,
      "襟": 4821,
      "襤": 4822,
      "襭": 4823,
      "襯": 4824,
      "襲": 4825,
      "襾": 4826,
      "西": 4827,
      "覀": 4828,
      "要": 4829,
      "覆": 4830,
      "覇": 4831,
      "覈": 4832,
      "見": 4833,
      "規": 4834,
      "視": 4835,
      "覚": 4836,
      "覩": 4837,
      "親": 4838,
      "覲": 4839,
      "観": 4840,
      "覺": 4841,
      "覽": 4842,
      "覿": 4843,
      "觀": 4844,
      "见": 4845,
      "观": 4846,
      "规": 4847,
      "视": 4848,
      "觉": 4849,
      "角": 4850,
      "解": 4851,
      "触": 4852,
      "觸": 4853,
      "言": 4854,
      "訂": 4855,
      "計": 4856,
      "訊": 4857,
      "討": 4858,
      "訓": 4859,
      "託": 4860,
      "記": 4861,
      "訝": 4862,
      "訟": 4863,
      "訣": 4864,
      "訪": 4865,
      "設": 4866,
      "許": 4867,
      "訳": 4868,
      "訴": 4869,
      "訶": 4870,
      "註": 4871,
      "証": 4872,
      "訾": 4873,
      "詁": 4874,
      "詉": 4875,
      "詐": 4876,
      "詔": 4877,
      "評": 4878,
      "詖": 4879,
      "詛": 4880,
      "詞": 4881,
      "詠": 4882,
      "詢": 4883,
      "試": 4884,
      "詩": 4885,
      "詫": 4886,
      "詰": 4887,
      "話": 4888,
      "該": 4889,
      "詳": 4890,
      "詶": 4891,
      "詷": 4892,
      "詹": 4893,
      "誀": 4894,
      "誇": 4895,
      "誉": 4896,
      "誌": 4897,
      "認": 4898,
      "誓": 4899,
      "誕": 4900,
      "誘": 4901,
      "語": 4902,
      "誠": 4903,
      "誤": 4904,
      "誨": 4905,
      "說": 4906,
      "説": 4907,
      "読": 4908,
      "誰": 4909,
      "課": 4910,
      "誾": 4911,
      "調": 4912,
      "諃": 4913,
      "諄": 4914,
      "談": 4915,
      "諉": 4916,
      "請": 4917,
      "諒": 4918,
      "論": 4919,
      "諗": 4920,
      "諟": 4921,
      "諧": 4922,
      "諭": 4923,
      "諱": 4924,
      "諸": 4925,
      "諾": 4926,
      "謀": 4927,
      "謁": 4928,
      "謂": 4929,
      "謄": 4930,
      "謊": 4931,
      "謔": 4932,
      "謙": 4933,
      "講": 4934,
      "謝": 4935,
      "謡": 4936,
      "謫": 4937,
      "謬": 4938,
      "謹": 4939,
      "譆": 4940,
      "證": 4941,
      "譓": 4942,
      "識": 4943,
      "譚": 4944,
      "譜": 4945,
      "譟": 4946,
      "警": 4947,
      "譬": 4948,
      "譯": 4949,
      "議": 4950,
      "譱": 4951,
      "譲": 4952,
      "護": 4953,
      "譸": 4954,
      "譽": 4955,
      "讀": 4956,
      "讅": 4957,
      "變": 4958,
      "讒": 4959,
      "讓": 4960,
      "讚": 4961,
      "计": 4962,
      "认": 4963,
      "讨": 4964,
      "让": 4965,
      "训": 4966,
      "议": 4967,
      "记": 4968,
      "讲": 4969,
      "许": 4970,
      "论": 4971,
      "设": 4972,
      "访": 4973,
      "诀": 4974,
      "证": 4975,
      "评": 4976,
      "识": 4977,
      "词": 4978,
      "试": 4979,
      "诗": 4980,
      "诚": 4981,
      "话": 4982,
      "详": 4983,
      "语": 4984,
      "误": 4985,
      "诰": 4986,
      "说": 4987,
      "请": 4988,
      "诸": 4989,
      "诺": 4990,
      "读": 4991,
      "课": 4992,
      "调": 4993,
      "谈": 4994,
      "谏": 4995,
      "谷": 4996,
      "谺": 4997,
      "豁": 4998,
      "豆": 4999,
      "豇": 5000,
      "豈": 5001,
      "豊": 5002,
      "豎": 5003,
      "豐": 5004,
      "豕": 5005,
      "豖": 5006,
      "豝": 5007,
      "象": 5008,
      "豪": 5009,
      "豫": 5010,
      "豬": 5011,
      "豸": 5012,
      "豾": 5013,
      "貂": 5014,
      "貅": 5015,
      "貇": 5016,
      "貌": 5017,
      "貓": 5018,
      "貘": 5019,
      "貝": 5020,
      "貞": 5021,
      "負": 5022,
      "財": 5023,
      "貢": 5024,
      "貧": 5025,
      "貨": 5026,
      "販": 5027,
      "貪": 5028,
      "貫": 5029,
      "責": 5030,
      "貯": 5031,
      "貲": 5032,
      "貴": 5033,
      "買": 5034,
      "貸": 5035,
      "費": 5036,
      "貼": 5037,
      "貿": 5038,
      "賀": 5039,
      "賁": 5040,
      "賃": 5041,
      "資": 5042,
      "賈": 5043,
      "賊": 5044,
      "賏": 5045,
      "賓": 5046,
      "賛": 5047,
      "賜": 5048,
      "賞": 5049,
      "賠": 5050,
      "賢": 5051,
      "賣": 5052,
      "賤": 5053,
      "賦": 5054,
      "質": 5055,
      "賬": 5056,
      "賭": 5057,
      "賴": 5058,
      "購": 5059,
      "賽": 5060,
      "贄": 5061,
      "贅": 5062,
      "贈": 5063,
      "贊": 5064,
      "贎": 5065,
      "贖": 5066,
      "贛": 5067,
      "贝": 5068,
      "贞": 5069,
      "负": 5070,
      "财": 5071,
      "贤": 5072,
      "货": 5073,
      "质": 5074,
      "贯": 5075,
      "贵": 5076,
      "费": 5077,
      "贺": 5078,
      "贼": 5079,
      "资": 5080,
      "赋": 5081,
      "赛": 5082,
      "赤": 5083,
      "赦": 5084,
      "赫": 5085,
      "走": 5086,
      "赳": 5087,
      "赴": 5088,
      "赵": 5089,
      "起": 5090,
      "超": 5091,
      "越": 5092,
      "趕": 5093,
      "趙": 5094,
      "趣": 5095,
      "足": 5096,
      "跀": 5097,
      "跂": 5098,
      "跊": 5099,
      "跌": 5100,
      "跑": 5101,
      "跙": 5102,
      "距": 5103,
      "跟": 5104,
      "跡": 5105,
      "跨": 5106,
      "路": 5107,
      "跳": 5108,
      "践": 5109,
      "踊": 5110,
      "踏": 5111,
      "踐": 5112,
      "踞": 5113,
      "踟": 5114,
      "踪": 5115,
      "踴": 5116,
      "踵": 5117,
      "蹀": 5118,
      "蹄": 5119,
      "蹇": 5120,
      "蹈": 5121,
      "蹉": 5122,
      "蹎": 5123,
      "蹨": 5124,
      "蹲": 5125,
      "蹴": 5126,
      "躁": 5127,
      "躂": 5128,
      "躉": 5129,
      "躊": 5130,
      "躍": 5131,
      "躔": 5132,
      "躕": 5133,
      "躘": 5134,
      "躚": 5135,
      "身": 5136,
      "躬": 5137,
      "躰": 5138,
      "躲": 5139,
      "躳": 5140,
      "躺": 5141,
      "軆": 5142,
      "軇": 5143,
      "車": 5144,
      "軌": 5145,
      "軍": 5146,
      "軒": 5147,
      "軛": 5148,
      "軟": 5149,
      "転": 5150,
      "軮": 5151,
      "軸": 5152,
      "軻": 5153,
      "軼": 5154,
      "軽": 5155,
      "較": 5156,
      "載": 5157,
      "輒": 5158,
      "輔": 5159,
      "輕": 5160,
      "輛": 5161,
      "輝": 5162,
      "輩": 5163,
      "輪": 5164,
      "輯": 5165,
      "輳": 5166,
      "輸": 5167,
      "轄": 5168,
      "轆": 5169,
      "轉": 5170,
      "轍": 5171,
      "轒": 5172,
      "轟": 5173,
      "车": 5174,
      "转": 5175,
      "轮": 5176,
      "软": 5177,
      "轻": 5178,
      "载": 5179,
      "较": 5180,
      "辅": 5181,
      "辛": 5182,
      "辞": 5183,
      "辟": 5184,
      "辦": 5185,
      "辨": 5186,
      "辭": 5187,
      "辯": 5188,
      "辰": 5189,
      "辱": 5190,
      "農": 5191,
      "辵": 5192,
      "辶": 5193,
      "辷": 5194,
      "边": 5195,
      "辺": 5196,
      "辻": 5197,
      "込": 5198,
      "达": 5199,
      "迀": 5200,
      "迁": 5201,
      "迂": 5202,
      "迄": 5203,
      "迅": 5204,
      "过": 5205,
      "迋": 5206,
      "迎": 5207,
      "运": 5208,
      "近": 5209,
      "返": 5210,
      "还": 5211,
      "这": 5212,
      "进": 5213,
      "远": 5214,
      "违": 5215,
      "连": 5216,
      "迦": 5217,
      "迪": 5218,
      "迫": 5219,
      "迭": 5220,
      "述": 5221,
      "迴": 5222,
      "迶": 5223,
      "迷": 5224,
      "迸": 5225,
      "迹": 5226,
      "追": 5227,
      "退": 5228,
      "送": 5229,
      "适": 5230,
      "逃": 5231,
      "逆": 5232,
      "选": 5233,
      "透": 5234,
      "逐": 5235,
      "递": 5236,
      "途": 5237,
      "逗": 5238,
      "這": 5239,
      "通": 5240,
      "逛": 5241,
      "逝": 5242,
      "速": 5243,
      "造": 5244,
      "逢": 5245,
      "連": 5246,
      "週": 5247,
      "進": 5248,
      "逶": 5249,
      "逸": 5250,
      "逹": 5251,
      "逼": 5252,
      "遁": 5253,
      "遂": 5254,
      "遅": 5255,
      "遇": 5256,
      "遊": 5257,
      "運": 5258,
      "遍": 5259,
      "過": 5260,
      "遑": 5261,
      "道": 5262,
      "達": 5263,
      "違": 5264,
      "遖": 5265,
      "遗": 5266,
      "遙": 5267,
      "遛": 5268,
      "遜": 5269,
      "遞": 5270,
      "遠": 5271,
      "遣": 5272,
      "遥": 5273,
      "遨": 5274,
      "適": 5275,
      "遭": 5276,
      "遮": 5277,
      "遲": 5278,
      "遵": 5279,
      "遷": 5280,
      "選": 5281,
      "遺": 5282,
      "遼": 5283,
      "避": 5284,
      "邀": 5285,
      "邁": 5286,
      "邂": 5287,
      "還": 5288,
      "邈": 5289,
      "邊": 5290,
      "邑": 5291,
      "邓": 5292,
      "邕": 5293,
      "那": 5294,
      "邦": 5295,
      "邨": 5296,
      "邪": 5297,
      "邯": 5298,
      "邵": 5299,
      "邻": 5300,
      "郁": 5301,
      "郊": 5302,
      "郎": 5303,
      "郑": 5304,
      "郛": 5305,
      "郡": 5306,
      "部": 5307,
      "郭": 5308,
      "郴": 5309,
      "郵": 5310,
      "郷": 5311,
      "都": 5312,
      "鄂": 5313,
      "鄉": 5314,
      "鄙": 5315,
      "鄧": 5316,
      "鄭": 5317,
      "鄰": 5318,
      "鄲": 5319,
      "酉": 5320,
      "酋": 5321,
      "配": 5322,
      "酒": 5323,
      "酔": 5324,
      "酥": 5325,
      "酪": 5326,
      "酬": 5327,
      "酵": 5328,
      "酷": 5329,
      "酸": 5330,
      "醂": 5331,
      "醇": 5332,
      "醉": 5333,
      "醋": 5334,
      "醍": 5335,
      "醒": 5336,
      "醜": 5337,
      "醤": 5338,
      "醫": 5339,
      "醬": 5340,
      "醶": 5341,
      "醸": 5342,
      "醿": 5343,
      "釀": 5344,
      "釆": 5345,
      "采": 5346,
      "釈": 5347,
      "釉": 5348,
      "释": 5349,
      "釋": 5350,
      "里": 5351,
      "重": 5352,
      "野": 5353,
      "量": 5354,
      "釐": 5355,
      "金": 5356,
      "釜": 5357,
      "針": 5358,
      "鈎": 5359,
      "鈔": 5360,
      "鈘": 5361,
      "鈴": 5362,
      "鈿": 5363,
      "鉄": 5364,
      "鉗": 5365,
      "鉛": 5366,
      "鉢": 5367,
      "鉤": 5368,
      "鉱": 5369,
      "銀": 5370,
      "銅": 5371,
      "銖": 5372,
      "銘": 5373,
      "銜": 5374,
      "銭": 5375,
      "銷": 5376,
      "鋪": 5377,
      "鋭": 5378,
      "鋸": 5379,
      "鋼": 5380,
      "錄": 5381,
      "錐": 5382,
      "錠": 5383,
      "錡": 5384,
      "錢": 5385,
      "錦": 5386,
      "錫": 5387,
      "錯": 5388,
      "録": 5389,
      "錶": 5390,
      "鍋": 5391,
      "鍬": 5392,
      "鍰": 5393,
      "鍵": 5394,
      "鍾": 5395,
      "鎌": 5396,
      "鎖": 5397,
      "鎧": 5398,
      "鎮": 5399,
      "鏁": 5400,
      "鏃": 5401,
      "鏄": 5402,
      "鏈": 5403,
      "鏡": 5404,
      "鏧": 5405,
      "鏱": 5406,
      "鏵": 5407,
      "鐘": 5408,
      "鐴": 5409,
      "鐵": 5410,
      "鑄": 5411,
      "鑊": 5412,
      "鑑": 5413,
      "鑒": 5414,
      "鑛": 5415,
      "鑟": 5416,
      "鑮": 5417,
      "鑰": 5418,
      "鑽": 5419,
      "鑾": 5420,
      "针": 5421,
      "钦": 5422,
      "钻": 5423,
      "铁": 5424,
      "铭": 5425,
      "银": 5426,
      "错": 5427,
      "锡": 5428,
      "锦": 5429,
      "镇": 5430,
      "長": 5431,
      "镸": 5432,
      "长": 5433,
      "門": 5434,
      "閃": 5435,
      "閈": 5436,
      "閉": 5437,
      "閊": 5438,
      "開": 5439,
      "閏": 5440,
      "閑": 5441,
      "閒": 5442,
      "間": 5443,
      "関": 5444,
      "閣": 5445,
      "閤": 5446,
      "閥": 5447,
      "閨": 5448,
      "閫": 5449,
      "閭": 5450,
      "閱": 5451,
      "閲": 5452,
      "閻": 5453,
      "閼": 5454,
      "闇": 5455,
      "闉": 5456,
      "闊": 5457,
      "闍": 5458,
      "闘": 5459,
      "闚": 5460,
      "關": 5461,
      "闢": 5462,
      "闤": 5463,
      "门": 5464,
      "闪": 5465,
      "问": 5466,
      "闲": 5467,
      "间": 5468,
      "闻": 5469,
      "阁": 5470,
      "阜": 5471,
      "阝": 5472,
      "队": 5473,
      "阪": 5474,
      "阮": 5475,
      "防": 5476,
      "阳": 5477,
      "阴": 5478,
      "阵": 5479,
      "阻": 5480,
      "阿": 5481,
      "陀": 5482,
      "附": 5483,
      "际": 5484,
      "陆": 5485,
      "陈": 5486,
      "陋": 5487,
      "降": 5488,
      "限": 5489,
      "院": 5490,
      "陣": 5491,
      "除": 5492,
      "陥": 5493,
      "陪": 5494,
      "陰": 5495,
      "陳": 5496,
      "陵": 5497,
      "陶": 5498,
      "陷": 5499,
      "陸": 5500,
      "険": 5501,
      "陽": 5502,
      "隂": 5503,
      "隅": 5504,
      "隆": 5505,
      "隊": 5506,
      "階": 5507,
      "随": 5508,
      "隐": 5509,
      "隔": 5510,
      "隙": 5511,
      "際": 5512,
      "障": 5513,
      "隠": 5514,
      "隣": 5515,
      "隨": 5516,
      "險": 5517,
      "隱": 5518,
      "隴": 5519,
      "隶": 5520,
      "隷": 5521,
      "隸": 5522,
      "隹": 5523,
      "隺": 5524,
      "隻": 5525,
      "隽": 5526,
      "难": 5527,
      "雀": 5528,
      "雁": 5529,
      "雄": 5530,
      "雅": 5531,
      "集": 5532,
      "雇": 5533,
      "雉": 5534,
      "雋": 5535,
      "雌": 5536,
      "雍": 5537,
      "雎": 5538,
      "雏": 5539,
      "雑": 5540,
      "雕": 5541,
      "雖": 5542,
      "雙": 5543,
      "雛": 5544,
      "雜": 5545,
      "雞": 5546,
      "離": 5547,
      "難": 5548,
      "雨": 5549,
      "雪": 5550,
      "雲": 5551,
      "零": 5552,
      "雷": 5553,
      "雺": 5554,
      "電": 5555,
      "雾": 5556,
      "需": 5557,
      "霄": 5558,
      "震": 5559,
      "霊": 5560,
      "霍": 5561,
      "霎": 5562,
      "霚": 5563,
      "霛": 5564,
      "霜": 5565,
      "霞": 5566,
      "霤": 5567,
      "霧": 5568,
      "霨": 5569,
      "露": 5570,
      "霸": 5571,
      "霹": 5572,
      "霻": 5573,
      "霾": 5574,
      "靂": 5575,
      "靆": 5576,
      "靈": 5577,
      "靉": 5578,
      "靑": 5579,
      "青": 5580,
      "靗": 5581,
      "靘": 5582,
      "静": 5583,
      "靜": 5584,
      "非": 5585,
      "靠": 5586,
      "靡": 5587,
      "面": 5588,
      "革": 5589,
      "靴": 5590,
      "鞅": 5591,
      "鞋": 5592,
      "鞍": 5593,
      "鞕": 5594,
      "鞘": 5595,
      "鞙": 5596,
      "鞟": 5597,
      "鞠": 5598,
      "鞦": 5599,
      "鞭": 5600,
      "鞹": 5601,
      "韃": 5602,
      "韆": 5603,
      "韋": 5604,
      "韍": 5605,
      "韓": 5606,
      "韜": 5607,
      "韦": 5608,
      "韩": 5609,
      "音": 5610,
      "韵": 5611,
      "韶": 5612,
      "韻": 5613,
      "響": 5614,
      "頁": 5615,
      "頂": 5616,
      "頃": 5617,
      "項": 5618,
      "順": 5619,
      "須": 5620,
      "頌": 5621,
      "預": 5622,
      "頑": 5623,
      "頓": 5624,
      "頗": 5625,
      "領": 5626,
      "頣": 5627,
      "頤": 5628,
      "頥": 5629,
      "頬": 5630,
      "頭": 5631,
      "頰": 5632,
      "頻": 5633,
      "頼": 5634,
      "顆": 5635,
      "題": 5636,
      "額": 5637,
      "顎": 5638,
      "顏": 5639,
      "顔": 5640,
      "顕": 5641,
      "願": 5642,
      "顛": 5643,
      "類": 5644,
      "顧": 5645,
      "顯": 5646,
      "页": 5647,
      "项": 5648,
      "顺": 5649,
      "须": 5650,
      "顾": 5651,
      "预": 5652,
      "领": 5653,
      "颐": 5654,
      "题": 5655,
      "颜": 5656,
      "额": 5657,
      "風": 5658,
      "颱": 5659,
      "颳": 5660,
      "飄": 5661,
      "风": 5662,
      "飛": 5663,
      "飞": 5664,
      "食": 5665,
      "飠": 5666,
      "飢": 5667,
      "飯": 5668,
      "飲": 5669,
      "飴": 5670,
      "飼": 5671,
      "飽": 5672,
      "飾": 5673,
      "餅": 5674,
      "養": 5675,
      "餌": 5676,
      "餐": 5677,
      "餓": 5678,
      "餘": 5679,
      "館": 5680,
      "饋": 5681,
      "饎": 5682,
      "饑": 5683,
      "饒": 5684,
      "饗": 5685,
      "饭": 5686,
      "饮": 5687,
      "首": 5688,
      "香": 5689,
      "馨": 5690,
      "馬": 5691,
      "馮": 5692,
      "馴": 5693,
      "駁": 5694,
      "駄": 5695,
      "駅": 5696,
      "駆": 5697,
      "駈": 5698,
      "駐": 5699,
      "駕": 5700,
      "騎": 5701,
      "験": 5702,
      "騙": 5703,
      "騞": 5704,
      "騰": 5705,
      "驀": 5706,
      "驁": 5707,
      "驎": 5708,
      "驕": 5709,
      "驗": 5710,
      "驚": 5711,
      "驟": 5712,
      "驥": 5713,
      "驩": 5714,
      "马": 5715,
      "驾": 5716,
      "验": 5717,
      "骑": 5718,
      "骨": 5719,
      "骽": 5720,
      "髀": 5721,
      "髈": 5722,
      "體": 5723,
      "高": 5724,
      "髪": 5725,
      "髫": 5726,
      "髮": 5727,
      "髹": 5728,
      "鬆": 5729,
      "鬒": 5730,
      "鬚": 5731,
      "鬥": 5732,
      "鬱": 5733,
      "鬲": 5734,
      "鬻": 5735,
      "鬼": 5736,
      "魁": 5737,
      "魂": 5738,
      "魄": 5739,
      "魏": 5740,
      "魔": 5741,
      "魚": 5742,
      "魯": 5743,
      "鮪": 5744,
      "鮫": 5745,
      "鮮": 5746,
      "鯊": 5747,
      "鯨": 5748,
      "鰯": 5749,
      "鰻": 5750,
      "鱈": 5751,
      "鱔": 5752,
      "鱗": 5753,
      "鱚": 5754,
      "鱠": 5755,
      "鱼": 5756,
      "鲁": 5757,
      "鲜": 5758,
      "鳥": 5759,
      "鳩": 5760,
      "鳳": 5761,
      "鳴": 5762,
      "鴇": 5763,
      "鴛": 5764,
      "鴦": 5765,
      "鴨": 5766,
      "鴫": 5767,
      "鴻": 5768,
      "鴿": 5769,
      "鵑": 5770,
      "鵝": 5771,
      "鵠": 5772,
      "鵬": 5773,
      "鶉": 5774,
      "鶏": 5775,
      "鶴": 5776,
      "鶹": 5777,
      "鷭": 5778,
      "鷹": 5779,
      "鷺": 5780,
      "鸊": 5781,
      "鸕": 5782,
      "鸚": 5783,
      "鸟": 5784,
      "鸡": 5785,
      "鸣": 5786,
      "鸭": 5787,
      "鸿": 5788,
      "鹅": 5789,
      "鹵": 5790,
      "鹹": 5791,
      "鹽": 5792,
      "鹿": 5793,
      "麓": 5794,
      "麗": 5795,
      "麝": 5796,
      "麟": 5797,
      "麥": 5798,
      "麦": 5799,
      "麵": 5800,
      "麻": 5801,
      "麼": 5802,
      "麽": 5803,
      "麾": 5804,
      "麿": 5805,
      "黃": 5806,
      "黄": 5807,
      "黎": 5808,
      "黐": 5809,
      "黑": 5810,
      "黒": 5811,
      "黔": 5812,
      "默": 5813,
      "黙": 5814,
      "黛": 5815,
      "點": 5816,
      "黨": 5817,
      "黮": 5818,
      "鼎": 5819,
      "鼓": 5820,
      "鼠": 5821,
      "鼡": 5822,
      "鼻": 5823,
      "鼿": 5824,
      "齁": 5825,
      "齃": 5826,
      "齄": 5827,
      "齆": 5828,
      "齊": 5829,
      "齋": 5830,
      "齐": 5831,
      "齒": 5832,
      "齔": 5833,
      "齟": 5834,
      "齠": 5835,
      "齡": 5836,
      "齢": 5837,
      "齬": 5838,
      "齭": 5839,
      "齽": 5840,
      "齿": 5841,
      "龄": 5842,
      "龍": 5843,
      "龑": 5844,
      "龙": 5845,
      "龜": 5846,
      "龟": 5847,
      "龰": 5848,
      "龶": 5849,
      "龷": 5850,
      "龹": 5851,
      "龺": 5852,
      "": 5853,
      "": 5854,
      "": 5855,
      "": 5856,
      "": 5857,
      "": 5858,
      "": 5859,
      "": 5860,
      "": 5861,
      "": 5862,
      "": 5863,
      "": 5864,
      "": 5865,
      "": 5866,
      "": 5867,
      "": 5868,
      "": 5869,
      "": 5870,
      "": 5871,
      "": 5872,
      "": 5873,
      "": 5874,
      "": 5875,
      "": 5876,
      "": 5877,
      "": 5878,
      "": 5879,
      "": 5880,
      "": 5881,
      "": 5882,
      "": 5883,
      "": 5884,
      "": 5885,
      "": 5886,
      "": 5887,
      "": 5888,
      "": 5889,
      "": 5890,
      "": 5891,
      "": 5892,
      "": 5893,
      "": 5894,
      "": 5895,
      "": 5896,
      "": 5897,
      "": 5898,
      "": 5899,
      "": 5900,
      "": 5901,
      "": 5902,
      "": 5903,
      "": 5904,
      "": 5905,
      "": 5906,
      "": 5907,
      "": 5908,
      "": 5909,
      "": 5910,
      "": 5911,
      "": 5912,
      "": 5913,
      "": 5914,
      "": 5915,
      "": 5916,
      "": 5917,
      "": 5918,
      "": 5919,
      "": 5920,
      "": 5921,
      "": 5922,
      "": 5923,
      "": 5924,
      "": 5925,
      "": 5926,
      "": 5927,
      "": 5928,
      "": 5929,
      "": 5930,
      "": 5931,
      "": 5932,
      "": 5933,
      "": 5934,
      "": 5935,
      "": 5936,
      "": 5937,
      "": 5938,
      "": 5939,
      "": 5940,
      "": 5941,
      "": 5942,
      "": 5943,
      "": 5944,
      "": 5945,
      "": 5946,
      "": 5947,
      "": 5948,
      "": 5949,
      "": 5950,
      "": 5951,
      "": 5952,
      "": 5953,
      "": 5954,
      "": 5955,
      "": 5956,
      "": 5957,
      "": 5958,
      "": 5959,
      "": 5960,
      "": 5961,
      "": 5962,
      "": 5963,
      "": 5964,
      "": 5965,
      "": 5966,
      "": 5967,
      "": 5968,
      "": 5969,
      "": 5970,
      "": 5971,
      "": 5972,
      "": 5973,
      "": 5974,
      "": 5975,
      "": 5976,
      "": 5977,
      "": 5978,
      "": 5979,
      "": 5980,
      "": 5981,
      "": 5982,
      "": 5983,
      "": 5984,
      "": 5985,
      "": 5986,
      "": 5987,
      "": 5988,
      "": 5989,
      "": 5990,
      "": 5991,
      "": 5992,
      "": 5993,
      "": 5994,
      "": 5995,
      "": 5996,
      "": 5997,
      "": 5998,
      "": 5999,
      "": 6000,
      "﨏": 6001,
      "﨔": 6002,
      "﨟": 6003,
      "﴾": 6004,
      "﴿": 6005,
      "﷓": 6006,
      "ﷺ": 6007,
      "ﺎ": 6008,
      "ﺑ": 6009,
      "ﺒ": 6010,
      "ﺖ": 6011,
      "ﺗ": 6012,
      "ﺘ": 6013,
      "ﺟ": 6014,
      "ﺣ": 6015,
      "ﺤ": 6016,
      "ﺧ": 6017,
      "ﺪ": 6018,
      "ﺮ": 6019,
      "ﺳ": 6020,
      "ﺴ": 6021,
      "ﺷ": 6022,
      "ﻄ": 6023,
      "ﻋ": 6024,
      "ﻓ": 6025,
      "ﻖ": 6026,
      "ﻗ": 6027,
      "ﻘ": 6028,
      "ﻛ": 6029,
      "ﻜ": 6030,
      "ﻟ": 6031,
      "ﻠ": 6032,
      "ﻢ": 6033,
      "ﻣ": 6034,
      "ﻤ": 6035,
      "ﻧ": 6036,
      "ﻨ": 6037,
      "ﻪ": 6038,
      "ﻫ": 6039,
      "ﻬ": 6040,
      "ﻮ": 6041,
      "ﻲ": 6042,
      "ﻳ": 6043,
      "ﻴ": 6044,
      "�": 6045,
      "𐇲": 6046,
      "𝐿": 6047,
      "𝑃": 6048,
      "𝑖": 6049,
      "𝛿": 6050,
      "🔥": 6051,
      "😉": 6052,
      "😠": 6053,
      "😲": 6054,
      "🙁": 6055,
      "🙂": 6056,
      "𠀋": 6057,
      "𠂉": 6058,
      "𠆢": 6059,
      "𠍱": 6060,
      "𠏹": 6061,
      "𠔉": 6062,
      "𠘨": 6063,
      "𠫓": 6064,
      "𠫔": 6065,
      "𠵅": 6066,
      "𠹭": 6067,
      "𠽟": 6068,
      "𡉕": 6069,
      "𡗗": 6070,
      "𡢽": 6071,
      "𡧃": 6072,
      "𡽶": 6073,
      "𢰤": 6074,
      "𢷡": 6075,
      "𣏒": 6076,
      "𣏕": 6077,
      "𣏟": 6078,
      "𣏤": 6079,
      "𣑥": 6080,
      "𣖔": 6081,
      "𣘹": 6082,
      "𣜜": 6083,
      "𣳾": 6084,
      "𣴀": 6085,
      "𤸷": 6086,
      "𥄢": 6087,
      "𥔎": 6088,
      "𥸮": 6089,
      "𦍌": 6090,
      "𦙾": 6091,
      "𦚰": 6092,
      "𦜝": 6093,
      "𦥑": 6094,
      "𦧝": 6095,
      "𦰩": 6096,
      "𧯇": 6097,
      "𧶠": 6098,
      "𧸐": 6099,
      "𧾷": 6100,
      "𨐌": 6101,
      "𨦻": 6102,
      "𨺉": 6103,
      "𩙿": 6104,
      "𪃹": 6105,
      "𪎌": 6106,
      "𪗱": 6107,
      "𪘚": 6108,
      "##o": 6109,
      "##z": 6110,
      "##k": 6111,
      "##e": 6112,
      "##l": 6113,
      "##i": 6114,
      "##a": 6115,
      "##s": 6116,
      "##c": 6117,
      "##n": 6118,
      "##d": 6119,
      "##u": 6120,
      "##p": 6121,
      "##r": 6122,
      "##h": 6123,
      "##v": 6124,
      "##y": 6125,
      "##j": 6126,
      "##m": 6127,
      "##t": 6128,
      "##q": 6129,
      "##x": 6130,
      "##w": 6131,
      "##1": 6132,
      "##_": 6133,
      "##ε": 6134,
      "##ρ": 6135,
      "##ο": 6136,
      "##υ": 6137,
      "##λ": 6138,
      "##ι": 6139,
      "##b": 6140,
      "##3": 6141,
      "##9": 6142,
      "##ү": 6143,
      "##т": 6144,
      "##к": 6145,
      "##ө": 6146,
      "##н": 6147,
      "##g": 6148,
      "##2": 6149,
      "##f": 6150,
      "##р": 6151,
      "##а": 6152,
      "##ж": 6153,
      "##д": 6154,
      "##с": 6155,
      "##о": 6156,
      "##0": 6157,
      "##5": 6158,
      "##7": 6159,
      "##8": 6160,
      "##ı": 6161,
      "##6": 6162,
      "##4": 6163,
      "##ف": 6164,
      "##م": 6165,
      "##ن": 6166,
      "##б": 6167,
      "##л": 6168,
      "##у": 6169,
      "##ر": 6170,
      "##ه": 6171,
      "##ۦ": 6172,
      "##ч": 6173,
      "##и": 6174,
      "##я": 6175,
      "##м": 6176,
      "##ы": 6177,
      "##ர": 6178,
      "##த": 6179,
      "##ற": 6180,
      "##க": 6181,
      "##ள": 6182,
      "##ル": 6183,
      "##ー": 6184,
      "##フ": 6185,
      "##の": 6186,
      "##記": 6187,
      "##入": 6188,
      "##初": 6189,
      "##期": 6190,
      "##段": 6191,
      "##階": 6192,
      "##て": 6193,
      "##は": 6194,
      "##独": 6195,
      "##白": 6196,
      "##形": 6197,
      "##式": 6198,
      "##躊": 6199,
      "##い": 6200,
      "##か": 6201,
      "##ち": 6202,
      "##に": 6203,
      "##個": 6204,
      "##人": 6205,
      "##情": 6206,
      "##報": 6207,
      "##共": 6208,
      "##有": 6209,
      "##さ": 6210,
      "##れ": 6211,
      "##た": 6212,
      "##і": 6213,
      "##е": 6214,
      "##г": 6215,
      "##щ": 6216,
      "##ю": 6217,
      "##圖": 6218,
      "##什": 6219,
      "##縣": 6220,
      "##қ": 6221,
      "##ш": 6222,
      "##ऽ": 6223,
      "##य": 6224,
      "##म": 6225,
      "##द": 6226,
      "##श": 6227,
      "##ی": 6228,
      "##ا": 6229,
      "##з": 6230,
      "##в": 6231,
      "##ь": 6232,
      "##ł": 6233,
      "##δ": 6234,
      "##φ": 6235,
      "##α": 6236,
      "##χ": 6237,
      "##ν": 6238,
      "##σ": 6239,
      "##τ": 6240,
      "##د": 6241,
      "##ध": 6242,
      "##ब": 6243,
      "##ज": 6244,
      "##न": 6245,
      "##ல": 6246,
      "##し": 6247,
      "##ゃ": 6248,
      "##み": 6249,
      "##爲": 6250,
      "##他": 6251,
      "##們": 6252,
      "##相": 6253,
      "##信": 6254,
      "##在": 6255,
      "##我": 6256,
      "##的": 6257,
      "##教": 6258,
      "##堂": 6259,
      "##裏": 6260,
      "##作": 6261,
      "##許": 6262,
      "##出": 6263,
      "##多": 6264,
      "##工": 6265,
      "##和": 6266,
      "##保": 6267,
      "##持": 6268,
      "##忙": 6269,
      "##是": 6270,
      "##達": 6271,
      "##到": 6272,
      "##永": 6273,
      "##恒": 6274,
      "##安": 6275,
      "##全": 6276,
      "##道": 6277,
      "##路": 6278,
      "##ξ": 6279,
      "##)": 6280,
      "##(": 6281,
      "##お": 6282,
      "##ひ": 6283,
      "##き": 6284,
      "##く": 6285,
      "##ん": 6286,
      "##ə": 6287,
      "##ß": 6288,
      "##ل": 6289,
      "##η": 6290,
      "##ز": 6291,
      "##ح": 6292,
      "##п": 6293,
      "##ょ": 6294,
      "##र": 6295,
      "##व": 6296,
      "##מ": 6297,
      "##ר": 6298,
      "##ع": 6299,
      "##ب": 6300,
      "##π": 6301,
      "##κ": 6302,
      "##و": 6303,
      "##ي": 6304,
      "##ட": 6305,
      "##ய": 6306,
      "##ன": 6307,
      "##ث": 6308,
      "##μ": 6309,
      "##வ": 6310,
      "##ғ": 6311,
      "##ق": 6312,
      "##ц": 6313,
      "##ষ": 6314,
      "##ந": 6315,
      "##ت": 6316,
      "##র": 6317,
      "##ণ": 6318,
      "##х": 6319,
      "##门": 6320,
      "##ى": 6321,
      "##ذ": 6322,
      "##ほ": 6323,
      "##う": 6324,
      "##س": 6325,
      "##?": 6326,
      "##*": 6327,
      "##:": 6328,
      "##ط": 6329,
      "##भ": 6330,
      "##त": 6331,
      "##ष": 6332,
      "##ण": 6333,
      "##प": 6334,
      "##क": 6335,
      "##且": 6336,
      "##不": 6337,
      "##能": 6338,
      "##被": 6339,
      "##直": 6340,
      "##接": 6341,
      "##研": 6342,
      "##究": 6343,
      "##ـ": 6344,
      "##と": 6345,
      "##彼": 6346,
      "##此": 6347,
      "##愛": 6348,
      "##²": 6349,
      "##文": 6350,
      "##ப": 6351,
      "##ゅ": 6352,
      "##.": 6353,
      "##}": 6354,
      "##‌": 6355,
      "##ك": 6356,
      "##گ": 6357,
      "##\"": 6358,
      "##ו": 6359,
      "##פ": 6360,
      "##נ": 6361,
      "##ה": 6362,
      "##א": 6363,
      "##ג": 6364,
      "##ן": 6365,
      "##讓": 6366,
      "##她": 6367,
      "##經": 6368,
      "##歷": 6369,
      "##這": 6370,
      "##將": 6371,
      "##要": 6372,
      "##來": 6373,
      "##黑": 6374,
      "##暗": 6375,
      "##時": 6376,
      "##刻": 6377,
      "##ض": 6378,
      "##ς": 6379,
      "##ج": 6380,
      "##ش": 6381,
      "##ம": 6382,
      "##冬": 6383,
      "##ク": 6384,
      "##マ": 6385,
      "##よ": 6386,
      "##り": 6387,
      "##כ": 6388,
      "##ל": 6389,
      "##ҳ": 6390,
      "##ண": 6391,
      "##後": 6392,
      "##ח": 6393,
      "##י": 6394,
      "##ѕ": 6395,
      "##望": 6396,
      "##抱": 6397,
      "##著": 6398,
      "##你": 6399,
      "##ন": 6400,
      "##ম": 6401,
      "##য": 6402,
      "##ত": 6403,
      "##ব": 6404,
      "##ங": 6405,
      "##ふ": 6406,
      "##つ": 6407,
      "##=": 6408,
      "##/": 6409,
      "##记": 6410,
      "##ら": 6411,
      "##こ": 6412,
      "##む": 6413,
      "##ζ": 6414,
      "##स": 6415,
      "##þ": 6416,
      "##ஞ": 6417,
      "##ラ": 6418,
      "##ン": 6419,
      "##ス": 6420,
      "##ま": 6421,
      "##天": 6422,
      "##害": 6423,
      "##理": 6424,
      "##,": 6425,
      "##拜": 6426,
      "##二": 6427,
      "##\\": 6428,
      "##দ": 6429,
      "##っ": 6430,
      "##அ": 6431,
      "##價": 6432,
      "##額": 6433,
      "##已": 6434,
      "##支": 6435,
      "##付": 6436,
      "##ट": 6437,
      "##ल": 6438,
      "##ह": 6439,
      "##غ": 6440,
      "##ص": 6441,
      "##θ": 6442,
      "##鳥": 6443,
      "##代": 6444,
      "##ұ": 6445,
      "##خ": 6446,
      "##ة": 6447,
      "##ء": 6448,
      "##ই": 6449,
      "##ট": 6450,
      "##立": 6451,
      "##尼": 6452,
      "##达": 6453,
      "##あ": 6454,
      "##そ": 6455,
      "##實": 6456,
      "##證": 6457,
      "##角": 6458,
      "##度": 6459,
      "##看": 6460,
      "##ग": 6461,
      "##ң": 6462,
      "##る": 6463,
      "##腦": 6464,
      "##與": 6465,
      "##育": 6466,
      "##ת": 6467,
      "##ט": 6468,
      "##せ": 6469,
      "##ω": 6470,
      "##布": 6471,
      "##跡": 6472,
      "##埋": 6473,
      "##名": 6474,
      "##见": 6475,
      "##ש": 6476,
      "##β": 6477,
      "##奏": 6478,
      "##ک": 6479,
      "##ф": 6480,
      "##ङ": 6481,
      "##γ": 6482,
      "##+": 6483,
      "##½": 6484,
      "##ழ": 6485,
      "##^": 6486,
      "##!": 6487,
      "##ۥ": 6488,
      "##族": 6489,
      "##わ": 6490,
      "##灰": 6491,
      "##化": 6492,
      "##成": 6493,
      "##美": 6494,
      "##麗": 6495,
      "##]": 6496,
      "##け": 6497,
      "##必": 6498,
      "##須": 6499,
      "##聽": 6500,
      "##麽": 6501,
      "##樣": 6502,
      "##話": 6503,
      "##-": 6504,
      "##æ": 6505,
      "##事": 6506,
      "##册": 6507,
      "##科": 6508,
      "##技": 6509,
      "##仲": 6510,
      "##介": 6511,
      "##鼓": 6512,
      "##勵": 6513,
      "##社": 6514,
      "##會": 6515,
      "##性": 6516,
      "##行": 6517,
      "##動": 6518,
      "##俗": 6519,
      "##賞": 6520,
      "##世": 6521,
      "##界": 6522,
      "##上": 6523,
      "##ъ": 6524,
      "##红": 6525,
      "##莲": 6526,
      "##—": 6527,
      "##'": 6528,
      "##э": 6529,
      "##थ": 6530,
      "##ם": 6531,
      "##ס": 6532,
      "##%": 6533,
      "##な": 6534,
      "##語": 6535,
      "##正": 6536,
      "##當": 6537,
      "##छ": 6538,
      "##@": 6539,
      "##`": 6540,
      "##斗": 6541,
      "##শ": 6542,
      "##ধ": 6543,
      "##–": 6544,
      "##ð": 6545,
      "##餐": 6546,
      "##­": 6547,
      "##及": 6548,
      "##一": 6549,
      "##些": 6550,
      "##力": 6551,
      "##強": 6552,
      "##同": 6553,
      "##協": 6554,
      "##助": 6555,
      "##完": 6556,
      "##ろ": 6557,
      "##鍵": 6558,
      "##盤": 6559,
      "##書": 6560,
      "##协": 6561,
      "##下": 6562,
      "##定": 6563,
      "##义": 6564,
      "##す": 6565,
      "##♬": 6566,
      "##準": 6567,
      "##備": 6568,
      "##好": 6569,
      "##є": 6570,
      "##º": 6571,
      "##願": 6572,
      "##意": 6573,
      "##取": 6574,
      "##印": 6575,
      "##地": 6576,
      "##点": 6577,
      "##め": 6578,
      "##踐": 6579,
      "##中": 6580,
      "##才": 6581,
      "##組": 6582,
      "##構": 6583,
      "##起": 6584,
      "##於": 6585,
      "##色": 6586,
      "##消": 6587,
      "##雾": 6588,
      "##散": 6589,
      "##タ": 6590,
      "##ヒ": 6591,
      "##テ": 6592,
      "##オ": 6593,
      "##や": 6594,
      "##ז": 6595,
      "##逆": 6596,
      "##;": 6597,
      "##[": 6598,
      "##&": 6599,
      "##干": 6600,
      "##ǂ": 6601,
      "##產": 6602,
      "##把": 6603,
      "##学": 6604,
      "##习": 6605,
      "##当": 6606,
      "##团": 6607,
      "##体": 6608,
      "##过": 6609,
      "##程": 6610,
      "##去": 6611,
      "##分": 6612,
      "##析": 6613,
      "##面": 6614,
      "##車": 6615,
      "##位": 6616,
      "##過": 6617,
      "##它": 6618,
      "##並": 6619,
      "##存": 6620,
      "##ב": 6621,
      "##ד": 6622,
      "##需": 6623,
      "##声": 6624,
      "##ә": 6625,
      "##も": 6626,
      "##ٱ": 6627,
      "##ø": 6628,
      "##空": 6629,
      "##陰": 6630,
      "##陽": 6631,
      "##說": 6632,
      "##": 6633,
      "##": 6634,
      "##": 6635,
      "##": 6636,
      "##": 6637,
      "##": 6638,
      "##": 6639,
      "##": 6640,
      "##": 6641,
      "##": 6642,
      "##": 6643,
      "##": 6644,
      "##": 6645,
      "##": 6646,
      "##": 6647,
      "##": 6648,
      "##": 6649,
      "##ظ": 6650,
      "##": 6651,
      "##": 6652,
      "##創": 6653,
      "##新": 6654,
      "##也": 6655,
      "##都": 6656,
      "##可": 6657,
      "##以": 6658,
      "##透": 6659,
      "##驗": 6660,
      "##評": 6661,
      "##估": 6662,
      "##似": 6663,
      "##之": 6664,
      "##處": 6665,
      "##無": 6666,
      "##縫": 6667,
      "##": 6668,
      "##": 6669,
      "##旨": 6670,
      "##材": 6671,
      "##生": 6672,
      "##致": 6673,
      "##を": 6674,
      "##決": 6675,
      "##自": 6676,
      "##主": 6677,
      "##開": 6678,
      "##発": 6679,
      "##価": 6680,
      "##গ": 6681,
      "##海": 6682,
      "##大": 6683,
      "##虎": 6684,
      "##鱼": 6685,
      "##怜": 6686,
      "##沒": 6687,
      "##擁": 6688,
      "##所": 6689,
      "##了": 6690,
      "##真": 6691,
      "##外": 6692,
      "##家": 6693,
      "##體": 6694,
      "##委": 6695,
      "##碼": 6696,
      "##牌": 6697,
      "##紙": 6698,
      "##件": 6699,
      "##培": 6700,
      "##拉": 6701,
      "##ツ": 6702,
      "##ɛ": 6703,
      "##ˈ": 6704,
      "##ɪ": 6705,
      "##报": 6706,
      "##单": 6707,
      "##ゆ": 6708,
      "##ね": 6709,
      "##ぬ": 6710,
      "##娘": 6711,
      "##拼": 6712,
      "##寫": 6713,
      "##息": 6714,
      "##模": 6715,
      "##怪": 6716,
      "##肉": 6717,
      "##食": 6718,
      "##叔": 6719,
      "##ћ": 6720,
      "##>": 6721,
      "##緣": 6722,
      "##血": 6723,
      "##槍": 6724,
      "##舌": 6725,
      "##劍": 6726,
      "##心": 6727,
      "##很": 6728,
      "##高": 6729,
      "##興": 6730,
      "##奉": 6731,
      "##醜": 6732,
      "##善": 6733,
      "##え": 6734,
      "##照": 6735,
      "##ק": 6736,
      "##ச": 6737,
      "##識": 6738,
      "##神": 6739,
      "##ך": 6740,
      "##堅": 6741,
      "##場": 6742,
      "##呢": 6743,
      "##礎": 6744,
      "##浪": 6745,
      "##費": 6746,
      "##間": 6747,
      "##擔": 6748,
      "##己": 6749,
      "##計": 6750,
      "##劃": 6751,
      "##घ": 6752,
      "##ক": 6753,
      "##惡": 6754,
      "##煎": 6755,
      "##ভ": 6756,
      "##火": 6757,
      "##<": 6758,
      "##צ": 6759,
      "##ল": 6760,
      "##ছ": 6761,
      "##微": 6762,
      "##知": 6763,
      "##孩": 6764,
      "##子": 6765,
      "##般": 6766,
      "###": 6767,
      "##$": 6768,
      "##班": 6769,
      "##牙": 6770,
      "##金": 6771,
      "##如": 6772,
      "##土": 6773,
      "##ϸ": 6774,
      "##儒": 6775,
      "##義": 6776,
      "##ड": 6777,
      "##µ": 6778,
      "##炒": 6779,
      "##热": 6780,
      "##卖": 6781,
      "##‎": 6782,
      "##波": 6783,
      "##關": 6784,
      "##飞": 6785,
      "##远": 6786,
      "##走": 6787,
      "##绿": 6788,
      "##实": 6789,
      "##門": 6790,
      "##ע": 6791,
      "##别": 6792,
      "##重": 6793,
      "##逢": 6794,
      "##長": 6795,
      "##西": 6796,
      "##頭": 6797,
      "##梗": 6798,
      "##寇": 6799,
      "##年": 6800,
      "##华": 6801,
      "##午": 6802,
      "##后": 6803,
      "##犬": 6804,
      "##জ": 6805,
      "##區": 6806,
      "##電": 6807,
      "##本": 6808,
      "##得": 6809,
      "##解": 6810,
      "##答": 6811,
      "##短": 6812,
      "##夜": 6813,
      "##长": 6814,
      "##চ": 6815,
      "##機": 6816,
      "##學": 6817,
      "##誤": 6818,
      "##兩": 6819,
      "##比": 6820,
      "##較": 6821,
      "##च": 6822,
      "##ە": 6823,
      "##カ": 6824,
      "##ホ": 6825,
      "##非": 6826,
      "##组": 6827,
      "##鐵": 6828,
      "##伯": 6829,
      "##為": 6830,
      "##源": 6831,
      "##功": 6832,
      "##德": 6833,
      "##母": 6834,
      "##|": 6835,
      "##戊": 6836,
      "##胶": 6837,
      "##ぇ": 6838,
      "##餘": 6839,
      "##ञ": 6840,
      "##ト": 6841,
      "##ム": 6842,
      "##树": 6843,
      "##木": 6844,
      "##象": 6845,
      "##墨": 6846,
      "##彩": 6847,
      "##•": 6848,
      "##州": 6849,
      "##灣": 6850,
      "##叶": 6851,
      "##障": 6852,
      "##目": 6853,
      "##问": 6854,
      "##奴": 6855,
      "##ঙ": 6856,
      "##": 6857,
      "##时": 6858,
      "##半": 6859,
      "##晌": 6860,
      "##收": 6861,
      "##其": 6862,
      "##應": 6863,
      "##७": 6864,
      "##溺": 6865,
      "##謙": 6866,
      "##遜": 6867,
      "##途": 6868,
      "##汽": 6869,
      "##车": 6870,
      "##万": 6871,
      "##難": 6872,
      "##船": 6873,
      "##ठ": 6874,
      "##匐": 6875,
      "##茎": 6876,
      "##へ": 6877,
      "##ঞ": 6878,
      "##メ": 6879,
      "##韜": 6880,
      "##玉": 6881,
      "##荷": 6882,
      "##蘭": 6883,
      "##হ": 6884,
      "##": 6885,
      "##国": 6886,
      "##校": 6887,
      "##英": 6888,
      "##勉": 6889,
      "##料": 6890,
      "##住": 6891,
      "##宅": 6892,
      "##胜": 6893,
      "##书": 6894,
      "##台": 6895,
      "##刊": 6896,
      "##►": 6897,
      "##八": 6898,
      "##变": 6899,
      "##ψ": 6900,
      "##則": 6901,
      "##兄": 6902,
      "##层": 6903,
      "##间": 6904,
      "##想": 6905,
      "##懷": 6906,
      "##林": 6907,
      "##匹": 6908,
      "##克": 6909,
      "##运": 6910,
      "##动": 6911,
      "##会": 6912,
      "##并": 6913,
      "##没": 6914,
      "##明": 6915,
      "##确": 6916,
      "##结": 6917,
      "##论": 6918,
      "##′": 6919,
      "##只": 6920,
      "##向": 6921,
      "##降": 6922,
      "##服": 6923,
      "##步": 6924,
      "##讀": 6925,
      "##者": 6926,
      "##發": 6927,
      "##現": 6928,
      "##對": 6929,
      "##叛": 6930,
      "##亂": 6931,
      "##倍": 6932,
      "##晉": 6933,
      "##三": 6934,
      "##খ": 6935,
      "##স": 6936,
      "##殼": 6937,
      "##福": 6938,
      "##層": 6939,
      "##字": 6940,
      "##領": 6941,
      "##袖": 6942,
      "##從": 6943,
      "##羊": 6944,
      "##群": 6945,
      "##隱": 6946,
      "##跌": 6947,
      "##倒": 6948,
      "##→": 6949,
      "##五": 6950,
      "##類": 6951,
      "##{": 6952,
      "##謝": 6953,
      "##閃": 6954,
      "##耀": 6955,
      "##公": 6956,
      "##小": 6957,
      "##瞬": 6958,
      "##吹": 6959,
      "##災": 6960,
      "##ढ": 6961,
      "##计": 6962,
      "##~": 6963,
      "##ख": 6964,
      "##鄉": 6965,
      "##眼": 6966,
      "##祝": 6967,
      "##悲": 6968,
      "##卑": 6969,
      "##華": 6970,
      "##һ": 6971,
      "##利": 6972,
      "##萬": 6973,
      "##‐": 6974,
      "##燈": 6975,
      "##戰": 6976,
      "##常": 6977,
      "##具": 6978,
      "##零": 6979,
      "##互": 6980,
      "##仔": 6981,
      "##细": 6982,
      "##观": 6983,
      "##察": 6984,
      "##况": 6985,
      "##构": 6986,
      "##而": 6987,
      "##仅": 6988,
      "##算": 6989,
      "##累": 6990,
      "##加": 6991,
      "##为": 6992,
      "##类": 6993,
      "##ј": 6994,
      "##拯": 6995,
      "##救": 6996,
      "##習": 6997,
      "##任": 6998,
      "##梦": 6999,
      "##聖": 7000,
      "##潔": 7001,
      "##前": 7002,
      "##承": 7003,
      "##প": 7004,
      "##業": 7005,
      "##活": 7006,
      "##置": 7007,
      "##導": 7008,
      "##働": 7009,
      "##イ": 7010,
      "##ィ": 7011,
      "##ロ": 7012,
      "##シ": 7013,
      "##ェ": 7014,
      "##让": 7015,
      "##参": 7016,
      "##与": 7017,
      "##无": 7018,
      "##从": 7019,
      "##握": 7020,
      "##发": 7021,
      "##遠": 7022,
      "##再": 7023,
      "##覆": 7024,
      "##蓋": 7025,
      "##切": 7026,
      "##罪": 7027,
      "##身": 7028,
      "##像": 7029,
      "##告": 7030,
      "##女": 7031,
      "##剂": 7032,
      "##曹": 7033,
      "##太": 7034,
      "##控": 7035,
      "##清": 7036,
      "##山": 7037,
      "##८": 7038,
      "##佛": 7039,
      "##龍": 7040,
      "##態": 7041,
      "##泥": 7042,
      "##鸿": 7043,
      "##爪": 7044,
      "##容": 7045,
      "##辞": 7046,
      "##房": 7047,
      "##廳": 7048,
      "##思": 7049,
      "##千": 7050,
      "##چ": 7051,
      "##岩": 7052,
      "##預": 7053,
      "##言": 7054,
      "##ई": 7055,
      "##đ": 7056,
      "##ﺮ": 7057,
      "##ﻳ": 7058,
      "##ﺪ": 7059,
      "##今": 7060,
      "##誰": 7061,
      "##悪": 7062,
      "##阳": 7063,
      "##往": 7064,
      "##コ": 7065,
      "##認": 7066,
      "##種": 7067,
      "##聊": 7068,
      "##反": 7069,
      "##১": 7070,
      "##月": 7071,
      "##手": 7072,
      "##昼": 7073,
      "##卜": 7074,
      "##近": 7075,
      "##蔓": 7076,
      "##旁": 7077,
      "##傢": 7078,
      "##俱": 7079,
      "##養": 7080,
      "##氣": 7081,
      "##洋": 7082,
      "##打": 7083,
      "##繼": 7084,
      "##續": 7085,
      "##蒙": 7086,
      "##蔽": 7087,
      "##崗": 7088,
      "##部": 7089,
      "##飲": 7090,
      "##暴": 7091,
      "##丁": 7092,
      "##方": 7093,
      "##来": 7094,
      "##编": 7095,
      "##语": 7096,
      "##": 7097,
      "##": 7098,
      "##": 7099,
      "##": 7100,
      "##": 7101,
      "##": 7102,
      "##": 7103,
      "##": 7104,
      "##": 7105,
      "##": 7106,
      "##": 7107,
      "##": 7108,
      "##覺": 7109,
      "##悟": 7110,
      "##现": 7111,
      "##哲": 7112,
      "##戲": 7113,
      "##買": 7114,
      "##田": 7115,
      "##麼": 7116,
      "##产": 7117,
      "##对": 7118,
      "##这": 7119,
      "##个": 7120,
      "##概": 7121,
      "##念": 7122,
      "##宏": 7123,
      "##调": 7124,
      "##整": 7125,
      "##曰": 7126,
      "##东": 7127,
      "##免": 7128,
      "##禮": 7129,
      "##物": 7130,
      "##國": 7131,
      "##ᅪ": 7132,
      "##ᆫ": 7133,
      "##ᄋ": 7134,
      "##ᅧ": 7135,
      "##ᆼ": 7136,
      "##ᄒ": 7137,
      "##ᅡ": 7138,
      "##ᆸ": 7139,
      "##ᄂ": 7140,
      "##ᅵ": 7141,
      "##ᄃ": 7142,
      "##聲": 7143,
      "##寶": 7144,
      "##ড": 7145,
      "##洞": 7146,
      "##感": 7147,
      "##驚": 7148,
      "##訝": 7149,
      "##找": 7150,
      "##錢": 7151,
      "##注": 7152,
      "##平": 7153,
      "##便": 7154,
      "##師": 7155,
      "##媒": 7156,
      "##進": 7157,
      "##討": 7158,
      "##論": 7159,
      "##员": 7160,
      "##制": 7161,
      "##若": 7162,
      "##量": 7163,
      "##先": 7164,
      "##™": 7165,
      "##團": 7166,
      "##எ": 7167,
      "##滿": 7168,
      "##油": 7169,
      "##烟": 7170,
      "##草": 7171,
      "##凶": 7172,
      "##உ": 7173,
      "##»": 7174,
      "##۳": 7175,
      "##۷": 7176,
      "##爭": 7177,
      "##奪": 7178,
      "##ԛ": 7179,
      "##何": 7180,
      "##或": 7181,
      "##诸": 7182,
      "##チ": 7183,
      "##寬": 7184,
      "##內": 7185,
      "##忌": 7186,
      "##۱": 7187,
      "##۹": 7188,
      "##۵": 7189,
      "##ハ": 7190,
      "##仍": 7191,
      "##然": 7192,
      "##等": 7193,
      "##待": 7194,
      "##兒": 7195,
      "##亡": 7196,
      "##古": 7197,
      "##青": 7198,
      "##老": 7199,
      "##师": 7200,
      "##花": 7201,
      "##均": 7202,
      "##精": 7203,
      "##课": 7204,
      "##通": 7205,
      "##于": 7206,
      "##求": 7207,
      "##周": 7208,
      "##圍": 7209,
      "##欲": 7210,
      "##失": 7211,
      "##œ": 7212,
      "##壽": 7213,
      "##雪": 7214,
      "##۲": 7215,
      "##駁": 7216,
      "##提": 7217,
      "##俭": 7218,
      "##由": 7219,
      "##就": 7220,
      "##止": 7221,
      "##境": 7222,
      "##市": 7223,
      "##交": 7224,
      "##谈": 7225,
      "##录": 7226,
      "##视": 7227,
      "##查": 7228,
      "##پ": 7229,
      "##ﺑ": 7230,
      "##ﻮ": 7231,
      "##貴": 7232,
      "##馬": 7233,
      "##座": 7234,
      "##喝": 7235,
      "##弄": 7236,
      "##述": 7237,
      "##數": 7238,
      "##荣": 7239,
      "##速": 7240,
      "##徳": 7241,
      "##ﺒ": 7242,
      "##ﻴ": 7243,
      "##ﺖ": 7244,
      "##至": 7245,
      "##光": 7246,
      "##ﻄ": 7247,
      "##ﻓ": 7248,
      "##ﺎ": 7249,
      "##ﻧ": 7250,
      "##ﻪ": 7251,
      "##紀": 7252,
      "##律": 7253,
      "##星": 7254,
      "##墓": 7255,
      "##鞭": 7256,
      "##屍": 7257,
      "##隆": 7258,
      "##幸": 7259,
      "##ッ": 7260,
      "##渠": 7261,
      "##基": 7262,
      "##督": 7263,
      "##帶": 7264,
      "##獸": 7265,
      "##击": 7266,
      "##史": 7267,
      "##百": 7268,
      "##十": 7269,
      "##架": 7270,
      "##犧": 7271,
      "##牲": 7272,
      "##®": 7273,
      "##豆": 7274,
      "##ஒ": 7275,
      "##臺": 7276,
      "##际": 7277,
      "##种": 7278,
      "##建": 7279,
      "##ミ": 7280,
      "##ュ": 7281,
      "##ニ": 7282,
      "##ケ": 7283,
      "##ョ": 7284,
      "##蘇": 7285,
      "##珊": 7286,
      "##姐": 7287,
      "##指": 7288,
      "##運": 7289,
      "##争": 7290,
      "##ヘ": 7291,
      "##爾": 7292,
      "##哈": 7293,
      "##赤": 7294,
      "##ও": 7295,
      "##份": 7296,
      "##儿": 7297,
      "##兹": 7298,
      "##追": 7299,
      "##果": 7300,
      "##拒": 7301,
      "##絕": 7302,
      "##供": 7303,
      "##米": 7304,
      "##騙": 7305,
      "##井": 7306,
      "##准": 7307,
      "##": 7308,
      "##虛": 7309,
      "##樂": 7310,
      "##吉": 7311,
      "##纸": 7312,
      "##薦": 7313,
      "##醒": 7314,
      "##ア": 7315,
      "##効": 7316,
      "##乖": 7317,
      "##使": 7318,
      "##机": 7319,
      "##既": 7320,
      "##−": 7321,
      "##枪": 7322,
      "##那": 7323,
      "##因": 7324,
      "##留": 7325,
      "##楽": 7326,
      "##用": 7327,
      "##視": 7328,
      "##畫": 7329,
      "##變": 7330,
      "##电": 7331,
      "##«": 7332,
      "##調": 7333,
      "##≥": 7334,
      "##六": 7335,
      "##६": 7336,
      "##衣": 7337,
      "##盼": 7338,
      "##親": 7339,
      "##密": 7340,
      "##ঠ": 7341,
      "##ァ": 7342,
      "##點": 7343,
      "##キ": 7344,
      "##费": 7345,
      "##唇": 7346,
      "##併": 7347,
      "##ঝ": 7348,
      "##云": 7349,
      "##吐": 7350,
      "##灵": 7351,
      "##导": 7352,
      "##秋": 7353,
      "##援": 7354,
      "##距": 7355,
      "##政": 7356,
      "##府": 7357,
      "##揀": 7358,
      "##四": 7359,
      "##ᅩ": 7360,
      "##楚": 7361,
      "##久": 7362,
      "##尾": 7363,
      "##இ": 7364,
      "##巴": 7365,
      "##韦": 7366,
      "##饭": 7367,
      "##碗": 7368,
      "##毛": 7369,
      "##纖": 7370,
      "##口": 7371,
      "##疑": 7372,
      "##惑": 7373,
      "##奇": 7374,
      "##ℓ": 7375,
      "##斯": 7376,
      "##影": 7377,
      "##離": 7378,
      "##‹": 7379,
      "##咒": 7380,
      "##篇": 7381,
      "##辰": 7382,
      "##守": 7383,
      "##護": 7384,
      "##純": 7385,
      "##银": 7386,
      "##旗": 7387,
      "##约": 7388,
      "##ए": 7389,
      "##": 7390,
      "##": 7391,
      "##": 7392,
      "##": 7393,
      "##": 7394,
      "##": 7395,
      "##績": 7396,
      "##驕": 7397,
      "##傲": 7398,
      "##檬": 7399,
      "##茶": 7400,
      "##確": 7401,
      "##風": 7402,
      "##投": 7403,
      "##�": 7404,
      "##园": 7405,
      "##甸": 7406,
      "##韻": 7407,
      "##妙": 7408,
      "##深": 7409,
      "##谷": 7410,
      "##響": 7411,
      "##设": 7412,
      "##帽": 7413,
      "##考": 7414,
      "##父": 7415,
      "##原": 7416,
      "##諒": 7417,
      "##甲": 7418,
      "##ʃ": 7419,
      "##ஃ": 7420,
      "##專": 7421,
      "##魯": 7422,
      "##士": 7423,
      "##务": 7424,
      "##集": 7425,
      "##ﺤ": 7426,
      "##ﻛ": 7427,
      "##ﻢ": 7428,
      "##示": 7429,
      "##؟": 7430,
      "##水": 7431,
      "##倾": 7432,
      "##関": 7433,
      "##質": 7434,
      "##問": 7435,
      "##査": 7436,
      "##収": 7437,
      "##放": 7438,
      "##ɔ": 7439,
      "##給": 7440,
      "##靜": 7441,
      "##敵": 7442,
      "##隨": 7443,
      "##举": 7444,
      "##錯": 7445,
      "##ウ": 7446,
      "##禱": 7447,
      "##势": 7448,
      "##七": 7449,
      "##例": 7450,
      "##─": 7451,
      "##城": 7452,
      "##鎮": 7453,
      "##网": 7454,
      "##捕": 7455,
      "##风": 7456,
      "##尋": 7457,
      "##案": 7458,
      "##丝": 7459,
      "##別": 7460,
      "##受": 7461,
      "##僕": 7462,
      "##渴": 7463,
      "##坪": 7464,
      "##罗": 7465,
      "##借": 7466,
      "##头": 7467,
      "##状": 7468,
      "##腺": 7469,
      "##亢": 7470,
      "##进": 7471,
      "##০": 7472,
      "##里": 7473,
      "##内": 7474,
      "##飛": 7475,
      "##友": 7476,
      "##絲": 7477,
      "##笔": 7478,
      "##摩": 7479,
      "##亞": 7480,
      "##セ": 7481,
      "##担": 7482,
      "##嶺": 7483,
      "##凱": 7484,
      "##輕": 7485,
      "##浮": 7486,
      "##東": 7487,
      "##章": 7488,
      "##味": 7489,
      "##彌": 7490,
      "##漫": 7491,
      "##挽": 7492,
      "##回": 7493,
      "##熹": 7494,
      "##宗": 7495,
      "##⋯": 7496,
      "##拿": 7497,
      "##巾": 7498,
      "##厚": 7499,
      "##∫": 7500,
      "##杉": 7501,
      "##香": 7502,
      "##乎": 7503,
      "##苛": 7504,
      "##闻": 7505,
      "##遷": 7506,
      "##移": 7507,
      "##¶": 7508,
      "##改": 7509,
      "##図": 7510,
      "##実": 7511,
      "##施": 7512,
      "##江": 7513,
      "##ɡ": 7514,
      "##擊": 7515,
      "##志": 7516,
      "##强": 7517,
      "##剩": 7518,
      "##ھ": 7519,
      "##晴": 7520,
      "##針": 7521,
      "##賦": 7522,
      "##予": 7523,
      "##務": 7524,
      "##ﺴ": 7525,
      "##♥": 7526,
      "##厉": 7527,
      "##荏": 7528,
      "##马": 7529,
      "##妥": 7530,
      "##快": 7531,
      "##希": 7532,
      "##库": 7533,
      "##萨": 7534,
      "##较": 7535,
      "##術": 7536,
      "##展": 7537,
      "##験": 7538,
      "##最": 7539,
      "##低": 7540,
      "##逐": 7541,
      "##探": 7542,
      "##茲": 7543,
      "##席": 7544,
      "##跑": 7545,
      "##顛": 7546,
      "##ネ": 7547,
      "##佳": 7548,
      "##践": 7549,
      "##则": 7550,
      "##综": 7551,
      "##合": 7552,
      "##假": 7553,
      "##造": 7554,
      "##​": 7555,
      "##¿": 7556,
      "##做": 7557,
      "##少": 7558,
      "##≧": 7559,
      "##偉": 7560,
      "##榮": 7561,
      "##廁": 7562,
      "##丹": 7563,
      "##锡": 7564,
      "##廣": 7565,
      "##泛": 7566,
      "##帝": 7567,
      "##祿": 7568,
      "##夫": 7569,
      "##叉": 7570,
      "##戈": 7571,
      "##薩": 7572,
      "##菜": 7573,
      "##栗": 7574,
      "##县": 7575,
      "##輯": 7576,
      "##春": 7577,
      "##條": 7578,
      "##見": 7579,
      "##伐": 7580,
      "##寸": 7581,
      "##粮": 7582,
      "##亲": 7583,
      "##ʻ": 7584,
      "##礼": 7585,
      "##沫": 7586,
      "##沙": 7587,
      "##ʹ": 7588,
      "##足": 7589,
      "##轻": 7590,
      "##থ": 7591,
      "##顾": 7592,
      "##央": 7593,
      "##ǁ": 7594,
      "##३": 7595,
      "##ʿ": 7596,
      "##们": 7597,
      "##特": 7598,
      "##征": 7599,
      "##划": 7600,
      "##君": 7601,
      "##溝": 7602,
      "##ژ": 7603,
      "##標": 7604,
      "##业": 7605,
      "##ओ": 7606,
      "##议": 7607,
      "##样": 7608,
      "##ャ": 7609,
      "##": 7610,
      "##": 7611,
      "##枠": 7612,
      "##鍾": 7613,
      "##恨": 7614,
      "##耽": 7615,
      "##籌": 7616,
      "##即": 7617,
      "##返": 7618,
      "##鬼": 7619,
      "##菇": 7620,
      "##素": 7621,
      "##包": 7622,
      "##冲": 7623,
      "##场": 7624,
      "##命": 7625,
      "##乡": 7626,
      "##單": 7627,
      "##細": 7628,
      "##節": 7629,
      "##喜": 7630,
      "##悅": 7631,
      "##迷": 7632,
      "##嗎": 7633,
      "##歸": 7634,
      "##宿": 7635,
      "##区": 7636,
      "##末": 7637,
      "##遗": 7638,
      "##址": 7639,
      "##ª": 7640,
      "##抵": 7641,
      "##邪": 7642,
      "##球": 7643,
      "##酒": 7644,
      "##歌": 7645,
      "##寢": 7646,
      "##皮": 7647,
      "##請": 7648,
      "##您": 7649,
      "##積": 7650,
      "##防": 7651,
      "##恩": 7652,
      "##室": 7653,
      "##寺": 7654,
      "##堡": 7655,
      "##敝": 7656,
      "##屣": 7657,
      "##冠": 7658,
      "##峰": 7659,
      "##决": 7660,
      "##题": 7661,
      "##识": 7662,
      "##爱": 7663,
      "##徒": 7664,
      "##第": 7665,
      "##譬": 7666,
      "##喻": 7667,
      "##∞": 7668,
      "##落": 7669,
      "##越": 7670,
      "##资": 7671,
      "##愁": 7672,
      "##側": 7673,
      "##节": 7674,
      "##靈": 7675,
      "##魂": 7676,
      "##剧": 7677,
      "##型": 7678,
      "##妻": 7679,
      "##每": 7680,
      "##維": 7681,
      "##耶": 7682,
      "##轉": 7683,
      "##北": 7684,
      "##喚": 7685,
      "##骨": 7686,
      "##雞": 7687,
      "##訓": 7688,
      "##練": 7689,
      "##ਮ": 7690,
      "##議": 7691,
      "##祈": 7692,
      "##评": 7693,
      "##ᅥ": 7694,
      "##ᄅ": 7695,
      "##役": 7696,
      "##壞": 7697,
      "##ৎ": 7698,
      "##伏": 7699,
      "##懺": 7700,
      "##穴": 7701,
      "##雲": 7702,
      "##港": 7703,
      "##睛": 7704,
      "##仁": 7705,
      "##參": 7706,
      "##閱": 7707,
      "##鏈": 7708,
      "##獲": 7709,
      "##舉": 7710,
      "##試": 7711,
      "##虫": 7712,
      "##病": 7713,
      "##洗": 7714,
      "##乾": 7715,
      "##淨": 7716,
      "##左": 7717,
      "##翼": 7718,
      "##联": 7719,
      "##盟": 7720,
      "##元": 7721,
      "##脩": 7722,
      "##紺": 7723,
      "##獵": 7724,
      "##臨": 7725,
      "##晚": 7726,
      "##膏": 7727,
      "##稣": 7728,
      "##怨": 7729,
      "##吃": 7730,
      "##該": 7731,
      "##唯": 7732,
      "##逃": 7733,
      "##祖": 7734,
      "##池": 7735,
      "##讨": 7736,
      "##应": 7737,
      "##寻": 7738,
      "##法": 7739,
      "##系": 7740,
      "##图": 7741,
      "##跟": 7742,
      "##沈": 7743,
      "##经": 7744,
      "##単": 7745,
      "##》": 7746,
      "##柬": 7747,
      "##王": 7748,
      "##妄": 7749,
      "##凡": 7750,
      "##麥": 7751,
      "##《": 7752,
      "##顯": 7753,
      "##傳": 7754,
      "##統": 7755,
      "##固": 7756,
      "##瞻": 7757,
      "##搖": 7758,
      "##墜": 7759,
      "##膩": 7760,
      "##賊": 7761,
      "##吧": 7762,
      "##園": 7763,
      "##夹": 7764,
      "##★": 7765,
      "##幼": 7766,
      "##": 7767,
      "##エ": 7768,
      "##滅": 7769,
      "##廈": 7770,
      "##各": 7771,
      "##২": 7772,
      "##裝": 7773,
      "##显": 7774,
      "##哉": 7775,
      "##苦": 7776,
      "##壯": 7777,
      "##觀": 7778,
      "##巧": 7779,
      "##۰": 7780,
      "##兰": 7781,
      "##芬": 7782,
      "##৭": 7783,
      "##৬": 7784,
      "##‒": 7785,
      "##南": 7786,
      "##邈": 7787,
      "##衝": 7788,
      "##牛": 7789,
      "##带": 7790,
      "##ফ": 7791,
      "##众": 7792,
      "##蟲": 7793,
      "##ﺟ": 7794,
      "##ﻲ": 7795,
      "##着": 7796,
      "##关": 7797,
      "##昏": 7798,
      "##脑": 7799,
      "##几": 7800,
      "##额": 7801,
      "##票": 7802,
      "##亮": 7803,
      "##弓": 7804,
      "##リ": 7805,
      "##∂": 7806,
      "##③": 7807,
      "##简": 7808,
      "##皺": 7809,
      "##叫": 7810,
      "##忠": 7811,
      "##©": 7812,
      "##器": 7813,
      "##९": 7814,
      "##械": 7815,
      "##御": 7816,
      "##丈": 7817,
      "##版": 7818,
      "##誠": 7819,
      "##佈": 7820,
      "##簡": 7821,
      "##寝": 7822,
      "##阴": 7823,
      "##適": 7824,
      "##演": 7825,
      "##智": 7826,
      "##域": 7827,
      "##惠": 7828,
      "##穆": 7829,
      "##话": 7830,
      "##腕": 7831,
      "##治": 7832,
      "##异": 7833,
      "##٢": 7834,
      "##线": 7835,
      "##缺": 7836,
      "##乏": 7837,
      "##么": 7838,
      "##条": 7839,
      "##饒": 7840,
      "##开": 7841,
      "##朗": 7842,
      "##坚": 7843,
      "##仰": 7844,
      "##還": 7845,
      "##享": 7846,
      "##窃": 7847,
      "##眾": 7848,
      "##买": 7849,
      "##流": 7850,
      "##燥": 7851,
      "##फ": 7852,
      "##棋": 7853,
      "##冤": 7854,
      "##錄": 7855,
      "##警": 7856,
      "##窦": 7857,
      "##塗": 7858,
      "##罔": 7859,
      "##聞": 7860,
      "##弼": 7861,
      "##椅": 7862,
      "##修": 7863,
      "##另": 7864,
      "##約": 7865,
      "##略": 7866,
      "##×": 7867,
      "##兵": 7868,
      "##邦": 7869,
      "##慶": 7870,
      "##妖": 7871,
      "##線": 7872,
      "##題": 7873,
      "##趣": 7874,
      "##扔": 7875,
      "##靠": 7876,
      "##陵": 7877,
      "##弱": 7878,
      "##極": 7879,
      "##選": 7880,
      "##擇": 7881,
      "##杯": 7882,
      "##毫": 7883,
      "##ᅢ": 7884,
      "##ᆨ": 7885,
      "##ᄉ": 7886,
      "##ᅳ": 7887,
      "##ਨ": 7888,
      "##晃": 7889,
      "##設": 7890,
      "##日": 7891,
      "##迁": 7892,
      "##倚": 7893,
      "##卷": 7894,
      "##レ": 7895,
      "##菠": 7896,
      "##蘿": 7897,
      "##乱": 7898,
      "##景": 7899,
      "##贵": 7900,
      "##怖": 7901,
      "##號": 7902,
      "##惶": 7903,
      "##喪": 7904,
      "##饮": 7905,
      "##齐": 7906,
      "##際": 7907,
      "##網": 7908,
      "##連": 7909,
      "##結": 7910,
      "##潛": 7911,
      "##黨": 7912,
      "##●": 7913,
      "##ஈ": 7914,
      "##۸": 7915,
      "##۴": 7916,
      "##廢": 7917,
      "##ᆯ": 7918,
      "##ˌ": 7919,
      "##¡": 7920,
      "##瓦": 7921,
      "##氏": 7922,
      "##§": 7923,
      "##认": 7924,
      "##繁": 7925,
      "##许": 7926,
      "##": 7927,
      "##圆": 7928,
      "##萊": 7929,
      "##偽": 7930,
      "##陷": 7931,
      "##": 7932,
      "##": 7933,
      "##欺": 7934,
      "##ף": 7935,
      "##←": 7936,
      "##£": 7937,
      "##迦": 7938,
      "##死": 7939,
      "##页": 7940,
      "##腳": 7941,
      "##ऊ": 7942,
      "##尔": 7943,
      "##盖": 7944,
      "##跨": 7945,
      "##挪": 7946,
      "##鬥": 7947,
      "##权": 7948,
      "##ƒ": 7949,
      "##民": 7950,
      "##党": 7951,
      "##休": 7952,
      "##森": 7953,
      "##娄": 7954,
      "##悔": 7955,
      "##勞": 7956,
      "##ノ": 7957,
      "##京": 7958,
      "##呼": 7959,
      "##€": 7960,
      "##数": 7961,
      "##扫": 7962,
      "##执": 7963,
      "##充": 7964,
      "##犁": 7965,
      "##盡": 7966,
      "##濱": 7967,
      "##纯": 7968,
      "##背": 7969,
      "##": 7970,
      "##片": 7971,
      "##更": 7972,
      "##桥": 7973,
      "##": 7974,
      "##慧": 7975,
      "##蹈": 7976,
      "##寵": 7977,
      "##气": 7978,
      "##‗": 7979,
      "##束": 7980,
      "##核": 7981,
      "##右": 7982,
      "##懂": 7983,
      "##翻": 7984,
      "##怎": 7985,
      "##候": 7986,
      "##噓": 7987,
      "##聿": 7988,
      "##铭": 7989,
      "##易": 7990,
      "##揮": 7991,
      "##搬": 7992,
      "##順": 7993,
      "##呀": 7994,
      "##彝": 7995,
      "##码": 7996,
      "##筑": 7997,
      "##倉": 7998,
      "##頁": 7999,
      "##揭": 8000,
      "##蹴": 8001,
      "##幾": 8002,
      "##緒": 8003,
      "##衫": 8004,
      "##禁": 8005,
      "##々": 8006,
      "##碑": 8007,
      "##旦": 8008,
      "##夕": 8009,
      "##竟": 8010,
      "##肯": 8011,
      "##私": 8012,
      "##威": 8013,
      "##爆": 8014,
      "##竊": 8015,
      "##滬": 8016,
      "##訊": 8017,
      "##漢": 8018,
      "##召": 8019,
      "##岗": 8020,
      "##石": 8021,
      "##差": 8022,
      "##宝": 8023,
      "##嘉": 8024,
      "##吸": 8025,
      "##拔": 8026,
      "##蔑": 8027,
      "##°": 8028,
      "##伦": 8029,
      "##未": 8030,
      "##浦": 8031,
      "##濟": 8032,
      "##衛": 8033,
      "##嘆": 8034,
      "##ﻟ": 8035,
      "##‬": 8036,
      "##稱": 8037,
      "##軟": 8038,
      "##说": 8039,
      "##ᄇ": 8040,
      "##ᅮ": 8041,
      "##颜": 8042,
      "##革": 8043,
      "##引": 8044,
      "##管": 8045,
      "##街": 8046,
      "##慰": 8047,
      "##ワ": 8048,
      "##殆": 8049,
      "##№": 8050,
      "##鞋": 8051,
      "##穿": 8052,
      "##歡": 8053,
      "##慢": 8054,
      "##却": 8055,
      "##枝": 8056,
      "##仆": 8057,
      "##难": 8058,
      "##静": 8059,
      "##岡": 8060,
      "##宣": 8061,
      "##早": 8062,
      "##ɨ": 8063,
      "##☆": 8064,
      "##☞": 8065,
      "##४": 8066,
      "##圣": 8067,
      "##ソ": 8068,
      "##誇": 8069,
      "##遊": 8070,
      "##埔": 8071,
      "##軍": 8072,
      "##ץ": 8073,
      "##": 8074,
      "##虑": 8075,
      "##仕": 8076,
      "##旋": 8077,
      "##余": 8078,
      "##雍": 8079,
      "##壇": 8080,
      "##慮": 8081,
      "##排": 8082,
      "##級": 8083,
      "##¾": 8084,
      "##霄": 8085,
      "##変": 8086,
      "##様": 8087,
      "##ஆ": 8088,
      "##广": 8089,
      "##割": 8090,
      "##歐": 8091,
      "##增": 8092,
      "##昂": 8093,
      "##汉": 8094,
      "##憶": 8095,
      "##刀": 8096,
      "##観": 8097,
      "##৫": 8098,
      "##،": 8099,
      "##满": 8100,
      "##⁷": 8101,
      "##郡": 8102,
      "##鸣": 8103,
      "##ː": 8104,
      "##熱": 8105,
      "##總": 8106,
      "##依": 8107,
      "##賴": 8108,
      "##鵬": 8109,
      "##翅": 8110,
      "##筋": 8111,
      "##射": 8112,
      "##羅": 8113,
      "##店": 8114,
      "##乐": 8115,
      "##奠": 8116,
      "##泡": 8117,
      "##夾": 8118,
      "##モ": 8119,
      "##祂": 8120,
      "##乘": 8121,
      "##省": 8122,
      "##品": 8123,
      "##启": 8124,
      "##阿": 8125,
      "##朝": 8126,
      "##嘛": 8127,
      "##‭": 8128,
      "##紅": 8129,
      "##又": 8130,
      "##腫": 8131,
      "##蚌": 8132,
      "##係": 8133,
      "##ˆ": 8134,
      "##退": 8135,
      "##维": 8136,
      "##營": 8137,
      "##叹": 8138,
      "##愧": 8139,
      "##劣": 8140,
      "##偶": 8141,
      "##占": 8142,
      "##鸡": 8143,
      "##梅": 8144,
      "##竹": 8145,
      "##紋": 8146,
      "##উ": 8147,
      "##底": 8148,
      "##銜": 8149,
      "##枚": 8150,
      "##漱": 8151,
      "##溟": 8152,
      "##劳": 8153,
      "##昔": 8154,
      "##洛": 8155,
      "##": 8156,
      "##採": 8157,
      "##訪": 8158,
      "##尚": 8159,
      "##舊": 8160,
      "##項": 8161,
      "##⻖": 8162,
      "##嘴": 8163,
      "##授": 8164,
      "##映": 8165,
      "##圈": 8166,
      "##咤": 8167,
      "##崽": 8168,
      "##川": 8169,
      "##辯": 8170,
      "##鼻": 8171,
      "##∑": 8172,
      "##ォ": 8173,
      "##衡": 8174,
      "##慘": 8175,
      "##适": 8176,
      "##断": 8177,
      "##杰": 8178,
      "##尺": 8179,
      "##牡": 8180,
      "##黃": 8181,
      "##卯": 8182,
      "##舍": 8183,
      "##响": 8184,
      "##ɑ": 8185,
      "##雨": 8186,
      "##ہ": 8187,
      "##´": 8188,
      "##¨": 8189,
      "##耐": 8190,
      "##測": 8191,
      "##军": 8192,
      "##腥": 8193,
      "##瑪": 8194,
      "##睜": 8195,
      "##呆": 8196,
      "##除": 8197,
      "##游": 8198,
      "##薛": 8199,
      "##※": 8200,
      "##苗": 8201,
      "##称": 8202,
      "##九": 8203,
      "##始": 8204,
      "##冷": 8205,
      "##漠": 8206,
      "##¬": 8207,
      "##迫": 8208,
      "##隷": 8209,
      "##輸": 8210,
      "##送": 8211,
      "##敗": 8212,
      "##ﻤ": 8213,
      "##羲": 8214,
      "##恰": 8215,
      "##ヌ": 8216,
      "##課": 8217,
      "##券": 8218,
      "##急": 8219,
      "##糟": 8220,
      "##糕": 8221,
      "##幣": 8222,
      "##補": 8223,
      "##ਗ": 8224,
      "##ਤ": 8225,
      "##屁": 8226,
      "##莫": 8227,
      "##龙": 8228,
      "##复": 8229,
      "##姓": 8230,
      "##罕": 8231,
      "##掃": 8232,
      "##遞": 8233,
      "##†": 8234,
      "##葬": 8235,
      "##५": 8236,
      "##写": 8237,
      "##句": 8238,
      "##勤": 8239,
      "##邊": 8240,
      "##标": 8241,
      "##河": 8242,
      "##遙": 8243,
      "##霸": 8244,
      "##历": 8245,
      "##忽": 8246,
      "##贼": 8247,
      "##村": 8248,
      "##野": 8249,
      "##岭": 8250,
      "##専": 8251,
      "##憂": 8252,
      "##坦": 8253,
      "##院": 8254,
      "##监": 8255,
      "##斥": 8256,
      "##١": 8257,
      "##衆": 8258,
      "##戒": 8259,
      "##辦": 8260,
      "##禅": 8261,
      "##顆": 8262,
      "##張": 8263,
      "##倫": 8264,
      "##坡": 8265,
      "##次": 8266,
      "##獨": 8267,
      "##孤": 8268,
      "##嗣": 8269,
      "##令": 8270,
      "##企": 8271,
      "##某": 8272,
      "##対": 8273,
      "##ゥ": 8274,
      "##皇": 8275,
      "##島": 8276,
      "##质": 8277,
      "##蜜": 8278,
      "##訣": 8279,
      "##挨": 8280,
      "##户": 8281,
      "##获": 8282,
      "##冰": 8283,
      "##﨔": 8284,
      "##尊": 8285,
      "##敬": 8286,
      "##婚": 8287,
      "##姻": 8288,
      "##‖": 8289,
      "##赛": 8290,
      "##亚": 8291,
      "##括": 8292,
      "##迅": 8293,
      "##曲": 8294,
      "##鸭": 8295,
      "##请": 8296,
      "##琳": 8297,
      "##粹": 8298,
      "##訴": 8299,
      "##番": 8300,
      "##幹": 8301,
      "##ȝ": 8302,
      "##痛": 8303,
      "##巨": 8304,
      "##珥": 8305,
      "##據": 8306,
      "##胡": 8307,
      "##緊": 8308,
      "##含": 8309,
      "##複": 8310,
      "##雜": 8311,
      "##格": 8312,
      "##耗": 8313,
      "##济": 8314,
      "##蛙": 8315,
      "##卿": 8316,
      "##ᄀ": 8317,
      "##圓": 8318,
      "##溜": 8319,
      "##": 8320,
      "##策": 8321,
      "##聯": 8322,
      "##俸": 8323,
      "##辭": 8324,
      "##贊": 8325,
      "##亿": 8326,
      "##謀": 8327,
      "##٣": 8328,
      "##佑": 8329,
      "##忍": 8330,
      "##徵": 8331,
      "##甚": 8332,
      "##夠": 8333,
      "##१": 8334,
      "##肖": 8335,
      "##湯": 8336,
      "##納": 8337,
      "##◄": 8338,
      "##傷": 8339,
      "##秘": 8340,
      "##读": 8341,
      "##妈": 8342,
      "##薬": 8343,
      "##音": 8344,
      "##啤": 8345,
      "##勒": 8346,
      "##湖": 8347,
      "##促": 8348,
      "##索": 8349,
      "##苑": 8350,
      "##铁": 8351,
      "##。": 8352,
      "##犯": 8353,
      "##耳": 8354,
      "##齊": 8355,
      "##塊": 8356,
      "##賢": 8357,
      "##菩": 8358,
      "##妹": 8359,
      "##环": 8360,
      "##乔": 8361,
      "##转": 8362,
      "##麻": 8363,
      "##配": 8364,
      "##環": 8365,
      "##懸": 8366,
      "##髮": 8367,
      "##聳": 8368,
      "##啟": 8369,
      "##夏": 8370,
      "##猪": 8371,
      "##芝": 8372,
      "##值": 8373,
      "##洲": 8374,
      "##詳": 8375,
      "##尽": 8376,
      "##盲": 8377,
      "##纪": 8378,
      "##葉": 8379,
      "##頂": 8380,
      "##玛": 8381,
      "##財": 8382,
      "##♂": 8383,
      "##♣": 8384,
      "##须": 8385,
      "##眉": 8386,
      "##ᄎ": 8387,
      "##煩": 8388,
      "##诺": 8389,
      "##狡": 8390,
      "##詐": 8391,
      "##稅": 8392,
      "##乃": 8393,
      "##托": 8394,
      "##虐": 8395,
      "##戀": 8396,
      "##将": 8397,
      "##终": 8398,
      "##术": 8399,
      "##潜": 8400,
      "##预": 8401,
      "##♪": 8402,
      "##曼": 8403,
      "##肃": 8404,
      "##∆": 8405,
      "##賽": 8406,
      "##ਕ": 8407,
      "##莉": 8408,
      "##ĸ": 8409,
      "##辨": 8410,
      "##商": 8411,
      "##宁": 8412,
      "##钻": 8413,
      "##抓": 8414,
      "##溥": 8415,
      "##魔": 8416,
      "##隊": 8417,
      "##壓": 8418,
      "##ぅ": 8419,
      "##柔": 8420,
      "##¢": 8421,
      "##觸": 8422,
      "##摸": 8423,
      "##统": 8424,
      "##验": 8425,
      "##衍": 8426,
      "##慈": 8427,
      "##登": 8428,
      "##執": 8429,
      "##表": 8430,
      "##眷": 8431,
      "##裡": 8432,
      "##庫": 8433,
      "##稜": 8434,
      "##訶": 8435,
      "##鸟": 8436,
      "##滑": 8437,
      "##﨏": 8438,
      "##殿": 8439,
      "##ﻣ": 8440,
      "##ﻨ": 8441,
      "##囱": 8442,
      "##李": 8443,
      "##卫": 8444,
      "##鮮": 8445,
      "##魚": 8446,
      "##ᆷ": 8447,
      "##ᄌ": 8448,
      "##畏": 8449,
      "##誨": 8450,
      "##蔔": 8451,
      "##郵": 8452,
      "##良": 8453,
      "##苏": 8454,
      "##筆": 8455,
      "##豪": 8456,
      "##愉": 8457,
      "##": 8458,
      "##": 8459,
      "##": 8460,
      "##": 8461,
      "##": 8462,
      "##奈": 8463,
      "##資": 8464,
      "##辱": 8465,
      "##负": 8466,
      "##‑": 8467,
      "##妇": 8468,
      "##粥": 8469,
      "##捨": 8470,
      "##飯": 8471,
      "##貌": 8472,
      "##舒": 8473,
      "##泰": 8474,
      "##轮": 8475,
      "##奂": 8476,
      "##闪": 8477,
      "##": 8478,
      "##遮": 8479,
      "##避": 8480,
      "##恐": 8481,
      "##恥": 8482,
      "##·": 8483,
      "##≤": 8484,
      "##烽": 8485,
      "##屈": 8486,
      "##臂": 8487,
      "##灌": 8488,
      "##丘": 8489,
      "##项": 8490,
      "##效": 8491,
      "##昌": 8492,
      "##软": 8493,
      "##限": 8494,
      "##司": 8495,
      "##輩": 8496,
      "##狀": 8497,
      "##晶": 8498,
      "##談": 8499,
      "##蛋": 8500,
      "##兆": 8501,
      "##猎": 8502,
      "##砂": 8503,
      "##腐": 8504,
      "##渣": 8505,
      "##躬": 8506,
      "##燕": 8507,
      "##¹": 8508,
      "##迪": 8509,
      "##沪": 8510,
      "##桌": 8511,
      "##橫": 8512,
      "##溢": 8513,
      "##碍": 8514,
      "##泽": 8515,
      "##負": 8516,
      "##盛": 8517,
      "##迹": 8518,
      "##处": 8519,
      "##ᄏ": 8520,
      "##梁": 8521,
      "##玩": 8522,
      "##刚": 8523,
      "##怒": 8524,
      "##惕": 8525,
      "##ঘ": 8526,
      "##製": 8527,
      "##翁": 8528,
      "##織": 8529,
      "##規": 8530,
      "##ਰ": 8531,
      "##勿": 8532,
      "##居": 8533,
      "##忘": 8534,
      "##富": 8535,
      "##邓": 8536,
      "##睡": 8537,
      "##✝": 8538,
      "##録": 8539,
      "##厲": 8540,
      "##閒": 8541,
      "##療": 8542,
      "##脫": 8543,
      "##競": 8544,
      "##貲": 8545,
      "##貫": 8546,
      "##勻": 8547,
      "##采": 8548,
      "##捐": 8549,
      "##融": 8550,
      "##祥": 8551,
      "##町": 8552,
      "##肩": 8553,
      "##銷": 8554,
      "##耻": 8555,
      "##彥": 8556,
      "##淖": 8557,
      "##徹": 8558,
      "##试": 8559,
      "##典": 8560,
      "##范": 8561,
      "##檢": 8562,
      "##派": 8563,
      "##镇": 8564,
      "##诗": 8565,
      "##插": 8566,
      "##伍": 8567,
      "##站": 8568,
      "##边": 8569,
      "##膠": 8570,
      "##": 8571,
      "##›": 8572,
      "##稀": 8573,
      "##職": 8574,
      "##員": 8575,
      "##₪": 8576,
      "##紮": 8577,
      "##綱": 8578,
      "##咖": 8579,
      "##啡": 8580,
      "##孔": 8581,
      "##陋": 8582,
      "##晝": 8583,
      "##磁": 8584,
      "##齋": 8585,
      "##啓": 8586,
      "##購": 8587,
      "##勾": 8588,
      "##疫": 8589,
      "##传": 8590,
      "##播": 8591,
      "##给": 8592,
      "##杂": 8593,
      "##詢": 8594,
      "##④": 8595,
      "##、": 8596,
      "##蛇": 8597,
      "##彎": 8598,
      "##█": 8599,
      "##৪": 8600,
      "##襄": 8601,
      "##晋": 8602,
      "##凸": 8603,
      "##宮": 8604,
      "##归": 8605,
      "##领": 8606,
      "##率": 8607,
      "##推": 8608,
      "##祸": 8609,
      "##∧": 8610,
      "##屬": 8611,
      "##亭": 8612,
      "##軌": 8613,
      "##範": 8614,
      "##儀": 8615,
      "##薄": 8616,
      "##責": 8617,
      "##儆": 8618,
      "##两": 8619,
      "##釋": 8620,
      "##旅": 8621,
      "##戴": 8622,
      "##赦": 8623,
      "##彿": 8624,
      "##俄": 8625,
      "##填": 8626,
      "##奧": 8627,
      "##丸": 8628,
      "##珠": 8629,
      "##ナ": 8630,
      "##矢": 8631,
      "##孝": 8632,
      "##仙": 8633,
      "##ﺘ": 8634,
      "##ﻘ": 8635,
      "##郎": 8636,
      "##织": 8637,
      "##农": 8638,
      "##塞": 8639,
      "##雀": 8640,
      "##释": 8641,
      "##⁵": 8642,
      "##遭": 8643,
      "##驟": 8644,
      "##凤": 8645,
      "##輔": 8646,
      "##祭": 8647,
      "##ぃ": 8648,
      "##": 8649,
      "##股": 8650,
      "##抽": 8651,
      "##繹": 8652,
      "##ℏ": 8653,
      "##梵": 8654,
      "##廠": 8655,
      "##¼": 8656,
      "##贈": 8657,
      "##盈": 8658,
      "##怀": 8659,
      "##夢": 8660,
      "##载": 8661,
      "##坊": 8662,
      "##邻": 8663,
      "##戶": 8664,
      "##৮": 8665,
      "##径": 8666,
      "##故": 8667,
      "##猶": 8668,
      "##递": 8669,
      "##曉": 8670,
      "##¸": 8671,
      "##肪": 8672,
      "##呈": 8673,
      "##姆": 8674,
      "##努": 8675,
      "##剖": 8676,
      "##首": 8677,
      "##掌": 8678,
      "##创": 8679,
      "##樹": 8680,
      "##糞": 8681,
      "##綠": 8682,
      "##混": 8683,
      "##ﺳ": 8684,
      "##膽": 8685,
      "##皆": 8686,
      "##΄": 8687,
      "##傾": 8688,
      "##ぁ": 8689,
      "##權": 8690,
      "##奔": 8691,
      "##鏡": 8692,
      "##諾": 8693,
      "##﨟": 8694,
      "##鲜": 8695,
      "##焦": 8696,
      "##刷": 8697,
      "##赋": 8698,
      "##莊": 8699,
      "##嚴": 8700,
      "##绩": 8701,
      "##卓": 8702,
      "##齒": 8703,
      "##喘": 8704,
      "##酬": 8705,
      "##噩": 8706,
      "##藥": 8707,
      "##殘": 8708,
      "##破": 8709,
      "##藝": 8710,
      "##♫": 8711,
      "##嘗": 8712,
      "##聚": 8713,
      "##𝑃": 8714,
      "##鲁": 8715,
      "##湧": 8716,
      "##═": 8717,
      "##粪": 8718,
      "##列": 8719,
      "##熟": 8720,
      "##纳": 8721,
      "##殖": 8722,
      "##雕": 8723,
      "##攜": 8724,
      "##绪": 8725,
      "##态": 8726,
      "##哀": 8727,
      "##叮": 8728,
      "##ɹ": 8729,
      "##惹": 8730,
      "##装": 8731,
      "##潢": 8732,
      "##杀": 8733,
      "##殺": 8734,
      "##烈": 8735,
      "##झ": 8736,
      "##इ": 8737,
      "##渊": 8738,
      "##気": 8739,
      "##敌": 8740,
      "##赴": 8741,
      "##泉": 8742,
      "##延": 8743,
      "##遲": 8744,
      "##˙": 8745,
      "##彈": 8746,
      "##": 8747,
      "##吊": 8748,
      "##歹": 8749,
      "##贖": 8750,
      "##賜": 8751,
      "##縛": 8752,
      "##譽": 8753,
      "##航": 8754,
      "##ħ": 8755,
      "##牽": 8756,
      "##帚": 8757,
      "##鄰": 8758,
      "##遁": 8759,
      "##ヤ": 8760,
      "##扇": 8761,
      "##": 8762,
      "##": 8763,
      "##": 8764,
      "##": 8765,
      "##": 8766,
      "##": 8767,
      "##": 8768,
      "##": 8769,
      "##": 8770,
      "##": 8771,
      "##": 8772,
      "##": 8773,
      "##": 8774,
      "##": 8775,
      "##康": 8776,
      "##復": 8777,
      "##贤": 8778,
      "##□": 8779,
      "##勇": 8780,
      "##弟": 8781,
      "##但": 8782,
      "##迎": 8783,
      "##羔": 8784,
      "##筵": 8785,
      "##吏": 8786,
      "##謊": 8787,
      "##↵": 8788,
      "##卻": 8789,
      "##獻": 8790,
      "##帐": 8791,
      "##諸": 8792,
      "##霎": 8793,
      "##临": 8794,
      "##終": 8795,
      "##植": 8796,
      "##憤": 8797,
      "##榜": 8798,
      "##胆": 8799,
      "##搭": 8800,
      "##羽": 8801,
      "##冊": 8802,
      "##舰": 8803,
      "##队": 8804,
      "##稚": 8805,
      "##寒": 8806,
      "##乳": 8807,
      "##燭": 8808,
      "##↩": 8809,
      "##睦": 8810,
      "##頃": 8811,
      "##娃": 8812,
      "##舞": 8813,
      "##緩": 8814,
      "##媧": 8815,
      "##ٴ": 8816,
      "##坎": 8817,
      "##狗": 8818,
      "##駕": 8819,
      "##龄": 8820,
      "##♦": 8821,
      "##◊": 8822,
      "##―": 8823,
      "##壺": 8824,
      "##醫": 8825,
      "##盘": 8826,
      "##轍": 8827,
      "##頤": 8828,
      "##涵": 8829,
      "##价": 8830,
      "##ﻠ": 8831,
      "##坐": 8832,
      "##嫌": 8833,
      "##莎": 8834,
      "##竅": 8835,
      "##毋": 8836,
      "##忿": 8837,
      "##趕": 8838,
      "##挖": 8839,
      "##躍": 8840,
      "##申": 8841,
      "##±": 8842,
      "##药": 8843,
      "##庙": 8844,
      "##孚": 8845,
      "##孙": 8846,
      "##赫": 8847,
      "##溫": 8848,
      "##臘": 8849,
      "##鎖": 8850,
      "##湾": 8851,
      "##≈": 8852,
      "##璃": 8853,
      "##異": 8854,
      "##夸": 8855,
      "##講": 8856,
      "##停": 8857,
      "##兀": 8858,
      "##鷹": 8859,
      "##硬": 8860,
      "##幗": 8861,
      "##离": 8862,
      "##块": 8863,
      "##⺕": 8864,
      "##专": 8865,
      "##添": 8866,
      "##ᄆ": 8867,
      "##仑": 8868,
      "##升": 8869,
      "##鼠": 8870,
      "##輪": 8871,
      "##极": 8872,
      "##頓": 8873,
      "##抄": 8874,
      "##哪": 8875,
      "##秀": 8876,
      "##雛": 8877,
      "##怕": 8878,
      "##奮": 8879,
      "##莓": 8880,
      "##寿": 8881,
      "##侍": 8882,
      "##仪": 8883,
      "##捉": 8884,
      "##丛": 8885,
      "##敢": 8886,
      "##拓": 8887,
      "##阵": 8888,
      "##朮": 8889,
      "##男": 8890,
      "##サ": 8891,
      "##ஓ": 8892,
      "##嬰": 8893,
      "##睹": 8894,
      "##載": 8895,
      "##描": 8896,
      "##🔥": 8897,
      "##❄": 8898,
      "##旺": 8899,
      "##折": 8900,
      "##冉": 8901,
      "##窗": 8902,
      "##啊": 8903,
      "##瓜": 8904,
      "##医": 8905,
      "##垂": 8906,
      "##超": 8907,
      "##顧": 8908,
      "##臭": 8909,
      "##撲": 8910,
      "##薪": 8911,
      "##恭": 8912,
      "##尹": 8913,
      "##嬌": 8914,
      "##贯": 8915,
      "##珍": 8916,
      "##鞦": 8917,
      "##韆": 8918,
      "##板": 8919,
      "##岛": 8920,
      "##凍": 8921,
      "##偏": 8922,
      "##拳": 8923,
      "##恶": 8924,
      "##曜": 8925,
      "##誘": 8926,
      "##ஊ": 8927,
      "##閣": 8928,
      "##卡": 8929,
      "##激": 8930,
      "##٠": 8931,
      "##职": 8932,
      "##圭": 8933,
      "##倖": 8934,
      "##藏": 8935,
      "##胃": 8936,
      "##絡": 8937,
      "##拆": 8938,
      "##属": 8939,
      "##菌": 8940,
      "##根": 8941,
      "##据": 8942,
      "##错": 8943,
      "##误": 8944,
      "##详": 8945,
      "##०": 8946,
      "##战": 8947,
      "##¤": 8948,
      "##祀": 8949,
      "##卵": 8950,
      "##豐": 8951,
      "##": 8952,
      "##": 8953,
      "##楂": 8954,
      "##博": 8955,
      "##溪": 8956,
      "##柏": 8957,
      "##噎": 8958,
      "##废": 8959,
      "##履": 8960,
      "##缔": 8961,
      "##饑": 8962,
      "##武": 8963,
      "##伊": 8964,
      "##杜": 8965,
      "##毀": 8966,
      "##⅓": 8967,
      "##纏": 8968,
      "##貪": 8969,
      "##頗": 8970,
      "##仇": 8971,
      "##顺": 8972,
      "##眠": 8973,
      "##沃": 8974,
      "##肤": 8975,
      "##浅": 8976,
      "##邀": 8977,
      "##腸": 8978,
      "##斷": 8979,
      "##唱": 8980,
      "##随": 8981,
      "##涼": 8982,
      "##臣": 8983,
      "##誌": 8984,
      "##噴": 8985,
      "##乍": 8986,
      "##捲": 8987,
      "##货": 8988,
      "##稍": 8989,
      "##官": 8990,
      "##普": 8991,
      "##遍": 8992,
      "##慕": 8993,
      "##冗": 8994,
      "##狂": 8995,
      "##惜": 8996,
      "##妓": 8997,
      "##鞅": 8998,
      "##踏": 8999,
      "##禾": 9000,
      "##贝": 9001,
      "##寄": 9002,
      "##❖": 9003,
      "##澤": 9004,
      "##蓮": 9005,
      "##灯": 9006,
      "##綜": 9007,
      "##僚": 9008,
      "##詞": 9009,
      "##彙": 9010,
      "##峽": 9011,
      "##屋": 9012,
      "##琴": 9013,
      "##宜": 9014,
      "##ﻖ": 9015,
      "##∗": 9016,
      "##露": 9017,
      "##床": 9018,
      "##兴": 9019,
      "##両": 9020,
      "##軼": 9021,
      "##紧": 9022,
      "##噹": 9023,
      "##烧": 9024,
      "##売": 9025,
      "##佐": 9026,
      "##煙": 9027,
      "##健": 9028,
      "##宋": 9029,
      "##遺": 9030,
      "##勢": 9031,
      "##懇": 9032,
      "##禪": 9033,
      "##否": 9034,
      "##徑": 9035,
      "##馨": 9036,
      "##弔": 9037,
      "##曆": 9038,
      "##佩": 9039,
      "##肥": 9040,
      "##削": 9041,
      "##严": 9042,
      "##触": 9043,
      "##枯": 9044,
      "##扯": 9045,
      "##枉": 9046,
      "##獅": 9047,
      "##ஸ": 9048,
      "##潟": 9049,
      "##丫": 9050,
      "##😲": 9051,
      "##潮": 9052,
      "##压": 9053,
      "##滋": 9054,
      "##⁶": 9055,
      "##孟": 9056,
      "##囊": 9057,
      "##嚇": 9058,
      "##": 9059,
      "##雌": 9060,
      "##庆": 9061,
      "##症": 9062,
      "##婦": 9063,
      "##萄": 9064,
      "##暫": 9065,
      "##捷": 9066,
      "##寧": 9067,
      "##٦": 9068,
      "##↑": 9069,
      "##↓": 9070,
      "##換": 9071,
      "##虧": 9072,
      "##禄": 9073,
      "##艱": 9074,
      "##😠": 9075,
      "##傘": 9076,
      "##婉": 9077,
      "##烯": 9078,
      "##編": 9079,
      "##乗": 9080,
      "##⁴": 9081,
      "##瘋": 9082,
      "##٭": 9083,
      "##‍": 9084,
      "##穷": 9085,
      "##欖": 9086,
      "##禺": 9087,
      "##巢": 9088,
      "##葷": 9089,
      "##靡": 9090,
      "##÷": 9091,
      "##尿": 9092,
      "##廑": 9093,
      "##荆": 9094,
      "##连": 9095,
      "##附": 9096,
      "##塔": 9097,
      "##閉": 9098,
      "##筹": 9099,
      "##听": 9100,
      "##☺": 9101,
      "##獄": 9102,
      "##汗": 9103,
      "##賀": 9104,
      "##禧": 9105,
      "##塌": 9106,
      "##継": 9107,
      "##続": 9108,
      "##锦": 9109,
      "##符": 9110,
      "##註": 9111,
      "##隸": 9112,
      "##困": 9113,
      "##擾": 9114,
      "##農": 9115,
      "##脈": 9116,
      "##審": 9117,
      "##歧": 9118,
      "##戔": 9119,
      "##艾": 9120,
      "##↔": 9121,
      "##৩": 9122,
      "##替": 9123,
      "##袁": 9124,
      "##ユ": 9125,
      "##雄": 9126,
      "##恕": 9127,
      "##芹": 9128,
      "##壊": 9129,
      "##२": 9130,
      "##違": 9131,
      "##徐": 9132,
      "##妒": 9133,
      "##磐": 9134,
      "##ﻬ": 9135,
      "##雙": 9136,
      "##狐": 9137,
      "##塵": 9138,
      "##臉": 9139,
      "##狹": 9140,
      "##针": 9141,
      "##楓": 9142,
      "##序": 9143,
      "##": 9144,
      "##摘": 9145,
      "##燒": 9146,
      "##隔": 9147,
      "##震": 9148,
      "##児": 9149,
      "##童": 9150,
      "##携": 9151,
      "##词": 9152,
      "##孫": 9153,
      "##穩": 9154,
      "##¦": 9155,
      "##危": 9156,
      "##稟": 9157,
      "##廉": 9158,
      "##⑤": 9159,
      "##孑": 9160,
      "##横": 9161,
      "##礙": 9162,
      "##霧": 9163,
      "##‏": 9164,
      "##詩": 9165,
      "##阻": 9166,
      "##络": 9167,
      "##託": 9168,
      "##曾": 9169,
      "##朵": 9170,
      "##熾": 9171,
      "##況": 9172,
      "##刺": 9173,
      "##训": 9174,
      "##勝": 9175,
      "##款": 9176,
      "##缭": 9177,
      "##粗": 9178,
      "##葵": 9179,
      "##逝": 9180,
      "##": 9181,
      "##।": 9182,
      "##葡": 9183,
      "##酸": 9184,
      "##证": 9185,
      "##窄": 9186,
      "##寂": 9187,
      "##闢": 9188,
      "##粱": 9189,
      "##豎": 9190,
      "##帆": 9191,
      "##橋": 9192,
      "##晏": 9193,
      "##兌": 9194,
      "##穀": 9195,
      "##窮": 9196,
      "##銘": 9197,
      "##愚": 9198,
      "##昧": 9199,
      "##戟": 9200,
      "##株": 9201,
      "##缘": 9202,
      "##糊": 9203,
      "##検": 9204,
      "##醬": 9205,
      "##籽": 9206,
      "##扎": 9207,
      "##繞": 9208,
      "##瞎": 9209,
      "##烏": 9210,
      "##囪": 9211,
      "##覽": 9212,
      "##狭": 9213,
      "##沿": 9214,
      "##襲": 9215,
      "##暖": 9216,
      "##縱": 9217,
      "##幻": 9218,
      "##丰": 9219,
      "##": 9220,
      "##抛": 9221,
      "##蹲": 9222,
      "##秦": 9223,
      "##劇": 9224,
      "##絜": 9225,
      "##糠": 9226,
      "##蝦": 9227,
      "##♠": 9228,
      "##餅": 9229,
      "##柴": 9230,
      "##喬": 9231,
      "##": 9232,
      "##牢": 9233,
      "##招": 9234,
      "##閑": 9235,
      "##憾": 9236,
      "##晗": 9237,
      "##鹽": 9238,
      "##判": 9239,
      "##牵": 9240,
      "##憎": 9241,
      "##掉": 9242,
      "##皿": 9243,
      "##辅": 9244,
      "##貨": 9245,
      "##黄": 9246,
      "##膀": 9247,
      "##檯": 9248,
      "##汁": 9249,
      "##": 9250,
      "##": 9251,
      "##": 9252,
      "##": 9253,
      "##": 9254,
      "##函": 9255,
      "##恢": 9256,
      "##耕": 9257,
      "##˗": 9258,
      "##۶": 9259,
      "##嘱": 9260,
      "##☼": 9261,
      "##够": 9262,
      "##榭": 9263,
      "##跳": 9264,
      "##週": 9265,
      "##测": 9266,
      "##规": 9267,
      "##奶": 9268,
      "##籍": 9269,
      "##扩": 9270,
      "##旧": 9271,
      "##帖": 9272,
      "##操": 9273,
      "##": 9274,
      "##拙": 9275,
      "##⁹": 9276,
      "##籠": 9277,
      "##撫": 9278,
      "##屎": 9279,
      "##餓": 9280,
      "##躲": 9281,
      "##温": 9282,
      "##廟": 9283,
      "##陸": 9284,
      "##◆": 9285,
      "##潘": 9286,
      "##旄": 9287,
      "##孜": 9288,
      "##麵": 9289,
      "##违": 9290,
      "##贺": 9291,
      "##吵": 9292,
      "##嚼": 9293,
      "##蠟": 9294,
      "##": 9295,
      "##宰": 9296,
      "##賣": 9297,
      "##ʾ": 9298,
      "##按": 9299,
      "##焰": 9300,
      "##菊": 9301,
      "##उ": 9302,
      "##伙": 9303,
      "##埃": 9304,
      "##豬": 9305,
      "##厂": 9306,
      "##丽": 9307,
      "##拭": 9308,
      "##吾": 9309,
      "##畜": 9310,
      "##批": 9311,
      "##": 9312,
      "##顏": 9313,
      "##还": 9314,
      "##允": 9315,
      "##弊": 9316,
      "##敏": 9317,
      "##张": 9318,
      "##弹": 9319,
      "##寐": 9320,
      "##翰": 9321,
      "##蝠": 9322,
      "##齡": 9323,
      "##审": 9324,
      "##扳": 9325,
      "##潤": 9326,
      "##积": 9327,
      "##峻": 9328,
      "##煮": 9329,
      "##昨": 9330,
      "##朴": 9331,
      "##仓": 9332,
      "##幕": 9333,
      "##漲": 9334,
      "##縮": 9335,
      "##浴": 9336,
      "##婁": 9337,
      "##崖": 9338,
      "##松": 9339,
      "##羡": 9340,
      "##儉": 9341,
      "##盧": 9342,
      "##ஐ": 9343,
      "##猫": 9344,
      "##♀": 9345,
      "##画": 9346,
      "##「": 9347,
      "##": 9348,
      "##産": 9349,
      "##扑": 9350,
      "##優": 9351,
      "##攸": 9352,
      "##丑": 9353,
      "##蜀": 9354,
      "##₤": 9355,
      "##号": 9356,
      "##῾": 9357,
      "##": 9358,
      "##": 9359,
      "##封": 9360,
      "##讚": 9361,
      "##沟": 9362,
      "##炎": 9363,
      "##鏵": 9364,
      "##毎": 9365,
      "##晩": 9366,
      "##局": 9367,
      "##级": 9368,
      "##掩": 9369,
      "##甘": 9370,
      "##遇": 9371,
      "##箱": 9372,
      "##砚": 9373,
      "##鑾": 9374,
      "##軛": 9375,
      "##穎": 9376,
      "##閼": 9377,
      "##爵": 9378,
      "##默": 9379,
      "##鱗": 9380,
      "##殊": 9381,
      "##涯": 9382,
      "##扶": 9383,
      "##拷": 9384,
      "##掙": 9385,
      "##≡": 9386,
      "##趙": 9387,
      "##漏": 9388,
      "##颱": 9389,
      "##嶴": 9390,
      "##আ": 9391,
      "##説": 9392,
      "##宵": 9393,
      "##粒": 9394,
      "##凋": 9395,
      "##胞": 9396,
      "##貞": 9397,
      "##綁": 9398,
      "##ɣ": 9399,
      "##伟": 9400,
      "##备": 9401,
      "##㇂": 9402,
      "##貓": 9403,
      "##玷": 9404,
      "##汙": 9405,
      "##暮": 9406,
      "##棄": 9407,
      "##ぉ": 9408,
      "##○": 9409,
      "##損": 9410,
      "##撐": 9411,
      "##壁": 9412,
      "##蕭": 9413,
      "##謂": 9414,
      "##鑰": 9415,
      "##匙": 9416,
      "##侯": 9417,
      "##菲": 9418,
      "##瑞": 9419,
      "##撒": 9420,
      "##冈": 9421,
      "##笑": 9422,
      "##鬚": 9423,
      "##堯": 9424,
      "##": 9425,
      "##館": 9426,
      "##箭": 9427,
      "##亥": 9428,
      "##屢": 9429,
      "##৯": 9430,
      "##攤": 9431,
      "##糧": 9432,
      "##√": 9433,
      "##患": 9434,
      "##": 9435,
      "##¥": 9436,
      "##⻏": 9437,
      "##滌": 9438,
      "##嬉": 9439,
      "##擒": 9440,
      "##振": 9441,
      "##漿": 9442,
      "##峡": 9443,
      "##嘲": 9444,
      "##": 9445,
      "##㇀": 9446,
      "##夷": 9447,
      "##٧": 9448,
      "##ਉ": 9449,
      "##ſ": 9450,
      "##踵": 9451,
      "##奸": 9452,
      "##経": 9453,
      "##闲": 9454,
      "##夔": 9455,
      "##瞭": 9456,
      "##饋": 9457,
      "##築": 9458,
      "##徽": 9459,
      "##诀": 9460,
      "##毒": 9461,
      "##稼": 9462,
      "##✓": 9463,
      "##錶": 9464,
      "##尧": 9465,
      "##荊": 9466,
      "##險": 9467,
      "##娶": 9468,
      "##罷": 9469,
      "##壩": 9470,
      "##爸": 9471,
      "##套": 9472,
      "##浩": 9473,
      "##٥": 9474,
      "##憐": 9475,
      "##″": 9476,
      "##励": 9477,
      "##岸": 9478,
      "##吕": 9479,
      "##矛": 9480,
      "##献": 9481,
      "##熏": 9482,
      "##燎": 9483,
      "##⊢": 9484,
      "##輝": 9485,
      "##煌": 9486,
      "##飄": 9487,
      "##刃": 9488,
      "##酋": 9489,
      "##監": 9490,
      "##僅": 9491,
      "##۔": 9492,
      "##": 9493,
      "##楠": 9494,
      "##麟": 9495,
      "##龜": 9496,
      "##漸": 9497,
      "##豫": 9498,
      "##鋪": 9499,
      "##闊": 9500,
      "##豸": 9501,
      "##凯": 9502,
      "##齿": 9503,
      "##˂": 9504,
      "##増": 9505,
      "##沖": 9506,
      "##撞": 9507,
      "##✽": 9508,
      "##突": 9509,
      "##曬": 9510,
      "##渗": 9511,
      "##选": 9512,
      "##☯": 9513,
      "##艦": 9514,
      "##瑕": 9515,
      "##疵": 9516,
      "##猴": 9517,
      "##咨": 9518,
      "##汤": 9519,
      "##郭": 9520,
      "##楞": 9521,
      "##琉": 9522,
      "##伴": 9523,
      "##耙": 9524,
      "##刁": 9525,
      "##蘖": 9526,
      "##孽": 9527,
      "##逼": 9528,
      "##拠": 9529,
      "##ɸ": 9530,
      "##‡": 9531,
      "##惩": 9532,
      "##ஏ": 9533,
      "##陀": 9534,
      "##妝": 9535,
      "##愈": 9536,
      "##淡": 9537,
      "##端": 9538,
      "##舟": 9539,
      "##籬": 9540,
      "##污": 9541,
      "##穢": 9542,
      "##黎": 9543,
      "##噪": 9544,
      "##傻": 9545,
      "##益": 9546,
      "##³": 9547,
      "##魁": 9548,
      "##禍": 9549,
      "##擬": 9550,
      "##帮": 9551,
      "##": 9552,
      "##彬": 9553,
      "##抑": 9554,
      "##裂": 9555,
      "##彦": 9556,
      "##箔": 9557,
      "##ڿ": 9558,
      "##坑": 9559,
      "##瑣": 9560,
      "##碎": 9561,
      "##凌": 9562,
      "##幫": 9563,
      "##惊": 9564,
      "##鍋": 9565,
      "##״": 9566,
      "##竿": 9567,
      "##炉": 9568,
      "##哥": 9569,
      "##藩": 9570,
      "##応": 9571,
      "##赵": 9572,
      "##虚": 9573,
      "##甯": 9574,
      "##撰": 9575,
      "##僻": 9576,
      "##贞": 9577,
      "##芳": 9578,
      "##": 9579,
      "##繃": 9580,
      "##副": 9581,
      "##廊": 9582,
      "##哭": 9583,
      "##鹿": 9584,
      "##朋": 9585,
      "##喀": 9586,
      "##抹": 9587,
      "##柱": 9588,
      "##飢": 9589,
      "##牧": 9590,
      "##減": 9591,
      "##褐": 9592,
      "##桑": 9593,
      "##謹": 9594,
      "##客": 9595,
      "##洱": 9596,
      "##鞍": 9597,
      "##驁": 9598,
      "##柯": 9599,
      "##屄": 9600,
      "##膜": 9601,
      "##歲": 9602,
      "##阁": 9603,
      "##臼": 9604,
      "##庭": 9605,
      "##翟": 9606,
      "##租": 9607,
      "##˚": 9608,
      "##陪": 9609,
      "##磨": 9610,
      "##鄂": 9611,
      "##肅": 9612,
      "##崛": 9613,
      "##津": 9614,
      "##恋": 9615,
      "##畑": 9616,
      "##稙": 9617,
      "##締": 9618,
      "##斧": 9619,
      "##荒": 9620,
      "##唐": 9621,
      "##棒": 9622,
      "##ஜ": 9623,
      "##⁰": 9624,
      "##腑": 9625,
      "##毕": 9626,
      "##帯": 9627,
      "##崩": 9628,
      "##潰": 9629,
      "##罰": 9630,
      "##诚": 9631,
      "##稿": 9632,
      "##躺": 9633,
      "##आ": 9634,
      "##摟": 9635,
      "##剌": 9636,
      "##₂": 9637,
      "##燃": 9638,
      "##廚": 9639,
      "##輒": 9640,
      "##鳴": 9641,
      "##嵌": 9642,
      "##藜": 9643,
      "##楼": 9644,
      "##雅": 9645,
      "##宛": 9646,
      "##鵝": 9647,
      "##暉": 9648,
      "##禹": 9649,
      "##伤": 9650,
      "##涂": 9651,
      "##庸": 9652,
      "##弗": 9653,
      "##絨": 9654,
      "##觉": 9655,
      "##戛": 9656,
      "##": 9657,
      "##刑": 9658,
      "##欧": 9659,
      "##繚": 9660,
      "##樓": 9661,
      "##滸": 9662,
      "##♛": 9663,
      "##吻": 9664,
      "##竇": 9665,
      "##杨": 9666,
      "##脂": 9667,
      "##脚": 9668,
      "##滴": 9669,
      "##踪": 9670,
      "##褲": 9671,
      "##⋄": 9672,
      "##涉": 9673,
      "##⺊": 9674,
      "##泳": 9675,
      "##秩": 9676,
      "##帘": 9677,
      "##颐": 9678,
      "##祠": 9679,
      "##撤": 9680,
      "##韋": 9681,
      "##桃": 9682,
      "##鴿": 9683,
      "##揉": 9684,
      "##骑": 9685,
      "##②": 9686,
      "##烤": 9687,
      "##扣": 9688,
      "##懲": 9689,
      "##挑": 9690,
      "##☹": 9691,
      "##⑥": 9692,
      "##崇": 9693,
      "##噌": 9694,
      "##⺍": 9695,
      "##磲": 9696,
      "##爛": 9697,
      "##讲": 9698,
      "##詛": 9699,
      "##✅": 9700,
      "##蛆": 9701,
      "##屯": 9702,
      "##肋": 9703,
      "##蛮": 9704,
      "##润": 9705,
      "##蠹": 9706,
      "##纲": 9707,
      "##卉": 9708,
      "##剛": 9709,
      "##欠": 9710,
      "##弦": 9711,
      "##¯": 9712,
      "##瞌": 9713,
      "##鉄": 9714,
      "##⁠": 9715,
      "##扁": 9716,
      "##访": 9717,
      "##鬆": 9718,
      "##侧": 9719,
      "##喷": 9720,
      "##奎": 9721,
      "##訳": 9722,
      "##肚": 9723,
      "##藍": 9724,
      "##爬": 9725,
      "##寡": 9726,
      "##荼": 9727,
      "##糾": 9728,
      "##紛": 9729,
      "##攻": 9730,
      "##芥": 9731,
      "##鑛": 9732,
      "##肝": 9733,
      "##": 9734,
      "##藉": 9735,
      "##旉": 9736,
      "##垢": 9737,
      "##濁": 9738,
      "##粉": 9739,
      "##膝": 9740,
      "##鐘": 9741,
      "##换": 9742,
      "##搜": 9743,
      "##": 9744,
      "##殻": 9745,
      "##措": 9746,
      "##訂": 9747,
      "##狼": 9748,
      "##▼": 9749,
      "##紹": 9750,
      "##侗": 9751,
      "##鴨": 9752,
      "##⋆": 9753,
      "##雑": 9754,
      "##鶴": 9755,
      "##吋": 9756,
      "##泣": 9757,
      "##亨": 9758,
      "##曄": 9759,
      "##獎": 9760,
      "##釀": 9761,
      "##桂": 9762,
      "##办": 9763,
      "##染": 9764,
      "##■": 9765,
      "##幟": 9766,
      "##档": 9767,
      "##": 9768,
      "##茂": 9769,
      "##奚": 9770,
      "##札": 9771,
      "##遂": 9772,
      "##ਪ": 9773,
      "##ਸ": 9774,
      "##読": 9775,
      "##梨": 9776,
      "##酥": 9777,
      "##魏": 9778,
      "##欢": 9779,
      "##銀": 9780,
      "##˃": 9781,
      "##渉": 9782,
      "##渡": 9783,
      "##覲": 9784,
      "##傅": 9785,
      "##岱": 9786,
      "##閨": 9787,
      "##乌": 9788,
      "##敦": 9789,
      "##鴻": 9790,
      "##咋": 9791,
      "##羨": 9792,
      "##劫": 9793,
      "##鳳": 9794,
      "##煥": 9795,
      "##磯": 9796,
      "##慨": 9797,
      "##甜": 9798,
      "##澆": 9799,
      "##腰": 9800,
      "##♡": 9801,
      "##尉": 9802,
      "##ﺣ": 9803,
      "##奐": 9804,
      "##╦": 9805,
      "##淳": 9806,
      "##阜": 9807,
      "##竞": 9808,
      "##溶": 9809,
      "##莱": 9810,
      "##拈": 9811,
      "##遥": 9812,
      "##鍬": 9813,
      "##藤": 9814,
      "##鈎": 9815,
      "##鑒": 9816,
      "##壮": 9817,
      "##漳": 9818,
      "##奥": 9819,
      "##庄": 9820,
      "##龟": 9821,
      "##騎": 9822,
      "##扒": 9823,
      "##戋": 9824,
      "##犹": 9825,
      "##养": 9826,
      "##腿": 9827,
      "##咕": 9828,
      "##寞": 9829,
      "##丶": 9830,
      "##এ": 9831,
      "##淫": 9832,
      "##液": 9833,
      "##揚": 9834,
      "##框": 9835,
      "##債": 9836,
      "##擴": 9837,
      "##盗": 9838,
      "##ﻜ": 9839,
      "##魄": 9840,
      "##寓": 9841,
      "##ﺷ": 9842,
      "##咳": 9843,
      "##糖": 9844,
      "##": 9845,
      "##雷": 9846,
      "##脉": 9847,
      "##胎": 9848,
      "##劑": 9849,
      "##疇": 9850,
      "##亦": 9851,
      "##ﺗ": 9852,
      "##攏": 9853,
      "##賈": 9854,
      "##鄲": 9855,
      "##अ": 9856,
      "##丙": 9857,
      "##醇": 9858,
      "##頌": 9859,
      "##缓": 9860,
      "##錫": 9861,
      "##窩": 9862,
      "##蔭": 9863,
      "##": 9864,
      "##棘": 9865,
      "##黛": 9866,
      "##❑": 9867,
      "##渾": 9868,
      "##": 9869,
      "##羌": 9870,
      "##暇": 9871,
      "##艇": 9872,
      "##": 9873,
      "##蚵": 9874,
      "##厦": 9875,
      "##茱": 9876,
      "##萸": 9877,
      "##蒔": 9878,
      "##濕": 9879,
      "##耆": 9880,
      "##亘": 9881,
      "##辛": 9882,
      "##」": 9883,
      "##斤": 9884,
      "##醋": 9885,
      "##椿": 9886,
      "##硝": 9887,
      "##貼": 9888,
      "##瑰": 9889,
      "##沐": 9890,
      "##濫": 9891,
      "##瑟": 9892,
      "##鯊": 9893,
      "##紡": 9894,
      "##ŋ": 9895,
      "##宫": 9896,
      "##轄": 9897,
      "##蕩": 9898,
      "##勁": 9899,
      "##ﺧ": 9900,
      "##乞": 9901,
      "##脛": 9902,
      "##滞": 9903,
      "##酷": 9904,
      "##尖": 9905,
      "##": 9906,
      "##冒": 9907,
      "##杷": 9908,
      "##畢": 9909,
      "##舜": 9910,
      "##晓": 9911,
      "##迴": 9912,
      "##証": 9913,
      "##窺": 9914,
      "##①": 9915,
      "##澳": 9916,
      "##雏": 9917,
      "##磚": 9918,
      "##娜": 9919,
      "##亏": 9920,
      "##眩": 9921,
      "##硯": 9922,
      "##疼": 9923,
      "##扮": 9924,
      "##押": 9925,
      "##腹": 9926,
      "##戌": 9927,
      "##裹": 9928,
      "##沾": 9929,
      "##裳": 9930,
      "##兼": 9931,
      "##甫": 9932,
      "##億": 9933,
      "##🙁": 9934,
      "##尸": 9935,
      "##茅": 9936,
      "##撈": 9937,
      "##宙": 9938,
      "##˝": 9939,
      "##儲": 9940,
      "##墮": 9941,
      "##圃": 9942,
      "##汾": 9943,
      "##欄": 9944,
      "##蕊": 9945,
      "##霊": 9946,
      "##湿": 9947,
      "##⛴": 9948,
      "##倭": 9949,
      "##醉": 9950,
      "##丗": 9951,
      "##柜": 9952,
      "##荀": 9953,
      "##惚": 9954,
      "##飾": 9955,
      "##吳": 9956,
      "##藿": 9957,
      "##љ": 9958,
      "##剣": 9959,
      "##肢": 9960,
      "##淹": 9961,
      "##巳": 9962,
      "##譚": 9963,
      "##┼": 9964,
      "##": 9965,
      "##賤": 9966,
      "##棱": 9967,
      "##貝": 9968,
      "##驾": 9969,
      "##༅": 9970,
      "##楊": 9971,
      "##ѵ": 9972,
      "##盜": 9973,
      "##擺": 9974,
      "##堕": 9975,
      "##钦": 9976,
      "##牆": 9977,
      "##疏": 9978,
      "##ﻫ": 9979,
      "##☠": 9980,
      "##昇": 9981,
      "##帳": 9982,
      "##熙": 9983,
      "##歴": 9984,
      "##営": 9985,
      "##暑": 9986,
      "##仿": 9987,
      "##笛": 9988,
      "##芒": 9989,
      "##抗": 9990,
      "##祗": 9991,
      "##瞽": 9992,
      "##椒": 9993,
      "##税": 9994,
      "##": 9995,
      "##虔": 9996,
      "##⇒": 9997,
      "##凹": 9998,
      "##肿": 9999,
      "##譯": 10000,
      "##騰": 10001,
      "##蚊": 10002,
      "##檸": 10003,
      "##攝": 10004,
      "##喧": 10005,
      "##橙": 10006,
      "##顔": 10007,
      "##劾": 10008,
      "##拟": 10009,
      "##陆": 10010,
      "##罐": 10011,
      "##淵": 10012,
      "##慣": 10013,
      "##捧": 10014,
      "##隐": 10015,
      "##☮": 10016,
      "##✈": 10017,
      "##芸": 10018,
      "##蔬": 10019,
      "##毗": 10020,
      "##雋": 10021,
      "##脾": 10022,
      "##兔": 10023,
      "##鹹": 10024,
      "##衰": 10025,
      "##٤": 10026,
      "##咱": 10027,
      "##帛": 10028,
      "##伽": 10029,
      "##岁": 10030,
      "##爺": 10031,
      "##؛": 10032,
      "##恵": 10033,
      "##螺": 10034,
      "##循": 10035,
      "##总": 10036,
      "##斐": 10037,
      "##吴": 10038,
      "##۩": 10039,
      "##償": 10040,
      "##遼": 10041,
      "##聾": 10042,
      "##陣": 10043,
      "##堆": 10044,
      "##": 10045,
      "##貢": 10046,
      "##鉤": 10047,
      "##洪": 10048,
      "##腊": 10049,
      "##燉": 10050,
      "##披": 10051,
      "##隴": 10052,
      "##": 10053,
      "##驥": 10054,
      "##腔": 10055,
      "##弋": 10056,
      "##悬": 10057,
      "##矮": 10058,
      "##": 10059,
      "##尤": 10060,
      "##‪": 10061,
      "##胸": 10062,
      "##臆": 10063,
      "##鹅": 10064,
      "##穰": 10065,
      "##苴": 10066,
      "##翠": 10067,
      "##』": 10068,
      "##阪": 10069,
      "##匯": 10070,
      "##蹇": 10071,
      "##慌": 10072,
      "##鋼": 10073,
      "##": 10074,
      "##飽": 10075,
      "##◇": 10076,
      "##萧": 10077,
      "##څ": 10078,
      "##姑": 10079,
      "##禽": 10080,
      "##裕": 10081,
      "##ヨ": 10082,
      "##玄": 10083,
      "##咬": 10084,
      "##圏": 10085,
      "##繪": 10086,
      "##催": 10087,
      "##𝐿": 10088,
      "##満": 10089,
      "##爽": 10090,
      "##裁": 10091,
      "##厭": 10092,
      "##倦": 10093,
      "##礦": 10094,
      "##斜": 10095,
      "##✔": 10096,
      "##嫩": 10097,
      "##摹": 10098,
      "##戎": 10099,
      "##ʽ": 10100,
      "##秒": 10101,
      "##躁": 10102,
      "##盆": 10103,
      "##竖": 10104,
      "##淋": 10105,
      "##囚": 10106,
      "##∼": 10107,
      "##釐": 10108,
      "##婆": 10109,
      "##鼎": 10110,
      "##蠣": 10111,
      "##蓄": 10112,
      "##陳": 10113,
      "##緻": 10114,
      "##焉": 10115,
      "##杭": 10116,
      "##茸": 10117,
      "##拾": 10118,
      "##财": 10119,
      "##聰": 10120,
      "##憧": 10121,
      "##坤": 10122,
      "##⭐": 10123,
      "##姜": 10124,
      "##宽": 10125,
      "##爍": 10126,
      "##賬": 10127,
      "##喉": 10128,
      "##誕": 10129,
      "##裔": 10130,
      "##頰": 10131,
      "##淺": 10132,
      "##『": 10133,
      "##戦": 10134,
      "##諉": 10135,
      "##ﻗ": 10136,
      "##॥": 10137,
      "##綿": 10138,
      "##寅": 10139,
      "##戍": 10140,
      "##幽": 10141,
      "##∙": 10142,
      "##≋": 10143,
      "##❃": 10144,
      "##∘": 10145,
      "##✘": 10146,
      "##簿": 10147,
      "##梯": 10148,
      "##懶": 10149,
      "##呤": 10150,
      "##饗": 10151,
      "##朽": 10152,
      "##擡": 10153,
      "##庶": 10154,
      "##霹": 10155,
      "##ϕ": 10156,
      "##倡": 10157,
      "##戚": 10158,
      "##汀": 10159,
      "##咽": 10160,
      "##❎": 10161,
      "##": 10162,
      "##沢": 10163,
      "##姊": 10164,
      "##歳": 10165,
      "##嚳": 10166,
      "##◦": 10167,
      "##込": 10168,
      "##勳": 10169,
      "##惨": 10170,
      "##║": 10171,
      "##▌": 10172,
      "##│": 10173,
      "##壳": 10174,
      "##⺶": 10175,
      "##叢": 10176,
      "##⺼": 10177,
      "##姦": 10178,
      "##錦": 10179,
      "##": 10180,
      "##娟": 10181,
      "##郊": 10182,
      "##鄧": 10183,
      "##樊": 10184,
      "##丟": 10185,
      "##乙": 10186,
      "##莩": 10187,
      "##紫": 10188,
      "##茄": 10189,
      "##吞": 10190,
      "##✨": 10191,
      "##疆": 10192,
      "##弃": 10193,
      "##頻": 10194,
      "##諭": 10195,
      "##櫃": 10196,
      "##蝶": 10197,
      "##迭": 10198,
      "##": 10199,
      "##": 10200,
      "##靂": 10201,
      "##虾": 10202,
      "##葛": 10203,
      "##佔": 10204,
      "##沽": 10205,
      "##砲": 10206,
      "##朕": 10207,
      "##औ": 10208,
      "##蘆": 10209,
      "##滔": 10210,
      "##卒": 10211,
      "##銅": 10212,
      "##貧": 10213,
      "##菽": 10214,
      "##蕓": 10215,
      "##鑽": 10216,
      "##瑾": 10217,
      "##🙂": 10218,
      "##❤": 10219,
      "##俊": 10220,
      "##泌": 10221,
      "##浸": 10222,
      "##寨": 10223,
      "##狄": 10224,
      "##膺": 10225,
      "##芦": 10226,
      "##☣": 10227,
      "##稲": 10228,
      "##葩": 10229,
      "##涸": 10230,
      "##挤": 10231,
      "##": 10232,
      "##衕": 10233,
      "##枕": 10234,
      "##✦": 10235,
      "##炯": 10236,
      "##従": 10237,
      "##隻": 10238,
      "##毐": 10239,
      "##⎯": 10240,
      "##⺷": 10241,
      "##謡": 10242,
      "##罢": 10243,
      "##幅": 10244,
      "##塢": 10245,
      "##卦": 10246,
      "##愣": 10247,
      "##羞": 10248,
      "##儐": 10249,
      "##済": 10250,
      "##❊": 10251,
      "##☀": 10252,
      "##圉": 10253,
      "##": 10254,
      "##帰": 10255,
      "##昭": 10256,
      "##甦": 10257,
      "##謄": 10258,
      "##叩": 10259,
      "##嗜": 10260,
      "##棟": 10261,
      "##凑": 10262,
      "##擠": 10263,
      "##崎": 10264,
      "##陈": 10265,
      "##砖": 10266,
      "##矣": 10267,
      "##昉": 10268,
      "##廷": 10269,
      "##頼": 10270,
      "##擦": 10271,
      "##ﻋ": 10272,
      "##癒": 10273,
      "##椏": 10274,
      "##⁸": 10275,
      "##妳": 10276,
      "##嚀": 10277,
      "##酉": 10278,
      "##漬": 10279,
      "th": 10280,
      "the": 10281,
      "##er": 10282,
      "##in": 10283,
      "##ed": 10284,
      "##nd": 10285,
      "##ou": 10286,
      "##at": 10287,
      "##ing": 10288,
      "to": 10289,
      "##en": 10290,
      "##or": 10291,
      "##on": 10292,
      "##es": 10293,
      "and": 10294,
      "##ar": 10295,
      "##is": 10296,
      "##an": 10297,
      "##ll": 10298,
      "##as": 10299,
      "of": 10300,
      "##it": 10301,
      "in": 10302,
      "##re": 10303,
      "he": 10304,
      "##om": 10305,
      "be": 10306,
      "you": 10307,
      "sh": 10308,
      "ha": 10309,
      "##ow": 10310,
      "##le": 10311,
      "wh": 10312,
      "##ut": 10313,
      "##ot": 10314,
      "##ic": 10315,
      "##id": 10316,
      "it": 10317,
      "##et": 10318,
      "##ac": 10319,
      "##ld": 10320,
      "was": 10321,
      "on": 10322,
      "##al": 10323,
      "##gh": 10324,
      "##ve": 10325,
      "that": 10326,
      "st": 10327,
      "##ly": 10328,
      "her": 10329,
      "##st": 10330,
      "##ay": 10331,
      "re": 10332,
      "##im": 10333,
      "##ion": 10334,
      "##ent": 10335,
      "##se": 10336,
      "as": 10337,
      "for": 10338,
      "##ur": 10339,
      "his": 10340,
      "##ir": 10341,
      "##ith": 10342,
      "she": 10343,
      "##ad": 10344,
      "##ver": 10345,
      "with": 10346,
      "##oo": 10347,
      ".\"": 10348,
      "an": 10349,
      "##ght": 10350,
      "we": 10351,
      "##am": 10352,
      "is": 10353,
      "##ould": 10354,
      "##ch": 10355,
      "me": 10356,
      "at": 10357,
      "fr": 10358,
      "li": 10359,
      "##ke": 10360,
      "##th": 10361,
      "se": 10362,
      "##ter": 10363,
      "##all": 10364,
      "my": 10365,
      "##ro": 10366,
      "had": 10367,
      "##ce": 10368,
      "not": 10369,
      "ch": 10370,
      "but": 10371,
      "##ill": 10372,
      "do": 10373,
      "##ct": 10374,
      "##il": 10375,
      "##ess": 10376,
      "ne": 10377,
      "##pp": 10378,
      "##ain": 10379,
      "##ere": 10380,
      "they": 10381,
      "##ri": 10382,
      "so": 10383,
      "sa": 10384,
      "him": 10385,
      "##el": 10386,
      "##ight": 10387,
      "this": 10388,
      "##ked": 10389,
      "##ome": 10390,
      "su": 10391,
      "##ant": 10392,
      "##est": 10393,
      "have": 10394,
      "de": 10395,
      "##ack": 10396,
      "from": 10397,
      "go": 10398,
      "##us": 10399,
      "##ore": 10400,
      "##ust": 10401,
      "what": 10402,
      "all": 10403,
      "up": 10404,
      "out": 10405,
      "con": 10406,
      "##rou": 10407,
      "##ers": 10408,
      "al": 10409,
      "ab": 10410,
      "kn": 10411,
      "##ie": 10412,
      "##ge": 10413,
      "##ra": 10414,
      "?\"": 10415,
      "##ation": 10416,
      "##ard": 10417,
      "le": 10418,
      "no": 10419,
      "##ul": 10420,
      "or": 10421,
      "##out": 10422,
      "##un": 10423,
      "##her": 10424,
      "ex": 10425,
      "are": 10426,
      ",\"": 10427,
      "##op": 10428,
      "sp": 10429,
      "##ind": 10430,
      "##king": 10431,
      "##one": 10432,
      "wor": 10433,
      "would": 10434,
      "##um": 10435,
      "int": 10436,
      "said": 10437,
      "##ab": 10438,
      "##os": 10439,
      "were": 10440,
      "one": 10441,
      "there": 10442,
      "##ist": 10443,
      "fe": 10444,
      "##art": 10445,
      "if": 10446,
      "##ol": 10447,
      "##and": 10448,
      "com": 10449,
      "tr": 10450,
      "##ate": 10451,
      "loo": 10452,
      "##ood": 10453,
      "can": 10454,
      "did": 10455,
      "un": 10456,
      "##em": 10457,
      "your": 10458,
      "could": 10459,
      "them": 10460,
      "by": 10461,
      "##ast": 10462,
      "cl": 10463,
      "##own": 10464,
      "en": 10465,
      "##ally": 10466,
      "like": 10467,
      "##ap": 10468,
      "back": 10469,
      "when": 10470,
      "##if": 10471,
      "pl": 10472,
      "pr": 10473,
      "about": 10474,
      "tim": 10475,
      "##ven": 10476,
      "into": 10477,
      "##ace": 10478,
      "man": 10479,
      "##ig": 10480,
      "pro": 10481,
      "just": 10482,
      "##ide": 10483,
      "##ong": 10484,
      "ma": 10485,
      "##ck": 10486,
      "##ive": 10487,
      "their": 10488,
      "ag": 10489,
      "ro": 10490,
      "##..": 10491,
      "will": 10492,
      "who": 10493,
      "##ep": 10494,
      "know": 10495,
      "##hing": 10496,
      "any": 10497,
      "##ous": 10498,
      "mo": 10499,
      "##ect": 10500,
      "some": 10501,
      "##ame": 10502,
      "##au": 10503,
      "then": 10504,
      "bl": 10505,
      "te": 10506,
      "us": 10507,
      "##way": 10508,
      "##lf": 10509,
      "over": 10510,
      "ar": 10511,
      "lo": 10512,
      "##ort": 10513,
      "##ity": 10514,
      "get": 10515,
      "time": 10516,
      "co": 10517,
      "ever": 10518,
      "been": 10519,
      "##our": 10520,
      "sm": 10521,
      "qu": 10522,
      "how": 10523,
      "##ice": 10524,
      "##ach": 10525,
      "##urn": 10526,
      "down": 10527,
      "hand": 10528,
      "off": 10529,
      "ta": 10530,
      "more": 10531,
      "##ine": 10532,
      "bo": 10533,
      "##ry": 10534,
      "now": 10535,
      "too": 10536,
      "...": 10537,
      "af": 10538,
      "want": 10539,
      "oth": 10540,
      "##round": 10541,
      "##ies": 10542,
      "##ment": 10543,
      "tw": 10544,
      "see": 10545,
      "fl": 10546,
      "thou": 10547,
      "##ag": 10548,
      "##ich": 10549,
      "##nder": 10550,
      "sc": 10551,
      "don": 10552,
      "##reat": 10553,
      "##ink": 10554,
      "pe": 10555,
      "br": 10556,
      "##ved": 10557,
      "##ick": 10558,
      "##pl": 10559,
      "##ound": 10560,
      "##ear": 10561,
      "##pt": 10562,
      "##ure": 10563,
      "car": 10564,
      "##ile": 10565,
      "again": 10566,
      "am": 10567,
      "than": 10568,
      "ey": 10569,
      "##ass": 10570,
      "##ull": 10571,
      "##ving": 10572,
      "##fore": 10573,
      "our": 10574,
      "##other": 10575,
      "im": 10576,
      "bec": 10577,
      "##itt": 10578,
      "##ud": 10579,
      "##ip": 10580,
      "##ose": 10581,
      "every": 10582,
      "##ue": 10583,
      "way": 10584,
      "##act": 10585,
      "##self": 10586,
      "only": 10587,
      "even": 10588,
      "##fe": 10589,
      "##ish": 10590,
      "before": 10591,
      "other": 10592,
      "ad": 10593,
      "sl": 10594,
      "##ft": 10595,
      "##ence": 10596,
      "say": 10597,
      "head": 10598,
      "gr": 10599,
      "##ings": 10600,
      "##ble": 10601,
      "didn": 10602,
      "##ire": 10603,
      "cont": 10604,
      "after": 10605,
      "##ated": 10606,
      "##ite": 10607,
      "ac": 10608,
      "##per": 10609,
      "##led": 10610,
      "dis": 10611,
      "##ance": 10612,
      "##able": 10613,
      "##iz": 10614,
      "##ks": 10615,
      "##rough": 10616,
      "##ade": 10617,
      "through": 10618,
      "##ber": 10619,
      "here": 10620,
      "##pped": 10621,
      "po": 10622,
      "need": 10623,
      "right": 10624,
      "##ree": 10625,
      "which": 10626,
      "##ans": 10627,
      "##age": 10628,
      "##omet": 10629,
      "around": 10630,
      "res": 10631,
      "eyes": 10632,
      "##ci": 10633,
      "##ell": 10634,
      "##ward": 10635,
      "##ang": 10636,
      "day": 10637,
      "somet": 10638,
      "##ath": 10639,
      "has": 10640,
      "two": 10641,
      "peop": 10642,
      "fir": 10643,
      "fo": 10644,
      "mar": 10645,
      "##ff": 10646,
      "people": 10647,
      "turn": 10648,
      "##ak": 10649,
      "##wn": 10650,
      "where": 10651,
      "##ves": 10652,
      "good": 10653,
      "##oun": 10654,
      "think": 10655,
      "going": 10656,
      "##ions": 10657,
      "gu": 10658,
      "well": 10659,
      "##qu": 10660,
      "should": 10661,
      "##ause": 10662,
      "mu": 10663,
      "let": 10664,
      "gl": 10665,
      "looked": 10666,
      "jo": 10667,
      "thought": 10668,
      "ll": 10669,
      "wat": 10670,
      "comp": 10671,
      "app": 10672,
      "##oth": 10673,
      "per": 10674,
      "long": 10675,
      "rem": 10676,
      "str": 10677,
      "still": 10678,
      "em": 10679,
      "under": 10680,
      "##ery": 10681,
      "god": 10682,
      "ve": 10683,
      "##ord": 10684,
      "##co": 10685,
      "bet": 10686,
      "wa": 10687,
      "may": 10688,
      "##ia": 10689,
      "##ew": 10690,
      "##iss": 10691,
      "##ather": 10692,
      "##ting": 10693,
      "cr": 10694,
      "##ild": 10695,
      "##thing": 10696,
      "something": 10697,
      "sw": 10698,
      "##ase": 10699,
      "first": 10700,
      "pre": 10701,
      "away": 10702,
      "##ning": 10703,
      "##ious": 10704,
      "##dy": 10705,
      "##ied": 10706,
      "!\"": 10707,
      "##ress": 10708,
      "never": 10709,
      "door": 10710,
      "##ted": 10711,
      "asked": 10712,
      "new": 10713,
      "life": 10714,
      "much": 10715,
      "got": 10716,
      "made": 10717,
      "des": 10718,
      "##ave": 10719,
      "ho": 10720,
      "part": 10721,
      "because": 10722,
      "make": 10723,
      "feel": 10724,
      "##ened": 10725,
      "face": 10726,
      "call": 10727,
      "##ens": 10728,
      "spe": 10729,
      "##ah": 10730,
      "##ough": 10731,
      "hel": 10732,
      "op": 10733,
      "come": 10734,
      "##gg": 10735,
      "##igh": 10736,
      "ke": 10737,
      "why": 10738,
      "bel": 10739,
      "##te": 10740,
      "##orm": 10741,
      "take": 10742,
      "##ady": 10743,
      "happ": 10744,
      "##ered": 10745,
      "wal": 10746,
      "##are": 10747,
      "look": 10748,
      "##iv": 10749,
      "##ittle": 10750,
      "year": 10751,
      "little": 10752,
      "act": 10753,
      "room": 10754,
      "##air": 10755,
      "ph": 10756,
      "##ched": 10757,
      "##so": 10758,
      "tell": 10759,
      "##ise": 10760,
      "##ily": 10761,
      "ear": 10762,
      "##ss": 10763,
      "**": 10764,
      "very": 10765,
      "start": 10766,
      "##ents": 10767,
      "##ty": 10768,
      "sur": 10769,
      "##av": 10770,
      "arm": 10771,
      "while": 10772,
      "##ying": 10773,
      "being": 10774,
      "att": 10775,
      "##ary": 10776,
      "##be": 10777,
      "##ful": 10778,
      "##ried": 10779,
      "mom": 10780,
      "its": 10781,
      "wr": 10782,
      "##ark": 10783,
      "##ook": 10784,
      "inter": 10785,
      "##dd": 10786,
      "real": 10787,
      "##ory": 10788,
      "ins": 10789,
      "el": 10790,
      "those": 10791,
      "##iff": 10792,
      "##uck": 10793,
      "these": 10794,
      "help": 10795,
      "own": 10796,
      "took": 10797,
      "##ness": 10798,
      "##ical": 10799,
      "rel": 10800,
      "find": 10801,
      "tal": 10802,
      "seem": 10803,
      "##ph": 10804,
      "##ub": 10805,
      "another": 10806,
      "##ced": 10807,
      "most": 10808,
      "fin": 10809,
      "knew": 10810,
      "dr": 10811,
      "mat": 10812,
      "##tain": 10813,
      "##elt": 10814,
      "imp": 10815,
      "##cl": 10816,
      "sure": 10817,
      "left": 10818,
      "##xt": 10819,
      "ser": 10820,
      "##ign": 10821,
      "few": 10822,
      "##ian": 10823,
      "came": 10824,
      "##ations": 10825,
      "beg": 10826,
      "exp": 10827,
      "word": 10828,
      "ev": 10829,
      "end": 10830,
      "old": 10831,
      "##oss": 10832,
      "work": 10833,
      "##ons": 10834,
      "really": 10835,
      "put": 10836,
      "things": 10837,
      "beh": 10838,
      "##ult": 10839,
      "wom": 10840,
      "also": 10841,
      "##ared": 10842,
      "##get": 10843,
      "turned": 10844,
      "does": 10845,
      "felt": 10846,
      "night": 10847,
      "comm": 10848,
      "##owed": 10849,
      "mind": 10850,
      "##ever": 10851,
      "world": 10852,
      "unt": 10853,
      "pers": 10854,
      "##vel": 10855,
      "many": 10856,
      "war": 10857,
      "vo": 10858,
      "##int": 10859,
      "light": 10860,
      "last": 10861,
      "##ouse": 10862,
      "sk": 10863,
      "la": 10864,
      "##de": 10865,
      "love": 10866,
      "##ail": 10867,
      "gra": 10868,
      "min": 10869,
      "##ys": 10870,
      "##ush": 10871,
      "bu": 10872,
      "sin": 10873,
      "wasn": 10874,
      "##ps": 10875,
      "##ool": 10876,
      "##ower": 10877,
      "cle": 10878,
      "side": 10879,
      "told": 10880,
      "ind": 10881,
      "##ont": 10882,
      "each": 10883,
      "went": 10884,
      "##ru": 10885,
      "##ors": 10886,
      "ret": 10887,
      "##ne": 10888,
      "set": 10889,
      "rep": 10890,
      "##een": 10891,
      "##ways": 10892,
      "##ross": 10893,
      "##iend": 10894,
      "##ating": 10895,
      "ob": 10896,
      "##ible": 10897,
      "##les": 10898,
      "found": 10899,
      "hum": 10900,
      "friend": 10901,
      "both": 10902,
      "place": 10903,
      "##ash": 10904,
      "keep": 10905,
      "wait": 10906,
      "hands": 10907,
      "toward": 10908,
      "yes": 10909,
      "cons": 10910,
      "##og": 10911,
      "belie": 10912,
      "##ition": 10913,
      "pull": 10914,
      "must": 10915,
      "nothing": 10916,
      "might": 10917,
      "##ict": 10918,
      "##cess": 10919,
      "##ual": 10920,
      "inst": 10921,
      "next": 10922,
      "##ple": 10923,
      ".'": 10924,
      "same": 10925,
      "home": 10926,
      "##ib": 10927,
      "par": 10928,
      "dec": 10929,
      "diff": 10930,
      "##ling": 10931,
      "sat": 10932,
      "##ually": 10933,
      "great": 10934,
      "cor": 10935,
      "body": 10936,
      "years": 10937,
      "che": 10938,
      "against": 10939,
      "ste": 10940,
      "saw": 10941,
      "anything": 10942,
      "##ange": 10943,
      "ass": 10944,
      "foll": 10945,
      "far": 10946,
      "without": 10947,
      "wanted": 10948,
      "##iver": 10949,
      "##mo": 10950,
      "##ial": 10951,
      "##ream": 10952,
      "enough": 10953,
      "hard": 10954,
      "thing": 10955,
      "pass": 10956,
      "once": 10957,
      "though": 10958,
      "##ned": 10959,
      "##ner": 10960,
      "behind": 10961,
      "always": 10962,
      "person": 10963,
      "##ction": 10964,
      "fam": 10965,
      "until": 10966,
      "men": 10967,
      "##ces": 10968,
      "high": 10969,
      "such": 10970,
      "house": 10971,
      "gi": 10972,
      "##na": 10973,
      "looking": 10974,
      "small": 10975,
      "##az": 10976,
      "open": 10977,
      "gir": 10978,
      "bre": 10979,
      "three": 10980,
      "##ently": 10981,
      "voice": 10982,
      "coun": 10983,
      "inf": 10984,
      "child": 10985,
      "ple": 10986,
      "rest": 10987,
      "##red": 10988,
      "##cept": 10989,
      "##ised": 10990,
      "gre": 10991,
      "##aring": 10992,
[...]
