{
  "version": "1.0",
  "truncation": null,
  "padding": null,
  "added_tokens": [
    {
      "id": 0,
      "content": "[UNK]",
      "single_word": false,
      "lstrip": false,
      "rstrip": false,
      "normalized": false,
      "special": true
    },
    {
      "id": 1,
      "content": "[CLS]",
      "single_word": false,
      "lstrip": false,
      "rstrip": false,
      "normalized": false,
      "special": true
    },
    {
      "id": 2,
      "content": "[SEP]",
      "single_word": false,
      "lstrip": false,
      "rstrip": false,
      "normalized": false,
      "special": true
    },
    {
      "id": 3,
      "content": "[PAD]",
      "single_word": false,
      "lstrip": false,
      "rstrip": false,
      "normalized": false,
      "special": true
    },
    {
      "id": 4,
      "content": "[MASK]",
      "single_word": false,
      "lstrip": false,
      "rstrip": false,
      "normalized": false,
      "special": true
    }
  ],
  "normalizer": {
    "type": "Sequence",
    "normalizers": [
      {
        "type": "NFD"
      },
      {
        "type": "Lowercase"
      },
      {
        "type": "StripAccents"
      }
    ]
  },
  "pre_tokenizer": {
    "type": "Whitespace"
  },
  "post_processor": {
    "type": "TemplateProcessing",
    "single": [
      {
        "SpecialToken": {
          "id": "[CLS]",
          "type_id": 0
        }
      },
      {
        "Sequence": {
          "id": "A",
          "type_id": 0
        }
      },
      {
        "SpecialToken": {
          "id": "[SEP]",
          "type_id": 0
        }
      }
    ],
    "pair": [
      {
        "SpecialToken": {
          "id": "[CLS]",
          "type_id": 0
        }
      },
      {
        "Sequence": {
          "id": "A",
          "type_id": 0
        }
      },
      {
        "SpecialToken": {
          "id": "[SEP]",
          "type_id": 0
        }
      },
      {
        "Sequence": {
          "id": "B",
          "type_id": 1
        }
      },
      {
        "SpecialToken": {
          "id": "[SEP]",
          "type_id": 1
        }
      }
    ],
    "special_tokens": {
      "[CLS]": {
        "id": "[CLS]",
        "ids": [
          1
        ],
        "tokens": [
          "[CLS]"
        ]
      },
      "[SEP]": {
        "id": "[SEP]",
        "ids": [
          2
        ],
        "tokens": [
          "[SEP]"
        ]
      }
    }
  },
  "decoder": {
    "type": "WordPiece",
    "prefix": "##",
    "cleanup": true
  },
  "model": {
    "type": "WordPiece",
    "unk_token": "[UNK]",
    "continuing_subword_prefix": "##",
    "max_input_chars_per_word": 100,
    "vocab": {
      "[UNK]": 0,
      "[CLS]": 1,
      "[SEP]": 2,
      "[PAD]": 3,
      "[MASK]": 4,
      "!": 5,
      "\"": 6,
      "#": 7,
      "$": 8,
      "%": 9,
      "&": 10,
      "'": 11,
      "(": 12,
      ")": 13,
      "*": 14,
      "+": 15,
      ",": 16,
      "-": 17,
      ".": 18,
      "/": 19,
      "0": 20,
      "1": 21,
      "2": 22,
      "3": 23,
      "4": 24,
      "5": 25,
      "6": 26,
      "7": 27,
      "8": 28,
      "9": 29,
      ":": 30,
      ";": 31,
      "<": 32,
      "=": 33,
      ">": 34,
      "?": 35,
      "@": 36,
      "[": 37,
      "\\": 38,
      "]": 39,
      "^": 40,
      "_": 41,
      "`": 42,
      "a": 43,
      "b": 44,
      "c": 45,
      "d": 46,
      "e": 47,
      "f": 48,
      "g": 49,
      "h": 50,
      "i": 51,
      "j": 52,
      "k": 53,
      "l": 54,
      "m": 55,
      "n": 56,
      "o": 57,
      "p": 58,
      "q": 59,
      "r": 60,
      "s": 61,
      "t": 62,
      "u": 63,
      "v": 64,
      "w": 65,
      "x": 66,
      "y": 67,
      "z": 68,
      "{": 69,
      "|": 70,
      "}": 71,
      "~": 72,
      "¡": 73,
      "¢": 74,
      "£": 75,
      "¤": 76,
      "¥": 77,
      "¦": 78,
      "§": 79,
      "¨": 80,
      "©": 81,
      "ª": 82,
      "«": 83,
      "¬": 84,
      "­": 85,
      "®": 86,
      "¯": 87,
      "°": 88,
      "±": 89,
      "²": 90,
      "³": 91,
      "´": 92,
      "µ": 93,
      "¶": 94,
      "·": 95,
      "¸": 96,
      "¹": 97,
      "º": 98,
      "»": 99,
      "¼": 100,
      "½": 101,
      "¾": 102,
      "¿": 103,
      "×": 104,
      "ß": 105,
      "æ": 106,
      "ð": 107,
      "÷": 108,
      "ø": 109,
      "þ": 110,
      "đ": 111,
      "ħ": 112,
      "ı": 113,
      "ĸ": 114,
      "ł": 115,
      "ŋ": 116,
      "œ": 117,
      "ſ": 118,
      "ƒ": 119,
      "ǁ": 120,
      "ǂ": 121,
      "ȝ": 122,
      "ɑ": 123,
      "ɔ": 124,
      "ə": 125,
      "ɛ": 126,
      "ɡ": 127,
      "ɣ": 128,
      "ɨ": 129,
      "ɪ": 130,
      "ɸ": 131,
      "ɹ": 132,
      "ʃ": 133,
      "ʘ": 134,
      "ʹ": 135,
      "ʻ": 136,
      "ʽ": 137,
      "ʾ": 138,
      "ʿ": 139,
      "˂": 140,
      "˃": 141,
      "ˆ": 142,
      "ˈ": 143,
      "ˌ": 144,
      "ː": 145,
      "˗": 146,
      "˙": 147,
      "˚": 148,
      "˝": 149,
      "ˮ": 150,
      "΄": 151,
      "α": 152,
      "β": 153,
      "γ": 154,
      "δ": 155,
      "ε": 156,
      "ζ": 157,
      "η": 158,
      "θ": 159,
      "ι": 160,
      "κ": 161,
      "λ": 162,
      "μ": 163,
      "ν": 164,
      "ξ": 165,
      "ο": 166,
      "π": 167,
      "ρ": 168,
      "ς": 169,
      "σ": 170,
      "τ": 171,
      "υ": 172,
      "φ": 173,
      "χ": 174,
      "ψ": 175,
      "ω": 176,
      "ϕ": 177,
      "ϙ": 178,
      "ϸ": 179,
      "а": 180,
      "б": 181,
      "в": 182,
      "г": 183,
      "д": 184,
      "е": 185,
      "ж": 186,
      "з": 187,
      "и": 188,
      "к": 189,
      "л": 190,
      "м": 191,
      "н": 192,
      "о": 193,
      "п": 194,
      "р": 195,
      "с": 196,
      "т": 197,
      "у": 198,
      "ф": 199,
      "х": 200,
      "ц": 201,
      "ч": 202,
      "ш": 203,
      "щ": 204,
      "ъ": 205,
      "ы": 206,
      "ь": 207,
      "э": 208,
      "ю": 209,
      "я": 210,
      "є": 211,
      "ѕ": 212,
      "і": 213,
      "ј": 214,
      "љ": 215,
      "ћ": 216,
      "ѵ": 217,
      "ғ": 218,
      "қ": 219,
      "ң": 220,
      "ү": 221,
      "ұ": 222,
      "ҳ": 223,
      "һ": 224,
      "ә": 225,
      "ө": 226,
      "ԛ": 227,
      "־": 228,
      "׃": 229,
      "א": 230,
      "ב": 231,
      "ג": 232,
      "ד": 233,
      "ה": 234,
      "ו": 235,
      "ז": 236,
      "ח": 237,
      "ט": 238,
      "י": 239,
      "ך": 240,
      "כ": 241,
      "ל": 242,
      "ם": 243,
      "מ": 244,
      "ן": 245,
      "נ": 246,
      "ס": 247,
      "ע": 248,
      "ף": 249,
      "פ": 250,
      "ץ": 251,
      "צ": 252,
      "ק": 253,
      "ר": 254,
      "ש": 255,
      "ת": 256,
      "״": 257,
      "،": 258,
      "؛": 259,
      "؟": 260,
      "ء": 261,
      "ا": 262,
      "ب": 263,
      "ة": 264,
      "ت": 265,
      "ث": 266,
      "ج": 267,
      "ح": 268,
      "خ": 269,
      "د": 270,
      "ذ": 271,
      "ر": 272,
      "ز": 273,
      "س": 274,
      "ش": 275,
      "ص": 276,
      "ض": 277,
      "ط": 278,
      "ظ": 279,
      "ع": 280,
      "غ": 281,
      "ـ": 282,
      "ف": 283,
      "ق": 284,
      "ك": 285,
      "ل": 286,
      "م": 287,
      "ن": 288,
      "ه": 289,
      "و": 290,
      "ى": 291,
      "ي": 292,
      "٠": 293,
      "١": 294,
      "٢": 295,
      "٣": 296,
      "٤": 297,
      "٦": 298,
      "٧": 299,
      "٭": 300,
      "ٱ": 301,
      "ٴ": 302,
      "پ": 303,
      "څ": 304,
      "چ": 305,
      "ژ": 306,
      "ک": 307,
      "گ": 308,
      "ھ": 309,
      "ڿ": 310,
      "ہ": 311,
      "ی": 312,
      "۔": 313,
      "ە": 314,
      "۞": 315,
      "ۥ": 316,
      "ۦ": 317,
      "۩": 318,
      "۰": 319,
      "۱": 320,
      "۲": 321,
      "۳": 322,
      "۴": 323,
      "۵": 324,
      "۶": 325,
      "۷": 326,
      "۸": 327,
      "۹": 328,
      "अ": 329,
      "आ": 330,
      "इ": 331,
      "ई": 332,
      "उ": 333,
      "ऊ": 334,
      "ए": 335,
      "ऐ": 336,
      "ओ": 337,
      "औ": 338,
      "क": 339,
      "ख": 340,
      "ग": 341,
      "घ": 342,
      "ङ": 343,
      "च": 344,
      "छ": 345,
      "ज": 346,
      "झ": 347,
      "ञ": 348,
      "ट": 349,
      "ठ": 350,
      "ड": 351,
      "ढ": 352,
      "ण": 353,
      "त": 354,
      "थ": 355,
      "द": 356,
      "ध": 357,
      "न": 358,
      "प": 359,
      "फ": 360,
      "ब": 361,
      "भ": 362,
      "म": 363,
      "य": 364,
      "र": 365,
      "ल": 366,
      "व": 367,
      "श": 368,
      "ष": 369,
      "स": 370,
      "ह": 371,
      "ऽ": 372,
      "ॐ": 373,
      "ॠ": 374,
      "।": 375,
      "॥": 376,
      "०": 377,
      "१": 378,
      "२": 379,
      "३": 380,
      "४": 381,
      "५": 382,
      "६": 383,
      "७": 384,
      "८": 385,
      "९": 386,
      "অ": 387,
      "আ": 388,
      "ই": 389,
      "ঈ": 390,
      "উ": 391,
      "এ": 392,
      "ও": 393,
      "ক": 394,
      "খ": 395,
      "গ": 396,
      "ঘ": 397,
      "ঙ": 398,
      "চ": 399,
      "ছ": 400,
      "জ": 401,
      "ঝ": 402,
      "ঞ": 403,
      "ট": 404,
      "ঠ": 405,
      "ড": 406,
      "ঢ": 407,
      "ণ": 408,
      "ত": 409,
      "থ": 410,
      "দ": 411,
      "ধ": 412,
      "ন": 413,
      "প": 414,
      "ফ": 415,
      "ব": 416,
      "ভ": 417,
      "ম": 418,
      "য": 419,
      "র": 420,
      "ল": 421,
      "শ": 422,
      "ষ": 423,
      "স": 424,
      "হ": 425,
      "ৎ": 426,
      "০": 427,
      "১": 428,
      "২": 429,
      "৩": 430,
      "৪": 431,
      "৫": 432,
      "৬": 433,
      "৭": 434,
      "৮": 435,
      "৯": 436,
      "ਉ": 437,
      "ਕ": 438,
      "ਗ": 439,
      "ਤ": 440,
      "ਨ": 441,
      "ਪ": 442,
      "ਮ": 443,
      "ਰ": 444,
      "ਸ": 445,
      "ஃ": 446,
      "அ": 447,
      "ஆ": 448,
      "இ": 449,
      "ஈ": 450,
      "உ": 451,
      "ஊ": 452,
      "எ": 453,
      "ஏ": 454,
      "ஐ": 455,
      "ஒ": 456,
      "ஓ": 457,
      "க": 458,
      "ங": 459,
      "ச": 460,
      "ஜ": 461,
      "ஞ": 462,
      "ட": 463,
      "ண": 464,
      "த": 465,
      "ந": 466,
      "ன": 467,
      "ப": 468,
      "ம": 469,
      "ய": 470,
      "ர": 471,
      "ற": 472,
      "ல": 473,
      "ள": 474,
      "ழ": 475,
      "வ": 476,
      "ஸ": 477,
      "༅": 478,
      "ᄀ": 479,
      "ᄂ": 480,
      "ᄃ": 481,
      "ᄅ": 482,
      "ᄆ": 483,
      "ᄇ": 484,
      "ᄉ": 485,
      "ᄋ": 486,
      "ᄌ": 487,
      "ᄎ": 488,
      "ᄏ": 489,
      "ᄒ": 490,
      "ᅡ": 491,
      "ᅢ": 492,
      "ᅥ": 493,
      "ᅧ": 494,
      "ᅩ": 495,
      "ᅪ": 496,
      "ᅮ": 497,
      "ᅳ": 498,
      "ᅵ": 499,
      "ᆨ": 500,
      "ᆫ": 501,
      "ᆯ": 502,
      "ᆷ": 503,
      "ᆸ": 504,
      "ᆼ": 505,
      "ᴥ": 506,
      "᾽": 507,
      "῾": 508,
      "​": 509,
      "‌": 510,
      "‍": 511,
      "‎": 512,
      "‏": 513,
      "‐": 514,
      "‑": 515,
      "‒": 516,
      "–": 517,
      "—": 518,
      "―": 519,
      "‖": 520,
      "‗": 521,
      "†": 522,
      "‡": 523,
      "•": 524,
      "‧": 525,
      "‪": 526,
      "‬": 527,
      "‭": 528,
      "‮": 529,
      "‰": 530,
      "′": 531,
      "″": 532,
      "‹": 533,
      "›": 534,
      "※": 535,
      "‽": 536,
      "⁄": 537,
      "⁠": 538,
      "⁰": 539,
      "⁴": 540,
      "⁵": 541,
      "⁶": 542,
      "⁷": 543,
      "⁸": 544,
      "⁹": 545,
      "⁺": 546,
      "₂": 547,
      "₤": 548,
      "₦": 549,
      "₪": 550,
      "€": 551,
      "℃": 552,
      "ℌ": 553,
      "ℎ": 554,
      "ℏ": 555,
      "ℓ": 556,
      "№": 557,
      "™": 558,
      "⅓": 559,
      "⅔": 560,
      "⅛": 561,
      "←": 562,
      "↑": 563,
      "→": 564,
      "↓": 565,
      "↔": 566,
      "↩": 567,
      "↵": 568,
      "⇒": 569,
      "⇔": 570,
      "⇧": 571,
      "∂": 572,
      "∆": 573,
      "∑": 574,
      "−": 575,
      "∓": 576,
      "∗": 577,
      "∘": 578,
      "∙": 579,
      "√": 580,
      "∞": 581,
      "∟": 582,
      "∧": 583,
      "∨": 584,
      "∩": 585,
      "∫": 586,
      "∴": 587,
      "∼": 588,
      "≈": 589,
      "≋": 590,
      "≒": 591,
      "≡": 592,
      "≤": 593,
      "≥": 594,
      "≧": 595,
      "⊕": 596,
      "⊗": 597,
      "⊢": 598,
      "⋄": 599,
      "⋆": 600,
      "⋯": 601,
      "⌘": 602,
      "⍟": 603,
      "⎛": 604,
      "⎯": 605,
      "①": 606,
      "②": 607,
      "③": 608,
      "④": 609,
      "⑤": 610,
      "⑥": 611,
      "─": 612,
      "│": 613,
      "└": 614,
      "├": 615,
      "┼": 616,
      "═": 617,
      "║": 618,
      "╖": 619,
      "╦": 620,
      "█": 621,
      "▌": 622,
      "■": 623,
      "□": 624,
      "▪": 625,
      "▫": 626,
      "▲": 627,
      "▸": 628,
      "►": 629,
      "▼": 630,
      "◄": 631,
      "◆": 632,
      "◇": 633,
      "◉": 634,
      "◊": 635,
      "○": 636,
      "◍": 637,
      "●": 638,
      "◐": 639,
      "◑": 640,
      "◦": 641,
      "☀": 642,
      "★": 643,
      "☆": 644,
      "☑": 645,
      "☜": 646,
      "☞": 647,
      "☠": 648,
      "☣": 649,
      "☮": 650,
      "☯": 651,
      "☹": 652,
      "☺": 653,
      "☼": 654,
      "♀": 655,
      "♂": 656,
      "♔": 657,
      "♕": 658,
      "♛": 659,
      "♠": 660,
      "♡": 661,
      "♣": 662,
      "♥": 663,
      "♦": 664,
      "♪": 665,
      "♫": 666,
      "♬": 667,
      "⚔": 668,
      "⚜": 669,
      "⚡": 670,
      "⚫": 671,
      "⛴": 672,
      "✅": 673,
      "✈": 674,
      "✓": 675,
      "✔": 676,
      "✗": 677,
      "✘": 678,
      "✝": 679,
      "✦": 680,
      "✧": 681,
      "✨": 682,
      "✪": 683,
      "✯": 684,
      "✽": 685,
      "❃": 686,
      "❄": 687,
      "❊": 688,
      "❋": 689,
      "❎": 690,
      "❑": 691,
      "❖": 692,
      "❝": 693,
      "❞": 694,
      "❤": 695,
      "❦": 696,
      "➔": 697,
      "➢": 698,
      "⭐": 699,
      "⺄": 700,
      "⺈": 701,
      "⺊": 702,
      "⺌": 703,
      "⺍": 704,
      "⺕": 705,
      "⺧": 706,
      "⺶": 707,
      "⺷": 708,
      "⺻": 709,
      "⺼": 710,
      "⻊": 711,
      "⻏": 712,
      "⻖": 713,
      "、": 714,
      "。": 715,
      "々": 716,
      "〈": 717,
      "〉": 718,
      "《": 719,
      "》": 720,
      "「": 721,
      "」": 722,
      "『": 723,
      "』": 724,
      "〜": 725,
      "ぁ": 726,
      "あ": 727,
      "ぃ": 728,
      "い": 729,
      "ぅ": 730,
      "う": 731,
      "ぇ": 732,
      "え": 733,
      "ぉ": 734,
      "お": 735,
      "か": 736,
      "き": 737,
      "く": 738,
      "け": 739,
      "こ": 740,
      "さ": 741,
      "し": 742,
      "す": 743,
      "せ": 744,
      "そ": 745,
      "た": 746,
      "ち": 747,
      "っ": 748,
      "つ": 749,
      "て": 750,
      "と": 751,
      "な": 752,
      "に": 753,
      "ぬ": 754,
      "ね": 755,
      "の": 756,
      "は": 757,
      "ひ": 758,
      "ふ": 759,
      "へ": 760,
      "ほ": 761,
      "ま": 762,
      "み": 763,
      "む": 764,
      "め": 765,
      "も": 766,
      "ゃ": 767,
      "や": 768,
      "ゅ": 769,
      "ゆ": 770,
      "ょ": 771,
      "よ": 772,
      "ら": 773,
      "り": 774,
      "る": 775,
      "れ": 776,
      "ろ": 777,
      "わ": 778,
      "を": 779,
      "ん": 780,
      "ァ": 781,
      "ア": 782,
      "ィ": 783,
      "イ": 784,
      "ゥ": 785,
      "ウ": 786,
      "ェ": 787,
      "エ": 788,
      "ォ": 789,
      "オ": 790,
      "カ": 791,
      "キ": 792,
      "ク": 793,
      "ケ": 794,
      "コ": 795,
      "サ": 796,
      "シ": 797,
      "ス": 798,
      "セ": 799,
      "ソ": 800,
      "タ": 801,
      "チ": 802,
      "ッ": 803,
      "ツ": 804,
      "テ": 805,
      "ト": 806,
      "ナ": 807,
      "ニ": 808,
      "ヌ": 809,
      "ネ": 810,
      "ノ": 811,
      "ハ": 812,
      "ヒ": 813,
      "フ": 814,
      "ヘ": 815,
      "ホ": 816,
      "マ": 817,
      "ミ": 818,
      "ム": 819,
      "メ": 820,
      "モ": 821,
      "ャ": 822,
      "ヤ": 823,
      "ュ": 824,
      "ユ": 825,
      "ョ": 826,
      "ヨ": 827,
      "ラ": 828,
      "リ": 829,
      "ル": 830,
      "レ": 831,
      "ロ": 832,
      "ワ": 833,
      "ヰ": 834,
      "ン": 835,
      "・": 836,
      "ー": 837,
      "ㄅ": 838,
      "㇀": 839,
      "㇂": 840,
      "㐂": 841,
      "㐫": 842,
      "㐬": 843,
      "㐭": 844,
      "㐱": 845,
      "㐴": 846,
      "㑒": 847,
      "㑨": 848,
      "㑹": 849,
      "㒒": 850,
      "㒵": 851,
      "㓁": 852,
      "㔟": 853,
      "㔬": 854,
      "㔺": 855,
      "㔾": 856,
      "㕜": 857,
      "㕣": 858,
      "㗊": 859,
      "㗿": 860,
      "㙵": 861,
      "㙹": 862,
      "㚇": 863,
      "㚒": 864,
      "㚔": 865,
      "㚢": 866,
      "㚣": 867,
      "㚳": 868,
      "㚶": 869,
      "㚻": 870,
      "㚼": 871,
      "㛂": 872,
      "㛒": 873,
      "㛕": 874,
      "㛺": 875,
      "㝉": 876,
      "㞐": 877,
      "㞓": 878,
      "㞢": 879,
      "㠪": 880,
      "㠯": 881,
      "㡯": 882,
      "㡰": 883,
      "㣺": 884,
      "㥐": 885,
      "㫕": 886,
      "㫺": 887,
      "㬎": 888,
      "㬚": 889,
      "㯃": 890,
      "㯎": 891,
      "㲋": 892,
      "㳒": 893,
      "㶚": 894,
      "㷔": 895,
      "䁧": 896,
      "䂓": 897,
      "䅏": 898,
      "䆓": 899,
      "䉤": 900,
      "䍃": 901,
      "䏍": 902,
      "䏶": 903,
      "䐅": 904,
      "䐈": 905,
      "䐉": 906,
      "䐗": 907,
      "䐜": 908,
      "䑓": 909,
      "䑛": 910,
      "䒑": 911,
      "䒭": 912,
      "䒳": 913,
      "䒶": 914,
      "䔬": 915,
      "䖝": 916,
      "䖤": 917,
      "䖵": 918,
      "䙥": 919,
      "䙴": 920,
      "䚏": 921,
      "䚰": 922,
      "䜌": 923,
      "䜡": 924,
      "䜭": 925,
      "䜵": 926,
      "䜸": 927,
      "䝪": 928,
      "䠑": 929,
      "䦥": 930,
      "䳄": 931,
      "一": 932,
      "丁": 933,
      "丂": 934,
      "七": 935,
      "丄": 936,
      "丅": 937,
      "丆": 938,
      "万": 939,
      "丈": 940,
      "三": 941,
      "上": 942,
      "下": 943,
      "丌": 944,
      "不": 945,
      "与": 946,
      "丏": 947,
      "丑": 948,
      "专": 949,
      "且": 950,
      "世": 951,
      "丗": 952,
      "丘": 953,
      "丙": 954,
      "业": 955,
      "丛": 956,
      "东": 957,
      "丝": 958,
      "丟": 959,
      "両": 960,
      "丣": 961,
      "两": 962,
      "严": 963,
      "並": 964,
      "丨": 965,
      "丩": 966,
      "个": 967,
      "丫": 968,
      "丬": 969,
      "中": 970,
      "丮": 971,
      "丯": 972,
      "丰": 973,
      "丱": 974,
      "串": 975,
      "临": 976,
      "丵": 977,
      "丶": 978,
      "丷": 979,
      "丸": 980,
      "丹": 981,
      "为": 982,
      "主": 983,
      "丽": 984,
      "举": 985,
      "丿": 986,
      "乀": 987,
      "乁": 988,
      "乂": 989,
      "乃": 990,
      "久": 991,
      "乇": 992,
      "么": 993,
      "义": 994,
      "之": 995,
      "乌": 996,
      "乍": 997,
      "乎": 998,
      "乏": 999,
      "乐": 1000,
      "乑": 1001,
      "乔": 1002,
      "乕": 1003,
      "乖": 1004,
      "乗": 1005,
      "乘": 1006,
      "乙": 1007,
      "乚": 1008,
      "乛": 1009,
      "乜": 1010,
      "九": 1011,
      "乞": 1012,
      "也": 1013,
      "习": 1014,
      "乡": 1015,
      "书": 1016,
      "买": 1017,
      "乱": 1018,
      "乳": 1019,
      "乹": 1020,
      "乾": 1021,
      "亀": 1022,
      "亂": 1023,
      "亅": 1024,
      "了": 1025,
      "予": 1026,
      "争": 1027,
      "亊": 1028,
      "事": 1029,
      "二": 1030,
      "亍": 1031,
      "于": 1032,
      "亏": 1033,
      "云": 1034,
      "互": 1035,
      "五": 1036,
      "井": 1037,
      "亘": 1038,
      "亚": 1039,
      "些": 1040,
      "亜": 1041,
      "亞": 1042,
      "亟": 1043,
      "亠": 1044,
      "亡": 1045,
      "亢": 1046,
      "交": 1047,
      "亥": 1048,
      "亦": 1049,
      "产": 1050,
      "亨": 1051,
      "享": 1052,
      "京": 1053,
      "亭": 1054,
      "亮": 1055,
      "亲": 1056,
      "亶": 1057,
      "人": 1058,
      "亻": 1059,
      "亼": 1060,
      "亽": 1061,
      "亿": 1062,
      "什": 1063,
      "仁": 1064,
      "仅": 1065,
      "仆": 1066,
      "仇": 1067,
      "仈": 1068,
      "今": 1069,
      "介": 1070,
      "仍": 1071,
      "从": 1072,
      "仏": 1073,
      "仑": 1074,
      "仓": 1075,
      "仔": 1076,
      "仕": 1077,
      "他": 1078,
      "付": 1079,
      "仙": 1080,
      "仟": 1081,
      "代": 1082,
      "令": 1083,
      "以": 1084,
      "仪": 1085,
      "们": 1086,
      "仮": 1087,
      "仰": 1088,
      "仲": 1089,
      "件": 1090,
      "价": 1091,
      "任": 1092,
      "份": 1093,
      "仿": 1094,
      "企": 1095,
      "伊": 1096,
      "伍": 1097,
      "伎": 1098,
      "伏": 1099,
      "伐": 1100,
      "休": 1101,
      "众": 1102,
      "伙": 1103,
      "会": 1104,
      "伝": 1105,
      "伟": 1106,
      "传": 1107,
      "伤": 1108,
      "伦": 1109,
      "伧": 1110,
      "伯": 1111,
      "估": 1112,
      "伴": 1113,
      "伸": 1114,
      "似": 1115,
      "伽": 1116,
      "但": 1117,
      "佈": 1118,
      "佉": 1119,
      "位": 1120,
      "低": 1121,
      "住": 1122,
      "佐": 1123,
      "佑": 1124,
      "体": 1125,
      "佔": 1126,
      "何": 1127,
      "余": 1128,
      "佚": 1129,
      "佛": 1130,
      "作": 1131,
      "佞": 1132,
      "你": 1133,
      "佩": 1134,
      "佰": 1135,
      "佱": 1136,
      "佳": 1137,
      "併": 1138,
      "佶": 1139,
      "佸": 1140,
      "佺": 1141,
      "使": 1142,
      "來": 1143,
      "例": 1144,
      "侌": 1145,
      "侍": 1146,
      "侖": 1147,
      "侗": 1148,
      "供": 1149,
      "依": 1150,
      "価": 1151,
      "侧": 1152,
      "侮": 1153,
      "侯": 1154,
      "便": 1155,
      "係": 1156,
      "促": 1157,
      "俄": 1158,
      "俊": 1159,
      "俎": 1160,
      "俔": 1161,
      "俗": 1162,
      "俚": 1163,
      "保": 1164,
      "俞": 1165,
      "信": 1166,
      "俣": 1167,
      "俭": 1168,
      "修": 1169,
      "俯": 1170,
      "俱": 1171,
      "俲": 1172,
      "俸": 1173,
      "俼": 1174,
      "俾": 1175,
      "倄": 1176,
      "倉": 1177,
      "個": 1178,
      "倌": 1179,
      "倍": 1180,
      "們": 1181,
      "倒": 1182,
      "倖": 1183,
      "候": 1184,
      "倚": 1185,
      "倝": 1186,
      "借": 1187,
      "倡": 1188,
      "倣": 1189,
      "値": 1190,
      "倦": 1191,
      "倫": 1192,
      "倭": 1193,
      "倮": 1194,
      "值": 1195,
      "倾": 1196,
      "偃": 1197,
      "偅": 1198,
      "假": 1199,
      "偉": 1200,
      "偏": 1201,
      "做": 1202,
      "停": 1203,
      "偠": 1204,
      "偢": 1205,
      "健": 1206,
      "偲": 1207,
      "側": 1208,
      "偶": 1209,
      "偽": 1210,
      "傅": 1211,
      "傈": 1212,
      "傍": 1213,
      "傑": 1214,
      "傘": 1215,
      "備": 1216,
      "傢": 1217,
      "催": 1218,
      "傲": 1219,
      "傳": 1220,
      "債": 1221,
      "傷": 1222,
      "傻": 1223,
      "傾": 1224,
      "僂": 1225,
      "僅": 1226,
      "僊": 1227,
      "働": 1228,
      "像": 1229,
      "僕": 1230,
      "僖": 1231,
      "僚": 1232,
      "僥": 1233,
      "僧": 1234,
      "僨": 1235,
      "僲": 1236,
      "僵": 1237,
      "價": 1238,
      "僺": 1239,
      "僻": 1240,
      "儀": 1241,
      "億": 1242,
      "儆": 1243,
      "儉": 1244,
      "儐": 1245,
      "儒": 1246,
      "儓": 1247,
      "儘": 1248,
      "償": 1249,
      "優": 1250,
      "儭": 1251,
      "儲": 1252,
      "儿": 1253,
      "兀": 1254,
      "允": 1255,
      "兂": 1256,
      "元": 1257,
      "兄": 1258,
      "充": 1259,
      "兆": 1260,
      "兇": 1261,
      "先": 1262,
      "光": 1263,
      "克": 1264,
      "兌": 1265,
      "免": 1266,
      "兎": 1267,
      "児": 1268,
      "兑": 1269,
      "兒": 1270,
      "兔": 1271,
      "兕": 1272,
      "党": 1273,
      "兜": 1274,
      "入": 1275,
      "內": 1276,
      "全": 1277,
      "兩": 1278,
      "八": 1279,
      "公": 1280,
      "六": 1281,
      "兰": 1282,
      "共": 1283,
      "关": 1284,
      "兴": 1285,
      "兵": 1286,
      "其": 1287,
      "具": 1288,
      "典": 1289,
      "兹": 1290,
      "养": 1291,
      "兼": 1292,
      "冀": 1293,
      "冂": 1294,
      "冃": 1295,
      "冄": 1296,
      "内": 1297,
      "円": 1298,
      "冈": 1299,
      "冉": 1300,
      "冊": 1301,
      "冋": 1302,
      "册": 1303,
      "再": 1304,
      "冎": 1305,
      "冏": 1306,
      "冒": 1307,
      "冓": 1308,
      "冖": 1309,
      "冗": 1310,
      "冘": 1311,
      "写": 1312,
      "军": 1313,
      "农": 1314,
      "冠": 1315,
      "冤": 1316,
      "冥": 1317,
      "冫": 1318,
      "冬": 1319,
      "冯": 1320,
      "冰": 1321,
      "冲": 1322,
      "决": 1323,
      "况": 1324,
      "冷": 1325,
      "冽": 1326,
      "凄": 1327,
      "准": 1328,
      "凉": 1329,
      "凋": 1330,
      "凌": 1331,
      "凍": 1332,
      "减": 1333,
      "凑": 1334,
      "凝": 1335,
      "凞": 1336,
      "几": 1337,
      "凡": 1338,
      "凤": 1339,
      "凥": 1340,
      "処": 1341,
      "凯": 1342,
      "凱": 1343,
      "凵": 1344,
      "凶": 1345,
      "凷": 1346,
      "凸": 1347,
      "凹": 1348,
      "出": 1349,
      "击": 1350,
      "函": 1351,
      "刀": 1352,
      "刁": 1353,
      "刂": 1354,
      "刃": 1355,
      "分": 1356,
      "切": 1357,
      "刈": 1358,
      "刊": 1359,
      "刑": 1360,
      "划": 1361,
      "列": 1362,
      "刘": 1363,
      "则": 1364,
      "刚": 1365,
      "创": 1366,
      "初": 1367,
      "判": 1368,
      "別": 1369,
      "利": 1370,
      "别": 1371,
      "刮": 1372,
      "到": 1373,
      "制": 1374,
      "刷": 1375,
      "券": 1376,
      "刺": 1377,
      "刻": 1378,
      "剂": 1379,
      "剃": 1380,
      "則": 1381,
      "削": 1382,
      "剋": 1383,
      "剌": 1384,
      "前": 1385,
      "剖": 1386,
      "剛": 1387,
      "剣": 1388,
      "剧": 1389,
      "剩": 1390,
      "剪": 1391,
      "副": 1392,
      "剰": 1393,
      "割": 1394,
      "創": 1395,
      "劃": 1396,
      "劇": 1397,
      "劉": 1398,
      "劍": 1399,
      "劑": 1400,
      "力": 1401,
      "办": 1402,
      "功": 1403,
      "加": 1404,
      "务": 1405,
      "劣": 1406,
      "劦": 1407,
      "动": 1408,
      "助": 1409,
      "努": 1410,
      "劫": 1411,
      "励": 1412,
      "劳": 1413,
      "労": 1414,
      "劷": 1415,
      "効": 1416,
      "劾": 1417,
      "势": 1418,
      "勁": 1419,
      "勃": 1420,
      "勅": 1421,
      "勇": 1422,
      "勉": 1423,
      "勒": 1424,
      "動": 1425,
      "勘": 1426,
      "務": 1427,
      "勝": 1428,
      "勞": 1429,
      "募": 1430,
      "勢": 1431,
      "勤": 1432,
      "勧": 1433,
      "勲": 1434,
      "勳": 1435,
      "勴": 1436,
      "勵": 1437,
      "勸": 1438,
      "勹": 1439,
      "勺": 1440,
      "勻": 1441,
      "勾": 1442,
      "勿": 1443,
      "匀": 1444,
      "匃": 1445,
      "包": 1446,
      "匋": 1447,
      "匍": 1448,
      "匐": 1449,
      "匕": 1450,
      "化": 1451,
      "北": 1452,
      "匙": 1453,
      "匚": 1454,
      "匡": 1455,
      "匯": 1456,
      "匸": 1457,
      "匹": 1458,
      "区": 1459,
      "医": 1460,
      "匼": 1461,
      "匽": 1462,
      "區": 1463,
      "十": 1464,
      "卂": 1465,
      "千": 1466,
      "卄": 1467,
      "卅": 1468,
      "卆": 1469,
      "升": 1470,
      "午": 1471,
      "卉": 1472,
      "半": 1473,
      "华": 1474,
      "协": 1475,
      "卑": 1476,
      "卒": 1477,
      "卓": 1478,
      "協": 1479,
      "单": 1480,
      "卖": 1481,
      "南": 1482,
      "単": 1483,
      "博": 1484,
      "卜": 1485,
      "卝": 1486,
      "占": 1487,
      "卡": 1488,
      "卦": 1489,
      "卧": 1490,
      "卩": 1491,
      "卫": 1492,
      "卬": 1493,
      "卯": 1494,
      "印": 1495,
      "危": 1496,
      "即": 1497,
      "却": 1498,
      "卵": 1499,
      "卷": 1500,
      "卸": 1501,
      "卻": 1502,
      "卿": 1503,
      "厂": 1504,
      "厃": 1505,
      "历": 1506,
      "厉": 1507,
      "压": 1508,
      "厘": 1509,
      "厚": 1510,
      "原": 1511,
      "厤": 1512,
      "厦": 1513,
      "厩": 1514,
      "厫": 1515,
      "厭": 1516,
      "厲": 1517,
      "厳": 1518,
      "厶": 1519,
      "去": 1520,
      "县": 1521,
      "叀": 1522,
      "参": 1523,
      "參": 1524,
      "又": 1525,
      "叉": 1526,
      "及": 1527,
      "友": 1528,
      "双": 1529,
      "反": 1530,
      "収": 1531,
      "叏": 1532,
      "叐": 1533,
      "发": 1534,
      "叓": 1535,
      "叔": 1536,
      "取": 1537,
      "受": 1538,
      "变": 1539,
      "叙": 1540,
      "叚": 1541,
      "叛": 1542,
      "叟": 1543,
      "叢": 1544,
      "口": 1545,
      "古": 1546,
      "句": 1547,
      "另": 1548,
      "叩": 1549,
      "只": 1550,
      "叫": 1551,
      "召": 1552,
      "叮": 1553,
      "可": 1554,
      "台": 1555,
      "叱": 1556,
      "史": 1557,
      "右": 1558,
      "叶": 1559,
      "号": 1560,
      "司": 1561,
      "叹": 1562,
      "吃": 1563,
      "各": 1564,
      "吅": 1565,
      "合": 1566,
      "吉": 1567,
      "吊": 1568,
      "吋": 1569,
      "同": 1570,
      "名": 1571,
      "后": 1572,
      "吏": 1573,
      "吐": 1574,
      "向": 1575,
      "吕": 1576,
      "君": 1577,
      "吞": 1578,
      "吟": 1579,
      "吣": 1580,
      "否": 1581,
      "吧": 1582,
      "吩": 1583,
      "含": 1584,
      "听": 1585,
      "启": 1586,
      "吳": 1587,
      "吴": 1588,
      "吵": 1589,
      "吸": 1590,
      "吹": 1591,
      "吻": 1592,
      "吾": 1593,
      "呀": 1594,
      "呂": 1595,
      "呆": 1596,
      "呈": 1597,
      "呉": 1598,
      "告": 1599,
      "呑": 1600,
      "员": 1601,
      "呢": 1602,
      "呤": 1603,
      "周": 1604,
      "呪": 1605,
      "味": 1606,
      "呵": 1607,
      "呶": 1608,
      "呼": 1609,
      "命": 1610,
      "咅": 1611,
      "咋": 1612,
      "和": 1613,
      "咒": 1614,
      "咕": 1615,
      "咖": 1616,
      "咤": 1617,
      "咨": 1618,
      "咬": 1619,
      "咱": 1620,
      "咲": 1621,
      "咳": 1622,
      "咸": 1623,
      "咼": 1624,
      "咽": 1625,
      "哀": 1626,
      "品": 1627,
      "哆": 1628,
      "哈": 1629,
      "哉": 1630,
      "响": 1631,
      "員": 1632,
      "哢": 1633,
      "哥": 1634,
      "哦": 1635,
      "哨": 1636,
      "哪": 1637,
      "哭": 1638,
      "哲": 1639,
      "唄": 1640,
      "唇": 1641,
      "唐": 1642,
      "唕": 1643,
      "唯": 1644,
      "唱": 1645,
      "唳": 1646,
      "唸": 1647,
      "唼": 1648,
      "唾": 1649,
      "啄": 1650,
      "商": 1651,
      "啇": 1652,
      "啉": 1653,
      "啊": 1654,
      "問": 1655,
      "啓": 1656,
      "啖": 1657,
      "啗": 1658,
      "啟": 1659,
      "啡": 1660,
      "啤": 1661,
      "啽": 1662,
      "喀": 1663,
      "喃": 1664,
      "善": 1665,
      "喉": 1666,
      "喑": 1667,
      "喓": 1668,
      "喘": 1669,
      "喚": 1670,
      "喜": 1671,
      "喝": 1672,
      "喟": 1673,
      "喤": 1674,
      "喧": 1675,
      "喩": 1676,
      "喪": 1677,
      "喫": 1678,
      "喬": 1679,
      "單": 1680,
      "営": 1681,
      "喷": 1682,
      "喻": 1683,
      "喿": 1684,
      "嗅": 1685,
      "嗎": 1686,
      "嗜": 1687,
      "嗟": 1688,
      "嗣": 1689,
      "嗶": 1690,
      "嗹": 1691,
      "嗾": 1692,
      "嘆": 1693,
      "嘉": 1694,
      "嘍": 1695,
      "嘗": 1696,
      "嘘": 1697,
      "嘛": 1698,
      "嘩": 1699,
      "嘬": 1700,
      "嘱": 1701,
      "嘲": 1702,
      "嘴": 1703,
      "嘻": 1704,
      "嘽": 1705,
      "噂": 1706,
      "噃": 1707,
      "噌": 1708,
      "噎": 1709,
      "噓": 1710,
      "噤": 1711,
      "器": 1712,
      "噩": 1713,
      "噪": 1714,
      "噴": 1715,
      "噵": 1716,
      "噹": 1717,
      "噼": 1718,
      "嚀": 1719,
      "嚇": 1720,
      "嚊": 1721,
      "嚔": 1722,
      "嚝": 1723,
      "嚢": 1724,
      "嚥": 1725,
      "嚫": 1726,
      "嚭": 1727,
      "嚴": 1728,
      "嚼": 1729,
      "囊": 1730,
      "囍": 1731,
      "囏": 1732,
      "囑": 1733,
      "囗": 1734,
      "囚": 1735,
      "四": 1736,
      "回": 1737,
      "囟": 1738,
      "因": 1739,
      "囡": 1740,
      "团": 1741,
      "団": 1742,
      "囪": 1743,
      "囬": 1744,
      "园": 1745,
      "困": 1746,
      "囱": 1747,
      "囲": 1748,
      "図": 1749,
      "固": 1750,
      "国": 1751,
      "图": 1752,
      "圀": 1753,
      "圃": 1754,
      "圆": 1755,
      "圈": 1756,
      "圉": 1757,
      "國": 1758,
      "圍": 1759,
      "圏": 1760,
      "園": 1761,
      "圓": 1762,
      "圖": 1763,
      "團": 1764,
      "土": 1765,
      "圠": 1766,
      "圡": 1767,
      "圢": 1768,
      "圣": 1769,
      "圥": 1770,
      "圧": 1771,
      "在": 1772,
      "圭": 1773,
      "圯": 1774,
      "地": 1775,
      "场": 1776,
      "址": 1777,
      "坂": 1778,
      "均": 1779,
      "坊": 1780,
      "坌": 1781,
      "坎": 1782,
      "坐": 1783,
      "坑": 1784,
      "块": 1785,
      "坚": 1786,
      "坡": 1787,
      "坤": 1788,
      "坥": 1789,
      "坦": 1790,
      "坪": 1791,
      "坴": 1792,
      "坷": 1793,
      "垂": 1794,
      "型": 1795,
      "垔": 1796,
      "垚": 1797,
      "垢": 1798,
      "垣": 1799,
      "埀": 1800,
      "埃": 1801,
      "埋": 1802,
      "城": 1803,
      "埔": 1804,
      "埜": 1805,
      "域": 1806,
      "埤": 1807,
      "埶": 1808,
      "執": 1809,
      "培": 1810,
      "基": 1811,
      "堀": 1812,
      "堂": 1813,
      "堃": 1814,
      "堅": 1815,
      "堆": 1816,
      "堇": 1817,
      "堕": 1818,
      "堠": 1819,
      "堡": 1820,
      "堤": 1821,
      "堪": 1822,
      "堭": 1823,
      "堯": 1824,
      "報": 1825,
      "場": 1826,
      "堵": 1827,
      "堹": 1828,
      "塀": 1829,
      "塁": 1830,
      "塊": 1831,
      "塌": 1832,
      "塍": 1833,
      "塒": 1834,
      "塔": 1835,
      "塗": 1836,
      "塚": 1837,
      "塞": 1838,
      "塢": 1839,
      "塩": 1840,
      "填": 1841,
      "塰": 1842,
      "塵": 1843,
      "塾": 1844,
      "境": 1845,
      "墉": 1846,
      "墊": 1847,
      "墓": 1848,
      "墖": 1849,
      "増": 1850,
      "墜": 1851,
      "增": 1852,
      "墨": 1853,
      "墮": 1854,
      "墳": 1855,
      "墺": 1856,
      "墻": 1857,
      "墾": 1858,
      "壁": 1859,
      "壂": 1860,
      "壇": 1861,
      "壊": 1862,
      "壍": 1863,
      "壓": 1864,
      "壘": 1865,
      "壞": 1866,
      "壩": 1867,
      "士": 1868,
      "壬": 1869,
      "壮": 1870,
      "壯": 1871,
      "声": 1872,
      "壱": 1873,
      "売": 1874,
      "壳": 1875,
      "壴": 1876,
      "壹": 1877,
      "壺": 1878,
      "壽": 1879,
      "夂": 1880,
      "处": 1881,
      "夅": 1882,
      "夆": 1883,
      "备": 1884,
      "変": 1885,
      "夊": 1886,
      "夋": 1887,
      "夌": 1888,
      "复": 1889,
      "夏": 1890,
      "夔": 1891,
      "夕": 1892,
      "外": 1893,
      "夗": 1894,
      "夘": 1895,
      "夙": 1896,
      "多": 1897,
      "夜": 1898,
      "够": 1899,
      "夠": 1900,
      "夢": 1901,
      "夣": 1902,
      "夤": 1903,
      "夥": 1904,
      "大": 1905,
      "夨": 1906,
      "天": 1907,
      "太": 1908,
      "夫": 1909,
      "夬": 1910,
      "夭": 1911,
      "央": 1912,
      "夰": 1913,
      "失": 1914,
      "夲": 1915,
      "头": 1916,
      "夵": 1917,
      "夷": 1918,
      "夸": 1919,
      "夹": 1920,
      "夽": 1921,
      "夾": 1922,
      "夿": 1923,
      "奂": 1924,
      "奄": 1925,
      "奇": 1926,
      "奈": 1927,
      "奉": 1928,
      "奎": 1929,
      "奏": 1930,
      "奐": 1931,
      "契": 1932,
      "奔": 1933,
      "套": 1934,
      "奚": 1935,
      "奛": 1936,
      "奠": 1937,
      "奥": 1938,
      "奧": 1939,
      "奨": 1940,
      "奪": 1941,
      "奮": 1942,
      "女": 1943,
      "奴": 1944,
      "奶": 1945,
      "奸": 1946,
      "她": 1947,
      "好": 1948,
      "如": 1949,
      "妄": 1950,
      "妇": 1951,
      "妈": 1952,
      "妒": 1953,
      "妓": 1954,
      "妕": 1955,
      "妖": 1956,
      "妗": 1957,
      "妙": 1958,
      "妛": 1959,
      "妝": 1960,
      "妟": 1961,
      "妥": 1962,
      "妨": 1963,
      "妬": 1964,
      "妯": 1965,
      "妲": 1966,
      "妳": 1967,
      "妷": 1968,
      "妹": 1969,
      "妻": 1970,
      "妾": 1971,
      "姆": 1972,
      "姉": 1973,
      "姊": 1974,
      "始": 1975,
      "姐": 1976,
      "姑": 1977,
      "姒": 1978,
      "姓": 1979,
      "委": 1980,
      "姜": 1981,
      "姝": 1982,
      "姞": 1983,
      "姣": 1984,
      "姥": 1985,
      "姦": 1986,
      "姨": 1987,
      "姫": 1988,
      "姻": 1989,
      "姿": 1990,
      "威": 1991,
      "娃": 1992,
      "娄": 1993,
      "娉": 1994,
      "娌": 1995,
      "娓": 1996,
      "娘": 1997,
      "娚": 1998,
      "娜": 1999,
      "娟": 2000,
      "娣": 2001,
      "娯": 2002,
      "娵": 2003,
      "娶": 2004,
      "婀": 2005,
      "婁": 2006,
      "婄": 2007,
      "婆": 2008,
      "婇": 2009,
      "婉": 2010,
      "婐": 2011,
      "婚": 2012,
      "婢": 2013,
      "婦": 2014,
      "婬": 2015,
      "媋": 2016,
      "媒": 2017,
      "媚": 2018,
      "媛": 2019,
      "媧": 2020,
      "媬": 2021,
      "媱": 2022,
      "媵": 2023,
      "媾": 2024,
      "嫁": 2025,
      "嫂": 2026,
      "嫉": 2027,
      "嫋": 2028,
      "嫌": 2029,
      "嫐": 2030,
      "嫜": 2031,
      "嫡": 2032,
      "嫥": 2033,
      "嫩": 2034,
      "嬉": 2035,
      "嬌": 2036,
      "嬖": 2037,
      "嬙": 2038,
      "嬛": 2039,
      "嬡": 2040,
      "嬢": 2041,
      "嬪": 2042,
      "嬰": 2043,
      "嬲": 2044,
      "嬴": 2045,
      "嬶": 2046,
      "嬸": 2047,
      "嬾": 2048,
      "子": 2049,
      "孑": 2050,
      "孒": 2051,
      "孔": 2052,
      "孕": 2053,
      "字": 2054,
      "存": 2055,
      "孙": 2056,
      "孚": 2057,
      "孜": 2058,
      "孝": 2059,
      "孟": 2060,
      "季": 2061,
      "孤": 2062,
      "孥": 2063,
      "学": 2064,
      "孩": 2065,
      "孫": 2066,
      "孰": 2067,
      "學": 2068,
      "孺": 2069,
      "孽": 2070,
      "孾": 2071,
      "宀": 2072,
      "宁": 2073,
      "它": 2074,
      "宅": 2075,
      "宇": 2076,
      "守": 2077,
      "安": 2078,
      "宋": 2079,
      "完": 2080,
      "宏": 2081,
      "宑": 2082,
      "宕": 2083,
      "宗": 2084,
      "官": 2085,
      "宙": 2086,
      "定": 2087,
      "宛": 2088,
      "宜": 2089,
      "宝": 2090,
      "实": 2091,
      "実": 2092,
      "审": 2093,
      "客": 2094,
      "宣": 2095,
      "室": 2096,
      "宫": 2097,
      "宮": 2098,
      "宰": 2099,
      "害": 2100,
      "宴": 2101,
      "宵": 2102,
      "家": 2103,
      "容": 2104,
      "宽": 2105,
      "宿": 2106,
      "寂": 2107,
      "寄": 2108,
      "寅": 2109,
      "密": 2110,
      "寇": 2111,
      "富": 2112,
      "寐": 2113,
      "寒": 2114,
      "寓": 2115,
      "寔": 2116,
      "寚": 2117,
      "寛": 2118,
      "寝": 2119,
      "寞": 2120,
      "察": 2121,
      "寡": 2122,
      "寢": 2123,
      "實": 2124,
      "寧": 2125,
      "寨": 2126,
      "審": 2127,
      "寫": 2128,
      "寬": 2129,
      "寳": 2130,
      "寵": 2131,
      "寶": 2132,
      "寸": 2133,
      "对": 2134,
      "寺": 2135,
      "寻": 2136,
      "导": 2137,
      "対": 2138,
      "寿": 2139,
      "封": 2140,
      "専": 2141,
      "尃": 2142,
      "射": 2143,
      "将": 2144,
      "將": 2145,
      "專": 2146,
      "尉": 2147,
      "尊": 2148,
      "尋": 2149,
      "尌": 2150,
      "對": 2151,
      "導": 2152,
      "小": 2153,
      "少": 2154,
      "尒": 2155,
      "尓": 2156,
      "尔": 2157,
      "尖": 2158,
      "尗": 2159,
      "尚": 2160,
      "尞": 2161,
      "尢": 2162,
      "尤": 2163,
      "尧": 2164,
      "尭": 2165,
      "就": 2166,
      "尸": 2167,
      "尹": 2168,
      "尺": 2169,
      "尻": 2170,
      "尼": 2171,
      "尽": 2172,
      "尾": 2173,
      "尿": 2174,
      "局": 2175,
      "屁": 2176,
      "层": 2177,
      "屄": 2178,
      "居": 2179,
      "屆": 2180,
      "屈": 2181,
      "届": 2182,
      "屋": 2183,
      "屍": 2184,
      "屎": 2185,
      "屏": 2186,
      "屑": 2187,
      "展": 2188,
      "屙": 2189,
      "属": 2190,
      "屡": 2191,
      "屢": 2192,
      "屣": 2193,
      "層": 2194,
      "履": 2195,
      "屬": 2196,
      "屮": 2197,
      "屯": 2198,
      "山": 2199,
      "岁": 2200,
      "岂": 2201,
      "岐": 2202,
      "岗": 2203,
      "岛": 2204,
      "岟": 2205,
      "岡": 2206,
      "岩": 2207,
      "岫": 2208,
      "岭": 2209,
      "岱": 2210,
      "岳": 2211,
      "岸": 2212,
      "峇": 2213,
      "峒": 2214,
      "峙": 2215,
      "峠": 2216,
      "峡": 2217,
      "峰": 2218,
      "島": 2219,
      "峻": 2220,
      "峽": 2221,
      "崇": 2222,
      "崋": 2223,
      "崎": 2224,
      "崔": 2225,
      "崖": 2226,
      "崗": 2227,
      "崚": 2228,
      "崛": 2229,
      "崦": 2230,
      "崩": 2231,
      "崽": 2232,
      "嵌": 2233,
      "嵯": 2234,
      "嶴": 2235,
      "嶺": 2236,
      "嶽": 2237,
      "巌": 2238,
      "巍": 2239,
      "巑": 2240,
      "巖": 2241,
      "巛": 2242,
      "巜": 2243,
      "川": 2244,
      "州": 2245,
      "巠": 2246,
      "巡": 2247,
      "巢": 2248,
      "巣": 2249,
      "工": 2250,
      "左": 2251,
      "巧": 2252,
      "巨": 2253,
      "差": 2254,
      "己": 2255,
      "已": 2256,
      "巳": 2257,
      "巴": 2258,
      "巸": 2259,
      "巻": 2260,
      "巾": 2261,
      "巿": 2262,
      "帀": 2263,
      "市": 2264,
      "布": 2265,
      "帆": 2266,
      "师": 2267,
      "希": 2268,
      "帐": 2269,
      "帕": 2270,
      "帖": 2271,
      "帘": 2272,
      "帙": 2273,
      "帚": 2274,
      "帛": 2275,
      "帝": 2276,
      "帥": 2277,
      "带": 2278,
      "師": 2279,
      "席": 2280,
      "帮": 2281,
      "帯": 2282,
      "帰": 2283,
      "帳": 2284,
      "帶": 2285,
      "常": 2286,
      "帽": 2287,
      "幃": 2288,
      "幅": 2289,
      "幌": 2290,
      "幕": 2291,
      "幗": 2292,
      "幟": 2293,
      "幡": 2294,
      "幣": 2295,
      "幫": 2296,
      "幮": 2297,
      "干": 2298,
      "平": 2299,
      "年": 2300,
      "幵": 2301,
      "并": 2302,
      "幸": 2303,
      "幹": 2304,
      "幺": 2305,
      "幻": 2306,
      "幼": 2307,
      "幽": 2308,
      "幾": 2309,
      "广": 2310,
      "庁": 2311,
      "広": 2312,
      "庄": 2313,
      "庆": 2314,
      "床": 2315,
      "序": 2316,
      "库": 2317,
      "应": 2318,
      "底": 2319,
      "庖": 2320,
      "店": 2321,
      "庙": 2322,
      "庚": 2323,
      "府": 2324,
      "废": 2325,
      "庢": 2326,
      "度": 2327,
      "座": 2328,
      "庪": 2329,
      "庫": 2330,
      "庭": 2331,
      "庶": 2332,
      "康": 2333,
      "庸": 2334,
      "庽": 2335,
      "庿": 2336,
      "廁": 2337,
      "廈": 2338,
      "廉": 2339,
      "廊": 2340,
      "廌": 2341,
      "廏": 2342,
      "廐": 2343,
      "廑": 2344,
      "廓": 2345,
      "廚": 2346,
      "廟": 2347,
      "廠": 2348,
      "廢": 2349,
      "廣": 2350,
      "廫": 2351,
      "廳": 2352,
      "廴": 2353,
      "延": 2354,
      "廷": 2355,
      "建": 2356,
      "廻": 2357,
      "廾": 2358,
      "廿": 2359,
      "开": 2360,
      "弁": 2361,
      "异": 2362,
      "弃": 2363,
      "弄": 2364,
      "弊": 2365,
      "弋": 2366,
      "式": 2367,
      "弓": 2368,
      "弔": 2369,
      "引": 2370,
      "弗": 2371,
      "弘": 2372,
      "弟": 2373,
      "张": 2374,
      "弥": 2375,
      "弦": 2376,
      "弧": 2377,
      "弩": 2378,
      "弱": 2379,
      "弴": 2380,
      "張": 2381,
      "強": 2382,
      "弹": 2383,
      "强": 2384,
      "弻": 2385,
      "弼": 2386,
      "弾": 2387,
      "彈": 2388,
      "彌": 2389,
      "彎": 2390,
      "彐": 2391,
      "归": 2392,
      "当": 2393,
      "录": 2394,
      "彙": 2395,
      "彛": 2396,
      "彝": 2397,
      "彡": 2398,
      "形": 2399,
      "彥": 2400,
      "彦": 2401,
      "彩": 2402,
      "彬": 2403,
      "彭": 2404,
      "彰": 2405,
      "影": 2406,
      "彳": 2407,
      "役": 2408,
      "彼": 2409,
      "彿": 2410,
      "往": 2411,
      "征": 2412,
      "徃": 2413,
      "径": 2414,
      "待": 2415,
      "很": 2416,
      "律": 2417,
      "後": 2418,
      "徐": 2419,
      "徑": 2420,
      "徒": 2421,
      "従": 2422,
      "得": 2423,
      "從": 2424,
      "御": 2425,
      "復": 2426,
      "循": 2427,
      "微": 2428,
      "徳": 2429,
      "徴": 2430,
      "徵": 2431,
      "德": 2432,
      "徹": 2433,
      "徽": 2434,
      "心": 2435,
      "忄": 2436,
      "必": 2437,
      "忈": 2438,
      "忌": 2439,
      "忍": 2440,
      "志": 2441,
      "忘": 2442,
      "忙": 2443,
      "応": 2444,
      "忝": 2445,
      "忠": 2446,
      "忩": 2447,
      "快": 2448,
      "念": 2449,
      "忽": 2450,
      "忿": 2451,
      "怀": 2452,
      "态": 2453,
      "怎": 2454,
      "怒": 2455,
      "怕": 2456,
      "怖": 2457,
      "怘": 2458,
      "怙": 2459,
      "怜": 2460,
      "思": 2461,
      "怠": 2462,
      "怡": 2463,
      "急": 2464,
      "性": 2465,
      "怨": 2466,
      "怪": 2467,
      "怯": 2468,
      "总": 2469,
      "恋": 2470,
      "恐": 2471,
      "恒": 2472,
      "恕": 2473,
      "恢": 2474,
      "恥": 2475,
      "恨": 2476,
      "恩": 2477,
      "恭": 2478,
      "息": 2479,
      "恰": 2480,
      "恵": 2481,
      "恶": 2482,
      "悅": 2483,
      "悌": 2484,
      "悔": 2485,
      "悟": 2486,
      "悠": 2487,
      "患": 2488,
      "悦": 2489,
      "您": 2490,
      "悪": 2491,
      "悬": 2492,
      "悲": 2493,
      "悳": 2494,
      "情": 2495,
      "惊": 2496,
      "惑": 2497,
      "惕": 2498,
      "惚": 2499,
      "惜": 2500,
      "惟": 2501,
      "惠": 2502,
      "惡": 2503,
      "惨": 2504,
      "惩": 2505,
      "惮": 2506,
      "想": 2507,
      "惶": 2508,
      "惹": 2509,
      "愁": 2510,
      "愈": 2511,
      "愉": 2512,
      "意": 2513,
      "愑": 2514,
      "愚": 2515,
      "愛": 2516,
      "感": 2517,
      "愣": 2518,
      "愧": 2519,
      "慈": 2520,
      "態": 2521,
      "慌": 2522,
      "慎": 2523,
      "慕": 2524,
      "慘": 2525,
      "慙": 2526,
      "慟": 2527,
      "慢": 2528,
      "慣": 2529,
      "慥": 2530,
      "慧": 2531,
      "慨": 2532,
      "慮": 2533,
      "慰": 2534,
      "慶": 2535,
      "憂": 2536,
      "憎": 2537,
      "憐": 2538,
      "憘": 2539,
      "憙": 2540,
      "憚": 2541,
      "憤": 2542,
      "憧": 2543,
      "憩": 2544,
      "憲": 2545,
      "憶": 2546,
      "憾": 2547,
      "懂": 2548,
      "懇": 2549,
      "懈": 2550,
      "應": 2551,
      "懐": 2552,
      "懬": 2553,
      "懲": 2554,
      "懶": 2555,
      "懷": 2556,
      "懸": 2557,
      "懺": 2558,
      "懽": 2559,
      "戀": 2560,
      "戁": 2561,
      "戈": 2562,
      "戉": 2563,
      "戊": 2564,
      "戋": 2565,
      "戌": 2566,
      "戍": 2567,
      "戎": 2568,
      "成": 2569,
      "我": 2570,
      "戒": 2571,
      "戔": 2572,
      "或": 2573,
      "战": 2574,
      "戚": 2575,
      "戛": 2576,
      "戜": 2577,
      "戟": 2578,
      "戠": 2579,
      "戦": 2580,
      "戯": 2581,
      "戰": 2582,
      "戲": 2583,
      "戳": 2584,
      "戴": 2585,
      "戶": 2586,
      "户": 2587,
      "戸": 2588,
      "房": 2589,
      "所": 2590,
      "扁": 2591,
      "扇": 2592,
      "手": 2593,
      "扌": 2594,
      "才": 2595,
      "扎": 2596,
      "扑": 2597,
      "扒": 2598,
      "打": 2599,
      "扔": 2600,
      "払": 2601,
      "托": 2602,
      "扣": 2603,
      "执": 2604,
      "扩": 2605,
      "扫": 2606,
      "扯": 2607,
      "扱": 2608,
      "扳": 2609,
      "扶": 2610,
      "批": 2611,
      "找": 2612,
      "承": 2613,
      "技": 2614,
      "抄": 2615,
      "把": 2616,
      "抑": 2617,
      "抓": 2618,
      "投": 2619,
      "抗": 2620,
      "折": 2621,
      "抛": 2622,
      "抜": 2623,
      "报": 2624,
      "披": 2625,
      "抱": 2626,
      "抵": 2627,
      "抹": 2628,
      "押": 2629,
      "抽": 2630,
      "拂": 2631,
      "担": 2632,
      "拆": 2633,
      "拈": 2634,
      "拉": 2635,
      "拍": 2636,
      "拐": 2637,
      "拒": 2638,
      "拓": 2639,
      "拔": 2640,
      "拘": 2641,
      "拙": 2642,
      "招": 2643,
      "拜": 2644,
      "拝": 2645,
      "拟": 2646,
      "拠": 2647,
      "拡": 2648,
      "括": 2649,
      "拭": 2650,
      "拯": 2651,
      "拳": 2652,
      "拶": 2653,
      "拷": 2654,
      "拼": 2655,
      "拾": 2656,
      "拿": 2657,
      "持": 2658,
      "挂": 2659,
      "指": 2660,
      "按": 2661,
      "挑": 2662,
      "挖": 2663,
      "挙": 2664,
      "挟": 2665,
      "挤": 2666,
      "挥": 2667,
      "挨": 2668,
      "挪": 2669,
      "振": 2670,
      "挲": 2671,
      "挺": 2672,
      "挼": 2673,
      "挽": 2674,
      "挿": 2675,
      "捉": 2676,
      "捐": 2677,
      "捕": 2678,
      "捜": 2679,
      "换": 2680,
      "捧": 2681,
      "捨": 2682,
      "据": 2683,
      "捲": 2684,
      "捷": 2685,
      "掃": 2686,
      "授": 2687,
      "掉": 2688,
      "掌": 2689,
      "掎": 2690,
      "排": 2691,
      "掘": 2692,
      "掙": 2693,
      "掛": 2694,
      "採": 2695,
      "探": 2696,
      "掣": 2697,
      "接": 2698,
      "控": 2699,
      "推": 2700,
      "掩": 2701,
      "措": 2702,
      "掫": 2703,
      "掵": 2704,
      "揀": 2705,
      "揉": 2706,
      "描": 2707,
      "提": 2708,
      "插": 2709,
      "揕": 2710,
      "揚": 2711,
      "換": 2712,
      "握": 2713,
      "揭": 2714,
      "揮": 2715,
      "援": 2716,
      "損": 2717,
      "搐": 2718,
      "搖": 2719,
      "搜": 2720,
      "搬": 2721,
      "搭": 2722,
      "携": 2723,
      "搽": 2724,
      "搾": 2725,
      "摂": 2726,
      "摘": 2727,
      "摟": 2728,
      "摩": 2729,
      "摯": 2730,
      "摶": 2731,
      "摸": 2732,
      "摹": 2733,
      "撃": 2734,
      "撇": 2735,
      "撈": 2736,
      "撐": 2737,
      "撒": 2738,
      "撞": 2739,
      "撤": 2740,
      "撦": 2741,
      "撫": 2742,
      "播": 2743,
      "撮": 2744,
      "撰": 2745,
      "撲": 2746,
      "擁": 2747,
      "擂": 2748,
      "擇": 2749,
      "擊": 2750,
      "操": 2751,
      "擒": 2752,
      "擔": 2753,
      "據": 2754,
      "擠": 2755,
      "擡": 2756,
      "擢": 2757,
      "擣": 2758,
      "擦": 2759,
      "擬": 2760,
      "擲": 2761,
      "擴": 2762,
      "擺": 2763,
      "擾": 2764,
      "攀": 2765,
      "攏": 2766,
      "攜": 2767,
      "攝": 2768,
      "攤": 2769,
      "支": 2770,
      "攴": 2771,
      "攵": 2772,
      "收": 2773,
      "攸": 2774,
      "改": 2775,
      "攻": 2776,
      "放": 2777,
      "政": 2778,
      "敄": 2779,
      "故": 2780,
      "效": 2781,
      "敌": 2782,
      "敏": 2783,
      "救": 2784,
      "敗": 2785,
      "教": 2786,
      "敝": 2787,
      "敢": 2788,
      "散": 2789,
      "敦": 2790,
      "敫": 2791,
      "敬": 2792,
      "数": 2793,
      "整": 2794,
      "敵": 2795,
      "敷": 2796,
      "數": 2797,
      "斅": 2798,
      "文": 2799,
      "斉": 2800,
      "斐": 2801,
      "斑": 2802,
      "斗": 2803,
      "料": 2804,
      "斜": 2805,
      "斤": 2806,
      "斥": 2807,
      "斧": 2808,
      "斬": 2809,
      "断": 2810,
      "斯": 2811,
      "新": 2812,
      "斳": 2813,
      "斷": 2814,
      "方": 2815,
      "於": 2816,
      "施": 2817,
      "斿": 2818,
      "旁": 2819,
      "旄": 2820,
      "旅": 2821,
      "旈": 2822,
      "旉": 2823,
      "旋": 2824,
      "族": 2825,
      "旒": 2826,
      "旗": 2827,
      "旛": 2828,
      "无": 2829,
      "旡": 2830,
      "既": 2831,
      "日": 2832,
      "旦": 2833,
      "旧": 2834,
      "旨": 2835,
      "早": 2836,
      "旬": 2837,
      "旭": 2838,
      "旱": 2839,
      "时": 2840,
      "旺": 2841,
      "旾": 2842,
      "旿": 2843,
      "昂": 2844,
      "昆": 2845,
      "昇": 2846,
      "昉": 2847,
      "昊": 2848,
      "昌": 2849,
      "明": 2850,
      "昏": 2851,
      "易": 2852,
      "昔": 2853,
      "昜": 2854,
      "星": 2855,
      "映": 2856,
      "春": 2857,
      "昦": 2858,
      "昧": 2859,
      "昨": 2860,
      "昭": 2861,
      "是": 2862,
      "昱": 2863,
      "昺": 2864,
      "昼": 2865,
      "显": 2866,
      "時": 2867,
      "晃": 2868,
      "晄": 2869,
      "晉": 2870,
      "晋": 2871,
      "晌": 2872,
      "晏": 2873,
      "晒": 2874,
      "晓": 2875,
      "晗": 2876,
      "晚": 2877,
      "晜": 2878,
      "晝": 2879,
      "晢": 2880,
      "晦": 2881,
      "晧": 2882,
      "晨": 2883,
      "晩": 2884,
      "普": 2885,
      "景": 2886,
      "晴": 2887,
      "晶": 2888,
      "晸": 2889,
      "智": 2890,
      "暁": 2891,
      "暇": 2892,
      "暈": 2893,
      "暉": 2894,
      "暐": 2895,
      "暑": 2896,
      "暖": 2897,
      "暗": 2898,
      "暤": 2899,
      "暦": 2900,
      "暫": 2901,
      "暭": 2902,
      "暮": 2903,
      "暲": 2904,
      "暴": 2905,
      "暵": 2906,
      "暻": 2907,
      "暾": 2908,
      "曀": 2909,
      "曂": 2910,
      "曄": 2911,
      "曆": 2912,
      "曇": 2913,
      "曈": 2914,
      "曉": 2915,
      "曙": 2916,
      "曜": 2917,
      "曠": 2918,
      "曨": 2919,
      "曬": 2920,
      "曰": 2921,
      "曲": 2922,
      "曳": 2923,
      "更": 2924,
      "曷": 2925,
      "書": 2926,
      "曹": 2927,
      "曼": 2928,
      "曽": 2929,
      "曾": 2930,
      "替": 2931,
      "最": 2932,
      "會": 2933,
      "月": 2934,
      "有": 2935,
      "朋": 2936,
      "服": 2937,
      "朔": 2938,
      "朕": 2939,
      "朗": 2940,
      "望": 2941,
      "朝": 2942,
      "期": 2943,
      "朠": 2944,
      "朧": 2945,
      "木": 2946,
      "朩": 2947,
      "未": 2948,
      "末": 2949,
      "本": 2950,
      "札": 2951,
      "朮": 2952,
      "术": 2953,
      "朱": 2954,
      "朳": 2955,
      "朴": 2956,
      "朵": 2957,
      "朶": 2958,
      "机": 2959,
      "朽": 2960,
      "朾": 2961,
      "朿": 2962,
      "杀": 2963,
      "杂": 2964,
      "权": 2965,
      "杉": 2966,
      "李": 2967,
      "杏": 2968,
      "材": 2969,
      "村": 2970,
      "杔": 2971,
      "杜": 2972,
      "束": 2973,
      "条": 2974,
      "来": 2975,
      "杨": 2976,
      "杭": 2977,
      "杯": 2978,
      "杰": 2979,
      "東": 2980,
      "杲": 2981,
      "杳": 2982,
      "杷": 2983,
      "松": 2984,
      "板": 2985,
      "极": 2986,
      "构": 2987,
      "枉": 2988,
      "枋": 2989,
      "析": 2990,
      "枕": 2991,
      "林": 2992,
      "枚": 2993,
      "果": 2994,
      "枝": 2995,
      "枠": 2996,
      "枪": 2997,
      "枯": 2998,
      "架": 2999,
      "枷": 3000,
      "枼": 3001,
      "柄": 3002,
      "柏": 3003,
      "某": 3004,
      "柒": 3005,
      "染": 3006,
      "柔": 3007,
      "柛": 3008,
      "柜": 3009,
      "查": 3010,
      "柬": 3011,
      "柯": 3012,
      "柰": 3013,
      "柱": 3014,
      "柳": 3015,
      "柴": 3016,
      "査": 3017,
      "柿": 3018,
      "栄": 3019,
      "标": 3020,
      "树": 3021,
      "栖": 3022,
      "栗": 3023,
      "栝": 3024,
      "栞": 3025,
      "校": 3026,
      "株": 3027,
      "样": 3028,
      "核": 3029,
      "根": 3030,
      "格": 3031,
      "栽": 3032,
      "栿": 3033,
      "桀": 3034,
      "桂": 3035,
      "桃": 3036,
      "框": 3037,
      "案": 3038,
      "桌": 3039,
      "桐": 3040,
      "桑": 3041,
      "桜": 3042,
      "桝": 3043,
      "档": 3044,
      "桥": 3045,
      "桰": 3046,
      "桵": 3047,
      "桶": 3048,
      "桼": 3049,
      "梁": 3050,
      "梅": 3051,
      "梓": 3052,
      "梗": 3053,
      "條": 3054,
      "梦": 3055,
      "梧": 3056,
      "梨": 3057,
      "梯": 3058,
      "械": 3059,
      "梳": 3060,
      "梵": 3061,
      "梶": 3062,
      "梼": 3063,
      "棄": 3064,
      "棋": 3065,
      "棌": 3066,
      "棒": 3067,
      "棕": 3068,
      "棘": 3069,
      "棚": 3070,
      "棟": 3071,
      "棠": 3072,
      "棥": 3073,
      "森": 3074,
      "棱": 3075,
      "棲": 3076,
      "棵": 3077,
      "棺": 3078,
      "棼": 3079,
      "椅": 3080,
      "植": 3081,
      "椏": 3082,
      "椒": 3083,
      "椖": 3084,
      "検": 3085,
      "椰": 3086,
      "椿": 3087,
      "楂": 3088,
      "楊": 3089,
      "楓": 3090,
      "楕": 3091,
      "楚": 3092,
      "楞": 3093,
      "楠": 3094,
      "業": 3095,
      "極": 3096,
      "楸": 3097,
      "楼": 3098,
      "楽": 3099,
      "概": 3100,
      "榘": 3101,
      "榜": 3102,
      "榭": 3103,
      "榮": 3104,
      "榴": 3105,
      "構": 3106,
      "槌": 3107,
      "槍": 3108,
      "様": 3109,
      "槙": 3110,
      "槯": 3111,
      "樂": 3112,
      "樊": 3113,
      "樋": 3114,
      "樓": 3115,
      "標": 3116,
      "樟": 3117,
      "模": 3118,
      "樣": 3119,
      "樤": 3120,
      "権": 3121,
      "横": 3122,
      "樷": 3123,
      "樹": 3124,
      "樺": 3125,
      "樽": 3126,
      "橄": 3127,
      "橋": 3128,
      "橎": 3129,
      "橐": 3130,
      "橘": 3131,
      "橙": 3132,
      "機": 3133,
      "橪": 3134,
      "橫": 3135,
      "橲": 3136,
      "檀": 3137,
      "檎": 3138,
      "檑": 3139,
      "檝": 3140,
      "檢": 3141,
      "檬": 3142,
      "檮": 3143,
      "檯": 3144,
      "檳": 3145,
      "檸": 3146,
      "櫃": 3147,
      "櫉": 3148,
      "櫔": 3149,
      "櫖": 3150,
      "櫛": 3151,
      "櫜": 3152,
      "櫬": 3153,
      "櫻": 3154,
      "欂": 3155,
      "欄": 3156,
      "欉": 3157,
      "權": 3158,
      "欖": 3159,
      "欠": 3160,
      "次": 3161,
      "欢": 3162,
      "欣": 3163,
      "欧": 3164,
      "欲": 3165,
      "欺": 3166,
      "欽": 3167,
      "款": 3168,
      "歌": 3169,
      "歎": 3170,
      "歐": 3171,
      "歓": 3172,
      "歡": 3173,
      "止": 3174,
      "正": 3175,
      "此": 3176,
      "步": 3177,
      "武": 3178,
      "歧": 3179,
      "歩": 3180,
      "歪": 3181,
      "歯": 3182,
      "歲": 3183,
      "歳": 3184,
      "歴": 3185,
      "歷": 3186,
      "歸": 3187,
      "歹": 3188,
      "歺": 3189,
      "死": 3190,
      "殊": 3191,
      "残": 3192,
      "殖": 3193,
      "殘": 3194,
      "殰": 3195,
      "殳": 3196,
      "段": 3197,
      "殸": 3198,
      "殺": 3199,
      "殻": 3200,
      "殼": 3201,
      "殾": 3202,
      "殿": 3203,
      "毀": 3204,
      "毋": 3205,
      "毌": 3206,
      "母": 3207,
      "毎": 3208,
      "每": 3209,
      "毐": 3210,
      "毒": 3211,
      "比": 3212,
      "毕": 3213,
      "毗": 3214,
      "毘": 3215,
      "毛": 3216,
      "毫": 3217,
      "氈": 3218,
      "氎": 3219,
      "氏": 3220,
      "氐": 3221,
      "民": 3222,
      "气": 3223,
      "気": 3224,
      "氣": 3225,
      "水": 3226,
      "氵": 3227,
      "氶": 3228,
      "氷": 3229,
      "永": 3230,
      "氺": 3231,
      "氿": 3232,
      "汀": 3233,
      "汁": 3234,
      "求": 3235,
      "汉": 3236,
      "汏": 3237,
      "汕": 3238,
      "汗": 3239,
      "汙": 3240,
      "汚": 3241,
      "汝": 3242,
      "江": 3243,
      "池": 3244,
      "污": 3245,
      "汢": 3246,
      "汤": 3247,
      "汲": 3248,
      "決": 3249,
      "汽": 3250,
      "汾": 3251,
      "沃": 3252,
      "沄": 3253,
      "沈": 3254,
      "沉": 3255,
      "沐": 3256,
      "沒": 3257,
      "沖": 3258,
      "沗": 3259,
      "沙": 3260,
      "沟": 3261,
      "没": 3262,
      "沢": 3263,
      "沪": 3264,
      "沫": 3265,
      "河": 3266,
      "油": 3267,
      "沺": 3268,
      "治": 3269,
      "沼": 3270,
      "沽": 3271,
      "沾": 3272,
      "沿": 3273,
      "況": 3274,
      "泉": 3275,
      "泌": 3276,
      "法": 3277,
      "泚": 3278,
      "泛": 3279,
      "泡": 3280,
      "波": 3281,
      "泣": 3282,
      "泥": 3283,
      "注": 3284,
      "泫": 3285,
      "泰": 3286,
      "泳": 3287,
      "泽": 3288,
      "洋": 3289,
      "洏": 3290,
      "洑": 3291,
      "洗": 3292,
      "洙": 3293,
      "洛": 3294,
      "洞": 3295,
      "津": 3296,
      "洪": 3297,
      "洱": 3298,
      "洲": 3299,
      "洳": 3300,
      "洵": 3301,
      "洸": 3302,
      "活": 3303,
      "派": 3304,
      "流": 3305,
      "浄": 3306,
      "浅": 3307,
      "测": 3308,
      "济": 3309,
      "浜": 3310,
      "浥": 3311,
      "浦": 3312,
      "浩": 3313,
      "浪": 3314,
      "浬": 3315,
      "浮": 3316,
      "浴": 3317,
      "海": 3318,
      "浸": 3319,
      "涂": 3320,
      "涅": 3321,
      "消": 3322,
      "涉": 3323,
      "涑": 3324,
      "涓": 3325,
      "涔": 3326,
      "涕": 3327,
      "涙": 3328,
      "润": 3329,
      "涯": 3330,
      "液": 3331,
      "涵": 3332,
      "涸": 3333,
      "涼": 3334,
      "淄": 3335,
      "淋": 3336,
      "淏": 3337,
      "淒": 3338,
      "淕": 3339,
      "淖": 3340,
      "淚": 3341,
      "淞": 3342,
      "淡": 3343,
      "淨": 3344,
      "淫": 3345,
      "淰": 3346,
      "深": 3347,
      "淳": 3348,
      "淵": 3349,
      "混": 3350,
      "淹": 3351,
      "淺": 3352,
      "添": 3353,
      "清": 3354,
      "済": 3355,
      "渉": 3356,
      "渊": 3357,
      "渗": 3358,
      "渚": 3359,
      "減": 3360,
      "渠": 3361,
      "渡": 3362,
      "渣": 3363,
      "渥": 3364,
      "渦": 3365,
      "温": 3366,
      "測": 3367,
      "港": 3368,
      "渴": 3369,
      "游": 3370,
      "渾": 3371,
      "湅": 3372,
      "湍": 3373,
      "湖": 3374,
      "湘": 3375,
      "湛": 3376,
      "湟": 3377,
      "湢": 3378,
      "湧": 3379,
      "湫": 3380,
      "湯": 3381,
      "湾": 3382,
      "湿": 3383,
      "満": 3384,
      "源": 3385,
      "準": 3386,
      "溘": 3387,
      "溜": 3388,
      "溝": 3389,
      "溟": 3390,
      "溢": 3391,
      "溥": 3392,
      "溪": 3393,
      "溫": 3394,
      "溶": 3395,
      "溺": 3396,
      "滄": 3397,
      "滅": 3398,
      "滇": 3399,
      "滊": 3400,
      "滋": 3401,
      "滌": 3402,
      "滑": 3403,
      "滔": 3404,
      "滕": 3405,
      "滝": 3406,
      "滞": 3407,
      "满": 3408,
      "滬": 3409,
      "滴": 3410,
      "滷": 3411,
      "滸": 3412,
      "滿": 3413,
      "漁": 3414,
      "漆": 3415,
      "漌": 3416,
      "漏": 3417,
      "漐": 3418,
      "演": 3419,
      "漖": 3420,
      "漠": 3421,
      "漢": 3422,
      "漣": 3423,
      "漦": 3424,
      "漫": 3425,
      "漬": 3426,
      "漱": 3427,
      "漲": 3428,
      "漳": 3429,
      "漸": 3430,
      "漿": 3431,
      "潓": 3432,
      "潔": 3433,
      "潘": 3434,
      "潛": 3435,
      "潜": 3436,
      "潟": 3437,
      "潢": 3438,
      "潤": 3439,
      "潬": 3440,
      "潮": 3441,
      "潰": 3442,
      "潼": 3443,
      "澆": 3444,
      "澎": 3445,
      "澘": 3446,
      "澡": 3447,
      "澤": 3448,
      "澳": 3449,
      "澾": 3450,
      "激": 3451,
      "濁": 3452,
      "濃": 3453,
      "濇": 3454,
      "濕": 3455,
      "濟": 3456,
      "濡": 3457,
      "濫": 3458,
      "濮": 3459,
      "濯": 3460,
      "濱": 3461,
      "濶": 3462,
      "瀋": 3463,
      "瀕": 3464,
      "瀛": 3465,
      "瀝": 3466,
      "瀣": 3467,
      "瀬": 3468,
      "瀷": 3469,
      "灇": 3470,
      "灋": 3471,
      "灌": 3472,
      "灎": 3473,
      "灘": 3474,
      "灣": 3475,
      "灩": 3476,
      "火": 3477,
      "灬": 3478,
      "灮": 3479,
      "灯": 3480,
      "灰": 3481,
      "灵": 3482,
      "災": 3483,
      "炅": 3484,
      "炉": 3485,
      "炊": 3486,
      "炎": 3487,
      "炒": 3488,
      "炗": 3489,
      "炤": 3490,
      "炬": 3491,
      "炭": 3492,
      "炯": 3493,
      "炳": 3494,
      "点": 3495,
      "為": 3496,
      "烈": 3497,
      "烏": 3498,
      "烜": 3499,
      "烟": 3500,
      "烤": 3501,
      "烧": 3502,
      "热": 3503,
      "烯": 3504,
      "烱": 3505,
      "烽": 3506,
      "焆": 3507,
      "焉": 3508,
      "焔": 3509,
      "焚": 3510,
      "無": 3511,
      "焦": 3512,
      "焰": 3513,
      "焱": 3514,
      "然": 3515,
      "焼": 3516,
      "煇": 3517,
      "煉": 3518,
      "煌": 3519,
      "煎": 3520,
      "煒": 3521,
      "煙": 3522,
      "煜": 3523,
      "煥": 3524,
      "照": 3525,
      "煩": 3526,
      "煮": 3527,
      "煽": 3528,
      "熊": 3529,
      "熏": 3530,
      "熖": 3531,
      "熙": 3532,
      "熟": 3533,
      "熠": 3534,
      "熨": 3535,
      "熯": 3536,
      "熱": 3537,
      "熹": 3538,
      "熾": 3539,
      "熿": 3540,
      "燁": 3541,
      "燃": 3542,
      "燈": 3543,
      "燉": 3544,
      "燌": 3545,
      "燎": 3546,
      "燒": 3547,
      "燓": 3548,
      "燔": 3549,
      "燕": 3550,
      "燗": 3551,
      "營": 3552,
      "燥": 3553,
      "燦": 3554,
      "燭": 3555,
      "燻": 3556,
      "爆": 3557,
      "爈": 3558,
      "爍": 3559,
      "爐": 3560,
      "爓": 3561,
      "爚": 3562,
      "爛": 3563,
      "爨": 3564,
      "爪": 3565,
      "爫": 3566,
      "爬": 3567,
      "爭": 3568,
      "爰": 3569,
      "爱": 3570,
      "爲": 3571,
      "爵": 3572,
      "父": 3573,
      "爸": 3574,
      "爹": 3575,
      "爺": 3576,
      "爻": 3577,
      "爽": 3578,
      "爾": 3579,
      "爿": 3580,
      "牆": 3581,
      "片": 3582,
      "版": 3583,
      "牌": 3584,
      "牘": 3585,
      "牙": 3586,
      "牛": 3587,
      "牜": 3588,
      "牝": 3589,
      "牡": 3590,
      "牢": 3591,
      "牧": 3592,
      "物": 3593,
      "牯": 3594,
      "牲": 3595,
      "牵": 3596,
      "牸": 3597,
      "特": 3598,
      "牽": 3599,
      "牿": 3600,
      "犀": 3601,
      "犁": 3602,
      "犎": 3603,
      "犧": 3604,
      "犬": 3605,
      "犭": 3606,
      "犮": 3607,
      "犯": 3608,
      "状": 3609,
      "犹": 3610,
      "狀": 3611,
      "狂": 3612,
      "狄": 3613,
      "狎": 3614,
      "狐": 3615,
      "狗": 3616,
      "狡": 3617,
      "独": 3618,
      "狭": 3619,
      "狹": 3620,
      "狼": 3621,
      "猎": 3622,
      "猖": 3623,
      "猛": 3624,
      "猩": 3625,
      "猪": 3626,
      "猫": 3627,
      "献": 3628,
      "猴": 3629,
      "猶": 3630,
      "猹": 3631,
      "猿": 3632,
      "獃": 3633,
      "獄": 3634,
      "獅": 3635,
      "獏": 3636,
      "獣": 3637,
      "獨": 3638,
      "獬": 3639,
      "獲": 3640,
      "獵": 3641,
      "獸": 3642,
      "獻": 3643,
      "玄": 3644,
      "玆": 3645,
      "率": 3646,
      "玉": 3647,
      "王": 3648,
      "玛": 3649,
      "玩": 3650,
      "环": 3651,
      "现": 3652,
      "玷": 3653,
      "玻": 3654,
      "珊": 3655,
      "珍": 3656,
      "珠": 3657,
      "珥": 3658,
      "班": 3659,
      "珱": 3660,
      "現": 3661,
      "琀": 3662,
      "球": 3663,
      "理": 3664,
      "琉": 3665,
      "琢": 3666,
      "琰": 3667,
      "琲": 3668,
      "琳": 3669,
      "琴": 3670,
      "琺": 3671,
      "瑕": 3672,
      "瑚": 3673,
      "瑛": 3674,
      "瑜": 3675,
      "瑞": 3676,
      "瑟": 3677,
      "瑠": 3678,
      "瑣": 3679,
      "瑤": 3680,
      "瑪": 3681,
      "瑰": 3682,
      "瑶": 3683,
      "瑾": 3684,
      "璀": 3685,
      "璃": 3686,
      "璣": 3687,
      "璪": 3688,
      "環": 3689,
      "瓊": 3690,
      "瓜": 3691,
      "瓦": 3692,
      "瓴": 3693,
      "瓶": 3694,
      "甄": 3695,
      "甌": 3696,
      "甓": 3697,
      "甕": 3698,
      "甗": 3699,
      "甘": 3700,
      "甚": 3701,
      "甜": 3702,
      "生": 3703,
      "產": 3704,
      "産": 3705,
      "甥": 3706,
      "甦": 3707,
      "用": 3708,
      "甩": 3709,
      "甪": 3710,
      "甫": 3711,
      "甬": 3712,
      "甯": 3713,
      "田": 3714,
      "由": 3715,
      "甲": 3716,
      "申": 3717,
      "电": 3718,
      "甶": 3719,
      "男": 3720,
      "甸": 3721,
      "町": 3722,
      "画": 3723,
      "畀": 3724,
      "畄": 3725,
      "界": 3726,
      "畎": 3727,
      "畏": 3728,
      "畐": 3729,
      "畑": 3730,
      "畔": 3731,
      "畗": 3732,
      "留": 3733,
      "畜": 3734,
      "畝": 3735,
      "畢": 3736,
      "略": 3737,
      "番": 3738,
      "畫": 3739,
      "畯": 3740,
      "異": 3741,
      "畱": 3742,
      "畳": 3743,
      "當": 3744,
      "畸": 3745,
      "畺": 3746,
      "畻": 3747,
      "畽": 3748,
      "畾": 3749,
      "畿": 3750,
      "疆": 3751,
      "疇": 3752,
      "疌": 3753,
      "疎": 3754,
      "疏": 3755,
      "疑": 3756,
      "疒": 3757,
      "疫": 3758,
      "疵": 3759,
      "疼": 3760,
      "疾": 3761,
      "病": 3762,
      "症": 3763,
      "痛": 3764,
      "痞": 3765,
      "痩": 3766,
      "痳": 3767,
      "痴": 3768,
      "瘇": 3769,
      "瘋": 3770,
      "瘌": 3771,
      "瘘": 3772,
      "瘴": 3773,
      "瘼": 3774,
      "療": 3775,
      "癒": 3776,
      "癘": 3777,
      "癶": 3778,
      "癸": 3779,
      "発": 3780,
      "登": 3781,
      "發": 3782,
      "白": 3783,
      "百": 3784,
      "皀": 3785,
      "皁": 3786,
      "的": 3787,
      "皆": 3788,
      "皇": 3789,
      "皋": 3790,
      "皎": 3791,
      "皐": 3792,
      "皓": 3793,
      "皚": 3794,
      "皞": 3795,
      "皡": 3796,
      "皤": 3797,
      "皥": 3798,
      "皪": 3799,
      "皮": 3800,
      "皺": 3801,
      "皿": 3802,
      "盆": 3803,
      "盈": 3804,
      "益": 3805,
      "盍": 3806,
      "监": 3807,
      "盒": 3808,
      "盖": 3809,
      "盗": 3810,
      "盘": 3811,
      "盛": 3812,
      "盜": 3813,
      "盟": 3814,
      "盡": 3815,
      "監": 3816,
      "盤": 3817,
      "盧": 3818,
      "目": 3819,
      "盰": 3820,
      "盲": 3821,
      "直": 3822,
      "相": 3823,
      "盼": 3824,
      "省": 3825,
      "眉": 3826,
      "看": 3827,
      "県": 3828,
      "眞": 3829,
      "真": 3830,
      "眠": 3831,
      "眨": 3832,
      "眩": 3833,
      "眵": 3834,
      "眷": 3835,
      "眼": 3836,
      "眾": 3837,
      "着": 3838,
      "睆": 3839,
      "睗": 3840,
      "睘": 3841,
      "睛": 3842,
      "睜": 3843,
      "睡": 3844,
      "督": 3845,
      "睤": 3846,
      "睦": 3847,
      "睪": 3848,
      "睹": 3849,
      "睾": 3850,
      "瞋": 3851,
      "瞌": 3852,
      "瞎": 3853,
      "瞚": 3854,
      "瞢": 3855,
      "瞥": 3856,
      "瞬": 3857,
      "瞭": 3858,
      "瞮": 3859,
      "瞱": 3860,
      "瞳": 3861,
      "瞹": 3862,
      "瞻": 3863,
      "瞽": 3864,
      "瞾": 3865,
      "矃": 3866,
      "矇": 3867,
      "矗": 3868,
      "矛": 3869,
      "矞": 3870,
      "矢": 3871,
      "矣": 3872,
      "知": 3873,
      "矩": 3874,
      "矫": 3875,
      "短": 3876,
      "矮": 3877,
      "矯": 3878,
      "矱": 3879,
      "石": 3880,
      "码": 3881,
      "砂": 3882,
      "砉": 3883,
      "砌": 3884,
      "研": 3885,
      "砕": 3886,
      "砖": 3887,
      "砚": 3888,
      "砝": 3889,
      "砥": 3890,
      "砦": 3891,
      "砮": 3892,
      "砲": 3893,
      "破": 3894,
      "硝": 3895,
      "硨": 3896,
      "硫": 3897,
      "硬": 3898,
      "确": 3899,
      "硯": 3900,
      "硴": 3901,
      "碍": 3902,
      "碎": 3903,
      "碑": 3904,
      "碓": 3905,
      "碗": 3906,
      "碧": 3907,
      "確": 3908,
      "碼": 3909,
      "磁": 3910,
      "磐": 3911,
      "磚": 3912,
      "磨": 3913,
      "磯": 3914,
      "磲": 3915,
      "磷": 3916,
      "礁": 3917,
      "礎": 3918,
      "礙": 3919,
      "礦": 3920,
      "礮": 3921,
      "礰": 3922,
      "礴": 3923,
      "示": 3924,
      "礻": 3925,
      "礼": 3926,
      "社": 3927,
      "祀": 3928,
      "祁": 3929,
      "祂": 3930,
      "祇": 3931,
      "祈": 3932,
      "祉": 3933,
      "祊": 3934,
      "祋": 3935,
      "祐": 3936,
      "祖": 3937,
      "祗": 3938,
      "祜": 3939,
      "祝": 3940,
      "神": 3941,
      "祠": 3942,
      "祥": 3943,
      "票": 3944,
      "祩": 3945,
      "祭": 3946,
      "祷": 3947,
      "祸": 3948,
      "祹": 3949,
      "祺": 3950,
      "祻": 3951,
      "祼": 3952,
      "祾": 3953,
      "祿": 3954,
      "禁": 3955,
      "禄": 3956,
      "禅": 3957,
      "禋": 3958,
      "禍": 3959,
      "禎": 3960,
      "福": 3961,
      "禔": 3962,
      "禧": 3963,
      "禨": 3964,
      "禩": 3965,
      "禪": 3966,
      "禫": 3967,
      "禮": 3968,
      "禱": 3969,
      "禳": 3970,
      "禸": 3971,
      "禹": 3972,
      "禺": 3973,
      "离": 3974,
      "禽": 3975,
      "禾": 3976,
      "禿": 3977,
      "秀": 3978,
      "私": 3979,
      "秂": 3980,
      "秇": 3981,
      "秊": 3982,
      "秋": 3983,
      "种": 3984,
      "科": 3985,
      "秒": 3986,
      "秘": 3987,
      "租": 3988,
      "秦": 3989,
      "秩": 3990,
      "积": 3991,
      "称": 3992,
      "秱": 3993,
      "移": 3994,
      "秼": 3995,
      "稀": 3996,
      "稃": 3997,
      "稅": 3998,
      "程": 3999,
      "稍": 4000,
      "税": 4001,
      "稙": 4002,
      "稚": 4003,
      "稜": 4004,
      "稟": 4005,
      "稣": 4006,
      "種": 4007,
      "稱": 4008,
      "稲": 4009,
      "稻": 4010,
      "稼": 4011,
      "稽": 4012,
      "稿": 4013,
      "穀": 4014,
      "穂": 4015,
      "穄": 4016,
      "穆": 4017,
      "穈": 4018,
      "積": 4019,
      "穎": 4020,
      "穏": 4021,
      "穗": 4022,
      "穡": 4023,
      "穢": 4024,
      "穣": 4025,
      "穩": 4026,
      "穫": 4027,
      "穰": 4028,
      "穴": 4029,
      "究": 4030,
      "穷": 4031,
      "穹": 4032,
      "空": 4033,
      "穿": 4034,
      "突": 4035,
      "窃": 4036,
      "窄": 4037,
      "窅": 4038,
      "窒": 4039,
      "窓": 4040,
      "窔": 4041,
      "窗": 4042,
      "窞": 4043,
      "窟": 4044,
      "窦": 4045,
      "窩": 4046,
      "窪": 4047,
      "窬": 4048,
      "窮": 4049,
      "窺": 4050,
      "竃": 4051,
      "竅": 4052,
      "竆": 4053,
      "竇": 4054,
      "竈": 4055,
      "竊": 4056,
      "立": 4057,
      "竒": 4058,
      "竖": 4059,
      "站": 4060,
      "竜": 4061,
      "竞": 4062,
      "竟": 4063,
      "章": 4064,
      "童": 4065,
      "端": 4066,
      "競": 4067,
      "竹": 4068,
      "竺": 4069,
      "竿": 4070,
      "笑": 4071,
      "笔": 4072,
      "笛": 4073,
      "笠": 4074,
      "符": 4075,
      "第": 4076,
      "筆": 4077,
      "筈": 4078,
      "等": 4079,
      "筋": 4080,
      "筍": 4081,
      "筑": 4082,
      "筒": 4083,
      "答": 4084,
      "策": 4085,
      "筥": 4086,
      "筭": 4087,
      "筯": 4088,
      "筵": 4089,
      "筹": 4090,
      "简": 4091,
      "箇": 4092,
      "箔": 4093,
      "算": 4094,
      "管": 4095,
      "箥": 4096,
      "箭": 4097,
      "箱": 4098,
      "箴": 4099,
      "箸": 4100,
      "箺": 4101,
      "節": 4102,
      "範": 4103,
      "篇": 4104,
      "築": 4105,
      "篠": 4106,
      "簇": 4107,
      "簗": 4108,
      "簡": 4109,
      "簿": 4110,
      "籀": 4111,
      "籌": 4112,
      "籍": 4113,
      "籐": 4114,
      "籒": 4115,
      "籓": 4116,
      "籕": 4117,
      "籘": 4118,
      "籠": 4119,
      "籩": 4120,
      "籬": 4121,
      "米": 4122,
      "籹": 4123,
      "类": 4124,
      "粉": 4125,
      "粐": 4126,
      "粒": 4127,
      "粗": 4128,
      "粥": 4129,
      "粦": 4130,
      "粧": 4131,
      "粪": 4132,
      "粮": 4133,
      "粱": 4134,
      "粲": 4135,
      "粹": 4136,
      "精": 4137,
      "糄": 4138,
      "糇": 4139,
      "糊": 4140,
      "糏": 4141,
      "糕": 4142,
      "糖": 4143,
      "糞": 4144,
      "糟": 4145,
      "糠": 4146,
      "糢": 4147,
      "糧": 4148,
      "糸": 4149,
      "系": 4150,
      "糾": 4151,
      "紀": 4152,
      "約": 4153,
      "紅": 4154,
      "紋": 4155,
      "納": 4156,
      "純": 4157,
      "紗": 4158,
      "紙": 4159,
      "級": 4160,
      "紛": 4161,
      "素": 4162,
      "紡": 4163,
      "索": 4164,
      "紧": 4165,
      "紫": 4166,
      "紮": 4167,
      "累": 4168,
      "細": 4169,
      "紳": 4170,
      "紹": 4171,
      "紺": 4172,
      "終": 4173,
      "絃": 4174,
      "組": 4175,
      "絆": 4176,
      "経": 4177,
      "結": 4178,
      "絑": 4179,
      "絕": 4180,
      "絜": 4181,
      "絞": 4182,
      "絡": 4183,
      "絢": 4184,
      "給": 4185,
      "絨": 4186,
      "絮": 4187,
      "統": 4188,
      "絲": 4189,
      "絵": 4190,
      "絶": 4191,
      "絹": 4192,
      "綁": 4193,
      "綃": 4194,
      "經": 4195,
      "綖": 4196,
      "継": 4197,
      "続": 4198,
      "綜": 4199,
      "綠": 4200,
      "維": 4201,
      "綱": 4202,
      "網": 4203,
      "綺": 4204,
      "綾": 4205,
      "綿": 4206,
      "緊": 4207,
      "緌": 4208,
      "総": 4209,
      "緑": 4210,
      "緒": 4211,
      "線": 4212,
      "締": 4213,
      "緡": 4214,
      "緣": 4215,
      "緦": 4216,
      "編": 4217,
      "緩": 4218,
      "緬": 4219,
      "緯": 4220,
      "練": 4221,
      "緻": 4222,
      "縁": 4223,
      "縄": 4224,
      "縛": 4225,
      "縜": 4226,
      "縝": 4227,
      "縞": 4228,
      "縣": 4229,
      "縧": 4230,
      "縫": 4231,
      "縮": 4232,
      "縯": 4233,
      "縱": 4234,
      "縶": 4235,
      "縺": 4236,
      "總": 4237,
      "績": 4238,
      "繁": 4239,
      "繃": 4240,
      "繅": 4241,
      "繋": 4242,
      "繎": 4243,
      "織": 4244,
      "繕": 4245,
      "繚": 4246,
      "繞": 4247,
      "繦": 4248,
      "繪": 4249,
      "繰": 4250,
      "繳": 4251,
      "繹": 4252,
      "繼": 4253,
      "纊": 4254,
      "續": 4255,
      "纏": 4256,
      "纐": 4257,
      "纒": 4258,
      "纖": 4259,
      "红": 4260,
      "约": 4261,
      "级": 4262,
      "纪": 4263,
      "纯": 4264,
      "纲": 4265,
      "纳": 4266,
      "纸": 4267,
      "线": 4268,
      "练": 4269,
      "组": 4270,
      "细": 4271,
      "织": 4272,
      "终": 4273,
      "经": 4274,
      "结": 4275,
      "给": 4276,
      "络": 4277,
      "统": 4278,
      "绩": 4279,
      "绪": 4280,
      "维": 4281,
      "综": 4282,
      "绿": 4283,
      "缓": 4284,
      "缔": 4285,
      "编": 4286,
      "缘": 4287,
      "缭": 4288,
      "缶": 4289,
      "缸": 4290,
      "缺": 4291,
      "罐": 4292,
      "网": 4293,
      "罒": 4294,
      "罔": 4295,
      "罕": 4296,
      "罗": 4297,
      "罢": 4298,
      "罪": 4299,
      "置": 4300,
      "罰": 4301,
      "署": 4302,
      "罷": 4303,
      "羅": 4304,
      "羊": 4305,
      "羋": 4306,
      "羌": 4307,
      "羍": 4308,
      "美": 4309,
      "羏": 4310,
      "羔": 4311,
      "羖": 4312,
      "羚": 4313,
      "羜": 4314,
      "羞": 4315,
      "羡": 4316,
      "羢": 4317,
      "群": 4318,
      "羨": 4319,
      "義": 4320,
      "羲": 4321,
      "羶": 4322,
      "羽": 4323,
      "翁": 4324,
      "翅": 4325,
      "翌": 4326,
      "習": 4327,
      "翔": 4328,
      "翟": 4329,
      "翠": 4330,
      "翰": 4331,
      "翻": 4332,
      "翼": 4333,
      "耀": 4334,
      "老": 4335,
      "耂": 4336,
      "考": 4337,
      "者": 4338,
      "耆": 4339,
      "耊": 4340,
      "耋": 4341,
      "而": 4342,
      "耐": 4343,
      "耑": 4344,
      "耒": 4345,
      "耕": 4346,
      "耖": 4347,
      "耗": 4348,
      "耙": 4349,
      "耳": 4350,
      "耶": 4351,
      "耻": 4352,
      "耽": 4353,
      "耿": 4354,
      "聊": 4355,
      "职": 4356,
      "联": 4357,
      "聖": 4358,
      "聚": 4359,
      "聞": 4360,
      "聟": 4361,
      "聡": 4362,
      "聯": 4363,
      "聰": 4364,
      "聲": 4365,
      "聳": 4366,
      "聴": 4367,
      "職": 4368,
      "聻": 4369,
      "聽": 4370,
      "聾": 4371,
      "聿": 4372,
      "肀": 4373,
      "肃": 4374,
      "肅": 4375,
      "肇": 4376,
      "肉": 4377,
      "肋": 4378,
      "肌": 4379,
      "肏": 4380,
      "肖": 4381,
      "肙": 4382,
      "肚": 4383,
      "肛": 4384,
      "肝": 4385,
      "肞": 4386,
      "肠": 4387,
      "股": 4388,
      "肢": 4389,
      "肤": 4390,
      "肥": 4391,
      "肩": 4392,
      "肪": 4393,
      "肯": 4394,
      "肰": 4395,
      "肱": 4396,
      "育": 4397,
      "肴": 4398,
      "肺": 4399,
      "肿": 4400,
      "胃": 4401,
      "胅": 4402,
      "胆": 4403,
      "胈": 4404,
      "背": 4405,
      "胎": 4406,
      "胏": 4407,
      "胖": 4408,
      "胘": 4409,
      "胜": 4410,
      "胞": 4411,
      "胡": 4412,
      "胥": 4413,
      "胦": 4414,
      "胯": 4415,
      "胲": 4416,
      "胴": 4417,
      "胵": 4418,
      "胶": 4419,
      "胸": 4420,
      "胻": 4421,
      "能": 4422,
      "脂": 4423,
      "脈": 4424,
      "脉": 4425,
      "脊": 4426,
      "脋": 4427,
      "脑": 4428,
      "脚": 4429,
      "脛": 4430,
      "脩": 4431,
      "脫": 4432,
      "脱": 4433,
      "脳": 4434,
      "脵": 4435,
      "脽": 4436,
      "脾": 4437,
      "腊": 4438,
      "腐": 4439,
      "腑": 4440,
      "腓": 4441,
      "腔": 4442,
      "腕": 4443,
      "腥": 4444,
      "腦": 4445,
      "腩": 4446,
      "腫": 4447,
      "腰": 4448,
      "腳": 4449,
      "腸": 4450,
      "腹": 4451,
      "腺": 4452,
      "腿": 4453,
      "膀": 4454,
      "膏": 4455,
      "膜": 4456,
      "膝": 4457,
      "膠": 4458,
      "膢": 4459,
      "膨": 4460,
      "膩": 4461,
      "膺": 4462,
      "膻": 4463,
      "膽": 4464,
      "膾": 4465,
      "臀": 4466,
      "臁": 4467,
      "臂": 4468,
      "臃": 4469,
      "臆": 4470,
      "臉": 4471,
      "臋": 4472,
      "臍": 4473,
      "臓": 4474,
      "臘": 4475,
      "臛": 4476,
      "臞": 4477,
      "臠": 4478,
      "臡": 4479,
      "臣": 4480,
      "臤": 4481,
      "臥": 4482,
      "臨": 4483,
      "自": 4484,
      "臭": 4485,
      "至": 4486,
      "致": 4487,
      "臺": 4488,
      "臼": 4489,
      "舁": 4490,
      "舅": 4491,
      "與": 4492,
      "興": 4493,
      "舉": 4494,
      "舊": 4495,
      "舌": 4496,
      "舍": 4497,
      "舎": 4498,
      "舐": 4499,
      "舒": 4500,
      "舔": 4501,
      "舖": 4502,
      "舗": 4503,
      "舛": 4504,
      "舜": 4505,
      "舞": 4506,
      "舟": 4507,
      "航": 4508,
      "般": 4509,
      "舰": 4510,
      "船": 4511,
      "艇": 4512,
      "艦": 4513,
      "艮": 4514,
      "良": 4515,
      "艱": 4516,
      "色": 4517,
      "艶": 4518,
      "艸": 4519,
      "艹": 4520,
      "艾": 4521,
      "节": 4522,
      "芉": 4523,
      "芋": 4524,
      "芒": 4525,
      "芔": 4526,
      "芖": 4527,
      "芝": 4528,
      "芥": 4529,
      "芦": 4530,
      "芬": 4531,
      "芭": 4532,
      "芮": 4533,
      "花": 4534,
      "芳": 4535,
      "芸": 4536,
      "芹": 4537,
      "芻": 4538,
      "芽": 4539,
      "苋": 4540,
      "苏": 4541,
      "苑": 4542,
      "苗": 4543,
      "苛": 4544,
      "苜": 4545,
      "苞": 4546,
      "苟": 4547,
      "若": 4548,
      "苦": 4549,
      "苪": 4550,
      "英": 4551,
      "苴": 4552,
      "苶": 4553,
      "茂": 4554,
      "范": 4555,
      "茄": 4556,
      "茅": 4557,
      "茆": 4558,
      "茍": 4559,
      "茎": 4560,
      "茜": 4561,
      "茰": 4562,
      "茱": 4563,
      "茲": 4564,
      "茴": 4565,
      "茶": 4566,
      "茸": 4567,
      "茻": 4568,
      "荀": 4569,
      "荆": 4570,
      "草": 4571,
      "荊": 4572,
      "荏": 4573,
      "荒": 4574,
      "荘": 4575,
      "荣": 4576,
      "药": 4577,
      "荳": 4578,
      "荷": 4579,
      "荼": 4580,
      "莇": 4581,
      "莉": 4582,
      "莊": 4583,
      "莎": 4584,
      "莓": 4585,
      "莧": 4586,
      "莫": 4587,
      "莱": 4588,
      "莲": 4589,
      "莵": 4590,
      "获": 4591,
      "菇": 4592,
      "菊": 4593,
      "菌": 4594,
      "菐": 4595,
      "菓": 4596,
      "菖": 4597,
      "菜": 4598,
      "菟": 4599,
      "菠": 4600,
      "菩": 4601,
      "菫": 4602,
      "華": 4603,
      "菱": 4604,
      "菲": 4605,
      "菽": 4606,
      "萄": 4607,
      "萊": 4608,
      "萎": 4609,
      "萑": 4610,
      "萝": 4611,
      "萧": 4612,
      "萨": 4613,
      "萩": 4614,
      "萬": 4615,
      "萱": 4616,
      "萸": 4617,
      "落": 4618,
      "葈": 4619,
      "葉": 4620,
      "葊": 4621,
      "葍": 4622,
      "著": 4623,
      "葛": 4624,
      "葡": 4625,
      "董": 4626,
      "葦": 4627,
      "葩": 4628,
      "葬": 4629,
      "葵": 4630,
      "葷": 4631,
      "蒁": 4632,
      "蒋": 4633,
      "蒔": 4634,
      "蒙": 4635,
      "蒦": 4636,
      "蒪": 4637,
      "蒲": 4638,
      "蒸": 4639,
      "蒼": 4640,
      "蒾": 4641,
      "蓄": 4642,
      "蓇": 4643,
      "蓉": 4644,
      "蓋": 4645,
      "蓜": 4646,
      "蓮": 4647,
      "蓴": 4648,
      "蓿": 4649,
      "蔑": 4650,
      "蔓": 4651,
      "蔔": 4652,
      "蔟": 4653,
      "蔡": 4654,
      "蔣": 4655,
      "蔦": 4656,
      "蔬": 4657,
      "蔭": 4658,
      "蔵": 4659,
      "蔽": 4660,
      "蕃": 4661,
      "蕈": 4662,
      "蕊": 4663,
      "蕎": 4664,
      "蕏": 4665,
      "蕐": 4666,
      "蕓": 4667,
      "蕝": 4668,
      "蕡": 4669,
      "蕢": 4670,
      "蕩": 4671,
      "蕪": 4672,
      "蕾": 4673,
      "薁": 4674,
      "薄": 4675,
      "薏": 4676,
      "薑": 4677,
      "薗": 4678,
      "薛": 4679,
      "薦": 4680,
      "薩": 4681,
      "薪": 4682,
      "薫": 4683,
      "薬": 4684,
      "薮": 4685,
      "薰": 4686,
      "薽": 4687,
      "藁": 4688,
      "藉": 4689,
      "藍": 4690,
      "藏": 4691,
      "藜": 4692,
      "藝": 4693,
      "藟": 4694,
      "藡": 4695,
      "藤": 4696,
      "藥": 4697,
      "藩": 4698,
      "藶": 4699,
      "藷": 4700,
      "藻": 4701,
      "蘆": 4702,
      "蘇": 4703,
      "蘋": 4704,
      "蘖": 4705,
      "蘛": 4706,
      "蘭": 4707,
      "蘶": 4708,
      "蘽": 4709,
      "蘿": 4710,
      "虆": 4711,
      "虍": 4712,
      "虎": 4713,
      "虐": 4714,
      "虑": 4715,
      "虔": 4716,
      "處": 4717,
      "虚": 4718,
      "虛": 4719,
      "虜": 4720,
      "虞": 4721,
      "號": 4722,
      "虧": 4723,
      "虫": 4724,
      "虺": 4725,
      "虾": 4726,
      "蚊": 4727,
      "蚌": 4728,
      "蚕": 4729,
      "蚖": 4730,
      "蚨": 4731,
      "蚵": 4732,
      "蛆": 4733,
      "蛇": 4734,
      "蛉": 4735,
      "蛋": 4736,
      "蛙": 4737,
      "蛟": 4738,
      "蛮": 4739,
      "蜀": 4740,
      "蜆": 4741,
      "蜎": 4742,
      "蜜": 4743,
      "蜟": 4744,
      "蜷": 4745,
      "蜼": 4746,
      "蜿": 4747,
      "蝉": 4748,
      "蝠": 4749,
      "蝣": 4750,
      "蝦": 4751,
      "蝶": 4752,
      "蝻": 4753,
      "螅": 4754,
      "融": 4755,
      "螯": 4756,
      "螱": 4757,
      "螺": 4758,
      "螾": 4759,
      "蟆": 4760,
      "蟇": 4761,
      "蟠": 4762,
      "蟯": 4763,
      "蟲": 4764,
      "蟹": 4765,
      "蠆": 4766,
      "蠏": 4767,
      "蠙": 4768,
      "蠟": 4769,
      "蠣": 4770,
      "蠶": 4771,
      "蠹": 4772,
      "血": 4773,
      "衆": 4774,
      "行": 4775,
      "衍": 4776,
      "術": 4777,
      "衕": 4778,
      "街": 4779,
      "衙": 4780,
      "衚": 4781,
      "衛": 4782,
      "衝": 4783,
      "衡": 4784,
      "衣": 4785,
      "衤": 4786,
      "表": 4787,
      "衫": 4788,
      "衯": 4789,
      "衰": 4790,
      "衷": 4791,
      "袁": 4792,
      "袋": 4793,
      "袖": 4794,
      "袟": 4795,
      "袠": 4796,
      "被": 4797,
      "裁": 4798,
      "裂": 4799,
      "装": 4800,
      "裏": 4801,
      "裔": 4802,
      "裕": 4803,
      "裛": 4804,
      "補": 4805,
      "裝": 4806,
      "裡": 4807,
      "裳": 4808,
      "裸": 4809,
      "裹": 4810,
      "製": 4811,
      "褁": 4812,
      "複": 4813,
      "褌": 4814,
      "褐": 4815,
      "褒": 4816,
      "褚": 4817,
      "褰": 4818,
      "褲": 4819,
      "褸": 4820,
      "褹": 4821,
      "褺": 4822,
      "褻": 4823,
      "褽": 4824,
      "襄": 4825,
      "襖": 4826,
      "襛": 4827,
      "襟": 4828,
      "襤": 4829,
      "襭": 4830,
      "襯": 4831,
      "襲": 4832,
      "襾": 4833,
      "西": 4834,
      "覀": 4835,
      "要": 4836,
      "覆": 4837,
      "覇": 4838,
      "覈": 4839,
      "見": 4840,
      "規": 4841,
      "視": 4842,
      "覚": 4843,
      "覩": 4844,
      "親": 4845,
      "観": 4846,
      "覺": 4847,
      "覽": 4848,
      "覿": 4849,
      "觀": 4850,
      "见": 4851,
      "观": 4852,
      "规": 4853,
      "视": 4854,
      "觉": 4855,
      "角": 4856,
      "解": 4857,
      "触": 4858,
      "觸": 4859,
      "言": 4860,
      "訂": 4861,
      "計": 4862,
      "訊": 4863,
      "討": 4864,
      "訓": 4865,
      "託": 4866,
      "記": 4867,
      "訝": 4868,
      "訟": 4869,
      "訣": 4870,
      "訪": 4871,
      "設": 4872,
      "許": 4873,
      "訳": 4874,
      "訴": 4875,
      "訶": 4876,
      "註": 4877,
      "証": 4878,
      "訾": 4879,
      "詁": 4880,
      "詉": 4881,
      "詐": 4882,
      "詔": 4883,
      "評": 4884,
      "詖": 4885,
      "詛": 4886,
      "詞": 4887,
      "詠": 4888,
      "詢": 4889,
      "試": 4890,
      "詩": 4891,
      "詫": 4892,
      "詰": 4893,
      "話": 4894,
      "該": 4895,
      "詳": 4896,
      "詶": 4897,
      "詷": 4898,
      "詹": 4899,
      "誀": 4900,
      "誇": 4901,
      "誉": 4902,
      "誌": 4903,
      "認": 4904,
      "誓": 4905,
      "誕": 4906,
      "誘": 4907,
      "語": 4908,
      "誠": 4909,
      "誤": 4910,
      "誨": 4911,
      "說": 4912,
      "説": 4913,
      "読": 4914,
      "誰": 4915,
      "課": 4916,
      "誾": 4917,
      "調": 4918,
      "諃": 4919,
      "諄": 4920,
      "談": 4921,
      "諉": 4922,
      "請": 4923,
      "諏": 4924,
      "諒": 4925,
      "論": 4926,
      "諗": 4927,
      "諟": 4928,
      "諧": 4929,
      "諭": 4930,
      "諱": 4931,
      "諸": 4932,
      "諾": 4933,
      "謀": 4934,
      "謁": 4935,
      "謂": 4936,
      "謄": 4937,
      "謊": 4938,
      "謔": 4939,
      "謙": 4940,
      "講": 4941,
      "謝": 4942,
      "謡": 4943,
      "謫": 4944,
      "謬": 4945,
      "謹": 4946,
      "譆": 4947,
      "證": 4948,
      "譓": 4949,
      "識": 4950,
      "譚": 4951,
      "譜": 4952,
      "譟": 4953,
      "警": 4954,
      "譬": 4955,
      "譯": 4956,
      "議": 4957,
      "譱": 4958,
      "譲": 4959,
      "護": 4960,
      "譸": 4961,
      "譽": 4962,
      "讀": 4963,
      "讅": 4964,
      "變": 4965,
      "讒": 4966,
      "讓": 4967,
      "讚": 4968,
      "计": 4969,
      "认": 4970,
      "讨": 4971,
      "让": 4972,
      "训": 4973,
      "议": 4974,
      "记": 4975,
      "讲": 4976,
      "许": 4977,
      "论": 4978,
      "设": 4979,
      "访": 4980,
      "诀": 4981,
      "证": 4982,
      "评": 4983,
      "识": 4984,
      "词": 4985,
      "试": 4986,
      "诗": 4987,
      "诚": 4988,
      "话": 4989,
      "详": 4990,
      "语": 4991,
      "误": 4992,
      "诰": 4993,
      "说": 4994,
      "请": 4995,
      "诸": 4996,
      "诺": 4997,
      "读": 4998,
      "课": 4999,
      "调": 5000,
      "谈": 5001,
      "谏": 5002,
      "谷": 5003,
      "豁": 5004,
      "豆": 5005,
      "豇": 5006,
      "豈": 5007,
      "豊": 5008,
      "豎": 5009,
      "豐": 5010,
      "豕": 5011,
      "豖": 5012,
      "豝": 5013,
      "象": 5014,
      "豪": 5015,
      "豫": 5016,
      "豬": 5017,
      "豸": 5018,
      "豾": 5019,
      "貂": 5020,
      "貅": 5021,
      "貇": 5022,
      "貌": 5023,
      "貓": 5024,
      "貘": 5025,
      "貝": 5026,
      "貞": 5027,
      "負": 5028,
      "財": 5029,
      "貢": 5030,
      "貧": 5031,
      "貨": 5032,
      "販": 5033,
      "貪": 5034,
      "貫": 5035,
      "責": 5036,
      "貯": 5037,
      "貲": 5038,
      "貴": 5039,
      "買": 5040,
      "貸": 5041,
      "費": 5042,
      "貼": 5043,
      "貿": 5044,
      "賀": 5045,
      "賁": 5046,
      "賃": 5047,
      "資": 5048,
      "賈": 5049,
      "賊": 5050,
      "賏": 5051,
      "賓": 5052,
      "賛": 5053,
      "賜": 5054,
      "賞": 5055,
      "賢": 5056,
      "賣": 5057,
      "賤": 5058,
      "賦": 5059,
      "質": 5060,
      "賬": 5061,
      "賭": 5062,
      "賴": 5063,
      "購": 5064,
      "賽": 5065,
      "贄": 5066,
      "贅": 5067,
      "贈": 5068,
      "贊": 5069,
      "贎": 5070,
      "贖": 5071,
      "贛": 5072,
      "贝": 5073,
      "贞": 5074,
      "负": 5075,
      "财": 5076,
      "贤": 5077,
      "货": 5078,
      "质": 5079,
      "贯": 5080,
      "贵": 5081,
      "费": 5082,
      "贺": 5083,
      "贼": 5084,
      "资": 5085,
      "赋": 5086,
      "赛": 5087,
      "赤": 5088,
      "赦": 5089,
      "赫": 5090,
      "走": 5091,
      "赳": 5092,
      "赴": 5093,
      "赵": 5094,
      "起": 5095,
      "超": 5096,
      "越": 5097,
      "趕": 5098,
      "趙": 5099,
      "趣": 5100,
      "足": 5101,
      "跀": 5102,
      "跂": 5103,
      "跊": 5104,
      "跌": 5105,
      "跑": 5106,
      "跙": 5107,
      "距": 5108,
      "跟": 5109,
      "跡": 5110,
      "跤": 5111,
      "跨": 5112,
      "路": 5113,
      "跳": 5114,
      "践": 5115,
      "踊": 5116,
      "踏": 5117,
      "踐": 5118,
      "踞": 5119,
      "踟": 5120,
      "踪": 5121,
      "踴": 5122,
      "踵": 5123,
      "踷": 5124,
      "蹀": 5125,
      "蹄": 5126,
      "蹇": 5127,
      "蹈": 5128,
      "蹉": 5129,
      "蹎": 5130,
      "蹨": 5131,
      "蹱": 5132,
      "蹲": 5133,
      "蹴": 5134,
      "躁": 5135,
      "躂": 5136,
      "躉": 5137,
      "躊": 5138,
      "躍": 5139,
      "躔": 5140,
      "躕": 5141,
      "躘": 5142,
      "躚": 5143,
      "身": 5144,
      "躬": 5145,
      "躰": 5146,
      "躲": 5147,
      "躳": 5148,
      "躺": 5149,
      "軆": 5150,
      "軇": 5151,
      "車": 5152,
      "軌": 5153,
      "軍": 5154,
      "軒": 5155,
      "軛": 5156,
      "軟": 5157,
      "転": 5158,
      "軮": 5159,
      "軸": 5160,
      "軻": 5161,
      "軼": 5162,
      "軽": 5163,
      "較": 5164,
      "載": 5165,
      "輒": 5166,
      "輔": 5167,
      "輕": 5168,
      "輛": 5169,
      "輝": 5170,
      "輩": 5171,
      "輪": 5172,
      "輯": 5173,
      "輳": 5174,
      "輸": 5175,
      "轄": 5176,
      "轉": 5177,
      "轍": 5178,
      "轒": 5179,
      "轟": 5180,
      "车": 5181,
      "转": 5182,
      "轮": 5183,
      "软": 5184,
      "轻": 5185,
      "载": 5186,
      "较": 5187,
      "辅": 5188,
      "辛": 5189,
      "辞": 5190,
      "辟": 5191,
      "辣": 5192,
      "辦": 5193,
      "辨": 5194,
      "辭": 5195,
      "辯": 5196,
      "辰": 5197,
      "辱": 5198,
      "農": 5199,
      "辵": 5200,
      "辶": 5201,
      "辷": 5202,
      "边": 5203,
      "辺": 5204,
      "辻": 5205,
      "込": 5206,
      "达": 5207,
      "迀": 5208,
      "迁": 5209,
      "迂": 5210,
      "迄": 5211,
      "迅": 5212,
      "过": 5213,
      "迋": 5214,
      "迎": 5215,
      "运": 5216,
      "近": 5217,
      "返": 5218,
      "还": 5219,
      "这": 5220,
      "进": 5221,
      "远": 5222,
      "违": 5223,
      "连": 5224,
      "迦": 5225,
      "迪": 5226,
      "迫": 5227,
      "迭": 5228,
      "述": 5229,
      "迴": 5230,
      "迶": 5231,
      "迷": 5232,
      "迸": 5233,
      "迹": 5234,
      "追": 5235,
      "退": 5236,
      "送": 5237,
      "适": 5238,
      "逃": 5239,
      "逆": 5240,
      "选": 5241,
      "透": 5242,
      "逐": 5243,
      "递": 5244,
      "途": 5245,
      "逗": 5246,
      "這": 5247,
      "通": 5248,
      "逛": 5249,
      "逝": 5250,
      "速": 5251,
      "造": 5252,
      "逢": 5253,
      "連": 5254,
      "週": 5255,
      "進": 5256,
      "逶": 5257,
      "逸": 5258,
      "逹": 5259,
      "逼": 5260,
      "遁": 5261,
      "遂": 5262,
      "遅": 5263,
      "遇": 5264,
      "遊": 5265,
      "運": 5266,
      "遍": 5267,
      "過": 5268,
      "遑": 5269,
      "道": 5270,
      "達": 5271,
      "違": 5272,
      "遖": 5273,
      "遗": 5274,
      "遙": 5275,
      "遛": 5276,
      "遜": 5277,
      "遞": 5278,
      "遠": 5279,
      "遣": 5280,
      "遥": 5281,
      "遨": 5282,
      "適": 5283,
      "遭": 5284,
      "遮": 5285,
      "遲": 5286,
      "遵": 5287,
      "遷": 5288,
      "選": 5289,
      "遺": 5290,
      "遼": 5291,
      "避": 5292,
      "邀": 5293,
      "邁": 5294,
      "邂": 5295,
      "還": 5296,
      "邈": 5297,
      "邊": 5298,
      "邑": 5299,
      "邓": 5300,
      "邕": 5301,
      "那": 5302,
      "邦": 5303,
      "邨": 5304,
      "邪": 5305,
      "邯": 5306,
      "邵": 5307,
      "邻": 5308,
      "郁": 5309,
      "郊": 5310,
      "郎": 5311,
      "郑": 5312,
      "郛": 5313,
      "郡": 5314,
      "部": 5315,
      "郭": 5316,
      "郴": 5317,
      "郵": 5318,
      "郷": 5319,
      "都": 5320,
      "鄂": 5321,
      "鄉": 5322,
      "鄙": 5323,
      "鄧": 5324,
      "鄭": 5325,
      "鄰": 5326,
      "鄲": 5327,
      "酉": 5328,
      "酋": 5329,
      "配": 5330,
      "酒": 5331,
      "酔": 5332,
      "酪": 5333,
      "酬": 5334,
      "酵": 5335,
      "酷": 5336,
      "酸": 5337,
      "醂": 5338,
      "醇": 5339,
      "醉": 5340,
      "醋": 5341,
      "醍": 5342,
      "醒": 5343,
      "醜": 5344,
      "醤": 5345,
      "醫": 5346,
      "醬": 5347,
      "醶": 5348,
      "醸": 5349,
      "醿": 5350,
      "釀": 5351,
      "釆": 5352,
      "采": 5353,
      "釈": 5354,
      "釉": 5355,
      "释": 5356,
      "釋": 5357,
      "里": 5358,
      "重": 5359,
      "野": 5360,
      "量": 5361,
      "釐": 5362,
      "金": 5363,
      "釜": 5364,
      "針": 5365,
      "鈎": 5366,
      "鈔": 5367,
      "鈘": 5368,
      "鈴": 5369,
      "鈷": 5370,
      "鈿": 5371,
      "鉄": 5372,
      "鉗": 5373,
      "鉛": 5374,
      "鉢": 5375,
      "鉤": 5376,
      "鉱": 5377,
      "銀": 5378,
      "銅": 5379,
      "銖": 5380,
      "銘": 5381,
      "銭": 5382,
      "銷": 5383,
      "鋪": 5384,
      "鋭": 5385,
      "鋸": 5386,
      "鋼": 5387,
      "錄": 5388,
      "錐": 5389,
      "錠": 5390,
      "錡": 5391,
      "錢": 5392,
      "錦": 5393,
      "錫": 5394,
      "錯": 5395,
      "録": 5396,
      "錶": 5397,
      "鍋": 5398,
      "鍬": 5399,
      "鍰": 5400,
      "鍵": 5401,
      "鍾": 5402,
      "鎌": 5403,
      "鎖": 5404,
      "鎧": 5405,
      "鎮": 5406,
      "鏁": 5407,
      "鏃": 5408,
      "鏄": 5409,
      "鏈": 5410,
      "鏡": 5411,
      "鏧": 5412,
      "鏱": 5413,
      "鏵": 5414,
      "鐘": 5415,
      "鐴": 5416,
      "鐵": 5417,
      "鑄": 5418,
      "鑊": 5419,
      "鑑": 5420,
      "鑒": 5421,
      "鑛": 5422,
      "鑟": 5423,
      "鑮": 5424,
      "鑰": 5425,
      "鑽": 5426,
      "鑾": 5427,
      "针": 5428,
      "钦": 5429,
      "钻": 5430,
      "铁": 5431,
      "银": 5432,
      "错": 5433,
      "锡": 5434,
      "锦": 5435,
      "镇": 5436,
      "長": 5437,
      "镸": 5438,
      "长": 5439,
      "門": 5440,
      "閃": 5441,
      "閈": 5442,
      "閉": 5443,
      "閊": 5444,
      "開": 5445,
      "閏": 5446,
      "閑": 5447,
      "閒": 5448,
      "間": 5449,
      "関": 5450,
      "閣": 5451,
      "閤": 5452,
      "閥": 5453,
      "閨": 5454,
      "閫": 5455,
      "閭": 5456,
      "閱": 5457,
      "閲": 5458,
      "閻": 5459,
      "閼": 5460,
      "闇": 5461,
      "闉": 5462,
      "闊": 5463,
      "闍": 5464,
      "闘": 5465,
      "闚": 5466,
      "關": 5467,
      "闢": 5468,
      "闤": 5469,
      "门": 5470,
      "闪": 5471,
      "问": 5472,
      "闲": 5473,
      "间": 5474,
      "闻": 5475,
      "阁": 5476,
      "阜": 5477,
      "阝": 5478,
      "队": 5479,
      "阪": 5480,
      "阮": 5481,
      "防": 5482,
      "阳": 5483,
      "阴": 5484,
      "阵": 5485,
      "阻": 5486,
      "阿": 5487,
      "陀": 5488,
      "附": 5489,
      "际": 5490,
      "陆": 5491,
      "陈": 5492,
      "陋": 5493,
      "降": 5494,
      "限": 5495,
      "院": 5496,
      "陣": 5497,
      "除": 5498,
      "陥": 5499,
      "陪": 5500,
      "陰": 5501,
      "陳": 5502,
      "陵": 5503,
      "陶": 5504,
      "陷": 5505,
      "陸": 5506,
      "険": 5507,
      "陽": 5508,
      "隅": 5509,
      "隆": 5510,
      "隊": 5511,
      "階": 5512,
      "随": 5513,
      "隐": 5514,
      "隔": 5515,
      "隙": 5516,
      "際": 5517,
      "障": 5518,
      "隠": 5519,
      "隣": 5520,
      "隨": 5521,
      "險": 5522,
      "隱": 5523,
      "隴": 5524,
      "隶": 5525,
      "隷": 5526,
      "隸": 5527,
      "隹": 5528,
      "隺": 5529,
      "隻": 5530,
      "隽": 5531,
      "难": 5532,
      "雀": 5533,
      "雁": 5534,
      "雄": 5535,
      "雅": 5536,
      "集": 5537,
      "雇": 5538,
      "雉": 5539,
      "雋": 5540,
      "雌": 5541,
      "雍": 5542,
      "雎": 5543,
      "雏": 5544,
      "雑": 5545,
      "雕": 5546,
      "雖": 5547,
      "雙": 5548,
      "雛": 5549,
      "雜": 5550,
      "雞": 5551,
      "離": 5552,
      "難": 5553,
      "雨": 5554,
      "雪": 5555,
      "雲": 5556,
      "零": 5557,
      "雷": 5558,
      "雺": 5559,
      "電": 5560,
      "雾": 5561,
      "需": 5562,
      "霄": 5563,
      "震": 5564,
      "霊": 5565,
      "霍": 5566,
      "霎": 5567,
      "霚": 5568,
      "霛": 5569,
      "霞": 5570,
      "霧": 5571,
      "霨": 5572,
      "露": 5573,
      "霸": 5574,
      "霹": 5575,
      "霻": 5576,
      "霾": 5577,
      "靂": 5578,
      "靆": 5579,
      "靈": 5580,
      "靉": 5581,
      "靑": 5582,
      "青": 5583,
      "靗": 5584,
      "靘": 5585,
      "静": 5586,
      "靜": 5587,
      "非": 5588,
      "靠": 5589,
      "靡": 5590,
      "面": 5591,
      "革": 5592,
      "靴": 5593,
      "鞅": 5594,
      "鞋": 5595,
      "鞍": 5596,
      "鞕": 5597,
      "鞘": 5598,
      "鞙": 5599,
      "鞟": 5600,
      "鞠": 5601,
      "鞦": 5602,
      "鞭": 5603,
      "鞹": 5604,
      "韃": 5605,
      "韆": 5606,
      "韋": 5607,
      "韍": 5608,
      "韓": 5609,
      "韜": 5610,
      "韦": 5611,
      "韩": 5612,
      "音": 5613,
      "韵": 5614,
      "韶": 5615,
      "韻": 5616,
      "響": 5617,
      "頁": 5618,
      "頂": 5619,
      "頃": 5620,
      "項": 5621,
      "順": 5622,
      "須": 5623,
      "頌": 5624,
      "預": 5625,
      "頑": 5626,
      "頓": 5627,
      "頗": 5628,
      "領": 5629,
      "頣": 5630,
      "頤": 5631,
      "頥": 5632,
      "頬": 5633,
      "頭": 5634,
      "頰": 5635,
      "頻": 5636,
      "頼": 5637,
      "顆": 5638,
      "題": 5639,
      "額": 5640,
      "顎": 5641,
      "顏": 5642,
      "顔": 5643,
      "顕": 5644,
      "願": 5645,
      "顛": 5646,
      "類": 5647,
      "顧": 5648,
      "顯": 5649,
      "页": 5650,
      "项": 5651,
      "顺": 5652,
      "须": 5653,
      "顾": 5654,
      "预": 5655,
      "领": 5656,
      "颐": 5657,
      "题": 5658,
      "颜": 5659,
      "额": 5660,
      "風": 5661,
      "颱": 5662,
      "颳": 5663,
      "飄": 5664,
      "风": 5665,
      "飛": 5666,
      "飞": 5667,
      "食": 5668,
      "飠": 5669,
      "飢": 5670,
      "飯": 5671,
      "飲": 5672,
      "飴": 5673,
      "飼": 5674,
      "飽": 5675,
      "飾": 5676,
      "餅": 5677,
      "養": 5678,
      "餌": 5679,
      "餐": 5680,
      "餓": 5681,
      "餘": 5682,
      "館": 5683,
      "饋": 5684,
      "饎": 5685,
      "饑": 5686,
      "饒": 5687,
      "饗": 5688,
      "饭": 5689,
      "饮": 5690,
      "首": 5691,
      "香": 5692,
      "馨": 5693,
      "馬": 5694,
      "馮": 5695,
      "馴": 5696,
      "駁": 5697,
      "駄": 5698,
      "駅": 5699,
      "駆": 5700,
      "駈": 5701,
      "駐": 5702,
      "駕": 5703,
      "駮": 5704,
      "騎": 5705,
      "験": 5706,
      "騙": 5707,
      "騞": 5708,
      "騰": 5709,
      "驀": 5710,
      "驁": 5711,
      "驎": 5712,
      "驕": 5713,
      "驗": 5714,
      "驚": 5715,
      "驟": 5716,
      "驥": 5717,
      "驩": 5718,
      "马": 5719,
      "驾": 5720,
      "验": 5721,
      "骑": 5722,
      "骨": 5723,
      "骽": 5724,
      "髀": 5725,
      "髈": 5726,
      "體": 5727,
      "高": 5728,
      "髦": 5729,
      "髪": 5730,
      "髫": 5731,
      "髮": 5732,
      "髹": 5733,
      "鬆": 5734,
      "鬒": 5735,
      "鬚": 5736,
      "鬥": 5737,
      "鬱": 5738,
      "鬲": 5739,
      "鬻": 5740,
      "鬼": 5741,
      "魁": 5742,
      "魂": 5743,
      "魏": 5744,
      "魔": 5745,
      "魚": 5746,
      "魯": 5747,
      "鮪": 5748,
      "鮫": 5749,
      "鮮": 5750,
      "鯊": 5751,
      "鯨": 5752,
      "鰯": 5753,
      "鰻": 5754,
      "鱈": 5755,
      "鱔": 5756,
      "鱗": 5757,
      "鱚": 5758,
      "鱠": 5759,
      "鱼": 5760,
      "鲁": 5761,
      "鲜": 5762,
      "鳥": 5763,
      "鳩": 5764,
      "鳳": 5765,
      "鳴": 5766,
      "鴇": 5767,
      "鴛": 5768,
      "鴦": 5769,
      "鴨": 5770,
      "鴫": 5771,
      "鴻": 5772,
      "鴿": 5773,
      "鵑": 5774,
      "鵝": 5775,
      "鵠": 5776,
      "鵬": 5777,
      "鶉": 5778,
      "鶏": 5779,
      "鶤": 5780,
      "鶴": 5781,
      "鶹": 5782,
      "鷭": 5783,
      "鷹": 5784,
      "鷺": 5785,
      "鸊": 5786,
      "鸚": 5787,
      "鸟": 5788,
      "鸡": 5789,
      "鸣": 5790,
      "鸭": 5791,
      "鸿": 5792,
      "鹅": 5793,
      "鹵": 5794,
      "鹹": 5795,
      "鹽": 5796,
      "鹿": 5797,
      "麓": 5798,
      "麗": 5799,
      "麝": 5800,
      "麟": 5801,
      "麥": 5802,
      "麦": 5803,
      "麵": 5804,
      "麻": 5805,
      "麼": 5806,
      "麽": 5807,
      "麾": 5808,
      "麿": 5809,
      "黃": 5810,
      "黄": 5811,
      "黎": 5812,
      "黐": 5813,
      "黑": 5814,
      "黒": 5815,
      "黔": 5816,
      "默": 5817,
      "黙": 5818,
      "黛": 5819,
      "點": 5820,
      "黨": 5821,
      "鼎": 5822,
      "鼓": 5823,
      "鼠": 5824,
      "鼡": 5825,
      "鼻": 5826,
      "鼿": 5827,
      "齁": 5828,
      "齃": 5829,
      "齄": 5830,
      "齆": 5831,
      "齊": 5832,
      "齋": 5833,
      "齐": 5834,
      "齒": 5835,
      "齔": 5836,
      "齟": 5837,
      "齠": 5838,
      "齡": 5839,
      "齢": 5840,
      "齬": 5841,
      "齭": 5842,
      "齽": 5843,
      "齿": 5844,
      "龄": 5845,
      "龍": 5846,
      "龑": 5847,
      "龙": 5848,
      "龜": 5849,
      "龟": 5850,
      "龰": 5851,
      "龶": 5852,
      "龷": 5853,
      "龹": 5854,
      "龺": 5855,
      "": 5856,
      "": 5857,
      "": 5858,
      "": 5859,
      "": 5860,
      "": 5861,
      "": 5862,
      "": 5863,
      "": 5864,
      "": 5865,
      "": 5866,
      "": 5867,
      "": 5868,
      "": 5869,
      "": 5870,
      "": 5871,
      "": 5872,
      "": 5873,
      "": 5874,
      "": 5875,
      "": 5876,
      "": 5877,
      "": 5878,
      "": 5879,
      "": 5880,
      "": 5881,
      "": 5882,
      "": 5883,
      "": 5884,
      "": 5885,
      "": 5886,
      "": 5887,
      "": 5888,
      "": 5889,
      "": 5890,
      "": 5891,
      "": 5892,
      "": 5893,
      "": 5894,
      "": 5895,
      "": 5896,
      "": 5897,
      "": 5898,
      "": 5899,
      "": 5900,
      "": 5901,
      "": 5902,
      "": 5903,
      "": 5904,
      "": 5905,
      "": 5906,
      "": 5907,
      "": 5908,
      "": 5909,
      "": 5910,
      "": 5911,
      "": 5912,
      "": 5913,
      "": 5914,
      "": 5915,
      "": 5916,
      "": 5917,
      "": 5918,
      "": 5919,
      "": 5920,
      "": 5921,
      "": 5922,
      "": 5923,
      "": 5924,
      "": 5925,
      "": 5926,
      "": 5927,
      "": 5928,
      "": 5929,
      "": 5930,
      "": 5931,
      "": 5932,
      "": 5933,
      "": 5934,
      "": 5935,
      "": 5936,
      "": 5937,
      "": 5938,
      "": 5939,
      "": 5940,
      "": 5941,
      "": 5942,
      "": 5943,
      "": 5944,
      "": 5945,
      "": 5946,
      "": 5947,
      "": 5948,
      "": 5949,
      "": 5950,
      "": 5951,
      "": 5952,
      "": 5953,
      "": 5954,
      "": 5955,
      "": 5956,
      "": 5957,
      "": 5958,
      "": 5959,
      "": 5960,
      "": 5961,
      "": 5962,
      "": 5963,
      "": 5964,
      "": 5965,
      "": 5966,
      "": 5967,
      "": 5968,
      "": 5969,
      "": 5970,
      "": 5971,
      "": 5972,
      "": 5973,
      "": 5974,
      "": 5975,
      "": 5976,
      "": 5977,
      "": 5978,
      "": 5979,
      "": 5980,
      "": 5981,
      "": 5982,
      "": 5983,
      "": 5984,
      "": 5985,
      "": 5986,
      "": 5987,
      "": 5988,
      "": 5989,
      "": 5990,
      "": 5991,
      "": 5992,
      "": 5993,
      "": 5994,
      "": 5995,
      "": 5996,
      "": 5997,
      "": 5998,
      "": 5999,
      "": 6000,
      "": 6001,
      "": 6002,
      "": 6003,
      "﨏": 6004,
      "﨔": 6005,
      "﨟": 6006,
      "﴾": 6007,
      "﴿": 6008,
      "﷓": 6009,
      "ﷺ": 6010,
      "ﺎ": 6011,
      "ﺑ": 6012,
      "ﺒ": 6013,
      "ﺖ": 6014,
      "ﺗ": 6015,
      "ﺘ": 6016,
      "ﺟ": 6017,
      "ﺣ": 6018,
      "ﺤ": 6019,
      "ﺧ": 6020,
      "ﺪ": 6021,
      "ﺮ": 6022,
      "ﺳ": 6023,
      "ﺴ": 6024,
      "ﺷ": 6025,
      "ﻄ": 6026,
      "ﻈ": 6027,
      "ﻋ": 6028,
      "ﻓ": 6029,
      "ﻖ": 6030,
      "ﻗ": 6031,
      "ﻘ": 6032,
      "ﻛ": 6033,
      "ﻜ": 6034,
      "ﻟ": 6035,
      "ﻠ": 6036,
      "ﻢ": 6037,
      "ﻣ": 6038,
      "ﻤ": 6039,
      "ﻧ": 6040,
      "ﻨ": 6041,
      "ﻪ": 6042,
      "ﻫ": 6043,
      "ﻬ": 6044,
      "ﻮ": 6045,
      "ﻲ": 6046,
      "ﻳ": 6047,
      "ﻴ": 6048,
      "�": 6049,
      "𐇲": 6050,
      "𝐿": 6051,
      "𝑃": 6052,
      "𝑖": 6053,
      "𝛿": 6054,
      "🔥": 6055,
      "😉": 6056,
      "😠": 6057,
      "😲": 6058,
      "🙁": 6059,
      "🙂": 6060,
      "𠀋": 6061,
      "𠂉": 6062,
      "𠆢": 6063,
      "𠍱": 6064,
      "𠔉": 6065,
      "𠘨": 6066,
      "𠫓": 6067,
      "𠫔": 6068,
      "𠵅": 6069,
      "𠹭": 6070,
      "𠽟": 6071,
      "𡉕": 6072,
      "𡗗": 6073,
      "𡢽": 6074,
      "𡧃": 6075,
      "𡽶": 6076,
      "𢰤": 6077,
      "𣏒": 6078,
      "𣏕": 6079,
      "𣏟": 6080,
      "𣏤": 6081,
      "𣑥": 6082,
      "𣖔": 6083,
      "𣘹": 6084,
      "𣜜": 6085,
      "𣳾": 6086,
      "𣴀": 6087,
      "𤸷": 6088,
      "𥄢": 6089,
      "𥔎": 6090,
      "𦍌": 6091,
      "𦙾": 6092,
      "𦚰": 6093,
      "𦥑": 6094,
      "𦧝": 6095,
      "𦰩": 6096,
      "𧯇": 6097,
      "𧶠": 6098,
      "𧸐": 6099,
      "𧾷": 6100,
      "𨐌": 6101,
      "𨦻": 6102,
      "𨺉": 6103,
      "𩙿": 6104,
      "𪃹": 6105,
      "𪎌": 6106,
      "𪗱": 6107,
      "𪘚": 6108,
      "##a": 6109,
      "##r": 6110,
      "##e": 6111,
      "##f": 6112,
      "##c": 6113,
      "##d": 6114,
      "##l": 6115,
      "##y": 6116,
      "##v": 6117,
      "##р": 6118,
      "##о": 6119,
      "##с": 6120,
      "##ы": 6121,
      "##п": 6122,
      "##а": 6123,
      "##е": 6124,
      "##т": 6125,
      "##я": 6126,
      "##g": 6127,
      "##u": 6128,
      "##n": 6129,
      "##t": 6130,
      "##h": 6131,
      "##o": 6132,
      "##k": 6133,
      "##s": 6134,
      "##w": 6135,
      "##_": 6136,
      "##p": 6137,
      "##m": 6138,
      "##3": 6139,
      "##2": 6140,
      "##6": 6141,
      "##5": 6142,
      "##1": 6143,
      "##j": 6144,
      "##ш": 6145,
      "##б": 6146,
      "##у": 6147,
      "##з": 6148,
      "##д": 6149,
      "##i": 6150,
      "##4": 6151,
      "##q": 6152,
      "##9": 6153,
      "##घ": 6154,
      "##य": 6155,
      "##म": 6156,
      "##र": 6157,
      "##ग": 6158,
      "##ण": 6159,
      "##व": 6160,
      "##स": 6161,
      "##в": 6162,
      "##и": 6163,
      "##ь": 6164,
      "##0": 6165,
      "##8": 6166,
      "##7": 6167,
      "##b": 6168,
      "##π": 6169,
      "##α": 6170,
      "##ξ": 6171,
      "##ε": 6172,
      "##ς": 6173,
      "##ழ": 6174,
      "##வ": 6175,
      "##ர": 6176,
      "##ம": 6177,
      "##ѕ": 6178,
      "##x": 6179,
      "##封": 6180,
      "##市": 6181,
      "##z": 6182,
      "##м": 6183,
      "##л": 6184,
      "##г": 6185,
      "##н": 6186,
      "##त": 6187,
      "##क": 6188,
      "##": 6189,
      "##ұ": 6190,
      "##ı": 6191,
      "##い": 6192,
      "##し": 6193,
      "##ょ": 6194,
      "##く": 6195,
      "##き": 6196,
      "##せ": 6197,
      "##λ": 6198,
      "##的": 6199,
      "##話": 6200,
      "##並": 6201,
      "##不": 6202,
      "##會": 6203,
      "##動": 6204,
      "##搖": 6205,
      "##或": 6206,
      "##失": 6207,
      "##敗": 6208,
      "##²": 6209,
      "##(": 6210,
      "##µ": 6211,
      "##の": 6212,
      "##う": 6213,
      "##θ": 6214,
      "##ο": 6215,
      "##ـ": 6216,
      "##ط": 6217,
      "##ع": 6218,
      "##ت": 6219,
      "##@": 6220,
      "##?": 6221,
      "##\"": 6222,
      "##ю": 6223,
      "##க": 6224,
      "##ו": 6225,
      "##ד": 6226,
      "##س": 6227,
      "##ل": 6228,
      "##م": 6229,
      "##و": 6230,
      "##ن": 6231,
      "##ч": 6232,
      "##к": 6233,
      "##ν": 6234,
      "##ல": 6235,
      "##ற": 6236,
      "##ப": 6237,
      "##ள": 6238,
      "##қ": 6239,
      "##ң": 6240,
      "##ر": 6241,
      "##ی": 6242,
      "##ة": 6243,
      "##ک": 6244,
      "##х": 6245,
      "##ə": 6246,
      "##і": 6247,
      "##υ": 6248,
      "##ω": 6249,
      "##μ": 6250,
      "##ய": 6251,
      "##த": 6252,
      "##ض": 6253,
      "##ى": 6254,
      "##ρ": 6255,
      "##η": 6256,
      "##φ": 6257,
      "##件": 6258,
      "##^": 6259,
      "##\\": 6260,
      "##.": 6261,
      "###": 6262,
      "##ன": 6263,
      "##د": 6264,
      "##ا": 6265,
      "##–": 6266,
      "##'": 6267,
      "##ι": 6268,
      "##δ": 6269,
      "##ص": 6270,
      "##ண": 6271,
      "##ه": 6272,
      "##な": 6273,
      "##こ": 6274,
      "##ま": 6275,
      "##音": 6276,
      "##形": 6277,
      "##空": 6278,
      "##间": 6279,
      "##ح": 6280,
      "##ف": 6281,
      "##τ": 6282,
      "##σ": 6283,
      "##,": 6284,
      "##ł": 6285,
      "##ג": 6286,
      "##י": 6287,
      "##ע": 6288,
      "##ת": 6289,
      "##ங": 6290,
      "##ட": 6291,
      "##ச": 6292,
      "##ب": 6293,
      "##ث": 6294,
      "##め": 6295,
      "##边": 6296,
      "##风": 6297,
      "##木": 6298,
      "##گ": 6299,
      "##מ": 6300,
      "##ש": 6301,
      "##ל": 6302,
      "##ي": 6303,
      "##ち": 6304,
      "##は": 6305,
      "##り": 6306,
      "##時": 6307,
      "##雨": 6308,
      "##ר": 6309,
      "##ב": 6310,
      "##צ": 6311,
      "##ф": 6312,
      "##影": 6313,
      "##離": 6314,
      "##ט": 6315,
      "##ן": 6316,
      "##ж": 6317,
      "##>": 6318,
      "##;": 6319,
      "##थ": 6320,
      "##न": 6321,
      "##ल": 6322,
      "##भ": 6323,
      "##ғ": 6324,
      "##ह": 6325,
      "##ब": 6326,
      "##ц": 6327,
      "##ゅ": 6328,
      "##に": 6329,
      "##閃": 6330,
      "##石": 6331,
      "##خ": 6332,
      "##ذ": 6333,
      "##-": 6334,
      "##ष": 6335,
      "##隔": 6336,
      "##千": 6337,
      "##里": 6338,
      "##&": 6339,
      "##莫": 6340,
      "##多": 6341,
      "##龙": 6342,
      "##ٱ": 6343,
      "##ъ": 6344,
      "##港": 6345,
      "##电": 6346,
      "##台": 6347,
      "##去": 6348,
      "##`": 6349,
      "##:": 6350,
      "##も": 6351,
      "##わ": 6352,
      "##す": 6353,
      "##+": 6354,
      "##遞": 6355,
      "##一": 6356,
      "##聲": 6357,
      "##側": 6358,
      "##绩": 6359,
      "##单": 6360,
      "##そ": 6361,
      "##た": 6362,
      "##ந": 6363,
      "##ү": 6364,
      "##ө": 6365,
      "##等": 6366,
      "##人": 6367,
      "##布": 6368,
      "##图": 6369,
      "##央": 6370,
      "##军": 6371,
      "##委": 6372,
      "##っ": 6373,
      "##ん": 6374,
      "##か": 6375,
      "##ق": 6376,
      "##κ": 6377,
      "##ز": 6378,
      "##ষ": 6379,
      "##ট": 6380,
      "##র": 6381,
      "##ك": 6382,
      "##ß": 6383,
      "##‌": 6384,
      "##お": 6385,
      "##る": 6386,
      "##श": 6387,
      "##प": 6388,
      "##君": 6389,
      "##ҳ": 6390,
      "##れ": 6391,
      "##ャ": 6392,
      "##ク": 6393,
      "##け": 6394,
      "##ج": 6395,
      "##瓦": 6396,
      "##ח": 6397,
      "##ז": 6398,
      "##よ": 6399,
      "##ব": 6400,
      "##জ": 6401,
      "##ন": 6402,
      "##黃": 6403,
      "##色": 6404,
      "##秋": 6405,
      "##大": 6406,
      "##梦": 6407,
      "##考": 6408,
      "##*": 6409,
      "##ऽ": 6410,
      "##द": 6411,
      "##と": 6412,
      "##あ": 6413,
      "##প": 6414,
      "##শ": 6415,
      "##ক": 6416,
      "##ত": 6417,
      "##щ": 6418,
      "##体": 6419,
      "##中": 6420,
      "##合": 6421,
      "##作": 6422,
      "##学": 6423,
      "##习": 6424,
      "##/": 6425,
      "##)": 6426,
      "##þ": 6427,
      "##є": 6428,
      "##时": 6429,
      "##令": 6430,
      "##つ": 6431,
      "##ハ": 6432,
      "##テ": 6433,
      "##உ": 6434,
      "##ה": 6435,
      "##都": 6436,
      "##縣": 6437,
      "##ψ": 6438,
      "##ش": 6439,
      "##家": 6440,
      "##庭": 6441,
      "##將": 6442,
      "##散": 6443,
      "##發": 6444,
      "##出": 6445,
      "##安": 6446,
      "##靜": 6447,
      "##保": 6448,
      "##障": 6449,
      "##च": 6450,
      "##ध": 6451,
      "##ם": 6452,
      "##ק": 6453,
      "##ס": 6454,
      "##æ": 6455,
      "##[": 6456,
      "##ゃ": 6457,
      "##χ": 6458,
      "##ۦ": 6459,
      "##!": 6460,
      "##$": 6461,
      "##נ": 6462,
      "##ȝ": 6463,
      "##غ": 6464,
      "##や": 6465,
      "##み": 6466,
      "##ら": 6467,
      "##流": 6468,
      "##א": 6469,
      "##ね": 6470,
      "##%": 6471,
      "##}": 6472,
      "##买": 6473,
      "##公": 6474,
      "##卖": 6475,
      "##হ": 6476,
      "##য": 6477,
      "##兒": 6478,
      "##以": 6479,
      "##你": 6480,
      "##要": 6481,
      "##來": 6482,
      "##我": 6483,
      "##這": 6484,
      "##裏": 6485,
      "##樣": 6486,
      "##छ": 6487,
      "##切": 6488,
      "##商": 6489,
      "##売": 6490,
      "##鄉": 6491,
      "##病": 6492,
      "##ஞ": 6493,
      "##ज": 6494,
      "##想": 6495,
      "##和": 6496,
      "##講": 6497,
      "##解": 6498,
      "##新": 6499,
      "##信": 6500,
      "##息": 6501,
      "##茲": 6502,
      "##南": 6503,
      "##ふ": 6504,
      "##எ": 6505,
      "##ツ": 6506,
      "##ظ": 6507,
      "##ড": 6508,
      "##ই": 6509,
      "##兰": 6510,
      "##氏": 6511,
      "##ء": 6512,
      "##ۥ": 6513,
      "##路": 6514,
      "##顺": 6515,
      "##过": 6516,
      "##早": 6517,
      "##化": 6518,
      "##キ": 6519,
      "##叔": 6520,
      "##文": 6521,
      "##へ": 6522,
      "##٧": 6523,
      "##丑": 6524,
      "##闻": 6525,
      "##史": 6526,
      "##起": 6527,
      "##源": 6528,
      "##ˌ": 6529,
      "##民": 6530,
      "##如": 6531,
      "##子": 6532,
      "##β": 6533,
      "##讨": 6534,
      "##林": 6535,
      "##]": 6536,
      "##=": 6537,
      "##↩": 6538,
      "##天": 6539,
      "##由": 6540,
      "##命": 6541,
      "##禄": 6542,
      "##贝": 6543,
      "##尔": 6544,
      "##喜": 6545,
      "##剧": 6546,
      "##|": 6547,
      "##費": 6548,
      "##僅": 6549,
      "##是": 6550,
      "##個": 6551,
      "##偶": 6552,
      "##像": 6553,
      "##ड": 6554,
      "##ζ": 6555,
      "##ッ": 6556,
      "##ス": 6557,
      "##叮": 6558,
      "##噹": 6559,
      "##さ": 6560,
      "##γ": 6561,
      "##む": 6562,
      "##爱": 6563,
      "##们": 6564,
      "##視": 6565,
      "##野": 6566,
      "##挖": 6567,
      "##純": 6568,
      "##恐": 6569,
      "##怖": 6570,
      "##刻": 6571,
      "##ख": 6572,
      "##寶": 6573,
      "##º": 6574,
      "##ठ": 6575,
      "##—": 6576,
      "##פ": 6577,
      "##儿": 6578,
      "##马": 6579,
      "##罕": 6580,
      "##ø": 6581,
      "##ল": 6582,
      "##স": 6583,
      "##沒": 6584,
      "##有": 6585,
      "##給": 6586,
      "##關": 6587,
      "##於": 6588,
      "##事": 6589,
      "##任": 6590,
      "##何": 6591,
      "##警": 6592,
      "##告": 6593,
      "##通": 6594,
      "##高": 6595,
      "##校": 6596,
      "##招": 6597,
      "##生": 6598,
      "##全": 6599,
      "##国": 6600,
      "##统": 6601,
      "##试": 6602,
      "##ひ": 6603,
      "##必": 6604,
      "##須": 6605,
      "##選": 6606,
      "##擇": 6607,
      "##乳": 6608,
      "##養": 6609,
      "##ろ": 6610,
      "##খ": 6611,
      "##止": 6612,
      "##薦": 6613,
      "##כ": 6614,
      "##倍": 6615,
      "##邪": 6616,
      "##惡": 6617,
      "##崛": 6618,
      "##ј": 6619,
      "##鱼": 6620,
      "##壯": 6621,
      "##觀": 6622,
      "##景": 6623,
      "##象": 6624,
      "##傷": 6625,
      "##ほ": 6626,
      "##ट": 6627,
      "##星": 6628,
      "##云": 6629,
      "##歡": 6630,
      "##抱": 6631,
      "##住": 6632,
      "##放": 6633,
      "##吞": 6634,
      "##就": 6635,
      "##驕": 6636,
      "##傲": 6637,
      "##基": 6638,
      "##礎": 6639,
      "##罪": 6640,
      "##也": 6641,
      "##從": 6642,
      "##此": 6643,
      "##而": 6644,
      "##»": 6645,
      "##主": 6646,
      "##旗": 6647,
      "##銀": 6648,
      "##行": 6649,
      "##ণ": 6650,
      "##彌": 6651,
      "##登": 6652,
      "##光": 6653,
      "##て": 6654,
      "##�": 6655,
      "##持": 6656,
      "##專": 6657,
      "##注": 6658,
      "##其": 6659,
      "##它": 6660,
      "##上": 6661,
      "##們": 6662,
      "##心": 6663,
      "##帶": 6664,
      "##他": 6665,
      "##前": 6666,
      "##進": 6667,
      "##本": 6668,
      "##加": 6669,
      "##厉": 6670,
      "##э": 6671,
      "##ϸ": 6672,
      "##থ": 6673,
      "##法": 6674,
      "##韻": 6675,
      "##美": 6676,
      "##妙": 6677,
      "##深": 6678,
      "##谷": 6679,
      "##響": 6680,
      "##দ": 6681,
      "##ধ": 6682,
      "##參": 6683,
      "##同": 6684,
      "##ङ": 6685,
      "##電": 6686,
      "##地": 6687,
      "##区": 6688,
      "##枋": 6689,
      "##極": 6690,
      "##受": 6691,
      "##恩": 6692,
      "##膏": 6693,
      "##之": 6694,
      "##預": 6695,
      "##言": 6696,
      "##四": 6697,
      "##版": 6698,
      "##譯": 6699,
      "##者": 6700,
      "##ম": 6701,
      "##对": 6702,
      "##话": 6703,
      "##分": 6704,
      "##析": 6705,
      "##照": 6706,
      "##西": 6707,
      "##洋": 6708,
      "##ף": 6709,
      "##★": 6710,
      "##~": 6711,
      "##務": 6712,
      "##員": 6713,
      "##®": 6714,
      "##打": 6715,
      "##現": 6716,
      "##在": 6717,
      "##正": 6718,
      "##情": 6719,
      "##相": 6720,
      "##配": 6721,
      "##殿": 6722,
      "##அ": 6723,
      "##靈": 6724,
      "##體": 6725,
      "##█": 6726,
      "##得": 6727,
      "##著": 6728,
      "##更": 6729,
      "##與": 6730,
      "##پ": 6731,
      "##چ": 6732,
      "##级": 6733,
      "##成": 6734,
      "##眉": 6735,
      "##弄": 6736,
      "##眼": 6737,
      "##见": 6738,
      "##え": 6739,
      "##协": 6740,
      "##式": 6741,
      "##用": 6742,
      "##计": 6743,
      "##算": 6744,
      "##机": 6745,
      "##ュ": 6746,
      "##۲": 6747,
      "##۴": 6748,
      "##結": 6749,
      "##論": 6750,
      "##研": 6751,
      "##究": 6752,
      "##爲": 6753,
      "##{": 6754,
      "##科": 6755,
      "##學": 6756,
      "##城": 6757,
      "##粱": 6758,
      "##購": 6759,
      "##<": 6760,
      "##关": 6761,
      "##村": 6762,
      "##醒": 6763,
      "##過": 6764,
      "##接": 6765,
      "##真": 6766,
      "##理": 6767,
      "##志": 6768,
      "##明": 6769,
      "##韋": 6770,
      "##磲": 6771,
      "##ー": 6772,
      "##ワ": 6773,
      "##ト": 6774,
      "##探": 6775,
      "##索": 6776,
      "##協": 6777,
      "##習": 6778,
      "##関": 6779,
      "##係": 6780,
      "##性": 6781,
      "##柏": 6782,
      "##ә": 6783,
      "##近": 6784,
      "##门": 6785,
      "##硯": 6786,
      "##価": 6787,
      "##萬": 6788,
      "##利": 6789,
      "##常": 6790,
      "##自": 6791,
      "##種": 6792,
      "##念": 6793,
      "##甸": 6794,
      "##ও": 6795,
      "##ぬ": 6796,
      "##ロ": 6797,
      "##親": 6798,
      "##目": 6799,
      "##睹": 6800,
      "##慘": 6801,
      "##狀": 6802,
      "##間": 6803,
      "##已": 6804,
      "##了": 6805,
      "##语": 6806,
      "##謝": 6807,
      "##耶": 6808,
      "##華": 6809,
      "##ン": 6810,
      "##妥": 6811,
      "##讓": 6812,
      "##己": 6813,
      "##準": 6814,
      "##備": 6815,
      "##好": 6816,
      "##を": 6817,
      "##ゆ": 6818,
      "##下": 6819,
      "##年": 6820,
      "##月": 6821,
      "##推": 6822,
      "##邀": 6823,
      "##請": 6824,
      "##能": 6825,
      "##简": 6826,
      "##原": 6827,
      "##因": 6828,
      "##员": 6829,
      "##互": 6830,
      "##动": 6831,
      "##方": 6832,
      "##可": 6833,
      "##小": 6834,
      "##群": 6835,
      "##被": 6836,
      "##观": 6837,
      "##察": 6838,
      "##到": 6839,
      "##字": 6840,
      "##ð": 6841,
      "##龍": 6842,
      "##妹": 6843,
      "##魔": 6844,
      "##鬼": 6845,
      "##軍": 6846,
      "##隊": 6847,
      "##変": 6848,
      "##見": 6849,
      "##幾": 6850,
      "##ア": 6851,
      "##フ": 6852,
      "##リ": 6853,
      "##カ": 6854,
      "##疆": 6855,
      "##海": 6856,
      "##艦": 6857,
      "##于": 6858,
      "##各": 6859,
      "##种": 6860,
      "##社": 6861,
      "##会": 6862,
      "##取": 6863,
      "##向": 6864,
      "##论": 6865,
      "##迁": 6866,
      "##菊": 6867,
      "##鸟": 6868,
      "##ª": 6869,
      "##இ": 6870,
      "##¼": 6871,
      "##京": 6872,
      "##个": 6873,
      "##领": 6874,
      "##域": 6875,
      "##涵": 6876,
      "##盖": 6877,
      "##次": 6878,
      "##曲": 6879,
      "##线": 6880,
      "##班": 6881,
      "##神": 6882,
      "##县": 6883,
      "##": 6884,
      "##": 6885,
      "##": 6886,
      "##": 6887,
      "##": 6888,
      "##": 6889,
      "##": 6890,
      "##": 6891,
      "##": 6892,
      "##": 6893,
      "##": 6894,
      "##": 6895,
      "##": 6896,
      "##": 6897,
      "##": 6898,
      "##": 6899,
      "##阻": 6900,
      "##礙": 6901,
      "##曉": 6902,
      "##破": 6903,
      "##壞": 6904,
      "##嶺": 6905,
      "##概": 6906,
      "##来": 6907,
      "##衡": 6908,
      "##量": 6909,
      "##这": 6910,
      "##两": 6911,
      "##力": 6912,
      "##ﺎ": 6913,
      "##ﻣ": 6914,
      "##ﻪ": 6915,
      "##追": 6916,
      "##求": 6917,
      "##外": 6918,
      "##世": 6919,
      "##界": 6920,
      "##及": 6921,
      "##謂": 6922,
      "##看": 6923,
      "##重": 6924,
      "##改": 6925,
      "##變": 6926,
      "##認": 6927,
      "##頭": 6928,
      "##达": 6929,
      "##把": 6930,
      "##許": 6931,
      "##拷": 6932,
      "##脫": 6933,
      "##義": 6934,
      "##需": 6935,
      "##适": 6936,
      "##应": 6937,
      "##介": 6938,
      "##潜": 6939,
      "##瓜": 6940,
      "##蝦": 6941,
      "##仁": 6942,
      "##籠": 6943,
      "##包": 6944,
      "##盡": 6945,
      "##魂": 6946,
      "##拯": 6947,
      "##救": 6948,
      "##ﺤ": 6949,
      "##ﻘ": 6950,
      "##ﻴ": 6951,
      "##回": 6952,
      "##犬": 6953,
      "##育": 6954,
      "##領": 6955,
      "##數": 6956,
      "##গ": 6957,
      "##惠": 6958,
      "##王": 6959,
      "##螺": 6960,
      "##鎮": 6961,
      "##ञ": 6962,
      "##百": 6963,
      "##精": 6964,
      "##华": 6965,
      "##ˈ": 6966,
      "##靠": 6967,
      "##哲": 6968,
      "##區": 6969,
      "##才": 6970,
      "##幹": 6971,
      "##イ": 6972,
      "##願": 6973,
      "##意": 6974,
      "##花": 6975,
      "##所": 6976,
      "##建": 6977,
      "##議": 6978,
      "##禱": 6979,
      "##祈": 6980,
      "##國": 6981,
      "##教": 6982,
      "##師": 6983,
      "##为": 6984,
      "##后": 6985,
      "##产": 6986,
      "##奠": 6987,
      "##定": 6988,
      "##闊": 6989,
      "##夏": 6990,
      "##族": 6991,
      "##治": 6992,
      "##雾": 6993,
      "##ژ": 6994,
      "##訴": 6995,
      "##說": 6996,
      "##先": 6997,
      "##找": 6998,
      "##卻": 6999,
      "##ﻮ": 7000,
      "##♀": 7001,
      "##″": 7002,
      "##使": 7003,
      "##她": 7004,
      "##修": 7005,
      "##道": 7006,
      "##活": 7007,
      "##管": 7008,
      "##且": 7009,
      "##境": 7010,
      "##开": 7011,
      "##课": 7012,
      "##程": 7013,
      "##虎": 7014,
      "##列": 7015,
      "##最": 7016,
      "##優": 7017,
      "##餐": 7018,
      "##對": 7019,
      "##提": 7020,
      "##快": 7021,
      "##瘋": 7022,
      "##চ": 7023,
      "##ছ": 7024,
      "##少": 7025,
      "##希": 7026,
      "##望": 7027,
      "##整": 7028,
      "##": 7029,
      "##": 7030,
      "##": 7031,
      "##": 7032,
      "##": 7033,
      "##": 7034,
      "##": 7035,
      "##": 7036,
      "##": 7037,
      "##三": 7038,
      "##窩": 7039,
      "##圓": 7040,
      "##線": 7041,
      "##蟲": 7042,
      "##州": 7043,
      "##压": 7044,
      "##企": 7045,
      "##羅": 7046,
      "##气": 7047,
      "##智": 7048,
      "##": 7049,
      "##技": 7050,
      "##术": 7051,
      "##义": 7052,
      "##赋": 7053,
      "##予": 7054,
      "##圈": 7055,
      "##般": 7056,
      "##那": 7057,
      "##些": 7058,
      "##孩": 7059,
      "##位": 7060,
      "##候": 7061,
      "##彩": 7062,
      "##帐": 7063,
      "##手": 7064,
      "##弓": 7065,
      "##湖": 7066,
      "##壓": 7067,
      "##身": 7068,
      "##♫": 7069,
      "##ʻ": 7070,
      "##鸣": 7071,
      "##固": 7072,
      "##守": 7073,
      "##室": 7074,
      "##絕": 7075,
      "##即": 7076,
      "##返": 7077,
      "##况": 7078,
      "##籬": 7079,
      "##組": 7080,
      "##團": 7081,
      "##規": 7082,
      "##模": 7083,
      "##戶": 7084,
      "##房": 7085,
      "##फ": 7086,
      "##張": 7087,
      "##立": 7088,
      "##知": 7089,
      "##識": 7090,
      "##ভ": 7091,
      "##ঞ": 7092,
      "##寄": 7093,
      "##份": 7094,
      "##阁": 7095,
      "##寺": 7096,
      "##录": 7097,
      "##播": 7098,
      "##系": 7099,
      "##女": 7100,
      "##ঠ": 7101,
      "##欢": 7102,
      "##ᄂ": 7103,
      "##ᅵ": 7104,
      "##ᄉ": 7105,
      "##ᅳ": 7106,
      "##ᄅ": 7107,
      "##ᅩ": 7108,
      "##ᄀ": 7109,
      "##態": 7110,
      "##度": 7111,
      "##复": 7112,
      "##制": 7113,
      "##例": 7114,
      "##儀": 7115,
      "##座": 7116,
      "##经": 7117,
      "##七": 7118,
      "##书": 7119,
      "##實": 7120,
      "##證": 7121,
      "##角": 7122,
      "##覺": 7123,
      "##嚴": 7124,
      "##报": 7125,
      "##油": 7126,
      "##然": 7127,
      "##處": 7128,
      "##稙": 7129,
      "##→": 7130,
      "##连": 7131,
      "##無": 7132,
      "##夠": 7133,
      "##開": 7134,
      "##": 7135,
      "##§": 7136,
      "##别": 7137,
      "##査": 7138,
      "##果": 7139,
      "##罗": 7140,
      "##麗": 7141,
      "##筆": 7142,
      "##型": 7143,
      "##ঙ": 7144,
      "##麽": 7145,
      "##悲": 7146,
      "##哀": 7147,
      "##創": 7148,
      "##造": 7149,
      "##物": 7150,
      "##祸": 7151,
      "##擁": 7152,
      "##嗎": 7153,
      "##œ": 7154,
      "##ʿ": 7155,
      "##节": 7156,
      "##燥": 7157,
      "##无": 7158,
      "##味": 7159,
      "##依": 7160,
      "##戀": 7161,
      "##長": 7162,
      "##今": 7163,
      "##ﻄ": 7164,
      "##ﺮ": 7165,
      "##ﻓ": 7166,
      "##ﻧ": 7167,
      "##籍": 7168,
      "##劳": 7169,
      "##工": 7170,
      "##福": 7171,
      "##槍": 7172,
      "##茶": 7173,
      "##现": 7174,
      "##代": 7175,
      "##剩": 7176,
      "##余": 7177,
      "##點": 7178,
      "##珍": 7179,
      "##貴": 7180,
      "##虑": 7181,
      "##每": 7182,
      "##收": 7183,
      "##消": 7184,
      "##皆": 7185,
      "##毛": 7186,
      "##丫": 7187,
      "##态": 7188,
      "##发": 7189,
      "##展": 7190,
      "##ぇ": 7191,
      "##组": 7192,
      "##書": 7193,
      "##非": 7194,
      "##感": 7195,
      "##只": 7196,
      "##‎": 7197,
      "##演": 7198,
      "##督": 7199,
      "##户": 7200,
      "##服": 7201,
      "##务": 7202,
      "##號": 7203,
      "##碼": 7204,
      "##牌": 7205,
      "##样": 7206,
      "##题": 7207,
      "##实": 7208,
      "##际": 7209,
      "##含": 7210,
      "##着": 7211,
      "##当": 7212,
      "##杂": 7213,
      "##苦": 7214,
      "##ঘ": 7215,
      "##ஒ": 7216,
      "##寫": 7217,
      "##善": 7218,
      "##拳": 7219,
      "##當": 7220,
      "##腰": 7221,
      "##祿": 7222,
      "##山": 7223,
      "##語": 7224,
      "##鸡": 7225,
      "##猴": 7226,
      "##۸": 7227,
      "##ﺷ": 7228,
      "##ﺘ": 7229,
      "##緣": 7230,
      "##骨": 7231,
      "##密": 7232,
      "##挑": 7233,
      "##戰": 7234,
      "##众": 7235,
      "##导": 7236,
      "##牛": 7237,
      "##窺": 7238,
      "##友": 7239,
      "##ſ": 7240,
      "##穆": 7241,
      "##英": 7242,
      "##コ": 7243,
      "##ミ": 7244,
      "##ニ": 7245,
      "##ケ": 7246,
      "##シ": 7247,
      "##ョ": 7248,
      "##貨": 7249,
      "##急": 7250,
      "##喝": 7251,
      "##士": 7252,
      "##汁": 7253,
      "##液": 7254,
      "##爾": 7255,
      "##泰": 7256,
      "##共": 7257,
      "##賞": 7258,
      "##旨": 7259,
      "##―": 7260,
      "##效": 7261,
      "##促": 7262,
      "##进": 7263,
      "##还": 7264,
      "##战": 7265,
      "##氣": 7266,
      "##步": 7267,
      "##难": 7268,
      "##移": 7269,
      "##嘴": 7270,
      "##怎": 7271,
      "##敵": 7272,
      "##統": 7273,
      "##、": 7274,
      "##瞬": 7275,
      "##豪": 7276,
      "##宅": 7277,
      "##比": 7278,
      "##球": 7279,
      "##供": 7280,
      "##愉": 7281,
      "##很": 7282,
      "##為": 7283,
      "##阿": 7284,
      "##陀": 7285,
      "##晃": 7286,
      "##灣": 7287,
      "##爭": 7288,
      "##曆": 7289,
      "##ウ": 7290,
      "##ェ": 7291,
      "##サ": 7292,
      "##場": 7293,
      "##đ": 7294,
      "##莉": 7295,
      "##萨": 7296,
      "##白": 7297,
      "##ネ": 7298,
      "##タ": 7299,
      "##拔": 7300,
      "##ラ": 7301,
      "##ィ": 7302,
      "##経": 7303,
      "##験": 7304,
      "##镇": 7305,
      "##興": 7306,
      "##金": 7307,
      "##佛": 7308,
      "##弋": 7309,
      "##卡": 7310,
      "##奔": 7311,
      "##東": 7312,
      "##项": 7313,
      "##火": 7314,
      "##應": 7315,
      "##水": 7316,
      "##平": 7317,
      "##ஃ": 7318,
      "##入": 7319,
      "##冬": 7320,
      "##糊": 7321,
      "##塗": 7322,
      "##«": 7323,
      "##讀": 7324,
      "##亞": 7325,
      "##执": 7326,
      "##血": 7327,
      "##馬": 7328,
      "##錯": 7329,
      "##盛": 7330,
      "##榮": 7331,
      "##耀": 7332,
      "##食": 7333,
      "##具": 7334,
      "##便": 7335,
      "##浩": 7336,
      "##材": 7337,
      "##": 7338,
      "##屬": 7339,
      "##帝": 7340,
      "##紺": 7341,
      "##青": 7342,
      "##淨": 7343,
      "##ɪ": 7344,
      "##ʃ": 7345,
      "##─": 7346,
      "##仍": 7347,
      "##良": 7348,
      "##伦": 7349,
      "##踐": 7350,
      "##聚": 7351,
      "##焦": 7352,
      "##面": 7353,
      "##賊": 7354,
      "##突": 7355,
      "##樂": 7356,
      "##器": 7357,
      "##​": 7358,
      "##表": 7359,
      "##示": 7360,
      "##譽": 7361,
      "##第": 7362,
      "##羊": 7363,
      "##ぃ": 7364,
      "##झ": 7365,
      "##田": 7366,
      "##典": 7367,
      "##後": 7368,
      "##口": 7369,
      "##声": 7370,
      "##头": 7371,
      "##魏": 7372,
      "##雋": 7373,
      "##底": 7374,
      "##助": 7375,
      "##交": 7376,
      "##際": 7377,
      "##忠": 7378,
      "##掌": 7379,
      "##留": 7380,
      "##至": 7381,
      "##川": 7382,
      "##肯": 7383,
      "##錫": 7384,
      "##存": 7385,
      "##風": 7386,
      "##斯": 7387,
      "##滿": 7388,
      "##足": 7389,
      "##類": 7390,
      "##渴": 7391,
      "##克": 7392,
      "##羽": 7393,
      "##記": 7394,
      "##錄": 7395,
      "##還": 7396,
      "##©": 7397,
      "##闲": 7398,
      "##内": 7399,
      "##走": 7400,
      "##邊": 7401,
      "##参": 7402,
      "##与": 7403,
      "##述": 7404,
      "##適": 7405,
      "##宣": 7406,
      "##稱": 7407,
      "##狂": 7408,
      "##卑": 7409,
      "##亢": 7410,
      "##ە": 7411,
      "##站": 7412,
      "##僻": 7413,
      "##禁": 7414,
      "##掉": 7415,
      "##һ": 7416,
      "##ナ": 7417,
      "##ﻳ": 7418,
      "##ﺖ": 7419,
      "##几": 7420,
      "##庄": 7421,
      "##顧": 7422,
      "##异": 7423,
      "##臺": 7424,
      "##耳": 7425,
      "##レ": 7426,
      "##オ": 7427,
      "##按": 7428,
      "##付": 7429,
      "##隆": 7430,
      "##ᅪ": 7431,
      "##ᆼ": 7432,
      "##ᄒ": 7433,
      "##ᅢ": 7434,
      "##ᄇ": 7435,
      "##ᅮ": 7436,
      "##ᆨ": 7437,
      "##ᄃ": 7438,
      "##甲": 7439,
      "##资": 7440,
      "##業": 7441,
      "##湯": 7442,
      "##俱": 7443,
      "##借": 7444,
      "##标": 7445,
      "##祂": 7446,
      "##充": 7447,
      "##答": 7448,
      "##案": 7449,
      "##素": 7450,
      "##藏": 7451,
      "##菩": 7452,
      "##薩": 7453,
      "##待": 7454,
      "##愛": 7455,
      "##娘": 7456,
      "##院": 7457,
      "##享": 7458,
      "##停": 7459,
      "##再": 7460,
      "##十": 7461,
      "##課": 7462,
      "##": 7463,
      "##楼": 7464,
      "##记": 7465,
      "##乐": 7466,
      "##做": 7467,
      "##静": 7468,
      "##亲": 7469,
      "##৭": 7470,
      "##৬": 7471,
      "##耐": 7472,
      "##遠": 7473,
      "##黑": 7474,
      "##妖": 7475,
      "##怪": 7476,
      "##壁": 7477,
      "##悔": 7478,
      "##輕": 7479,
      "##浮": 7480,
      "##俗": 7481,
      "##計": 7482,
      "##門": 7483,
      "##支": 7484,
      "##援": 7485,
      "##賦": 7486,
      "##軟": 7487,
      "##落": 7488,
      "##日": 7489,
      "##錢": 7490,
      "##滅": 7491,
      "##确": 7492,
      "##積": 7493,
      "##叛": 7494,
      "##ך": 7495,
      "##呼": 7496,
      "##発": 7497,
      "##効": 7498,
      "##評": 7499,
      "##資": 7500,
      "##料": 7501,
      "##尋": 7502,
      "##符": 7503,
      "##特": 7504,
      "##徵": 7505,
      "##函": 7506,
      "##势": 7507,
      "##蚌": 7508,
      "##¡": 7509,
      "##微": 7510,
      "##祠": 7511,
      "##ਰ": 7512,
      "##ਨ": 7513,
      "##毕": 7514,
      "##納": 7515,
      "##序": 7516,
      "##排": 7517,
      "##名": 7518,
      "##二": 7519,
      "##荷": 7520,
      "##蘭": 7521,
      "##﨟": 7522,
      "##什": 7523,
      "##麼": 7524,
      "##ᅡ": 7525,
      "##ᄋ": 7526,
      "##貞": 7527,
      "##內": 7528,
      "##禪": 7529,
      "##": 7530,
      "##挪": 7531,
      "##威": 7532,
      "##池": 7533,
      "##‖": 7534,
      "##傳": 7535,
      "##草": 7536,
      "##转": 7537,
      "##直": 7538,
      "##ओ": 7539,
      "##细": 7540,
      "##負": 7541,
      "##眾": 7542,
      "##皮": 7543,
      "##आ": 7544,
      "##奸": 7545,
      "##视": 7546,
      "##秀": 7547,
      "##ℓ": 7548,
      "##革": 7549,
      "##­": 7550,
      "##吵": 7551,
      "##又": 7552,
      "##拒": 7553,
      "##背": 7554,
      "##泉": 7555,
      "##陷": 7556,
      "##洗": 7557,
      "##禮": 7558,
      "##機": 7559,
      "##報": 7560,
      "##復": 7561,
      "##幣": 7562,
      "##元": 7563,
      "##經": 7564,
      "##懺": 7565,
      "##结": 7566,
      "##舌": 7567,
      "##£": 7568,
      "##层": 7569,
      "##濕": 7570,
      "##奴": 7571,
      "##ஐ": 7572,
      "##久": 7573,
      "##臨": 7574,
      "##太": 7575,
      "##﨔": 7576,
      "##狡": 7577,
      "##勝": 7578,
      "##¹": 7579,
      "##উ": 7580,
      "##鼓": 7581,
      "##往": 7582,
      "##獄": 7583,
      "##廣": 7584,
      "##洲": 7585,
      "##腦": 7586,
      "##導": 7587,
      "##設": 7588,
      "##党": 7589,
      "##长": 7590,
      "##园": 7591,
      "##マ": 7592,
      "##ԛ": 7593,
      "##丟": 7594,
      "##汉": 7595,
      "##㇀": 7596,
      "##点": 7597,
      "##将": 7598,
      "##囊": 7599,
      "##產": 7600,
      "##ム": 7601,
      "##ᆫ": 7602,
      "##潤": 7603,
      "##潔": 7604,
      "##ץ": 7605,
      "##謙": 7606,
      "##勵": 7607,
      "##輩": 7608,
      "##": 7609,
      "##": 7610,
      "##": 7611,
      "##": 7612,
      "##": 7613,
      "##": 7614,
      "##擊": 7615,
      "##尿": 7616,
      "##ˆ": 7617,
      "##廁": 7618,
      "##ஓ": 7619,
      "##仓": 7620,
      "##认": 7621,
      "##劃": 7622,
      "##指": 7623,
      "##執": 7624,
      "##懷": 7625,
      "##捲": 7626,
      "##抓": 7627,
      "##戴": 7628,
      "##冠": 7629,
      "##万": 7630,
      "##引": 7631,
      "##諸": 7632,
      "##ढ": 7633,
      "##‒": 7634,
      "##痛": 7635,
      "##致": 7636,
      "##短": 7637,
      "##片": 7638,
      "##断": 7639,
      "##賴": 7640,
      "##灵": 7641,
      "##完": 7642,
      "##跌": 7643,
      "##倒": 7644,
      "##齿": 7645,
      "##薄": 7646,
      "##周": 7647,
      "##圍": 7648,
      "##彼": 7649,
      "##寬": 7650,
      "##恕": 7651,
      "##官": 7652,
      "##未": 7653,
      "##踏": 7654,
      "##車": 7655,
      "##滋": 7656,
      "##午": 7657,
      "##诺": 7658,
      "##兀": 7659,
      "##鷹": 7660,
      "##難": 7661,
      "##晚": 7662,
      "##⁵": 7663,
      "##团": 7664,
      "##初": 7665,
      "##欲": 7666,
      "##確": 7667,
      "##否": 7668,
      "##捷": 7669,
      "##°": 7670,
      "##师": 7671,
      "##戋": 7672,
      "##绿": 7673,
      "##岩": 7674,
      "##單": 7675,
      "##轉": 7676,
      "##達": 7677,
      "##亡": 7678,
      "##堅": 7679,
      "##仆": 7680,
      "##卿": 7681,
      "##扁": 7682,
      "##您": 7683,
      "##偉": 7684,
      "##部": 7685,
      "##首": 7686,
      "##律": 7687,
      "##控": 7688,
      "##獨": 7689,
      "##項": 7690,
      "##ル": 7691,
      "##अ": 7692,
      "##米": 7693,
      "##別": 7694,
      "##ফ": 7695,
      "##০": 7696,
      "##১": 7697,
      "##独": 7698,
      "##顾": 7699,
      "##薬": 7700,
      "##远": 7701,
      "##六": 7702,
      "##调": 7703,
      "##躬": 7704,
      "##尽": 7705,
      "##古": 7706,
      "##伙": 7707,
      "##雛": 7708,
      "##チ": 7709,
      "##永": 7710,
      "##银": 7711,
      "##標": 7712,
      "##置": 7713,
      "##ھ": 7714,
      "##靡": 7715,
      "##暴": 7716,
      "##附": 7717,
      "##睛": 7718,
      "##蓋": 7719,
      "##略": 7720,
      "##夕": 7721,
      "##節": 7722,
      "##ہ": 7723,
      "##履": 7724,
      "##農": 7725,
      "##沿": 7726,
      "##差": 7727,
      "##遁": 7728,
      "##斷": 7729,
      "##衍": 7730,
      "##メ": 7731,
      "##八": 7732,
      "##−": 7733,
      "##曾": 7734,
      "##朵": 7735,
      "##聽": 7736,
      "##洱": 7737,
      "##蜜": 7738,
      "##セ": 7739,
      "##珠": 7740,
      "##圖": 7741,
      "##價": 7742,
      "##³": 7743,
      "##类": 7744,
      "##思": 7745,
      "##啟": 7746,
      "##図": 7747,
      "##露": 7748,
      "##呈": 7749,
      "##验": 7750,
      "##历": 7751,
      "##变": 7752,
      "##裡": 7753,
      "##满": 7754,
      "##島": 7755,
      "##条": 7756,
      "##狗": 7757,
      "##ஆ": 7758,
      "##ソ": 7759,
      "##譬": 7760,
      "##喻": 7761,
      "##儲": 7762,
      "##´": 7763,
      "##干": 7764,
      "##佈": 7765,
      "##坚": 7766,
      "##仰": 7767,
      "##漠": 7768,
      "##強": 7769,
      "##品": 7770,
      "##设": 7771,
      "##施": 7772,
      "##办": 7773,
      "##冲": 7774,
      "##斗": 7775,
      "##朝": 7776,
      "##清": 7777,
      "##錶": 7778,
      "##焰": 7779,
      "##糕": 7780,
      "##父": 7781,
      "##母": 7782,
      "##運": 7783,
      "##皺": 7784,
      "##维": 7785,
      "##湧": 7786,
      "##😠": 7787,
      "##紀": 7788,
      "##识": 7789,
      "##北": 7790,
      "##拜": 7791,
      "##划": 7792,
      "##™": 7793,
      "##腊": 7794,
      "##ਪ": 7795,
      "##ਸ": 7796,
      "##祀": 7797,
      "##墓": 7798,
      "##碑": 7799,
      "##禾": 7800,
      "##广": 7801,
      "##曰": 7802,
      "##暗": 7803,
      "##陰": 7804,
      "##省": 7805,
      "##虛": 7806,
      "##练": 7807,
      "##健": 7808,
      "##啤": 7809,
      "##酒": 7810,
      "##稍": 7811,
      "##縱": 7812,
      "##逝": 7813,
      "##幻": 7814,
      "##免": 7815,
      "##承": 7816,
      "##丹": 7817,
      "##乡": 7818,
      "##奉": 7819,
      "##恒": 7820,
      "##阪": 7821,
      "##匙": 7822,
      "##賢": 7823,
      "##忌": 7824,
      "##☹": 7825,
      "##熱": 7826,
      "##麥": 7827,
      "##ɛ": 7828,
      "##壮": 7829,
      "##ɨ": 7830,
      "##釋": 7831,
      "##襲": 7832,
      "##汽": 7833,
      "##车": 7834,
      "##ヘ": 7835,
      "##垢": 7836,
      "##姆": 7837,
      "##恭": 7838,
      "##畢": 7839,
      "##敬": 7840,
      "##": 7841,
      "##严": 7842,
      "##匯": 7843,
      "##裝": 7844,
      "##織": 7845,
      "##畫": 7846,
      "##蒙": 7847,
      "##‏": 7848,
      "##窦": 7849,
      "##伯": 7850,
      "##婚": 7851,
      "##۵": 7852,
      "##咤": 7853,
      "##肉": 7854,
      "##斥": 7855,
      "##炯": 7856,
      "##½": 7857,
      "##估": 7858,
      "##。": 7859,
      "##岡": 7860,
      "##凶": 7861,
      "##廠": 7862,
      "##宗": 7863,
      "##集": 7864,
      "##阴": 7865,
      "##測": 7866,
      "##乙": 7867,
      "##餘": 7868,
      "##迎": 7869,
      "##娶": 7870,
      "##﨏": 7871,
      "##३": 7872,
      "##頁": 7873,
      "##約": 7874,
      "##泳": 7875,
      "##骑": 7876,
      "##东": 7877,
      "##網": 7878,
      "##絡": 7879,
      "##鐵": 7880,
      "##÷": 7881,
      "##香": 7882,
      "##惜": 7883,
      "##玉": 7884,
      "##俄": 7885,
      "##梅": 7886,
      "##戛": 7887,
      "##践": 7888,
      "##": 7889,
      "##晝": 7890,
      "##寢": 7891,
      "##籌": 7892,
      "##權": 7893,
      "##眠": 7894,
      "##土": 7895,
      "##宏": 7896,
      "##攜": 7897,
      "##麻": 7898,
      "##哈": 7899,
      "##逐": 7900,
      "##ऊ": 7901,
      "##街": 7902,
      "##": 7903,
      "##": 7904,
      "##张": 7905,
      "##软": 7906,
      "##夜": 7907,
      "##径": 7908,
      "##吃": 7909,
      "##驚": 7910,
      "##徒": 7911,
      "##訓": 7912,
      "##練": 7913,
      "##培": 7914,
      "##右": 7915,
      "##翼": 7916,
      "##陽": 7917,
      "##婆": 7918,
      "##塞": 7919,
      "##¬": 7920,
      "##璃": 7921,
      "##働": 7922,
      "##検": 7923,
      "##討": 7924,
      "##遼": 7925,
      "##": 7926,
      "##衛": 7927,
      "##矢": 7928,
      "##根": 7929,
      "##显": 7930,
      "##逃": 7931,
      "##橫": 7932,
      "##决": 7933,
      "##问": 7934,
      "##策": 7935,
      "##场": 7936,
      "##朗": 7937,
      "##玛": 7938,
      "##峰": 7939,
      "##壩": 7940,
      "##諒": 7941,
      "##怒": 7942,
      "##卷": 7943,
      "##既": 7944,
      "##脈": 7945,
      "##辨": 7946,
      "##菽": 7947,
      "##ᄌ": 7948,
      "##•": 7949,
      "##訊": 7950,
      "##潛": 7951,
      "##伏": 7952,
      "##男": 7953,
      "##轻": 7954,
      "##髮": 7955,
      "##茂": 7956,
      "##聳": 7957,
      "##避": 7958,
      "##码": 7959,
      "##": 7960,
      "##降": 7961,
      "##肩": 7962,
      "##": 7963,
      "##♦": 7964,
      "##韜": 7965,
      "##脾": 7966,
      "##印": 7967,
      "##刷": 7968,
      "##红": 7969,
      "##莓": 7970,
      "##腳": 7971,
      "##聖": 7972,
      "##五": 7973,
      "##閱": 7974,
      "##巧": 7975,
      "##棟": 7976,
      "##隨": 7977,
      "##歧": 7978,
      "##況": 7979,
      "##却": 7980,
      "##康": 7981,
      "##試": 7982,
      "##ɣ": 7983,
      "##佳": 7984,
      "##束": 7985,
      "##∂": 7986,
      "##段": 7987,
      "##遜": 7988,
      "##跑": 7989,
      "##ए": 7990,
      "##状": 7991,
      "##墜": 7992,
      "##盼": 7993,
      "##容": 7994,
      "##易": 7995,
      "##呆": 7996,
      "##滞": 7997,
      "##章": 7998,
      "##対": 7999,
      "##叉": 8000,
      "##呀": 8001,
      "##陋": 8002,
      "##寡": 8003,
      "##蘖": 8004,
      "##老": 8005,
      "##黨": 8006,
      "##孝": 8007,
      "##鲁": 8008,
      "##番": 8009,
      "##糠": 8010,
      "##潘": 8011,
      "##端": 8012,
      "##崎": 8013,
      "##吾": 8014,
      "##採": 8015,
      "##⎯": 8016,
      "##块": 8017,
      "##亮": 8018,
      "##衣": 8019,
      "##处": 8020,
      "##富": 8021,
      "##撒": 8022,
      "##尼": 8023,
      "##迦": 8024,
      "##獵": 8025,
      "##疫": 8026,
      "##歹": 8027,
      "##廳": 8028,
      "##客": 8029,
      "##呢": 8030,
      "##繼": 8031,
      "##續": 8032,
      "##癒": 8033,
      "##楽": 8034,
      "##屈": 8035,
      "##貫": 8036,
      "##敌": 8037,
      "##纸": 8038,
      "##様": 8039,
      "##权": 8040,
      "##۳": 8041,
      "##۹": 8042,
      "##坪": 8043,
      "##ﺟ": 8044,
      "##ﻲ": 8045,
      "##孫": 8046,
      "##乖": 8047,
      "##坊": 8048,
      "##邻": 8049,
      "##舍": 8050,
      "##忍": 8051,
      "##床": 8052,
      "##複": 8053,
      "##製": 8054,
      "##☮": 8055,
      "##✈": 8056,
      "##۶": 8057,
      "##囪": 8058,
      "##期": 8059,
      "##侧": 8060,
      "##强": 8061,
      "##肪": 8062,
      "##备": 8063,
      "##挽": 8064,
      "##荀": 8065,
      "##歷": 8066,
      "##ァ": 8067,
      "##郎": 8068,
      "##": 8069,
      "##杰": 8070,
      "##嘗": 8071,
      "##蛮": 8072,
      "##啓": 8073,
      "##萊": 8074,
      "##曼": 8075,
      "##橋": 8076,
      "##۱": 8077,
      "##始": 8078,
      "##": 8079,
      "##∆": 8080,
      "##較": 8081,
      "##ﺪ": 8082,
      "##苏": 8083,
      "##雍": 8084,
      "##半": 8085,
      "##": 8086,
      "##": 8087,
      "##功": 8088,
      "##括": 8089,
      "##綿": 8090,
      "##ৎ": 8091,
      "##倫": 8092,
      "##訪": 8093,
      "##阳": 8094,
      "##殼": 8095,
      "##春": 8096,
      "##筍": 8097,
      "##业": 8098,
      "##≈": 8099,
      "##豬": 8100,
      "##ᆸ": 8101,
      "##ᆯ": 8102,
      "##飲": 8103,
      "##休": 8104,
      "##瞌": 8105,
      "##睡": 8106,
      "##终": 8107,
      "##礦": 8108,
      "##措": 8109,
      "##假": 8110,
      "##惕": 8111,
      "##旦": 8112,
      "##遷": 8113,
      "##慧": 8114,
      "##憶": 8115,
      "##尊": 8116,
      "##۷": 8117,
      "##杷": 8118,
      "##葉": 8119,
      "##桑": 8120,
      "##赤": 8121,
      "##丸": 8122,
      "##悅": 8123,
      "##传": 8124,
      "##謊": 8125,
      "##鍵": 8126,
      "##調": 8127,
      "##騙": 8128,
      "##崇": 8129,
      "##狹": 8130,
      "##麵": 8131,
      "##塌": 8132,
      "##溜": 8133,
      "##途": 8134,
      "##虔": 8135,
      "##貌": 8136,
      "##絲": 8137,
      "##胆": 8138,
      "##異": 8139,
      "##構": 8140,
      "##頗": 8141,
      "##壇": 8142,
      "##装": 8143,
      "##评": 8144,
      "##响": 8145,
      "##۰": 8146,
      "##咖": 8147,
      "##啡": 8148,
      "##妻": 8149,
      "##緊": 8150,
      "##困": 8151,
      "##決": 8152,
      "##蕩": 8153,
      "##邈": 8154,
      "##许": 8155,
      "##攻": 8156,
      "##毫": 8157,
      "##覽": 8158,
      "##堂": 8159,
      "##鬥": 8160,
      "##派": 8161,
      "##楂": 8162,
      "##閉": 8163,
      "##牲": 8164,
      "##؟": 8165,
      "##浪": 8166,
      "##寸": 8167,
      "##昏": 8168,
      "##死": 8169,
      "##濟": 8170,
      "##辅": 8171,
      "##么": 8172,
      "##±": 8173,
      "##博": 8174,
      "##ɑ": 8175,
      "##१": 8176,
      "##維": 8177,
      "##肖": 8178,
      "##贼": 8179,
      "##擒": 8180,
      "##猶": 8181,
      "##豫": 8182,
      "##溝": 8183,
      "##兹": 8184,
      "##晉": 8185,
      "##队": 8186,
      "##‬": 8187,
      "##寧": 8188,
      "##々": 8189,
      "##忙": 8190,
      "##杯": 8191,
      "##∞": 8192,
      "##兩": 8193,
      "##》": 8194,
      "##": 8195,
      "##跟": 8196,
      "##順": 8197,
      "##慰": 8198,
      "##ঝ": 8199,
      "##若": 8200,
      "##桌": 8201,
      "##值": 8202,
      "##汀": 8203,
      "##緒": 8204,
      "##迅": 8205,
      "##速": 8206,
      "##恢": 8207,
      "##८": 8208,
      "##格": 8209,
      "##戦": 8210,
      "##،": 8211,
      "##菜": 8212,
      "##墨": 8213,
      "##页": 8214,
      "##庫": 8215,
      "##限": 8216,
      "##率": 8217,
      "##网": 8218,
      "##络": 8219,
      "##闪": 8220,
      "##苋": 8221,
      "##酸": 8222,
      "##胡": 8223,
      "##ᆷ": 8224,
      "##ᅥ": 8225,
      "##◇": 8226,
      "##局": 8227,
      "##并": 8228,
      "##٤": 8229,
      "##舒": 8230,
      "##鹹": 8231,
      "##粥": 8232,
      "##叢": 8233,
      "##江": 8234,
      "##杀": 8235,
      "##⋄": 8236,
      "##ஊ": 8237,
      "##連": 8238,
      "##細": 8239,
      "##政": 8240,
      "##☠": 8241,
      "##樓": 8242,
      "##亨": 8243,
      "##胶": 8244,
      "##ई": 8245,
      "##穴": 8246,
      "##殖": 8247,
      "##沖": 8248,
      "##距": 8249,
      "##溫": 8250,
      "##暖": 8251,
      "##↵": 8252,
      "##顛": 8253,
      "##创": 8254,
      "##霸": 8255,
      "##˙": 8256,
      "##賀": 8257,
      "##禧": 8258,
      "##؛": 8259,
      "##反": 8260,
      "##映": 8261,
      "##船": 8262,
      "##宝": 8263,
      "##撫": 8264,
      "##宜": 8265,
      "##丁": 8266,
      "##套": 8267,
      "##ʹ": 8268,
      "##苗": 8269,
      "##鬆": 8270,
      "##拿": 8271,
      "##擔": 8272,
      "##股": 8273,
      "##モ": 8274,
      "##漸": 8275,
      "##逼": 8276,
      "##聞": 8277,
      "##句": 8278,
      "##趣": 8279,
      "##奏": 8280,
      "##壊": 8281,
      "##巴": 8282,
      "##从": 8283,
      "##质": 8284,
      "##说": 8285,
      "##黄": 8286,
      "##階": 8287,
      "##躊": 8288,
      "##獻": 8289,
      "##ʾ": 8290,
      "##琉": 8291,
      "##拟": 8292,
      "##蔓": 8293,
      "##旁": 8294,
      "##岸": 8295,
      "##": 8296,
      "##禅": 8297,
      "##該": 8298,
      "##透": 8299,
      "##宮": 8300,
      "##ﺳ": 8301,
      "##ﻨ": 8302,
      "##冗": 8303,
      "##襄": 8304,
      "##": 8305,
      "##‭": 8306,
      "##鸭": 8307,
      "##ɔ": 8308,
      "##脑": 8309,
      "##乏": 8310,
      "##曄": 8311,
      "##猎": 8312,
      "##卫": 8313,
      "##擴": 8314,
      "##鴻": 8315,
      "##预": 8316,
      "##株": 8317,
      "##缘": 8318,
      "##揚": 8319,
      "##€": 8320,
      "##›": 8321,
      "##煎": 8322,
      "##号": 8323,
      "##√": 8324,
      "##徑": 8325,
      "##ホ": 8326,
      "##陵": 8327,
      "##弱": 8328,
      "##誠": 8329,
      "##谈": 8330,
      "##莲": 8331,
      "##浴": 8332,
      "##杭": 8333,
      "##詞": 8334,
      "##條": 8335,
      "##誤": 8336,
      "##械": 8337,
      "##寇": 8338,
      "##輔": 8339,
      "##諾": 8340,
      "##荣": 8341,
      "##傾": 8342,
      "##僕": 8343,
      "##窗": 8344,
      "##厚": 8345,
      "##歲": 8346,
      "##梵": 8347,
      "##इ": 8348,
      "##专": 8349,
      "##檬": 8350,
      "##错": 8351,
      "##综": 8352,
      "##忿": 8353,
      "##餅": 8354,
      "##乾": 8355,
      "##孤": 8356,
      "##棄": 8357,
      "##║": 8358,
      "##▌": 8359,
      "##│": 8360,
      "##奧": 8361,
      "##秘": 8362,
      "##帯": 8363,
      "##奚": 8364,
      "##框": 8365,
      "##越": 8366,
      "##隱": 8367,
      "##托": 8368,
      "##臭": 8369,
      "##撲": 8370,
      "##鼻": 8371,
      "##雜": 8372,
      "##屎": 8373,
      "##另": 8374,
      "##临": 8375,
      "##覆": 8376,
      "##鏡": 8377,
      "##巨": 8378,
      "##规": 8379,
      "##迫": 8380,
      "##ᄏ": 8381,
      "##魯": 8382,
      "##汗": 8383,
      "##较": 8384,
      "##兌": 8385,
      "##欺": 8386,
      "##磐": 8387,
      "##懂": 8388,
      "##羔": 8389,
      "##筵": 8390,
      "##ƒ": 8391,
      "##游": 8392,
      "##枝": 8393,
      "##哪": 8394,
      "##糖": 8395,
      "##醇": 8396,
      "##店": 8397,
      "##纳": 8398,
      "##兄": 8399,
      "##弟": 8400,
      "##煩": 8401,
      "##壽": 8402,
      "##听": 8403,
      "##苑": 8404,
      "##构": 8405,
      "##证": 8406,
      "##缺": 8407,
      "##豆": 8408,
      "##◦": 8409,
      "##拉": 8410,
      "##驾": 8411,
      "##飯": 8412,
      "##總": 8413,
      "##准": 8414,
      "##换": 8415,
      "##扫": 8416,
      "##績": 8417,
      "##蓮": 8418,
      "##妇": 8419,
      "##ﻈ": 8420,
      "##勒": 8421,
      "##赦": 8422,
      "##总": 8423,
      "##頓": 8424,
      "##筋": 8425,
      "##贵": 8426,
      "##堡": 8427,
      "##宿": 8428,
      "##画": 8429,
      "##両": 8430,
      "##説": 8431,
      "##航": 8432,
      "##射": 8433,
      "##赛": 8434,
      "##寵": 8435,
      "##·": 8436,
      "##祖": 8437,
      "##": 8438,
      "##": 8439,
      "##": 8440,
      "##": 8441,
      "##": 8442,
      "##ゥ": 8443,
      "##齡": 8444,
      "##✨": 8445,
      "##範": 8446,
      "##喪": 8447,
      "##蛇": 8448,
      "##毋": 8449,
      "##躁": 8450,
      "##址": 8451,
      "##儆": 8452,
      "##饭": 8453,
      "##牙": 8454,
      "##炎": 8455,
      "##衝": 8456,
      "##仲": 8457,
      "##齊": 8458,
      "##居": 8459,
      "##術": 8460,
      "##藥": 8461,
      "##¿": 8462,
      "##孔": 8463,
      "##沙": 8464,
      "##袖": 8465,
      "##私": 8466,
      "##甯": 8467,
      "##害": 8468,
      "##怕": 8469,
      "##德": 8470,
      "##耕": 8471,
      "##": 8472,
      "##拼": 8473,
      "##٠": 8474,
      "##١": 8475,
      "##٢": 8476,
      "##伤": 8477,
      "##⺼": 8478,
      "##逆": 8479,
      "##ヤ": 8480,
      "##运": 8481,
      "##医": 8482,
      "##查": 8483,
      "##测": 8484,
      "##篇": 8485,
      "##亥": 8486,
      "##護": 8487,
      "##戈": 8488,
      "##紹": 8489,
      "##担": 8490,
      "##夢": 8491,
      "##核": 8492,
      "##胞": 8493,
      "##額": 8494,
      "##炉": 8495,
      "##刀": 8496,
      "##患": 8497,
      "##迷": 8498,
      "##选": 8499,
      "##举": 8500,
      "##纪": 8501,
      "##詛": 8502,
      "##咒": 8503,
      "##凌": 8504,
      "##灯": 8505,
      "##龟": 8506,
      "##盟": 8507,
      "##ਮ": 8508,
      "##ਤ": 8509,
      "##乎": 8510,
      "##吧": 8511,
      "##誘": 8512,
      "##惑": 8513,
      "##胸": 8514,
      "##瑞": 8515,
      "##摩": 8516,
      "##窄": 8517,
      "##恶": 8518,
      "##梗": 8519,
      "##鍾": 8520,
      "##授": 8521,
      "##単": 8522,
      "##獲": 8523,
      "##填": 8524,
      "##補": 8525,
      "##烧": 8526,
      "##層": 8527,
      "##滴": 8528,
      "##歸": 8529,
      "##释": 8530,
      "##雪": 8531,
      "##夫": 8532,
      "##ஜ": 8533,
      "##莱": 8534,
      "##臂": 8535,
      "##膀": 8536,
      "##損": 8537,
      "##駕": 8538,
      "##ħ": 8539,
      "##荆": 8540,
      "##藉": 8541,
      "##寓": 8542,
      "##盲": 8543,
      "##週": 8544,
      "##零": 8545,
      "##買": 8546,
      "##送": 8547,
      "##昨": 8548,
      "##ː": 8549,
      "##枚": 8550,
      "##兴": 8551,
      "##廑": 8552,
      "##随": 8553,
      "##産": 8554,
      "##戲": 8555,
      "##劇": 8556,
      "##毀": 8557,
      "##憤": 8558,
      "##属": 8559,
      "##⭐": 8560,
      "##益": 8561,
      "##針": 8562,
      "##坎": 8563,
      "##巢": 8564,
      "##九": 8565,
      "##煮": 8566,
      "##吸": 8567,
      "##仇": 8568,
      "##礼": 8569,
      "##淹": 8570,
      "##颐": 8571,
      "##稟": 8572,
      "##廉": 8573,
      "##恥": 8574,
      "##妈": 8575,
      "##叩": 8576,
      "##监": 8577,
      "##针": 8578,
      "##乘": 8579,
      "##退": 8580,
      "##芝": 8581,
      "##則": 8582,
      "##仕": 8583,
      "##荼": 8584,
      "##蘿": 8585,
      "##柯": 8586,
      "##弗": 8587,
      "##婁": 8588,
      "##澤": 8589,
      "##談": 8590,
      "##坐": 8591,
      "##约": 8592,
      "##议": 8593,
      "##汤": 8594,
      "##姐": 8595,
      "##閑": 8596,
      "##织": 8597,
      "##廢": 8598,
      "##‑": 8599,
      "##淳": 8600,
      "##没": 8601,
      "##帮": 8602,
      "##侯": 8603,
      "##′": 8604,
      "##洛": 8605,
      "##𝑃": 8606,
      "##♥": 8607,
      "##☺": 8608,
      "##実": 8609,
      "##蛋": 8610,
      "##藩": 8611,
      "##爆": 8612,
      "##檢": 8613,
      "##驗": 8614,
      "##エ": 8615,
      "##投": 8616,
      "##款": 8617,
      "##৯": 8618,
      "##愚": 8619,
      "##旅": 8620,
      "##戟": 8621,
      "##鋪": 8622,
      "##掩": 8623,
      "##操": 8624,
      "##偏": 8625,
      "##鐘": 8626,
      "##扳": 8627,
      "##雄": 8628,
      "##娜": 8629,
      "##甚": 8630,
      "##沈": 8631,
      "##喚": 8632,
      "##ɹ": 8633,
      "##": 8634,
      "##≥": 8635,
      "##膠": 8636,
      "##🙁": 8637,
      "##閼": 8638,
      "##则": 8639,
      "##撞": 8640,
      "##迴": 8641,
      "##犁": 8642,
      "##औ": 8643,
      "##奮": 8644,
      "##歌": 8645,
      "##给": 8646,
      "##环": 8647,
      "##ɡ": 8648,
      "##涂": 8649,
      "##似": 8650,
      "##仿": 8651,
      "##題": 8652,
      "##綱": 8653,
      "##描": 8654,
      "##牧": 8655,
      "##唯": 8656,
      "##役": 8657,
      "##": 8658,
      "##": 8659,
      "##竹": 8660,
      "##桃": 8661,
      "##祝": 8662,
      "##争": 8663,
      "##燈": 8664,
      "##载": 8665,
      "##饗": 8666,
      "##费": 8667,
      "##河": 8668,
      "##ﺴ": 8669,
      "##ﻢ": 8670,
      "##繃": 8671,
      "##漿": 8672,
      "##❑": 8673,
      "##ѵ": 8674,
      "##載": 8675,
      "##数": 8676,
      "##衫": 8677,
      "##塔": 8678,
      "##乃": 8679,
      "##刁": 8680,
      "##泽": 8681,
      "##斤": 8682,
      "##桥": 8683,
      "##২": 8684,
      "##租": 8685,
      "##ਉ": 8686,
      "##乱": 8687,
      "##☆": 8688,
      "##亂": 8689,
      "##菌": 8690,
      "##写": 8691,
      "##†": 8692,
      "##圣": 8693,
      "##亚": 8694,
      "##×": 8695,
      "##遺": 8696,
      "##憾": 8697,
      "##末": 8698,
      "##樹": 8699,
      "##兵": 8700,
      "##瞎": 8701,
      "##漫": 8702,
      "##鱗": 8703,
      "##慢": 8704,
      "##紛": 8705,
      "##傢": 8706,
      "##烏": 8707,
      "##雲": 8708,
      "##倉": 8709,
      "##膽": 8710,
      "##秦": 8711,
      "##司": 8712,
      "##०": 8713,
      "##箭": 8714,
      "##彎": 8715,
      "##叫": 8716,
      "##姻": 8717,
      "##財": 8718,
      "##終": 8719,
      "##带": 8720,
      "##吕": 8721,
      "##赫": 8722,
      "##◆": 8723,
      "##库": 8724,
      "##魚": 8725,
      "##貼": 8726,
      "##२": 8727,
      "##儒": 8728,
      "##左": 8729,
      "##帛": 8730,
      "##鮮": 8731,
      "##臣": 8732,
      "##慕": 8733,
      "##祥": 8734,
      "##燒": 8735,
      "##卯": 8736,
      "##丽": 8737,
      "##娟": 8738,
      "##森": 8739,
      "##磁": 8740,
      "##沫": 8741,
      "##涸": 8742,
      "##诗": 8743,
      "##湾": 8744,
      "##召": 8745,
      "##刊": 8746,
      "##冷": 8747,
      "##裂": 8748,
      "##飛": 8749,
      "##𝐿": 8750,
      "##翻": 8751,
      "##閣": 8752,
      "##衆": 8753,
      "##舟": 8754,
      "##济": 8755,
      "##匹": 8756,
      "##": 8757,
      "##涉": 8758,
      "##醫": 8759,
      "##仪": 8760,
      "##寞": 8761,
      "##椏": 8762,
      "##寻": 8763,
      "##蘇": 8764,
      "##珊": 8765,
      "##溪": 8766,
      "##凸": 8767,
      "##顯": 8768,
      "##烈": 8769,
      "##详": 8770,
      "##聯": 8771,
      "##審": 8772,
      "##鄰": 8773,
      "##ℏ": 8774,
      "##⁴": 8775,
      "##慶": 8776,
      "##缔": 8777,
      "##榭": 8778,
      "##楠": 8779,
      "##叶": 8780,
      "##据": 8781,
      "##劾": 8782,
      "##尚": 8783,
      "##舊": 8784,
      "##○": 8785,
      "##晋": 8786,
      "##鳥": 8787,
      "##判": 8788,
      "##枯": 8789,
      "##稅": 8790,
      "##ŋ": 8791,
      "##椒": 8792,
      "##疑": 8793,
      "##畏": 8794,
      "##読": 8795,
      "##蔔": 8796,
      "##◊": 8797,
      "##归": 8798,
      "##勞": 8799,
      "##怨": 8800,
      "##": 8801,
      "##": 8802,
      "##駁": 8803,
      "##纲": 8804,
      "##药": 8805,
      "##☣": 8806,
      "##冈": 8807,
      "##¨": 8808,
      "##啊": 8809,
      "##板": 8810,
      "##震": 8811,
      "##築": 8812,
      "##暇": 8813,
      "##积": 8814,
      "##农": 8815,
      "##९": 8816,
      "##杉": 8817,
      "##贖": 8818,
      "##蔑": 8819,
      "##問": 8820,
      "##⇒": 8821,
      "##仙": 8822,
      "##危": 8823,
      "##犯": 8824,
      "##肃": 8825,
      "##横": 8826,
      "##‹": 8827,
      "##謹": 8828,
      "##铁": 8829,
      "##吉": 8830,
      "##财": 8831,
      "##尉": 8832,
      "##歐": 8833,
      "##筑": 8834,
      "##災": 8835,
      "##毎": 8836,
      "##振": 8837,
      "##勢": 8838,
      "##賽": 8839,
      "##甦": 8840,
      "##驟": 8841,
      "##娄": 8842,
      "##磚": 8843,
      "##激": 8844,
      "##慮": 8845,
      "##紅": 8846,
      "##戍": 8847,
      "##ٴ": 8848,
      "##ぉ": 8849,
      "##љ": 8850,
      "##宁": 8851,
      "##券": 8852,
      "##誰": 8853,
      "##綁": 8854,
      "##翁": 8855,
      "##ﻬ": 8856,
      "##園": 8857,
      "##玩": 8858,
      "##温": 8859,
      "##ォ": 8860,
      "##屋": 8861,
      "##栗": 8862,
      "##醜": 8863,
      "##弔": 8864,
      "##ﻖ": 8865,
      "##糞": 8866,
      "##励": 8867,
      "##欖": 8868,
      "##館": 8869,
      "##戒": 8870,
      "##审": 8871,
      "##舉": 8872,
      "##梁": 8873,
      "##纏": 8874,
      "##乍": 8875,
      "##掃": 8876,
      "##孑": 8877,
      "##让": 8878,
      "##握": 8879,
      "##遭": 8880,
      "##婦": 8881,
      "##⺕": 8882,
      "##姓": 8883,
      "##埋": 8884,
      "##ヒ": 8885,
      "##蛆": 8886,
      "##勾": 8887,
      "##藍": 8888,
      "##環": 8889,
      "##ﻜ": 8890,
      "##憎": 8891,
      "##旺": 8892,
      "##攸": 8893,
      "##淵": 8894,
      "##羨": 8895,
      "##ノ": 8896,
      "##": 8897,
      "##": 8898,
      "##": 8899,
      "##": 8900,
      "##怀": 8901,
      "##唱": 8902,
      "##ᄎ": 8903,
      "##脉": 8904,
      "##鯊": 8905,
      "##爍": 8906,
      "##邦": 8907,
      "##庆": 8908,
      "##旧": 8909,
      "##搭": 8910,
      "##幼": 8911,
      "##穰": 8912,
      "##苴": 8913,
      "##除": 8914,
      "##嬌": 8915,
      "##❤": 8916,
      "##钻": 8917,
      "##摹": 8918,
      "##箔": 8919,
      "##競": 8920,
      "##遊": 8921,
      "##萄": 8922,
      "##৩": 8923,
      "##豐": 8924,
      "##赴": 8925,
      "##釐": 8926,
      "##驥": 8927,
      "##柜": 8928,
      "##媧": 8929,
      "##營": 8930,
      "##幫": 8931,
      "##盗": 8932,
      "##扩": 8933,
      "##雌": 8934,
      "##棱": 8935,
      "##祭": 8936,
      "##ਕ": 8937,
      "##跳": 8938,
      "##桂": 8939,
      "##升": 8940,
      "##媒": 8941,
      "##范": 8942,
      "##均": 8943,
      "##故": 8944,
      "##霄": 8945,
      "##٦": 8946,
      "##寐": 8947,
      "##编": 8948,
      "##併": 8949,
      "##楓": 8950,
      "##彙": 8951,
      "##辱": 8952,
      "##替": 8953,
      "##ﻟ": 8954,
      "##《": 8955,
      "##吳": 8956,
      "##咬": 8957,
      "##挨": 8958,
      "##❄": 8959,
      "##賜": 8960,
      "##烽": 8961,
      "##请": 8962,
      "##■": 8963,
      "##幗": 8964,
      "##坦": 8965,
      "##懇": 8966,
      "##ﺒ": 8967,
      "##揉": 8968,
      "##७": 8969,
      "##催": 8970,
      "##矛": 8971,
      "##献": 8972,
      "##割": 8973,
      "##巾": 8974,
      "##姦": 8975,
      "##滑": 8976,
      "##脩": 8977,
      "##輪": 8978,
      "##卜": 8979,
      "##添": 8980,
      "##減": 8981,
      "##險": 8982,
      "##妓": 8983,
      "##": 8984,
      "##惹": 8985,
      "##腥": 8986,
      "##瑪": 8987,
      "##遍": 8988,
      "##弊": 8989,
      "##丛": 8990,
      "##弹": 8991,
      "##暮": 8992,
      "##窮": 8993,
      "##刃": 8994,
      "##启": 8995,
      "##凯": 8996,
      "##彈": 8997,
      "##惊": 8998,
      "##謄": 8999,
      "##稿": 9000,
      "##睜": 9001,
      "##夹": 9002,
      "##韦": 9003,
      "##污": 9004,
      "##穢": 9005,
      "##柔": 9006,
      "##笔": 9007,
      "##⁶": 9008,
      "##⋆": 9009,
      "##♡": 9010,
      "##努": 9011,
      "##晶": 9012,
      "##猪": 9013,
      "##诀": 9014,
      "##禹": 9015,
      "##": 9016,
      "##": 9017,
      "##¾": 9018,
      "##叹": 9019,
      "##৫": 9020,
      "##帽": 9021,
      "##腺": 9022,
      "##沢": 9023,
      "##愁": 9024,
      "##簡": 9025,
      "##": 9026,
      "##憂": 9027,
      "##延": 9028,
      "##波": 9029,
      "##戊": 9030,
      "##烯": 9031,
      "##郭": 9032,
      "##愣": 9033,
      "##": 9034,
      "##宰": 9035,
      "##抵": 9036,
      "##「": 9037,
      "##罰": 9038,
      "##离": 9039,
      "##拓": 9040,
      "##悟": 9041,
      "##徐": 9042,
      "##丈": 9043,
      "##鎖": 9044,
      "##防": 9045,
      "##˂": 9046,
      "##奇": 9047,
      "##冰": 9048,
      "##楚": 9049,
      "##架": 9050,
      "##普": 9051,
      "##征": 9052,
      "##慣": 9053,
      "##殺": 9054,
      "##宫": 9055,
      "##埔": 9056,
      "##寨": 9057,
      "##荏": 9058,
      "##词": 9059,
      "##盤": 9060,
      "##击": 9061,
      "##乗": 9062,
      "##耙": 9063,
      "##杨": 9064,
      "##擾": 9065,
      "##烟": 9066,
      "##囱": 9067,
      "##┼": 9068,
      "##►": 9069,
      "##辦": 9070,
      "##④": 9071,
      "##ﻠ": 9072,
      "##鳳": 9073,
      "##ﻤ": 9074,
      "##郡": 9075,
      "##井": 9076,
      "##嗣": 9077,
      "##億": 9078,
      "##武": 9079,
      "##渊": 9080,
      "##ஈ": 9081,
      "##尸": 9082,
      "##儉": 9083,
      "##泥": 9084,
      "##鸿": 9085,
      "##爪": 9086,
      "##阵": 9087,
      "##低": 9088,
      "##臉": 9089,
      "##霎": 9090,
      "##憐": 9091,
      "##圉": 9092,
      "##梯": 9093,
      "##瑟": 9094,
      "##傘": 9095,
      "##糧": 9096,
      "##刑": 9097,
      "##润": 9098,
      "##敝": 9099,
      "##屣": 9100,
      "##遮": 9101,
      "##坡": 9102,
      "##竊": 9103,
      "##曬": 9104,
      "##岭": 9105,
      "##卓": 9106,
      "##凡": 9107,
      "##昌": 9108,
      "##銅": 9109,
      "##刚": 9110,
      "##跨": 9111,
      "##耆": 9112,
      "##燕": 9113,
      "##犧": 9114,
      "##ユ": 9115,
      "##犹": 9116,
      "##虧": 9117,
      "##帘": 9118,
      "##ぅ": 9119,
      "##‍": 9120,
      "##剌": 9121,
      "##钦": 9122,
      "##誕": 9123,
      "##訂": 9124,
      "##莊": 9125,
      "##秩": 9126,
      "##綠": 9127,
      "##价": 9128,
      "##屄": 9129,
      "##坑": 9130,
      "##岱": 9131,
      "##尾": 9132,
      "##沽": 9133,
      "##砲": 9134,
      "##剖": 9135,
      "##训": 9136,
      "##泛": 9137,
      "##५": 9138,
      "##‪": 9139,
      "##飞": 9140,
      "##₤": 9141,
      "##剛": 9142,
      "##读": 9143,
      "##称": 9144,
      "##塊": 9145,
      "##鍬": 9146,
      "##某": 9147,
      "##噓": 9148,
      "##斐": 9149,
      "##艾": 9150,
      "##喷": 9151,
      "##╦": 9152,
      "##═": 9153,
      "##": 9154,
      "##薛": 9155,
      "##踵": 9156,
      "##": 9157,
      "##豸": 9158,
      "##ஸ": 9159,
      "##簿": 9160,
      "##ɸ": 9161,
      "##吹": 9162,
      "##隸": 9163,
      "##艱": 9164,
      "##抗": 9165,
      "##伐": 9166,
      "##但": 9167,
      "##枪": 9168,
      "##従": 9169,
      "##♣": 9170,
      "##孽": 9171,
      "##穀": 9172,
      "##伴": 9173,
      "##硬": 9174,
      "##庙": 9175,
      "##紮": 9176,
      "##抽": 9177,
      "##麟": 9178,
      "##染": 9179,
      "##頌": 9180,
      "##˝": 9181,
      "##忘": 9182,
      "##咕": 9183,
      "##揭": 9184,
      "##煙": 9185,
      "##劫": 9186,
      "##蠹": 9187,
      "##芬": 9188,
      "##絜": 9189,
      "##宋": 9190,
      "##岛": 9191,
      "##屁": 9192,
      "##岗": 9193,
      "##菠": 9194,
      "##燉": 9195,
      "##披": 9196,
      "##稚": 9197,
      "##廟": 9198,
      "##贯": 9199,
      "##幸": 9200,
      "##矣": 9201,
      "##": 9202,
      "##傅": 9203,
      "##李": 9204,
      "##迪": 9205,
      "##沃": 9206,
      "##託": 9207,
      "##頰": 9208,
      "##辯": 9209,
      "##崗": 9210,
      "##宵": 9211,
      "##褲": 9212,
      "##联": 9213,
      "##紙": 9214,
      "##囑": 9215,
      "##埃": 9216,
      "##।": 9217,
      "##寒": 9218,
      "##忽": 9219,
      "##嘉": 9220,
      "##混": 9221,
      "##帆": 9222,
      "##倡": 9223,
      "##琳": 9224,
      "##胃": 9225,
      "##ᅧ": 9226,
      "##棋": 9227,
      "##暉": 9228,
      "##慈": 9229,
      "##淫": 9230,
      "##荊": 9231,
      "##詳": 9232,
      "##削": 9233,
      "##町": 9234,
      "##夸": 9235,
      "##夾": 9236,
      "##鴨": 9237,
      "##": 9238,
      "##¶": 9239,
      "##肅": 9240,
      "##押": 9241,
      "##腹": 9242,
      "##奪": 9243,
      "##秒": 9244,
      "##薪": 9245,
      "##筹": 9246,
      "##欄": 9247,
      "##譚": 9248,
      "##輸": 9249,
      "##笑": 9250,
      "##顏": 9251,
      "##塢": 9252,
      "##芳": 9253,
      "##脂": 9254,
      "##雞": 9255,
      "##鍋": 9256,
      "##獸": 9257,
      "##ĸ": 9258,
      "##肤": 9259,
      "##浅": 9260,
      "##換": 9261,
      "##職": 9262,
      "##屍": 9263,
      "##觸": 9264,
      "##摸": 9265,
      "##猫": 9266,
      "##渡": 9267,
      "##俭": 9268,
      "##緻": 9269,
      "##悪": 9270,
      "##気": 9271,
      "##竟": 9272,
      "##甜": 9273,
      "##據": 9274,
      "##淋": 9275,
      "##鉤": 9276,
      "##": 9277,
      "##竖": 9278,
      "##躍": 9279,
      "##ਗ": 9280,
      "##飽": 9281,
      "##遗": 9282,
      "##⁷": 9283,
      "##爬": 9284,
      "##渗": 9285,
      "##兼": 9286,
      "##※": 9287,
      "##楊": 9288,
      "##註": 9289,
      "##垂": 9290,
      "##紧": 9291,
      "##剂": 9292,
      "##応": 9293,
      "##¯": 9294,
      "##霊": 9295,
      "##扣": 9296,
      "##轮": 9297,
      "##洞": 9298,
      "##②": 9299,
      "##殊": 9300,
      "##茎": 9301,
      "##☯": 9302,
      "##壳": 9303,
      "##辭": 9304,
      "##贊": 9305,
      "##竅": 9306,
      "##ぁ": 9307,
      "##৮": 9308,
      "##穿": 9309,
      "##稀": 9310,
      "##賣": 9311,
      "##愧": 9312,
      "##饒": 9313,
      "##扔": 9314,
      "##銷": 9315,
      "##ヌ": 9316,
      "##玄": 9317,
      "##৪": 9318,
      "##昧": 9319,
      "##甫": 9320,
      "##馨": 9321,
      "##捐": 9322,
      "##頂": 9323,
      "##折": 9324,
      "##喬": 9325,
      "##繁": 9326,
      "##晌": 9327,
      "##羡": 9328,
      "##嚼": 9329,
      "##咽": 9330,
      "##碎": 9331,
      "##貓": 9332,
      "##虫": 9333,
      "##尧": 9334,
      "##睦": 9335,
      "##饑": 9336,
      "##峡": 9337,
      "##奥": 9338,
      "##¥": 9339,
      "##丶": 9340,
      "##浦": 9341,
      "##兔": 9342,
      "##": 9343,
      "##♪": 9344,
      "##質": 9345,
      "##縛": 9346,
      "##蝠": 9347,
      "##占": 9348,
      "##迹": 9349,
      "##匐": 9350,
      "##蚵": 9351,
      "##虚": 9352,
      "##償": 9353,
      "##耽": 9354,
      "##牢": 9355,
      "##༅": 9356,
      "##讚": 9357,
      "##陳": 9358,
      "##椅": 9359,
      "##丘": 9360,
      "##稣": 9361,
      "##⋯": 9362,
      "##轍": 9363,
      "##擺": 9364,
      "##": 9365,
      "##溥": 9366,
      "##編": 9367,
      "##欧": 9368,
      "##῾": 9369,
      "##累": 9370,
      "##誇": 9371,
      "##妝": 9372,
      "##捨": 9373,
      "##蕊": 9374,
      "##㇂": 9375,
      "##顆": 9376,
      "##恨": 9377,
      "##庸": 9378,
      "##漢": 9379,
      "##遇": 9380,
      "##嚇": 9381,
      "##梨": 9382,
      "##責": 9383,
      "##帖": 9384,
      "##徹": 9385,
      "##申": 9386,
      "##贺": 9387,
      "##⁠": 9388,
      "##胜": 9389,
      "##货": 9390,
      "##府": 9391,
      "##裁": 9392,
      "##吐": 9393,
      "##軛": 9394,
      "##灰": 9395,
      "##席": 9396,
      "##魁": 9397,
      "##仔": 9398,
      "##腐": 9399,
      "##爛": 9400,
      "##芦": 9401,
      "##极": 9402,
      "##堆": 9403,
      "##": 9404,
      "##": 9405,
      "##": 9406,
      "##": 9407,
      "##": 9408,
      "##": 9409,
      "##": 9410,
      "##": 9411,
      "##": 9412,
      "##": 9413,
      "##": 9414,
      "##": 9415,
      "##": 9416,
      "##": 9417,
      "##": 9418,
      "##": 9419,
      "##": 9420,
      "##繚": 9421,
      "##纯": 9422,
      "##牵": 9423,
      "##違": 9424,
      "##侗": 9425,
      "##鼠": 9426,
      "##嬰": 9427,
      "##驁": 9428,
      "##批": 9429,
      "##症": 9430,
      "##颜": 9431,
      "##級": 9432,
      "##檯": 9433,
      "##嚀": 9434,
      "##须": 9435,
      "##毐": 9436,
      "##✓": 9437,
      "##肋": 9438,
      "##插": 9439,
      "##陣": 9440,
      "##ǁ": 9441,
      "##嫩": 9442,
      "##訝": 9443,
      "##肿": 9444,
      "##懶": 9445,
      "##臼": 9446,
      "##営": 9447,
      "##擬": 9448,
      "##腸": 9449,
      "##継": 9450,
      "##続": 9451,
      "##触": 9452,
      "##弦": 9453,
      "##狐": 9454,
      "##⁰": 9455,
      "##跡": 9456,
      "##鑾": 9457,
      "##穎": 9458,
      "##鑰": 9459,
      "##拆": 9460,
      "##禽": 9461,
      "##ﺑ": 9462,
      "##朽": 9463,
      "##ʽ": 9464,
      "##ﺧ": 9465,
      "##噎": 9466,
      "##废": 9467,
      "##涼": 9468,
      "##哥": 9469,
      "##沾": 9470,
      "##醬": 9471,
      "##彥": 9472,
      "##淖": 9473,
      "##४": 9474,
      "##狼": 9475,
      "##卵": 9476,
      "##熹": 9477,
      "##耻": 9478,
      "##蕓": 9479,
      "##∼": 9480,
      "##暫": 9481,
      "##溢": 9482,
      "##": 9483,
      "##": 9484,
      "##坤": 9485,
      "##¸": 9486,
      "##♂": 9487,
      "##熟": 9488,
      "##采": 9489,
      "##聊": 9490,
      "##津": 9491,
      "##缭": 9492,
      "##撤": 9493,
      "##⛴": 9494,
      "##亿": 9495,
      "##诸": 9496,
      "##厦": 9497,
      "##葡": 9498,
      "##˚": 9499,
      "##佑": 9500,
      "##③": 9501,
      "##滔": 9502,
      "##藝": 9503,
      "##謀": 9504,
      "##稼": 9505,
      "##旋": 9506,
      "##繪": 9507,
      "##碍": 9508,
      "##冉": 9509,
      "##聿": 9510,
      "##帰": 9511,
      "##欠": 9512,
      "##鈷": 9513,
      "##葛": 9514,
      "##♠": 9515,
      "##吻": 9516,
      "##": 9517,
      "##泣": 9518,
      "##嬉": 9519,
      "##膜": 9520,
      "##ﺗ": 9521,
      "##竞": 9522,
      "##勿": 9523,
      "##詩": 9524,
      "##鵝": 9525,
      "##惩": 9526,
      "##塵": 9527,
      "##鏵": 9528,
      "##敢": 9529,
      "##粮": 9530,
      "##獅": 9531,
      "##繞": 9532,
      "##凤": 9533,
      "##雏": 9534,
      "##辞": 9535,
      "##¤": 9536,
      "##奶": 9537,
      "##葬": 9538,
      "##粒": 9539,
      "##峻": 9540,
      "##阜": 9541,
      "##藜": 9542,
      "##幅": 9543,
      "##蝶": 9544,
      "##恋": 9545,
      "##誌": 9546,
      "##詢": 9547,
      "##揮": 9548,
      "##۔": 9549,
      "##捕": 9550,
      "##捉": 9551,
      "##耗": 9552,
      "##宙": 9553,
      "##盜": 9554,
      "##✦": 9555,
      "##超": 9556,
      "##莎": 9557,
      "##څ": 9558,
      "##儐": 9559,
      "##舰": 9560,
      "##龜": 9561,
      "##融": 9562,
      "##勇": 9563,
      "##ǂ": 9564,
      "##鶴": 9565,
      "##茅": 9566,
      "##殻": 9567,
      "##緩": 9568,
      "##劣": 9569,
      "##沟": 9570,
      "##": 9571,
      "##": 9572,
      "##绪": 9573,
      "##仑": 9574,
      "##孜": 9575,
      "##舞": 9576,
      "##尺": 9577,
      "##曜": 9578,
      "##": 9579,
      "##遲": 9580,
      "##禍": 9581,
      "##圆": 9582,
      "##职": 9583,
      "##糟": 9584,
      "##≧": 9585,
      "##輝": 9586,
      "##煌": 9587,
      "##稜": 9588,
      "##敏": 9589,
      "##漳": 9590,
      "##逢": 9591,
      "##徽": 9592,
      "##勤": 9593,
      "##戎": 9594,
      "##₪": 9595,
      "##晓": 9596,
      "##鲜": 9597,
      "##颱": 9598,
      "##閒": 9599,
      "##": 9600,
      "##僚": 9601,
      "##翰": 9602,
      "##菲": 9603,
      "##陪": 9604,
      "##胎": 9605,
      "##够": 9606,
      "##揀": 9607,
      "##增": 9608,
      "##册": 9609,
      "##観": 9610,
      "##証": 9611,
      "##∗": 9612,
      "##吏": 9613,
      "##蹴": 9614,
      "##箱": 9615,
      "##紡": 9616,
      "##ћ": 9617,
      "##熾": 9618,
      "##雀": 9619,
      "##←": 9620,
      "##膩": 9621,
      "##汾": 9622,
      "##頼": 9623,
      "##乔": 9624,
      "##姜": 9625,
      "##懲": 9626,
      "##帚": 9627,
      "##輯": 9628,
      "##默": 9629,
      "##傻": 9630,
      "##擡": 9631,
      "##峽": 9632,
      "##淡": 9633,
      "##毗": 9634,
      "##搜": 9635,
      "##劍": 9636,
      "##蚊": 9637,
      "##盧": 9638,
      "##琴": 9639,
      "##访": 9640,
      "##倾": 9641,
      "##菇": 9642,
      "##扑": 9643,
      "##崽": 9644,
      "##拾": 9645,
      "##丰": 9646,
      "##蜀": 9647,
      "##凍": 9648,
      "##副": 9649,
      "##彦": 9650,
      "##袁": 9651,
      "##渣": 9652,
      "##掙": 9653,
      "##朴": 9654,
      "##柬": 9655,
      "##瑾": 9656,
      "##佩": 9657,
      "##饋": 9658,
      "##肠": 9659,
      "##燃": 9660,
      "##咱": 9661,
      "##砚": 9662,
      "##ﺣ": 9663,
      "##唇": 9664,
      "##屢": 9665,
      "##眩": 9666,
      "##鹿": 9667,
      "##彿": 9668,
      "##餓": 9669,
      "##ϕ": 9670,
      "##湿": 9671,
      "##晴": 9672,
      "##帳": 9673,
      "##碗": 9674,
      "##勳": 9675,
      "##勉": 9676,
      "##喀": 9677,
      "##縮": 9678,
      "##": 9679,
      "##録": 9680,
      "##雙": 9681,
      "##尖": 9682,
      "##漏": 9683,
      "##♬": 9684,
      "##误": 9685,
      "##吋": 9686,
      "##慨": 9687,
      "##☀": 9688,
      "##⺶": 9689,
      "##嫌": 9690,
      "##泡": 9691,
      "##↔": 9692,
      "##扒": 9693,
      "##吊": 9694,
      "##顔": 9695,
      "##锦": 9696,
      "##≤": 9697,
      "##爺": 9698,
      "##洪": 9699,
      "##棒": 9700,
      "##荒": 9701,
      "##唐": 9702,
      "##毒": 9703,
      "##濱": 9704,
      "##磨": 9705,
      "##攝": 9706,
      "##鹽": 9707,
      "##✅": 9708,
      "##櫃": 9709,
      "##灌": 9710,
      "##冊": 9711,
      "##奈": 9712,
      "##隐": 9713,
      "##贞": 9714,
      "##ﻋ": 9715,
      "##拠": 9716,
      "##॥": 9717,
      "##姊": 9718,
      "##扶": 9719,
      "##訣": 9720,
      "##遥": 9721,
      "##蹲": 9722,
      "##澳": 9723,
      "##⅓": 9724,
      "##卦": 9725,
      "##壺": 9726,
      "##朋": 9727,
      "##粪": 9728,
      "##貲": 9729,
      "##殘": 9730,
      "##": 9731,
      "##屯": 9732,
      "##堕": 9733,
      "##訳": 9734,
      "##榜": 9735,
      "##窃": 9736,
      "##嘛": 9737,
      "##∧": 9738,
      "##哉": 9739,
      "##闢": 9740,
      "##渾": 9741,
      "##盈": 9742,
      "##滌": 9743,
      "##ヨ": 9744,
      "##এ": 9745,
      "##腔": 9746,
      "##‐": 9747,
      "##税": 9748,
      "##飄": 9749,
      "##ஏ": 9750,
      "##躲": 9751,
      "##奐": 9752,
      "##輒": 9753,
      "##№": 9754,
      "##瞭": 9755,
      "##寝": 9756,
      "##‗": 9757,
      "##悬": 9758,
      "##隷": 9759,
      "##磯": 9760,
      "##葷": 9761,
      "##羲": 9762,
      "##燎": 9763,
      "##畑": 9764,
      "##热": 9765,
      "##摘": 9766,
      "##疼": 9767,
      "##刺": 9768,
      "##瑰": 9769,
      "##幟": 9770,
      "##鼎": 9771,
      "##噴": 9772,
      "##厲": 9773,
      "##瞻": 9774,
      "##递": 9775,
      "##穩": 9776,
      "##」": 9777,
      "##芒": 9778,
      "##賈": 9779,
      "##‡": 9780,
      "##攏": 9781,
      "##墮": 9782,
      "##童": 9783,
      "##貧": 9784,
      "##拭": 9785,
      "##●": 9786,
      "##扎": 9787,
      "##滸": 9788,
      "##紫": 9789,
      "##茄": 9790,
      "##囚": 9791,
      "##违": 9792,
      "##觉": 9793,
      "##": 9794,
      "##漱": 9795,
      "##溟": 9796,
      "##循": 9797,
      "##拈": 9798,
      "##漲": 9799,
      "##倖": 9800,
      "##皇": 9801,
      "##◄": 9802,
      "##巳": 9803,
      "##偽": 9804,
      "##尹": 9805,
      "##齒": 9806,
      "##崖": 9807,
      "##允": 9808,
      "##锡": 9809,
      "##錦": 9810,
      "##賬": 9811,
      "##鞍": 9812,
      "##沪": 9813,
      "##凱": 9814,
      "##讲": 9815,
      "##陈": 9816,
      "##棘": 9817,
      "##霹": 9818,
      "##伽": 9819,
      "##霧": 9820,
      "##": 9821,
      "##亭": 9822,
      "##雅": 9823,
      "##咨": 9824,
      "##雕": 9825,
      "##枠": 9826,
      "##矮": 9827,
      "##蠟": 9828,
      "##贤": 9829,
      "##΄": 9830,
      "##哭": 9831,
      "##盘": 9832,
      "##🔥": 9833,
      "##उ": 9834,
      "##楞": 9835,
      "##٭": 9836,
      "##艇": 9837,
      "##丗": 9838,
      "##枕": 9839,
      "##朮": 9840,
      "##幕": 9841,
      "##翟": 9842,
      "##⺍": 9843,
      "##贈": 9844,
      "##勻": 9845,
      "##鑛": 9846,
      "##鏈": 9847,
      "##甘": 9848,
      "##皿": 9849,
      "##☼": 9850,
      "##娃": 9851,
      "##寂": 9852,
      "##蛙": 9853,
      "##伊": 9854,
      "##杜": 9855,
      "##松": 9856,
      "##鞋": 9857,
      "##裔": 9858,
      "##¢": 9859,
      "##昭": 9860,
      "##聾": 9861,
      "##趕": 9862,
      "##焉": 9863,
      "##鞅": 9864,
      "##负": 9865,
      "##养": 9866,
      "##": 9867,
      "##树": 9868,
      "##腑": 9869,
      "##謡": 9870,
      "##鳴": 9871,
      "##憧": 9872,
      "##६": 9873,
      "##慌": 9874,
      "##眷": 9875,
      "##≡": 9876,
      "##廈": 9877,
      "##纖": 9878,
      "##戌": 9879,
      "##柴": 9880,
      "##⑤": 9881,
      "##⑥": 9882,
      "##軌": 9883,
      "##竇": 9884,
      "##畜": 9885,
      "##孙": 9886,
      "##翠": 9887,
      "##ڿ": 9888,
      "##砖": 9889,
      "##抛": 9890,
      "##腫": 9891,
      "##①": 9892,
      "##٣": 9893,
      "##穷": 9894,
      "##靂": 9895,
      "##瑕": 9896,
      "##疵": 9897,
      "##札": 9898,
      "##郵": 9899,
      "##黛": 9900,
      "##廊": 9901,
      "##卉": 9902,
      "##诚": 9903,
      "##笛": 9904,
      "##ﻛ": 9905,
      "##雷": 9906,
      "##漬": 9907,
      "##迭": 9908,
      "##酋": 9909,
      "##遙": 9910,
      "##膝": 9911,
      "##⻏": 9912,
      "##״": 9913,
      "##蠣": 9914,
      "##溺": 9915,
      "##縫": 9916,
      "##淺": 9917,
      "##隻": 9918,
      "##擦": 9919,
      "##⺷": 9920,
      "##滬": 9921,
      "##票": 9922,
      "##監": 9923,
      "##肝": 9924,
      "##∑": 9925,
      "##♛": 9926,
      "##斜": 9927,
      "##俸": 9928,
      "##夷": 9929,
      "##飢": 9930,
      "##醉": 9931,
      "##˗": 9932,
      "##躺": 9933,
      "##込": 9934,
      "##恵": 9935,
      "##惚": 9936,
      "##∫": 9937,
      "##⻖": 9938,
      "##泌": 9939,
      "##療": 9940,
      "##昼": 9941,
      "##御": 9942,
      "##臘": 9943,
      "##姑": 9944,
      "##鑒": 9945,
      "##軼": 9946,
      "##曹": 9947,
      "##蔭": 9948,
      "##陸": 9949,
      "##弼": 9950,
      "##腿": 9951,
      "##紋": 9952,
      "##❖": 9953,
      "##釀": 9954,
      "##稲": 9955,
      "##¦": 9956,
      "##貝": 9957,
      "##繹": 9958,
      "##烤": 9959,
      "##厂": 9960,
      "##夔": 9961,
      "##齐": 9962,
      "##虐": 9963,
      "##燭": 9964,
      "##ﻗ": 9965,
      "##遂": 9966,
      "##孟": 9967,
      "##": 9968,
      "##宛": 9969,
      "##熏": 9970,
      "##厭": 9971,
      "##倦": 9972,
      "##葵": 9973,
      "##⊢": 9974,
      "##撰": 9975,
      "##豎": 9976,
      "##狭": 9977,
      "##歳": 9978,
      "##渉": 9979,
      "##徳": 9980,
      "##衕": 9981,
      "##☞": 9982,
      "##爸": 9983,
      "##剣": 9984,
      "##蔽": 9985,
      "##枉": 9986,
      "##仅": 9987,
      "##裳": 9988,
      "##✽": 9989,
      "##圃": 9990,
      "##肢": 9991,
      "##寅": 9992,
      "##貪": 9993,
      "##攤": 9994,
      "##龄": 9995,
      "##❊": 9996,
      "##鹅": 9997,
      "##আ": 9998,
      "##炒": 9999,
      "##冤": 10000,
      "##崩": 10001,
      "##潰": 10002,
      "##晗": 10003,
      "##砂": 10004,
      "##蝉": 10005,
      "##暑": 10006,
      "##斧": 10007,
      "##玷": 10008,
      "##汙": 10009,
      "##衰": 10010,
      "##朕": 10011,
      "##呤": 10012,
      "##蔬": 10013,
      "##銘": 10014,
      "##頤": 10015,
      "##爵": 10016,
      "##腕": 10017,
      "##": 10018,
      "##宽": 10019,
      "##戔": 10020,
      "##佔": 10021,
      "##❎": 10022,
      "##葩": 10023,
      "##喧": 10024,
      "##潮": 10025,
      "##詐": 10026,
      "##嵌": 10027,
      "##蘆": 10028,
      "##": 10029,
      "##鄲": 10030,
      "##狄": 10031,
      "##膺": 10032,
      "##肚": 10033,
      "##噌": 10034,
      "##裹": 10035,
      "##涯": 10036,
      "##嘲": 10037,
      "##圏": 10038,
      "##浸": 10039,
      "##尤": 10040,
      "##伟": 10041,
      "##飾": 10042,
      "##饮": 10043,
      "##諭": 10044,
      "##妄": 10045,
      "##乞": 10046,
      "##牽": 10047,
      "##締": 10048,
      "##貢": 10049,
      "##竿": 10050,
      "##』": 10051,
      "##羌": 10052,
      "##鬚": 10053,
      "##樊": 10054,
      "##罔": 10055,
      "##粹": 10056,
      "##懸": 10057,
      "##喉": 10058,
      "##邓": 10059,
      "##齋": 10060,
      "##亘": 10061,
      "##冒": 10062,
      "##芸": 10063,
      "##脚": 10064,
      "##粗": 10065,
      "##粉": 10066,
      "##酷": 10067,
      "##誨": 10068,
      "##吴": 10069,
      "##裕": 10070,
      "##祗": 10071,
      "##瞽": 10072,
      "##昇": 10073,
      "##昂": 10074,
      "##孚": 10075,
      "##翅": 10076,
      "##伍": 10077,
      "##婉": 10078,
      "##ﻫ": 10079,
      "##劑": 10080,
      "##蹈": 10081,
      "##頃": 10082,
      "##扯": 10083,
      "##溶": 10084,
      "##嗜": 10085,
      "##⁸": 10086,
      "##騎": 10087,
      "##惨": 10088,
      "##捧": 10089,
      "##嶴": 10090,
      "##沐": 10091,
      "##⚫": 10092,
      "##芹": 10093,
      "##鄧": 10094,
      "##丝": 10095,
      "##愈": 10096,
      "##韆": 10097,
      "##収": 10098,
      "##茱": 10099,
      "##萸": 10100,
      "##档": 10101,
      "##柱": 10102,
      "##亦": 10103,
      "##肥": 10104,
      "##牡": 10105,
      "##熙": 10106,
      "##额": 10107,
      "##😲": 10108,
      "##□": 10109,
      "##获": 10110,
      "##苛": 10111,
      "##⺊": 10112,
      "##禺": 10113,
      "##轄": 10114,
      "##撈": 10115,
      "##増": 10116,
      "##雑": 10117,
      "##盆": 10118,
      "##搬": 10119,
      "##兆": 10120,
      "##怜": 10121,
      "##妒": 10122,
      "##植": 10123,
      "##撐": 10124,
      "##濁": 10125,
      "##嘆": 10126,
      "##鄂": 10127,
      "##倚": 10128,
      "##": 10129,
      "##弃": 10130,
      "##罷": 10131,
      "##挤": 10132,
      "##缓": 10133,
      "##辰": 10134,
      "##債": 10135,
      "##堯": 10136,
      "##⁹": 10137,
      "##奂": 10138,
      "##騰": 10139,
      "##": 10140,
      "##趙": 10141,
      "##ᄆ": 10142,
      "##諉": 10143,
      "##糾": 10144,
      "##陆": 10145,
      "##臆": 10146,
      "##拙": 10147,
      "##疇": 10148,
      "##潢": 10149,
      "##倭": 10150,
      "##妳": 10151,
      "##抹": 10152,
      "##庶": 10153,
      "##彝": 10154,
      "##瑣": 10155,
      "##俯": 10156,
      "##凋": 10157,
      "##蓄": 10158,
      "##": 10159,
      "##鵬": 10160,
      "##✔": 10161,
      "##圭": 10162,
      "##頻": 10163,
      "##噪": 10164,
      "##専": 10165,
      "##": 10166,
      "##": 10167,
      "##凑": 10168,
      "##岁": 10169,
      "##鋼": 10170,
      "##潟": 10171,
      "##✘": 10172,
      "##۩": 10173,
      "##爽": 10174,
      "##蹇": 10175,
      "##踪": 10176,
      "##₂": 10177,
      "##済": 10178,
      "##彬": 10179,
      "##俊": 10180,
      "##満": 10181,
      "##↑": 10182,
      "##↓": 10183,
      "##疏": 10184,
      "##✝": 10185,
      "##鑽": 10186,
      "##廷": 10187,
      "##廚": 10188,
      "##煥": 10189,
      "##": 10190,
      "##": 10191,
      "##抑": 10192,
      "##擠": 10193,
      "##": 10194,
      "##∙": 10195,
      "##≋": 10196,
      "##❃": 10197,
      "##∘": 10198,
      "##辛": 10199,
      "##戚": 10200,
      "##昉": 10201,
      "##乌": 10202,
      "##喘": 10203,
      "##咋": 10204,
      "##鈎": 10205,
      "##綜": 10206,
      "##澆": 10207,
      "##亏": 10208,
      "##鞭": 10209,
      "##赵": 10210,
      "##黎": 10211,
      "##絨": 10212,
      "##奎": 10213,
      "##▼": 10214,
      "##扇": 10215,
      "##聰": 10216,
      "##摟": 10217,
      "##抄": 10218,
      "##酉": 10219,
      "##羞": 10220,
      "##寿": 10221,
      "##敦": 10222,
      "##萧": 10223,
      "##虾": 10224,
      "##脛": 10225,
      "##咳": 10226,
      "##牆": 10227,
      "##晏": 10228,
      "##賤": 10229,
      "##佐": 10230,
      "##藤": 10231,
      "##惶": 10232,
      "##旄": 10233,
      "##濫": 10234,
      "##鞦": 10235,
      "##凹": 10236,
      "##🙂": 10237,
      "##丙": 10238,
      "##恰": 10239,
      "##昔": 10240,
      "##隴": 10241,
      "##酬": 10242,
      "##鴿": 10243,
      "##卒": 10244,
      "##褐": 10245,
      "##蒔": 10246,
      "##旉": 10247,
      "##罐": 10248,
      "##嘱": 10249,
      "##珥": 10250,
      "##˃": 10251,
      "##晩": 10252,
      "##檸": 10253,
      "##『": 10254,
      "##幽": 10255,
      "##茸": 10256,
      "##渠": 10257,
      "##歴": 10258,
      "##硝": 10259,
      "##醋": 10260,
      "##椿": 10261,
      "##侍": 10262,
      "##郊": 10263,
      "##": 10264,
      "##舜": 10265,
      "##訶": 10266,
      "##勁": 10267,
      "##橙": 10268,
      "##罢": 10269,
      "##噩": 10270,
      "##鉄": 10271,
      "##芥": 10272,
      "##児": 10273,
      "##携": 10274,
      "##閨": 10275,
      "##": 10276,
      "##擲": 10277,
      "th": 10278,
      "the": 10279,
      "##er": 10280,
      "##in": 10281,
      "##ed": 10282,
      "##nd": 10283,
      "##ou": 10284,
      "##at": 10285,
      "##ing": 10286,
      "to": 10287,
      "##en": 10288,
      "##or": 10289,
      "##on": 10290,
      "##es": 10291,
      "and": 10292,
      "##ar": 10293,
      "##is": 10294,
      "##an": 10295,
      "##ll": 10296,
      "##as": 10297,
      "of": 10298,
      "##it": 10299,
      "in": 10300,
      "##re": 10301,
      "he": 10302,
      "##om": 10303,
      "be": 10304,
      "you": 10305,
      "sh": 10306,
      "ha": 10307,
      "##ow": 10308,
      "##le": 10309,
      "wh": 10310,
      "##ut": 10311,
      "##ot": 10312,
      "##ic": 10313,
      "##id": 10314,
      "it": 10315,
      "##et": 10316,
      "##ac": 10317,
      "##ld": 10318,
      "was": 10319,
      "on": 10320,
      "##al": 10321,
      "##gh": 10322,
      "##ve": 10323,
      "that": 10324,
      "st": 10325,
      "##ly": 10326,
      "her": 10327,
      "##st": 10328,
      "##ay": 10329,
      "re": 10330,
      "##im": 10331,
      "##ion": 10332,
      "##ent": 10333,
      "##se": 10334,
      "as": 10335,
      "for": 10336,
      "##ur": 10337,
      "his": 10338,
      "##ir": 10339,
      "##ith": 10340,
      "she": 10341,
      "##ad": 10342,
      "##ver": 10343,
      "with": 10344,
      "##oo": 10345,
      ".\"": 10346,
      "an": 10347,
      "##ght": 10348,
      "we": 10349,
      "##am": 10350,
      "is": 10351,
      "##ould": 10352,
      "##ch": 10353,
      "me": 10354,
      "at": 10355,
      "fr": 10356,
      "li": 10357,
      "##ke": 10358,
      "##th": 10359,
      "se": 10360,
      "##ter": 10361,
      "##all": 10362,
      "my": 10363,
      "##ro": 10364,
      "had": 10365,
      "##ce": 10366,
      "not": 10367,
      "ch": 10368,
      "but": 10369,
      "##ill": 10370,
      "do": 10371,
      "##ct": 10372,
      "##il": 10373,
      "##ess": 10374,
      "ne": 10375,
      "##pp": 10376,
      "##ain": 10377,
      "##ere": 10378,
      "they": 10379,
      "##ri": 10380,
      "so": 10381,
      "sa": 10382,
      "him": 10383,
      "##el": 10384,
      "##ight": 10385,
      "this": 10386,
      "##ked": 10387,
      "##ome": 10388,
      "su": 10389,
      "##ant": 10390,
      "##est": 10391,
      "have": 10392,
      "de": 10393,
      "##ack": 10394,
      "from": 10395,
      "go": 10396,
      "##us": 10397,
      "##ore": 10398,
      "##ust": 10399,
      "what": 10400,
      "all": 10401,
      "up": 10402,
      "out": 10403,
      "con": 10404,
      "##rou": 10405,
      "##ers": 10406,
      "al": 10407,
      "ab": 10408,
      "kn": 10409,
      "##ie": 10410,
      "##ge": 10411,
      "##ra": 10412,
      "?\"": 10413,
      "##ation": 10414,
      "##ard": 10415,
      "le": 10416,
      "no": 10417,
      "##ul": 10418,
      "or": 10419,
      "##out": 10420,
      "##un": 10421,
      "##her": 10422,
      "ex": 10423,
      "are": 10424,
      ",\"": 10425,
      "##op": 10426,
      "sp": 10427,
      "##ind": 10428,
      "##king": 10429,
      "##one": 10430,
      "wor": 10431,
      "would": 10432,
      "##um": 10433,
      "int": 10434,
      "said": 10435,
      "##ab": 10436,
      "##os": 10437,
      "were": 10438,
      "one": 10439,
      "there": 10440,
      "##ist": 10441,
      "fe": 10442,
      "##art": 10443,
      "if": 10444,
      "##ol": 10445,
      "##and": 10446,
      "com": 10447,
      "tr": 10448,
      "##ate": 10449,
      "loo": 10450,
      "##ood": 10451,
      "can": 10452,
      "did": 10453,
      "un": 10454,
      "##em": 10455,
      "your": 10456,
      "could": 10457,
      "them": 10458,
      "by": 10459,
      "##ast": 10460,
      "cl": 10461,
      "##own": 10462,
      "en": 10463,
      "##ally": 10464,
      "like": 10465,
      "##ap": 10466,
      "back": 10467,
      "when": 10468,
      "##if": 10469,
      "pl": 10470,
      "pr": 10471,
      "about": 10472,
      "tim": 10473,
      "##ven": 10474,
      "into": 10475,
      "##ace": 10476,
      "man": 10477,
      "##ig": 10478,
      "pro": 10479,
      "just": 10480,
      "##ide": 10481,
      "##ong": 10482,
      "ma": 10483,
      "##ck": 10484,
      "##ive": 10485,
      "their": 10486,
      "ag": 10487,
      "ro": 10488,
      "##..": 10489,
      "will": 10490,
      "who": 10491,
      "##ep": 10492,
      "know": 10493,
      "##hing": 10494,
      "any": 10495,
      "##ous": 10496,
      "mo": 10497,
      "##ect": 10498,
      "some": 10499,
      "##ame": 10500,
      "##au": 10501,
      "then": 10502,
      "bl": 10503,
      "te": 10504,
      "us": 10505,
      "##way": 10506,
      "##lf": 10507,
      "over": 10508,
      "ar": 10509,
      "lo": 10510,
      "##ort": 10511,
      "##ity": 10512,
      "get": 10513,
      "time": 10514,
      "co": 10515,
      "ever": 10516,
      "been": 10517,
      "##our": 10518,
      "sm": 10519,
      "qu": 10520,
      "how": 10521,
      "##ice": 10522,
      "##ach": 10523,
      "##urn": 10524,
      "down": 10525,
      "hand": 10526,
      "off": 10527,
      "ta": 10528,
      "more": 10529,
      "##ine": 10530,
      "bo": 10531,
      "##ry": 10532,
      "now": 10533,
      "too": 10534,
      "...": 10535,
      "af": 10536,
      "want": 10537,
      "oth": 10538,
      "##round": 10539,
      "##ies": 10540,
      "##ment": 10541,
      "tw": 10542,
      "see": 10543,
      "fl": 10544,
      "thou": 10545,
      "##ag": 10546,
      "##ich": 10547,
      "##nder": 10548,
      "sc": 10549,
      "don": 10550,
      "##reat": 10551,
      "##ink": 10552,
      "pe": 10553,
      "br": 10554,
      "##ved": 10555,
      "##ick": 10556,
      "##pl": 10557,
      "##ound": 10558,
      "##ear": 10559,
      "##pt": 10560,
      "##ure": 10561,
      "car": 10562,
      "##ile": 10563,
      "again": 10564,
      "am": 10565,
      "than": 10566,
      "ey": 10567,
      "##ass": 10568,
      "##ull": 10569,
      "##ving": 10570,
      "##fore": 10571,
      "our": 10572,
      "##other": 10573,
      "im": 10574,
      "bec": 10575,
      "##itt": 10576,
      "##ud": 10577,
      "##ip": 10578,
      "##ose": 10579,
      "every": 10580,
      "##ue": 10581,
      "way": 10582,
      "##act": 10583,
      "##self": 10584,
      "only": 10585,
      "even": 10586,
      "##fe": 10587,
      "##ish": 10588,
      "before": 10589,
      "other": 10590,
      "ad": 10591,
      "sl": 10592,
      "##ft": 10593,
      "##ence": 10594,
      "say": 10595,
      "head": 10596,
      "gr": 10597,
      "##ings": 10598,
      "##ble": 10599,
      "didn": 10600,
      "##ire": 10601,
      "cont": 10602,
      "after": 10603,
      "##ated": 10604,
      "##ite": 10605,
      "ac": 10606,
      "##per": 10607,
      "##led": 10608,
      "dis": 10609,
      "##ance": 10610,
      "##able": 10611,
      "##iz": 10612,
      "##ks": 10613,
      "##rough": 10614,
      "##ade": 10615,
      "through": 10616,
      "##ber": 10617,
      "here": 10618,
      "##pped": 10619,
      "po": 10620,
      "need": 10621,
      "right": 10622,
      "##ree": 10623,
      "which": 10624,
      "##ans": 10625,
      "##age": 10626,
      "##omet": 10627,
      "around": 10628,
      "res": 10629,
      "eyes": 10630,
      "##ci": 10631,
      "##ell": 10632,
      "##ward": 10633,
      "##ang": 10634,
      "day": 10635,
      "somet": 10636,
      "##ath": 10637,
      "has": 10638,
      "two": 10639,
      "peop": 10640,
      "fir": 10641,
      "fo": 10642,
      "mar": 10643,
      "##ff": 10644,
      "people": 10645,
      "turn": 10646,
      "##ak": 10647,
      "##wn": 10648,
      "where": 10649,
      "##ves": 10650,
      "good": 10651,
      "##oun": 10652,
      "think": 10653,
      "going": 10654,
      "##ions": 10655,
      "gu": 10656,
      "well": 10657,
      "##qu": 10658,
      "should": 10659,
      "##ause": 10660,
      "mu": 10661,
      "let": 10662,
      "gl": 10663,
      "looked": 10664,
      "jo": 10665,
      "thought": 10666,
      "ll": 10667,
      "wat": 10668,
      "comp": 10669,
      "app": 10670,
      "##oth": 10671,
      "per": 10672,
      "long": 10673,
      "rem": 10674,
      "str": 10675,
      "still": 10676,
      "em": 10677,
      "under": 10678,
      "##ery": 10679,
      "god": 10680,
      "ve": 10681,
      "##ord": 10682,
      "##co": 10683,
      "bet": 10684,
      "wa": 10685,
      "may": 10686,
      "##ia": 10687,
      "##ew": 10688,
      "##iss": 10689,
      "##ather": 10690,
      "##ting": 10691,
      "cr": 10692,
      "##ild": 10693,
      "##thing": 10694,
      "something": 10695,
      "sw": 10696,
      "##ase": 10697,
      "first": 10698,
      "pre": 10699,
      "away": 10700,
      "##ning": 10701,
      "##ious": 10702,
      "##dy": 10703,
      "##ied": 10704,
      "!\"": 10705,
      "##ress": 10706,
      "never": 10707,
      "door": 10708,
      "##ted": 10709,
      "asked": 10710,
      "new": 10711,
      "life": 10712,
      "much": 10713,
      "got": 10714,
      "made": 10715,
      "des": 10716,
      "##ave": 10717,
      "ho": 10718,
      "part": 10719,
      "because": 10720,
      "make": 10721,
      "feel": 10722,
      "##ened": 10723,
      "face": 10724,
      "call": 10725,
      "##ens": 10726,
      "spe": 10727,
      "##ah": 10728,
      "##ough": 10729,
      "hel": 10730,
      "op": 10731,
      "come": 10732,
      "##gg": 10733,
      "##igh": 10734,
      "ke": 10735,
      "why": 10736,
      "bel": 10737,
      "##te": 10738,
      "##orm": 10739,
      "take": 10740,
      "##ady": 10741,
      "happ": 10742,
      "##ered": 10743,
      "wal": 10744,
      "##are": 10745,
      "look": 10746,
      "##iv": 10747,
      "##ittle": 10748,
      "year": 10749,
      "little": 10750,
      "act": 10751,
      "room": 10752,
      "##air": 10753,
      "ph": 10754,
      "##ched": 10755,
      "##so": 10756,
      "tell": 10757,
      "##ise": 10758,
      "##ily": 10759,
      "ear": 10760,
      "##ss": 10761,
      "**": 10762,
      "very": 10763,
      "start": 10764,
      "##ents": 10765,
      "##ty": 10766,
      "sur": 10767,
      "##av": 10768,
      "arm": 10769,
      "while": 10770,
      "##ying": 10771,
      "being": 10772,
      "att": 10773,
      "##ary": 10774,
      "##be": 10775,
      "##ful": 10776,
      "##ried": 10777,
      "mom": 10778,
      "its": 10779,
      "wr": 10780,
      "##ark": 10781,
      "##ook": 10782,
      "inter": 10783,
      "##dd": 10784,
      "real": 10785,
      "##ory": 10786,
      "ins": 10787,
      "el": 10788,
      "those": 10789,
      "##iff": 10790,
      "##uck": 10791,
      "these": 10792,
      "help": 10793,
      "own": 10794,
      "took": 10795,
      "##ness": 10796,
      "##ical": 10797,
      "rel": 10798,
      "find": 10799,
      "tal": 10800,
      "seem": 10801,
      "##ph": 10802,
      "##ub": 10803,
      "another": 10804,
      "##ced": 10805,
      "most": 10806,
      "fin": 10807,
      "knew": 10808,
      "dr": 10809,
      "mat": 10810,
      "##tain": 10811,
      "##elt": 10812,
      "imp": 10813,
      "##cl": 10814,
      "sure": 10815,
      "left": 10816,
      "##xt": 10817,
      "ser": 10818,
      "##ign": 10819,
      "few": 10820,
      "##ian": 10821,
      "came": 10822,
      "##ations": 10823,
      "beg": 10824,
      "exp": 10825,
      "word": 10826,
      "ev": 10827,
      "end": 10828,
      "old": 10829,
      "##oss": 10830,
      "work": 10831,
      "##ons": 10832,
      "really": 10833,
      "put": 10834,
      "things": 10835,
      "beh": 10836,
      "##ult": 10837,
      "wom": 10838,
      "also": 10839,
      "##ared": 10840,
      "##get": 10841,
      "turned": 10842,
      "does": 10843,
      "felt": 10844,
      "night": 10845,
      "comm": 10846,
      "##owed": 10847,
      "mind": 10848,
      "##ever": 10849,
      "world": 10850,
      "unt": 10851,
      "pers": 10852,
      "##vel": 10853,
      "many": 10854,
      "war": 10855,
      "vo": 10856,
      "##int": 10857,
      "light": 10858,
      "last": 10859,
      "##ouse": 10860,
      "sk": 10861,
      "la": 10862,
      "##de": 10863,
      "love": 10864,
      "##ail": 10865,
      "gra": 10866,
      "min": 10867,
      "##ys": 10868,
      "##ush": 10869,
      "bu": 10870,
      "sin": 10871,
      "wasn": 10872,
      "##ps": 10873,
      "##ool": 10874,
      "##ower": 10875,
      "cle": 10876,
      "side": 10877,
      "told": 10878,
      "ind": 10879,
      "##ont": 10880,
      "each": 10881,
      "went": 10882,
      "##ru": 10883,
      "##ors": 10884,
      "ret": 10885,
      "##ne": 10886,
      "set": 10887,
      "rep": 10888,
      "##een": 10889,
      "##ways": 10890,
      "##ross": 10891,
      "##iend": 10892,
      "##ating": 10893,
      "ob": 10894,
      "##ible": 10895,
      "##les": 10896,
      "found": 10897,
      "hum": 10898,
      "friend": 10899,
      "both": 10900,
      "place": 10901,
      "##ash": 10902,
      "keep": 10903,
      "wait": 10904,
      "hands": 10905,
      "toward": 10906,
      "yes": 10907,
      "cons": 10908,
      "##og": 10909,
      "belie": 10910,
      "##ition": 10911,
      "pull": 10912,
      "must": 10913,
      "nothing": 10914,
      "might": 10915,
      "##ict": 10916,
      "##cess": 10917,
      "##ual": 10918,
      "inst": 10919,
      "next": 10920,
      "##ple": 10921,
      ".'": 10922,
      "same": 10923,
      "home": 10924,
      "##ib": 10925,
      "par": 10926,
      "dec": 10927,
      "diff": 10928,
      "##ling": 10929,
      "sat": 10930,
      "##ually": 10931,
      "great": 10932,
      "cor": 10933,
      "body": 10934,
      "years": 10935,
      "che": 10936,
      "against": 10937,
      "ste": 10938,
      "saw": 10939,
      "anything": 10940,
      "##ange": 10941,
      "ass": 10942,
      "foll": 10943,
      "far": 10944,
      "without": 10945,
      "wanted": 10946,
      "##iver": 10947,
      "##mo": 10948,
      "##ial": 10949,
      "##ream": 10950,
      "enough": 10951,
      "hard": 10952,
      "thing": 10953,
      "pass": 10954,
      "once": 10955,
      "though": 10956,
      "##ned": 10957,
      "##ner": 10958,
      "behind": 10959,
      "always": 10960,
      "person": 10961,
      "##ction": 10962,
      "fam": 10963,
      "until": 10964,
      "men": 10965,
      "##ces": 10966,
      "high": 10967,
      "such": 10968,
      "house": 10969,
      "gi": 10970,
      "##na": 10971,
      "looking": 10972,
      "small": 10973,
      "##az": 10974,
      "open": 10975,
      "gir": 10976,
      "bre": 10977,
      "three": 10978,
      "##ently": 10979,
      "voice": 10980,
      "coun": 10981,
      "inf": 10982,
      "child": 10983,
      "ple": 10984,
      "rest": 10985,
      "##red": 10986,
      "##cept": 10987,
      "##ised": 10988,
      "gre": 10989,
      "##aring": 10990,
      "##owing": 10991,
      "met": 10992,
[...]
